#version: 0.2
Ġ Ð
Ð ¾
Ð µ
Ð °
Ñ Ĥ
Ð ¸
Ð¾ Ð
Ñ ģ
č Ċ
Ñ Ģ
Ð ½
Ð »
Ñ ĥ
Ðµ Ð
Ð° Ð
Ñ ĭ
Ñ Į
Ñ ı
Ġ Ñģ
ĠÐ ¿
Ð º
ĠÐ ²
Ð ²
Ð ´
ĠÐ ½
Ñ ĩ
Ð ¼
Ñ ħ
Ñģ ÑĤ
Ñ Ī
Ðµ Ð½
Ñ İ
Ġ ÑĤ
ĠÐ ¾
Ð¾Ð ¹
Ðµ ÑĤ
Ð° Ð»
Ð¾Ð »
ĠÐ ´
ĠÐ ¸
Ð¾Ð ²
ĠÐ ±
ĠÐ ¼
Ðµ ÑĢ
ĠÐ º
Ð½ Ñĭ
â Ģ
Ð ¹
Ð¾ ÑĢ
Ðµ Ð»
Ñĥ Ð
Ð¸ ÑĤ
Ð¾Ð ´
Ð¾Ð ¼
Ð¸ Ð»
Ð Ŀ
ĠÐ ·
Ð ĺ
ÐµÐ ¼
Ġ ÑĢ
ĠÐ ³
Ð° ÑĤ
ĠÐ¿ ÑĢ
Ð Ł
Ð Ĵ
Ð ·
Ð°Ð º
Ð¾Ð ³
Ð½ Ð¾
Ð ¡
Ð ±
Ñģ Ñı
Ð ¿
Ñ Ĩ
Ð¾ ÑĤ
Ð°Ð ¼
Ð ³
ĠÐ »
ÐµÐ ´
Ð°Ð ²
Ð° Ð½
âĢ Ķ
Ð¾ Ñģ
Ð° Ñģ
Ð° ÑĢ
ÑĤ Ð¾
ÐµÐ ¹
ĠÐ½ Ðµ
Ñ ī
Ð½ Ð¸
Ġ Ñĩ
Ð°Ð ´
Ðµ Ñģ
Ð ŀ
Ð°Ð ·
Ð¸ Ð½
Ð¾Ð ½
Ð ļ
ĠÑģ ÑĤ
Ðº Ð¸
Ġ âĢĶ
ĠÐ½ Ð°
Ð¾Ð ±
Ð ¢
Ñĥ Ð´
Ð¾Ð º
Ð¸ Ð²
Ð½Ñĭ Ð¹
ĠÐ ¶
Ð½ Ð°
Ñĥ ÑĤ
ÐµÐ ²
Ð¾Ð ·
Ñ ĳ
Ð¸ Ð¼
ÐµÐ ±
Ð°ÑĤ ÑĮ
Ðµ ÑģÑĤ
ĠÐ µ
Ð Ķ
Ð» Ð¸
Ġ Ñĥ
Ð¾Ð ¶
ÐµÐ ·
Ð ¶
Ð¾ ÑģÑĤ
Ñı ÑĤ
Ð¾ Ñĩ
Ðº Ð°
Ð½ Ð¾Ð¹
ÐµÐ ³
ÐµÐ½ ÑĮ
Ġ Ñı
Ðµ Ñĩ
ÑĥÐ ¶
ÑĥÐ ³
ĠÑģ Ð²
âĢ ¦
Ñģ ÑĮ
ĠÐ¾ ÑĤ
Ð½ Ñĥ
ĠÐ± Ñĭ
Ð¸ Ñħ
ÐŁ ÑĢ
Â «
Ð» Ð°
ĠÐº ÑĢ
Â »
Ð §
Ñĥ ÑĪ
ĠÑģ Ð»
ÐµÐ º
Ð° Ñı
Ð¾Ð³ Ð¾
Ġ Ñħ
Ð» Ñı
Ð ľ
Ð¾Ð» ÑĮ
Ð½ Ðµ
Ð ĳ
ÐµÐ ¶
Ñĭ Ð¹
Ð¸ÑĤ ÑĮ
Ð¸ ÑĢ
Ð Ĺ
Ð°Ð ¶
Ð¸ Ð´
ÐĿ Ðµ
Ð £
ĠÐ² Ñģ
Ð Ĳ
ÐµÐ ¿
ĠÐ¾ Ð±
Ð¸ Ðº
Ð°Ð ¹
Ð¾Ð ¿
Ð¸ Ð¹
ÑģÑĤ Ð²
Ð½Ñĭ Ñħ
Ðº Ð¾
Ð ĵ
Ð°Ð» Ð¸
Ð°Ð ±
Ð°Ð ³
ÐµÐ» ÑĮ
ÑĢ Ð°
Ðµ ÑĪ
ĠÐ³ ÑĢ
Ñĥ Ð¼
ĠÐ¿ Ð¾Ð´
Ñĥ Ñĩ
âĢ ĵ
ĠÐ¿ Ð¾
Ñģ Ðº
ĠÐ² Ñĭ
Ð´ Ð°
Ð³ Ð¾
ĠÐ¾ Ð½
Ġ ÑĪ
ĠÐº Ð°Ðº
ĠÐ ¡
ĠÐ¸ Ð·
ĠÑĩ ÑĤÐ¾
ÑĥÐ ±
ÑĮ Ñı
Ð° Ñħ
ĠÐ Ŀ
Ð½Ñĭ Ðµ
ĠÑģ Ðº
ÐĿ Ð°
ÑĥÐ ¿
Ð° ÐµÑĤ
ÑĢ ÑĥÐ³
Ð¾ Ñİ
Ð¸ ÑĪ
ĠÑĤ Ñĭ
ĠÑĢ Ð°Ð·
Ð°Ð¼ Ð¸
ĠÐ¿ Ð¾Ð»
Ð½ Ñı
Ð ¯
Ð ł
Ðº Ñĥ
Ð°Ð» Ð°
Ð° ÑģÑĤ
Ðļ Ð°Ðº
Ġ Ñ
Ñĭ Ñħ
ĠÐ» Ñİ
ĠÑĤ ÑĢ
ĠÐ Ĵ
Ð¸Ð» Ð¸
Ð°Ð ¿
Ð§ ÑĤÐ¾
Ð½Ñĭ Ð¼
Â ł
Ð ķ
ÐĿ Ð¾
Ð´ Ðµ
Ð¸ Ñĩ
ĠÐ ¢
Ð¸ Ð·
ĠÐ· Ð°
Ð Ľ
Ð¸ Ðµ
Ðŀ ÑĤ
ĠÐ³ Ð¾ÑĢ
Ñİ ÑĤ
ÐµÐ³ Ð¾
ĠÑģ Ð¼
Ð² Ð¾
ĠÑģ Ð¿
ĠÑ į
Ñĭ Ðµ
ĠÐ Ł
Ġ âĢĵ
Ðµ Ñħ
ĠÐ» Ð¸
Ñĥ Ñħ
Ð°Ñģ ÑĮ
Ð½Ð° Ñı
ÑĨ Ð°
Ð» Ð¾
Ñĭ Ð¼
ĠÐ± ÐµÐ·
! Â»
Ġ ÑĨ
Ñģ ÐºÐ¸
ĠÑĤ Ð°Ðº
Ðµ ÑĨ
Ñĥ Ñİ
ÐµÑĢ ÑĤ
ÑĮ Ñİ
ĠÐ² Ð·
Ð¸Ð» Ð°
ÐĴ Ñģ
Ñĥ ÑģÑĤ
ĠÐ¿ ÐµÑĢ
ĠÐ¿ Ð»
ĠÐ² Ð¾Ð·
ĠÐ³ Ð»
Ð½ ÐµÐ¹
Ñĥ ÑĢ
Ð½ Ð¾Ð³Ð¾
ĠÐ¼ Ð¾Ð»
ĠÐ¾ Ð´
ĠÐ °
ĠÐ ĳ
ĠÐ Ĳ
ĠÑģÑĤ ÑĢ
Ñĭ Ð²
Ðŀ Ð½
Ð¾Ñģ Ð»
ĠÐ¿ÑĢ Ð¸
Ð¾Ð³ Ð´Ð°
ĠÐµ Ð³Ð¾
ĠÐ± Ð»
Ð°Ð» ÑĮ
ĠÐ ŀ
ÐµÐ» Ð¸
Ñģ Ð»
Ð¸ Ñı
Ð¾ ÑĪ
Ð² Ð¾ÑĢ
Ñĭ ÑĪ
ÑĮ Ðµ
Ð½Ð¸ Ðº
ÑıÑĤ ÑĮ
Ðº Ð¾Ð¹
. .
ĠÐ¼ Ð¾
ĠÐ¼ Ñĭ
ĠÐ± ÑĢ
ÐµÑĢ Ð´
Ð¸ ÑģÑĤ
ĠÐ Ķ
ĠÐ»Ñİ Ð±
Ð¾Ð¼ Ñĥ
Ð¸ÑĪ ÑĮ
ĠÐ½ Ð°Ð´
ĠÐ ĵ
Ð¡ ÑĤ
ĠÐ¿ Ð¾Ðº
ĠÐ¸ Ñħ
Ð¸Ð» ÑģÑı
ÑĥÑĤ ÑĮ
ĠÑģÐ² Ð¾
ĠÐ ľ
ĠÐ¼ Ð½Ðµ
ÑĥÐ ·
Ñĳ Ð½
Ñĭ Ð»
ÑģÑĤ ÑĢ
ĠÐ¶ Ðµ
Ð° ÑĪ
ÐŁ Ð¾Ð´
Ð¾Ñģ Ð¿
ĠÐ´ ÑĢ
ĠÐ ļ
Ð¾Ð± ÑĢ
ÐµÐ½ÑĮ Ðµ
ĠÐ½Ð° ÑĪ
Ð½ Ð¾Ð²
Ð² Ð°
Ð½Ð¾ Ðµ
ÑĢ Ð°Ð²
ĠÐ½ Ð¸
ĠÑģÑĤ Ð°ÑĢ
ĠÐ¿ Ð¾ÑĢ
Ð¸ÑĤ ÑģÑı
Ð¾ Ñħ
Ð¢ Ð°Ðº
ĠÐ½ Ð°Ñģ
ĠÐ² ÑĢ
Ñĥ Ñī
ĠÑĢ Ð°Ñģ
Ð² ÐµÑĤ
ÐµÑĪ ÑĮ
ĠÐ± ÑĥÐ´
Ð² ÐµÑĢ
Ð» Ð°Ð´
ĠÑį ÑĤ
Ñĭ ÑĤ
ÐµÐ½ Ñı
ĠÑĢ Ñĥ
Ðº ÑĢ
Ð½Ñĥ Ð»
Ðµ Ñī
ÐµÐ½ Ð½ÑĭÐ¹
ĠÐ´ Ð¾Ð»
Ġ ÑĥÐ¶
Ñ Ħ
ĠÐ² Ð¸Ð´
ÑģÑĤ ÑĮ
ÐµÑģ ÑĮ
ĠÐ¿ÑĢ ÐµÐ´
Ð» Ñİ
ÐµÐ» Ð°
ÐµÐ± Ðµ
ÐµÐ½ÑĮ Ñı
ĠÐ³ Ð¾Ð»
ÐĶ Ð°
ĠÐ±Ñĭ Ð»
ĠÐ² ÐµÑĢ
ÐµÐ± ÐµÑģ
Ð¾Ð² Ð¾ÑĢ
ÐµÐ± Ñı
Ð¸Ð½ Ñĥ
ÑĨ Ðµ
ĠÐ Ĺ
Ð¾Ñģ ÑĮ
ĠÐ² Ð¾Ð»
Ð¸ Ð³
Ð¸ÑĤ ÐµÐ»ÑĮ
ÐŁ Ð¾
Ð ¥
Ð½Ñĥ Ñİ
Ñī Ðµ
ĠÑģ Ð°Ð¼
ĠÐ½ Ð¾
Ðĺ Ð·
ĠÐ²Ñģ Ðµ
Ð» Ð¸Ð²
Ðº Ðµ
Ð¢ Ñĭ
Ñı Ð´
ĠÐ½ ÐµÑĤ
ĠÐº Ð¾Ð½
Ð¾Ð»ÑĮ ÐºÐ¾
Ð¾ Ðµ
Ð¸ ÑģÑĮ
ĠÐ´ ÑĢÑĥÐ³
ĠÑĢ Ð¾Ð´
ĠÑĥ Ð¼
ĠÐ ł
Ð° Ñİ
ĠÑģÑĤ ÑĢÐ°
ĠÑģÐ² ÐµÑĤ
Ġ Â«
Ð°Ð» ÑģÑı
! ..
ĠÐ´ ÑĥÑĪ
Ð¼ Ñĥ
ĠÐ ķ
Ð»Ñı Ð´
ÑĥÐ´ ÑĮ
ĠÑģ ÐµÑĢÐ´
ÑĨ Ñĭ
ĠÐ¼ Ð¸ÑĢ
ĠÐ½ ÐµÐ¼
ĠÐ¿ Ð¾Ð¼
ĠÐ¾ Ð¿
Ð°Ð¶ Ð´
ĠÐ½ Ð¾Ñĩ
ÐµÑĢ ÑĮ
ÑĤ Ð¾Ð±
ÐµÑĤ ÑĮ
Ð¸ Ñģ
Ð½ Ð¾Ð¼
ÐĹ Ð°
ĠÐ½ Ð¸Ð¼
ĠÐ· Ð²
ÑĥÐ´ Ð°
ĠÐ² Ð¾
ÐµÑĤ ÑģÑı
ÑĪ Ðµ
Ð°Ð» Ð¾
Ñĳ ÑĤ
Ñı ÑģÑĮ
ĠÐ¼ Ð¾Ð³
Ð° ÑİÑĤ
Ð» ÑĮ
ÐµÐ½ Ð¸
Ð¡ Ðº
ĠÑģ Ð¸Ð»
ĠÐ· ÐµÐ¼
ÐºÐ¸ Ð¹
Ð´ Ñĥ
ĠÐ¸ Ð¼
Ð¾Ð· Ð´
Ñģ Ð¿
Ñħ Ð¾Ð´
ĠÑĤ Ð¾
ÐµÐ» Ð¾Ð²
ÑĢ ÐµÐ´
Ñĩ Ð°ÑģÑĤ
ĠÑģÐ» Ð¾Ð²
Ġ ÑĥÑĤ
Ðº Ð¾Ð²
Ð¸Ð½ Ð°
Ð ĸ
Ð°Ð· Ð°Ð»
Ð» ÐµÐ½
Ð¾ÑģÐ¿ Ð¾Ð´
ĠÐ¿ Ð¾ÑĤ
ĠÐ² Ð´
ĠÐ»Ñİ Ð´
ĠÐ´ ÐµÑĢ
ĠÐ½ Ð°Ð¼
ĠÐ¿ Ð¾Ð²
ĠÐ ĺ
Ñı Ñī
Ð² Ð¸
ĠÐ¼ ÐµÐ½Ñı
ÐµÐ¿ ÐµÑĢÑĮ
ÐµÐ» Ð¾
ĠÐ¿ÑĢ Ð°Ð²
Ñı Ð½
ÑĢ Ð°Ð½
Ñı Ð»
Ð¸ Ð±
Ð¼ Ð¸
ĠÐ· Ð½
Ðļ ÑĢ
ÐµÑģÑĤ Ð²
ĠÐ´ Ð¾
Ð¾ÑģÑĤ Ð¸
ÑĢ Ð°ÑĤ
Ðŀ Ð±
Ñĩ Ð¸
ĠÐ¼ ÑĥÐ¶
Ð¾ÑĤ Ð¾ÑĢ
ĠÐ» ÐµÑĤ
Ð¡ Ð»
Ð» Ð¾Ð½
Ñı Ð·
ĠÐ±Ð» Ð°Ð³
ĠÐ¾ Ð³
Ñĭ Ð½
ĠÑĤ ÐµÐ¼
ĠÐ¾ Ð½Ð°
Ð½Ð¾ Ñİ
Ñ Ĭ
Ñĥ Ñģ
ĠÐ± ÐµÐ´
ĠÐ½ ÐµÐ¹
ĠÐ³ Ð´Ðµ
ĠÑĤ Ð²Ð¾
ĠÐµ Ð¹
ĠÐ¶ Ð¸Ð²
Ðĵ Ð´Ðµ
ĠÐ± ÐµÑģ
Ð°Ð½ ÑĮÐµ
Ð½Ð¸ Ð¼
ĠÐ¾ Ñģ
ÐµÐ¼ Ñĥ
ĠÐ¼ Ð¾Ð¹
Ð² Ð¾Ð¹
Ð¸ Ð½Ñĭ
ĠÐ¿ Ð¾ÑģÐ»
ĠÐ¶ Ð¸Ð·
Ðº Ð¾Ð¼
ĠÐ¼ Ð¾ÑĢ
ÑĢ Ð¸
ĠÑĨ Ð°ÑĢ
ĠÑģ Ð¾Ð±
ĠÐ· Ð°Ð±
Ð¾Ð» Ð½
ĠÑģÐ» Ð°Ð²
Ð¸Ð»Ð¸ ÑģÑĮ
ĠÐ± Ð¾Ð»ÑĮ
Ð°Ð½ Ð°
Ðŀ Ð´
ĠÐ §
ÑĢ Ñı
ÑģÑĤ Ð¸
ĠÐ´ Ð»Ñı
Ðķ Ð³Ð¾
ĠÐ² Ð¿
? Â»
Ñģ Ð»Ð¸
Ñĥ Ð»
ĠÐ· Ð»
" âĢĶ
ĠÐĳ Ð¾Ð³
Ð¾Ð¶ Ð´
ÐĴÑģ Ðµ
Ð´ ÐµÑĤ
ĠÐ¼ Ð¸Ð»
ĠÐµ Ðµ
Ġ ÑĥÐ´
Ð¸Ð» Ð°ÑģÑĮ
Ð¡ Ð¿
ĠÐ½ Ð°ÑĢ
ĠÐº Ð¾Ð»
Ð°Ð² Ð½Ð¾
ĠÐºÑĢ Ð°Ñģ
ÑģÐºÐ¸ Ð¹
ĠÐ Ľ
ÑĤ Ð¸
ÐµÐ½ Ð°
ĠÐµ Ð¼Ñĥ
ĠÐ¿ Ð¾Ð³
Ð¾Ð² ÑĮ
ÑģÑĤÐ² Ð¾
ÑĢ Ð°Ñģ
ÑģÑĤ Ð°Ð²
ÐŁ Ð¾Ðº
ĠÑĤ Ð°Ð¼
Ð¸Ð½ Ðµ
ĠÐ´ Ð°
ĠÐ± Ð¾Ð³
ĠÐ¼ Ð¾Ð¶
Ð¸ÑĤ Ðµ
Ð¾ÑĤ ÑĮ
Â» .
Ð¾ÑģÑĤ ÑĮ
Ð» Ðµ
Ð½ ÑĮ
ĠÐ» ÐµÑģ
ĠÐ¿ ÐµÑģ
ÐµÐ½ Ñĭ
ÐµÑĢ ÐµÐ´
ÑĨ Ñĥ
ĠÐĿ ÐµÐ±ÐµÑģ
ÑĢ Ð¾Ð¼
ÐĿ Ð°Ð´
ĠÑģ Ð¾
ÐµÐ½ Ð½Ð¾Ð¹
ĠÐ¿ÑĢ Ð¾
ĠÐ¿ Ð¾Ñģ
ĠÐ½ ÐµÐ²
Ð°Ð½ ÑĮÑı
ĠÐ² Ð¾Ð¹
Ñĭ Ð±
ÑĪ Ð¸Ð¹
ĠÐ´ ÑĥÐ¼
Ð£ Ð¶
Ñİ Ð±
ĠÐ² Ð¾Ð´
ĠÐ½ ÐµÐ´
Ð¡ Ð¼
ĠÐ¼Ð¾Ð» Ð¾Ð´
Ð¾ÑĢ Ð¾Ð½
ĠÐ· Ð°Ð¿
Ð¾Ð» Ð¾ÑĤ
ÐĴ Ð¾ÑĤ
Ðļ Ð¾Ð³Ð´Ð°
Ð½Ð¸ Ð¹
ĠÐ¾ Ð½Ð¸
Ð°ÑĤÑĮ ÑģÑı
ĠÐ´ Ð¾Ð¼
ĠÐ´ ÐµÐ½ÑĮ
ÑĥÑĪ ÐºÐ°
ĠÐ² ÐµÑĩ
ÐµÐ»Ð¾Ð² ÐµÐº
ĠÐ· Ð°Ðº
ĠÐŁ ÑĢ
ÑĤ ÑĮ
ĠÐ± Ð°ÑĢ
ĠÐ· Ð°Ð²
Ġ ÑĥÐ³
ĠÑģ Ð½
ĠÐ¿ ÐµÑĩ
ĠÐ¿ Ð¾Ð¿
ĠÐ´ Ð¾ÑĢ
ĠÐ³Ð¾Ð» Ð¾Ð²
Ñĥ Ðº
ĠÑĤ ÐµÐ±Ñı
Ð½Ñı Ð·
Ð Ń
Ð´ ÐµÑģÑĮ
ĠÐ¿ÑĢ Ð¾ÑģÑĤ
ĠÐ» ÑĮ
ĠÐ±Ñĭ Ð»Ð¾
ÑĤ Ðµ
ÑĢ Ð°Ð´
ÐµÐ½ Ð½Ð¾
ĠÐ´ ÐµÐ²
ĠÑĢ Ð°Ð´
ĠÐ²Ñĭ Ñģ
ĠÐ½ Ð¾Ð²
ĠÐ· Ð°Ð¼
ĠÑģ Ð¾Ð²
ĠÐ¿ ÑĥÑģÑĤ
Ðĳ ÐµÐ·
Ð» ÐµÑĤ
ĠÐ½ Ð°Ð²
ĠÐ³ Ð¾Ð²Ð¾ÑĢ
ÐµÑģÑĤ ÑĮ
Ðł Ð°Ð·
ĠÑĤ ÐµÐ±Ðµ
Ð¸ÑĤÑĮ ÑģÑı
ĠÐ³Ð» Ð°Ð·
ĠÐ²ÑĢ ÐµÐ¼
ĠÐ ¯
Ñı Ð¶
Ð°Ð½ ÑĮ
ÐµÑĩ ÑĮ
ÑĢ Ð¾Ñģ
Ð² Ñĭ
Ġ ÑĥÐ¿
ĠÐ¿ Ð¾ÑģÑĤ
Ð² Ð°Ð»
Ð¾Ð´ Ð°
ĠÐ· Ð½Ð°
ĠÐº Ð¾ÑĢ
Ñĳ Ð¼
ÑĢÐ° Ñĩ
ĠÐ² ÐµÑĤ
ĠÐ± ÐµÑĢ
ÐµÑģÑĤ ÑĮÑı
ĠÐ² ÐµÐ»
ĠÐ½ Ð°Ð¿
ĠÐ¿ÑĢ Ð¸Ð²
ĠÐ» ÑĥÑĩ
ÐĿ Ð¸
ĠÑĩ ÐµÑĢ
ĠÑħ Ð¾Ð»
ĠÐ¾Ð± ÑĢ
Ð°ÐµÑĤ ÑģÑı
ĠÐ² Ð¾ÑĤ
ĠÑĤ Ð¾Ð»ÑĮÐºÐ¾
Ðľ Ñĭ
Ñĥ Ð²
ÑģÑĤ ÑĥÐ¿
ÑģÐº Ð¾Ð¹
Ð ¨
Ð¾ Ñī
ÑĢ Ð°Ð³
ĠÐ´ Ð¾Ð±ÑĢ
ĠÑģ ÑĩÐ°ÑģÑĤ
ÑĥÐ¶ Ð´
ĠÐ²Ð· Ð¾ÑĢ
ĠÐĳ Ð¾Ð¶
ÑģÑĤÐ² Ð°
ĠÑģÐ¼ ÐµÑĢÑĤ
ĠÐŀ Ð½
ĠÐ¼ ÐµÑĩ
ĠÑĩ Ð°Ñģ
Ð½ ÐµÐ²
Ð½ ÑĥÑĤÑĮ
ĠÐ² ÐµÑģ
Ð¾ÑĤ Ð¾Ð²
ĠÑĩ ÐµÐ¼
ÐºÐ° Ñı
ĠÐ±Ñĭ ÑĤÑĮ
Ð°Ð»Ð¸ ÑģÑĮ
ĠÐ¼Ð¾Ð¶ ÐµÑĤ
Ð½ Ñİ
ĠÐ¿ Ð¾Ð±
ĠÐ¿ Ð¾Ñĩ
ĠÑĤ ÐµÐ¿ÐµÑĢÑĮ
ÐµÑĢ Ðº
ĠÐº ÑĤÐ¾
Ð»Ð¸ ÑģÑĮ
Ð² Ð¸Ð´
Ðµ Ñı
Ð¸ Ñī
Ð¸Ð» ÑĮ
Ð¢ Ð¾
ĠÑĤÑĢ ÑĥÐ´
ĠÐĲ Ð´
! "
ĠÐ½ ÐµÐ±
Ðļ ÑĤÐ¾
ÐĴ Ñĭ
ĠÐ½ ÐµÐ¿
ĠÑĢ Ð°Ð±
ÐŁÑĢ ÐµÐ´
ĠÑģÑĤÑĢ Ð°Ð½
ĠÑģ Ð¾Ð½
ĠÑģ ÑĤÐ¾
ĠÐ½ Ð¸Ñħ
ĠÑĩ ÑĤÐ¾Ð±
ĠÐ¶ ÐµÐ½
Ð¾Ð´ Ñĭ
ĠÐ±ÑĥÐ´ ÐµÑĤ
Ñı Ð¼
ĠÑĤ ÑĥÑĤ
Ð§ ÑĤÐ¾Ð±
Ðĳ Ð»
ĠÑģÐµÑĢÐ´ ÑĨÐµ
ĠÑģ Ñĭ
Ð³ ÑĢ
Ð¾Ñĩ ÑĮ
? ..
ĠÐ¿ Ð°ÑĢ
ĠÐĹ ÐµÐ¼
Ġ ÑĥÐ·
Ð» Ð°Ñģ
Ñĥ Ð¹
ĠÐº Ð¾ÑĤÐ¾ÑĢ
Ð¾Ð´ Ð¸ÑĤ
Ð¾ÑĤ ÑĢ
ĠÑ Ħ
ĠÑģÐº Ð¾ÑĢ
Ð½ ÐµÑĤ
Ð½ Ð³
Ñĭ Ð»Ð°
ÑĪ Ð¸ÑģÑĮ
ĠÐ¸ ÑģÐº
ĠÐº Ð°ÑĢ
Ðŀ Ð½Ð°
ĠÐ²Ñģ Ñĳ
ĠÐ²Ñģ ÐµÑħ
ĠÑį ÑĤÐ¾
ĠÐ´ÐµÑĢ ÐµÐ²
Ð¸ Ð¿
Ñĥ ÐµÑĤ
ĠÐ² ÐµÐ´
ĠÑĤ Ð¾Ð¼
ĠÑĤ Ð¸Ñħ
Ð°Ð» Ð°ÑģÑĮ
ĠÐ²Ð´ ÑĢÑĥÐ³
Ð½ ÐµÐ¼
ĠÐ¿ ÑĥÑĤÑĮ
ĠÐ½ Ð°Ðº
Ñĩ Ðµ
ÑĪ Ð¸Ñħ
Ġ ÑĥÐ±
ĠÑĤ Ð¾Ð»
ĠÐ³ Ð»ÑıÐ´
ĠÐ¶ ÐµÐ»
ĠÐ¿ÐµÑĢ Ð²
ĠÐĵ Ð¾ÑģÐ¿Ð¾Ð´
ĠÐ´ Ð²
Ð½Ð¾ ÑģÑĤÑĮ
ĠÐ» ÐµÐ³
Ð½Ñĥ Ð²
ĠÑģÐ» ÐµÐ·
, -
ĠÐ½ Ð¾Ð³
ÐµÑĢ Ð¿
ĠÐ½Ð° Ñĩ
ĠÐµ ÑīÐµ
ĠÐ²Ð¾Ð· Ð´
ĠÐ £
ĠÑĤ Ð¾ÑĤ
ĠÐ´ ÐµÑĤ
ĠÐ¸ ÑģÐ¿
Ð½Ð¸ ÐºÐ¸
ĠÐ³ÑĢ Ð¾Ð·
ĠÑĪ ÑĥÐ¼
ĠÑģÐ²Ð¾ ÐµÐ¹
ÐµÑĢ Ð¶
ĠÑģÑĤÑĢÐ° ÑĪ
Ñĥ Ð½
ĠÐ· Ð¾Ð»Ð¾ÑĤ
ĠÐ±Ñĭ Ð»Ð°
ÐºÐ¾ Ñİ
ĠÐ³Ð» ÑĥÐ±
ĠÐ¿ Ð¾Ð½
ĠÐ¾ ÑģÑĤ
Ð°Ð¶ ÐµÐ½
ÐĽ ÑİÐ±
ÑĤ Ð¾ÑĢ
ĠÐ² Ð°Ñģ
ĠÑĩ ÑĥÐ´
ĠÐ ¥
Ð¸ Ð¸
ÑĢ ÐµÐ¼
Ð¡ Ð²
Ð¾ÑĤ Ð¸Ð²
Ġ -
Ġ Ñī
ĠÐ² Ð°Ð¼
ĠÐ½Ðµ Ñģ
âĢ¦ Â»
ÑģÐºÐ¸ Ñħ
ĠÐ´Ð¾ÑĢ Ð¾Ð³
ÑĢ ÐµÐ½
Ð¾Ð² Ð°
ÐĴ Ð¾
ÐµÑģÑĤ Ð¸
ÐĿ ÐµÑĤ
Ð½Ð¾ ÑģÑĤÐ¸
Ð½ Ð¾Ð¼Ñĥ
ĠÐ´ ÐµÐ»
Ð¾Ñģ Ðº
ÐµÐ½ÑĮ ÐµÐ¼
ĠÑģÐ² Ð¾Ð¹
ĠÐºÑĢ ÑĥÐ³
Ð½ÑĭÐ¼ Ð¸
Ðµ Ðµ
Ð° Ñĩ
Ñĩ Ð¸ÑĤ
ĠÐ± Ð¾
Ð¢ Ð°Ð¼
Ð¾Ðº Ð¾Ð¹
ÐĴ Ð·
ĠÐºÑĢ Ð¾Ð²
ÑĥÐ´ÑĮ Ð±
Ð¸ ÑĨ
Ðµ Ñİ
ÑĮ Ð¼
ĠÑģ ÐµÐ¼
ĠÐ¿ Ð¾Ð·
ĠÐ¾ Ñĩ
ĠÐ¼ ÐµÐ¶
ÐµÑĢ ÑĪ
Ð°ÑĤÑĮ Ñı
ĠÐĿ Ð¾
ĠÑģ ÑĢ
ĠÐº Ð°Ð¶Ð´
Ð¾Ð´ Ñĥ
Ð°ÑĤ ÐµÐ»ÑĮ
ÐŁ Ð¾Ð»
Ð ¦
ĠÑĤ Ð²
Ð¾Ð½ ÑĮ
Ñĭ Ñĩ
ĠÑģÐº Ð°Ð·Ð°Ð»
ĠÑĨ Ð²ÐµÑĤ
ÑĢ Ñĭ
ĠÐ² ÑģÑı
Ð°Ð» ÐµÐº
Ð¸Ð» Ð¾
ÐĴ Ð¾Ð·
Ð½Ð¾Ð² ÑĮ
Ð°Ð½ Ð½ÑĭÐ¹
ÑģÐºÐ¸ Ðµ
ĠÐ´ Ð²Ð¾ÑĢ
Ð°Ð± Ñĭ
ĠÐ½ Ð¸Ðº
ĠÐ± Ð»Ð¸
ĠÐº Ð¾Ð³Ð´Ð°
ĠÑĥ ÑģÑĤ
ĠÐ½Ð¾Ñĩ ÑĮ
Ñİ Ð´
ĠÑĤ Ð¾Ð±
ĠÑĥ Ñģ
ÐĴÑģ Ñĳ
ĠÐ¶Ð¸Ð· Ð½Ð¸
Ð» Ð°Ð²
ĠÐ½ Ð¸Ñĩ
ĠÐ± Ð¾Ð¹
ĠÐ· Ð´ÐµÑģÑĮ
Ðĺ Ñħ
Ð°Ð· Ð´
ĠÐ² Ð»Ð°
Ð¾Ð¼ Ð½
ĠÐµ ÑģÐ»Ð¸
Ð½Ð¸Ðº Ð¾Ð²
ÑĢ Ð°Ðº
ĠÑģ Ð¾Ð»
Ð¾Ð² Ð¾Ð¹
ĠÑģÑĤ Ð°Ð½
ĠÐµ ÑģÑĤÑĮ
ÑĢ Ð¾
Ð» Ð°Ðº
ĠÐ² Ð°ÑĪ
ĠÐ· Ð°ÑĤ
ÐŁ Ð¾ÑĤ
ÐµÐ· Ð´
ÐºÐ° Ñħ
ÐµÐ¶ Ð´
Ðĵ ÑĢ
ĠÐ¾Ð´ Ð¸Ð½
Ð¾Ðº Ð¾
ÐŁÑĢ Ð¸
!.. Â»
Ð½ÑıÐ· ÑĮ
ÑĢ ÐµÐ²
ÐµÐ½ Ð¸Ð¹
ĠÐ¾ Ðº
ĠÐº Ð»
Ñĳ Ð»
ĠÐ³Ð¾ÑĢ Ð´
Ñĥ Ñı
Ñĩ ÐµÑĤ
ĠÐ´ Ð¸Ð²
Ð¾Ð² Ð°Ð»
ĠÐ¼ Ð°Ð»
Ð½Ñĥ Ð»Ð°
ĠÐ²Ñģ ÐµÐ¼
ĠÐ¡ Ð°ÑĤ
Ðł Ð°Ñģ
ĠÐ´Ð¾Ð» Ð¶
ĠÐ½ ÐµÐ±ÐµÑģ
ĠÐ¾ ÑĢ
ĠÐµ Ð´
ĠÐ¿ÐµÑĢ ÐµÐ´
Ð¡ÑĤ Ð°ÑĢ
ĠÑģÐ» ÐµÐ´
Ñ į
ÑĤ Ñĭ
ĠÑģ ÑĢÐµÐ´
ÐµÐ½ Ð½ÑĭÑħ
ĠÐ± ÐµÐ»
ÐĴ Ð´
Ð¾ÑĤ Ñĭ
ĠÐ¾ÑĤ Ð²
ĠÐ¼Ð¾Ð» Ñĩ
ĠÐĲ Ð½Ð³
Ð½ ÑĥÑĤ
ĠÐ´ Ð¾ÑģÑĤ
ĠÐ± Ð¾ÑĢ
ĠÐ· Ð°ÑĢ
Ð°ÑĢ ÑĮ
ÑģÑĤÑĢ ÐµÑĩ
ĠÐ² Ð½Ð¾Ð²ÑĮ
Ð² Ðµ
Ð¸Ð» Ð¾ÑģÑĮ
ÐµÐ¶ Ð¸ÑĤ
ĠÐ¢ Ñĭ
Ð²Ð¸ Ð¶
ĠÐ¿ ÑĥÑĤ
ĠÐ¼ ÐµÑģÑĤ
Ðŀ Ð¿
ĠÑģÑĤ Ð¾Ð»
ĠÑģÑĤ Ð¾ÑĢÐ¾Ð½
ĠÑħ Ð¾Ñĩ
Ðľ Ð¾Ð»
Ðĳ ÐµÑģ
Ð°Ñİ Ñī
ĠÐ¾Ð¿ ÑıÑĤÑĮ
Ð¸ ÐºÐ¸
Ñı Ð²
ÑıÑĤ ÑģÑı
ĠÐ±ÑĥÐ´ ÑĤÐ¾
ÑĪ ÑĮ
ĠÐ¼ Ð½
ÐºÐ¾ Ðµ
ĠÐ²Ð· Ð´
ĠÐ¼Ð¾ ÐµÐ¹
Ñİ Ñī
ĠÑģÐ» ÑĭÑĪ
ĠÐ¸Ð· Ð±
Ð¾ÑģÐ» ÐµÐ´
Ð¸ Ð¶
ÑĢ Ð¾Ð²
Ñı Ð³
ĠÑģ Ð¾Ñģ
ĠÐ² Ð¾Ñģ
ÐµÐ½ Ð¾
ÐµÐ½ Ð¸Ñı
ĠÑĤ Ð¾ÑĢ
ĠÐ± ÑĥÑĢ
ĠÐ» Ð¸ÑĪÑĮ
Ðŀ Ð½Ð¸
ĠÐĿ Ðµ
ĠÐ¼Ð¾ Ñı
Ð¾Ð¹ Ð´
ĠÐ· Ð°Ñģ
ÐŁ ÐµÑĢ
ÐµÐº ÑĢÐ°Ñģ
Ðľ Ð½Ðµ
ÑģÐº Ð°Ð·
ÑĭÑĤ ÑĮ
ĠÐ³Ð¾Ð» Ð¾Ñģ
ĠÑĤ ÑıÐ¶
Ð¾ÑĤ Ð°
Ð¾Ð¶ Ðµ
ĠÑħ Ð¾ÑĤ
Ðĵ Ð¾ÑĢ
ĠÐ³ÑĢ Ð¾Ð¼
ĠÐ²Ð¾Ð· Ð²
Ð¾Ð² Ð°ÑĢ
Ð¢ ÐµÐ¿ÐµÑĢÑĮ
ĠÐ§ ÐµÐ»Ð¾Ð²ÐµÐº
ĠÐ±ÐµÑĢ ÐµÐ³
ĠÑģ ÐµÐ±Ðµ
Ðº Ð°Ð¼Ð¸
ĠÐ½ ÐµÐ¶
ĠÐ½ Ð°Ð³
ĠÐ¼ Ð½Ð¾Ð¹
ĠÑĢ ÐµÐ±
ĠÐ¾ÑĤ Ð²ÐµÑĤ
Ð¾Ð»Ð½ ÑĨÐµ
Ġ Ñİ
ÑĢ Ñĥ
ĠÐ¼ ÐµÐ´
ÐĿ Ñĥ
ÐĶ Ð¾
ĠÐĴ Ñģ
ĠÑĢÐ°Ñģ Ð¿
ĠÑįÑĤ Ð¾ÑĤ
ĠÐ¿ÑĢ Ð¸Ð·
Ð°Ð½ Ð¸
ĠÑħ Ð¾ÑĢ
Ð½Ðµ Ðµ
ÑĭÐ² Ð°Ð»
ĠÐ² ÐµÑģÑĮ
ĠÐ¼ Ð½Ð¾Ð³Ð¾
ĠÐ¿ÑĢ ÐµÐ¶
ÐµÑģÑĤ Ð²Ð¾
ĠÐ»ÑİÐ´ ÐµÐ¹
ĠÐ²ÑĢÐµÐ¼ Ñı
Ð½ Ð°Ðº
ĠÑģ ÑĥÐ´ÑĮÐ±
ĠÐ² Ð¾Ð¿
Ð² Ð¾Ð·
ĠÐ¾ÑĤ Ð´
ĠÐ²ÑĢ Ð°Ð³
Ð½ÑĥÐ» ÑģÑı
ĠÐ½Ð°ÑĢ Ð¾Ð´
Ñĭ ÑĢ
Ñı Ñħ
ĠÑģ ÐµÐ´
Ð¼ ÐµÐ½
Ð½Ð° Ñĩ
ĠÑħ Ð»
ĠÐ±ÑĢ Ð°ÑĤ
ÑĪ Ð¸
ÐºÐ¸ Ðµ
ĠÑģÐ² Ð¾Ñİ
ÑģÐº Ð¾Ð³Ð¾
ĠÐ¶Ð¸Ð· Ð½ÑĮ
ÑĢ ÐµÑĤ
ĠÐ¸ Ð»Ð¸
ĠÐ¸ Ð»ÑĮ
ĠÐ± ÐµÐ³
ĠÐ¿ÑĢ Ð¸Ðº
ĠÑı Ð²
ĠÐºÑĢ ÐµÑģÑĤÑĮÑı
ĠÑģÐº Ð°Ð·
ÑĭÐ¼ Ð¸
ĠÑĢÐ°Ñģ Ñģ
Ñĥ ÑģÐº
ĠÑĢ ÐµÐº
Ð½Ð¸ Ñħ
Ð¸Ð¼ Ð¸
ĠÑħ ÑĢ
Ð°Ð¶ Ðµ
ĠÐŀ ÑĤ
ĠÐ´ÑĢ ÑĥÐ¶
ĠÐ Ń
ĠÐ½ Ð°Ð·
ÑĪ ÐµÐ¹
Ð¾Ð² Ð°ÑĤÑĮ
ĠÑĢ ÑıÐ´
Ð¡ Ð¾
ĠÑı ÑĢ
ĠÐºÑĢ ÑĭÐ»
ĠÐ»ÑİÐ± Ð¾Ð²ÑĮ
ĠÑĢÑĥ Ñģ
ĠÑģÐ½ ÐµÐ³
Ð° Ð½Ñĭ
Ñĭ Ð½Ðµ
Ð² Ð¾Ð»
Ðĺ Ð»ÑĮ
ĠÑĢ ÐµÑĩ
ÐŁ Ð¾ÑĢ
Ðļ Ð¾ÑĤÐ¾ÑĢ
ÐºÐ¸ Ñħ
ĠÑģÐ» Ð°Ð´
ĠÑĢÐ°Ð· Ð´
ÐµÑĢÑĤ Ð²
ÑĳÐ½ Ð½ÑĭÐ¹
ĠÐĲÐ´ Ð°Ð¼
Ðµ ÑģÑı
Ð» ÐµÐ´
Ð¼ ÐµÑĤ
Ð¼ ÐµÑĢ
Ð¡ Ð°Ð¼
Ð³ Ð¾ÑĢ
ĠÐ²Ñĭ ÑĪ
ĠÐĶ ÑĥÑħ
ĠÑģ ÐµÐ±Ñı
ĠÐº Ð°Ð·
ÐµÐ» Ñı
ĠÐ· Ð°Ð´
ĠÑĢ ÐµÑĪ
ĠÐ¿ÑĢ Ð¾Ñģ
ÐŁ Ð¾Ð²
Ð½Ð¸ ÐºÐ°
Ð¸Ð½ Ð¾Ð²
Ð¸Ð¼ Ð¾
ÐĶ Ð»Ñı
Ð»Ð¸ Ñĩ
Ð¾Ð»ÑĮ Ð½Ð¾
ĠÐ¾Ð± ÑĬ
ĠÐ¢ Ð²Ð¾ÑĢ
ĠÑĥÐ¶ Ðµ
ĠÑģÑĤÑĢÐ° Ñħ
ĠÐ²ÐµÑĩ ÐµÑĢ
Ñĭ Ðº
ĠÑĩ ÑĥÐ²
Ð¸Ð½ Ð¾Ð¹
ĠÐ»ÑİÐ± Ð²Ð¸
ÐµÑĢÐº Ð¸Ð½
Ð» ÐµÐº
Ñĥ ÑģÑĮ
ĠÐ² Ð¾ÑĢ
Ð¼ Ð¾Ð¶
Ð¼ ÐµÑĢÑĤ
ĠÑĤ Ð°
ĠÑĤ Ð°Ð¹
ÑĨ Ð¾Ð¼
ĠÐ¿Ð¾Ð» Ðµ
ĠÐ»ÑİÐ´ Ð¸
Ð¾ Ñı
Ñĩ Ð¸Ð²
ĠÐ´ Ð°Ð»ÑĮ
ĠÐ¿ÑĢ Ð¸Ð½
Ð¾ÑĤ Ð²Ð¾ÑĢ
Ð¾Ð½ ÐµÑĨ
Ð¾Ð± Ð¾Ð´
ÐĶ ÑĢÑĥÐ³
ÐĽ Ð¸ÑĪÑĮ
ĠÐ±ÐµÐ· Ð´
ĠÐ´Ð¾Ð» Ð³
ĠÐ´Ð¾Ð» Ð³Ð¾
ĠÐ ¤
Ðµ ÐµÑĤ
Ð° ÐµÐ¼
ĠÑģ Ð°Ð´
Ð¼ Ð°Ð½
Ð³ Ð¾Ð²Ð¾ÑĢ
ĠÑħ Ð¾ÑĤÑĮ
ĠÐ²Ð¾Ð·Ð´ ÑĥÑħ
Ñĭ Ð´
Ñĭ Ð¿
Ð´ ÑĥÑĤ
ĠÐ´ ÐµÐ»Ð¾
ĠÐ¼ ÐµÑĢ
Ð¡ Ð²Ð¾
ĠÑĩ Ð°ÑģÑĤ
ĠÐ¼Ð¾Ð» Ð²
Ñĥ ÐºÐ¸
Ðº Ð¾ÑĢ
Ð¼ ÐµÑģÑĤ
ĠÐ´ Ð¾Ð²
ĠÐ¸ ÑģÑĤ
ÐĿ Ð°Ð¿
ÑħÐ¾Ð´ Ð¸ÑĤ
ĠÐ¿Ð¾ÑĤ Ð¾Ð¼
ĠÐ¿Ð¾ÑģÐ» ÐµÐ´
Ð» Ð¸Ð½
Ñĩ ÐµÐ¼
ĠÐ± Ð¾Ð»
ÐµÐ´ ÑĮ
ĠÑģ Ð¾Ð·
ÐµÐ» ÐµÐ½
Ð¡ ÑĤÐ¾
ĠÑĩ Ð¸ÑģÑĤ
Ð¢ ÑĢ
ĠÐ³ÑĢ ÐµÑħ
ĠÐĴ ÑĢÐ°Ð³
ĠÐ¾ ÐºÑĢ
ÐµÐ» ÑĭÐ¹
ĠÑĢ Ð°Ð²
ĠÑģÑĤ Ð°Ð»
ÐºÐ¸ Ð¼
ĠÑģÐ² ÑıÑĤ
ĠÑĪ Ð°Ð³
ĠÑģÐ²Ð¾ Ð¸
ĠÐ±ÐµÑģ Ð¿
ĠÐ¿ÐµÑĩ Ð°Ð»ÑĮ
Ð°Ð½ÑĮ ÐµÐ¼
Ð´ Ð°ÑĤ
Ð¼ Ñĭ
ĠÑĤ Ð¸ÑĪ
ĠÐ³ Ð¾ÑĤÐ¾Ð²
ÐŁ Ð¾Ð¼
Ð¾Ð± Ð½Ð¾
ÐµÑģÑĤ Ð¾Ð»
ÐĶ Ð¾ÑģÑĤ
ÑĢÐ° Ñī
ĠÐ³ÑĢ ÑĥÐ´ÑĮ
ĠÐ²Ð· Ð³
ĠÐ±Ð¾Ð³ Ð°ÑĤ
Ð²Ð¾Ð· ÑĮ
Ġ (
ÑĢ Ð¾Ð½
Ñĥ ÑģÐ»
ĠÐ¿ Ð¾Ð¶
ĠÐ² ÐµÐ½
ĠÐ² ÐµÐº
ĠÐ´ ÑĥÑħ
Ð¾ÑĢ Ð³
ÐĿ ÐµÐ²
ĠÐ³ Ð½ÐµÐ²
ĠÐºÑĢ Ð°Ð¹
ÑĥÑĪ ÐºÐ¸
Ð°Ñı ÑģÑĮ
ĠÑģÑĩÐ°ÑģÑĤ Ð»Ð¸Ð²
Ñį ÑĤ
Ð¸ ÐºÐ°
ĠÑģ Ð¾Ð·Ð´
ĠÑĤ Ð¾Ð¹
ĠÑĤ Ð¾Ñģ
ĠÐ¾ Ñħ
ÐµÐ· ÑĢ
Ð¾Ñĩ Ð½Ð¾
ÐµÐ½ÑĮ Ñİ
ĠÐĿ ÐµÐ±
ĠÐ½Ð°ÑĪ Ð¸
ĠÑĥÐ¶ Ð°Ñģ
ĠÐ±Ð¾Ð»ÑĮ ÑĪÐµ
ÐĴÐ´ ÑĢÑĥÐ³
ĠÑģ ÐµÑĢ
ĠÑģ ÑĥÐ´
ĠÑģ Ð¸Ð´
ĠÐ¿ Ð°Ð´
ĠÐ² Ð¾ÑģÑĤ
ĠÐ½ ÐµÐ³Ð¾
ĠÐ³ ÐµÑĢ
ĠÐ¶ Ð°Ð»
ĠÐ¶ Ð¸ÑĤÑĮ
Ñĳ ÑĢ
ÐµÐ³ Ð´Ð°
Ðĳ ÑĭÐ»
Ð¸Ðº Ð¾Ð²
ĠÐ³ÑĢ Ð¾Ð±
ĠÑĤÐ¾Ð» Ð¿
ĠÐ· Ð°ÑģÑĤ
Ðŀ Ñģ
ĠÐ¶ Ð°ÑĢ
Ð»Ð° Ñĩ
ÑģÑĤÐ² Ð¾Ð¼
ĠÐ¿ÑĢÐ¸ Ð±
ĠÐ´ÑĢ ÑĥÐ·
Ð¥ Ð¾ÑĤÑĮ
ĠÐ½Ð¸Ð¼ Ð¸
Ð°ÑİÑĤ ÑģÑı
ĠÑĤÐ¾Ð± Ð¾Ð¹
ĠÑĤ Ð¾Ð³Ð´Ð°
ĠÑĤ Ð²Ð¾Ð¹
ĠÑĢ Ð°ÑģÑĤ
ĠÐ¿ÑĢ Ð¾Ð²
ÑĥÐ´ ÑĢ
ÑģÑĤÐ² ÐµÐ½
ÑĪ Ð¸Ðµ
ĠÐ· Ð¾Ð²
ĠÑĢ Ð¾Ñģ
ĠÐ³ ÑĥÐ±
ĠÐ¿ÑĢ Ð¾Ðº
ĠÐ¿ÑĢ Ð¸Ð¼
Ð½Ð¾ Ñģ
Ð± ÑĥÐ´ÑĮ
Ð½Ð¸ Ð±ÑĥÐ´ÑĮ
Ð¶ Ðµ
ÐĹ Ð°ÑĤ
ĠÐ¿Ð¾ ÑĪ
ĠÐĵÐ¾ÑģÐ¿Ð¾Ð´ ÑĮ
Ð² Ð°ÑĤ
Ð´ Ð¸
ĠÐ´ Ð¾Ñģ
ĠÑĢ ÑĥÐ±
ĠÐ¿ÑĢ Ð¸Ð´
ÐŁ Ð¾Ð¿
Ð¢ ÑĥÑĤ
Ð½ ÐµÐ³Ð¾
Ð¾Ð» Ðº
ĠÐ´ Ð°Ð¶Ðµ
ÐĿ ÐµÑģ
ĠÐ³ Ð¾Ð´
ĠÐ¿ÑĢ Ð°Ð·Ð´
ÐĴ ÐµÐ»
ÑĨ ÐµÐ¼
ÑĨ Ð°ÑĤÑĮ
ĠÐ» Ð°Ñģ
Ð¢ Ð²Ð¾
Ð¢ Ð¾Ð»ÑĮÐºÐ¾
ĠÐ¾ÑĤ ÐºÑĢ
Ð£ Ð¼
ÑĢÐ° ÑĪ
ĠÐ³Ð¾Ð²Ð¾ÑĢ Ð¸ÑĤ
Ð½ Ð°Ð»
Ð» ÑĭÐ±
ĠÐ² Ð¾ÑģÐ¿
Ð² Ñĥ
Ñĩ Ð°Ñģ
ĠÐ¾ Ð·
ÐµÑĤ Ðµ
ĠÐ´ Ð°ÑĢ
ĠÑĢ ÐµÑĩÑĮ
ĠÐ¿ÑĢ Ð¾Ñĩ
Ð°Ð½ Ð¾Ð²
ĠÑĩ ÐµÐ»Ð¾Ð²ÐµÐº
ĠÐ±Ñĭ ÑģÑĤÑĢ
Ðľ ÐµÐ¶
ĠÑĤÐ°Ðº Ð¾Ð¹
Ð²ÐµÑĢ Ð³
Ñģ ÐºÐ°Ñı
Ð² ÐµÐ´
Ð°Ð» Ð¾ÑģÑĮ
Ð¾Ð² Ð½Ð¾
ĠÐ· Ð¸Ð¼
ÑģÑĤÐ² Ðµ
Ðķ ÑīÐµ
ÑİÑĤ ÑģÑı
ĠÑģÐ¿ Ð¾ÑĢ
ĠÐ¿Ð¾Ð¼ ÐµÑī
Ð² ÐµÑģÑĤ
ÐµÐ½ Ð¸Ðµ
Ñİ ÑĪ
ĠÐ¼ Ð°ÑĤ
ĠÐº Ð¾
ĠÐ³ Ð¾ÑģÐ¿Ð¾Ð´
ÐµÑģÑĤ Ð²Ð°
ĠÐºÑĢ ÐµÑģÑĤ
ĠÑģÐ» ÑĥÐ¶
ĠÑĪ Ð¸ÑĢ
Ðķ Ðµ
ĠÐļ Ð°Ðº
ĠÑģÐ»Ð¾Ð² Ð°
ÐļÑĢ ÐµÑģÑĤÑĮÑı
ĠÑģÐ¾Ð± Ð¾Ð¹
Ð» Ð°Ð·
Ð¼ Ð¸Ð»
ĠÐº Ð¾Ñģ
ÐŁ ÑĥÑģÑĤ
ÐµÑģ Ðº
ĠÐ²Ñģ Ð¿
ĠÑĤÑĢ Ð¸
ĠÐ·Ð½ Ð°Ðº
ÑĢ ÑĥÐ¶
ÑĮ Ð±
ĠÐ² ÐµÐ»Ð¸
ÑģÑĤ ÑĮÑİ
ÑĪ Ð°Ñı
ĠÐº Ð°Ð¼
ÐĿ Ð°Ñģ
ĠÑĢ ÑĭÐ±
ĠÐ¿ÑĢ ÐµÐºÑĢÐ°Ñģ
ÐŁ Ð»
Ð°Ð½ ÑĤ
Ð½Ñı Ð¶
ĠÐ³Ð» Ð°Ð²
ĠÑĢÑĥ ÐºÐ¸
Ð½ ÐµÑģ
ĠÑģ Ð¾Ðº
Ð² Ð¾Ð´
ĠÑĤ ÑĥÑĩ
ĠÐ´ Ð½ÐµÐ¹
ĠÐ¸ Ñģ
ĠÐ¿ÑĢ Ð¾ÑĪ
Ð½Ð¸ Ðµ
Ð½Ñĥ Ð»Ð¸
ÑģÐºÐ¸ Ð¼
Ð¾ÑģÐ» Ð°Ð²
Ð° ÐµÑĪÑĮ
ĠÑģ ÐµÐ¹
ĠÐ¾ ÑģÑĤÑĢ
ĠÐ¾ ÑģÑĤÐ°Ð²
Ðļ Ð¾ÑĢ
ĠÐ¶ Ð´
Ð¾Ð· Ñı
ĠÐ±Ñĭ Ð»Ð¸
Ðĳ Ð¾Ð³
ĠÐ¼Ñĭ ÑģÐ»
ĠÐ½Ð°Ð´ Ð¾
ĠÑģÑĤÐ°ÑĢ Ð¸Ðº
ĠÑģÐ»Ð¾Ð² Ð½Ð¾
ĠÐ ¦
ĠÐ² Ð¸ÑĤ
ÑģÑĤ Ð°Ð»
Ð¾Ð» Ð²
Ð³ Ð¸
ÐĶ Ð¾Ð»
ÑĥÑĪ ÐºÑĥ
ĠÑħ Ð¾Ð´
Ðľ ÐµÐ½Ñı
ÐĹ Ð°Ð±
ÑģÑĤÐ² Ñĥ
Ðĵ Ð»ÑıÐ´
ĠÐ³ÑĢ ÑĥÐ´
ÐºÑĥ Ñģ
Ð°ÑĪ Ð°
ĠÑĢÐ°Ð± Ð¾ÑĤ
ĠÑĢÐµÐ± ÑıÑĤ
ĠÑģ Ð±
ÐµÐ½ Ð½ÑĭÐµ
ĠÑĤ ÐµÑħ
ÐµÑĢ Ð°
Ðĺ Ð¼
ĠÐ¿ÑĢ Ð¾Ð¿
ĠÐ¢ Ð°Ðº
ĠÐ¾Ð´ Ð½Ð°
ĠÐ¿Ð¾ÑĢ Ð°
ĠÑĥÐ³ ÑĢ
ÐĳÐ» Ð°Ð³
ĠÑĤÐ¸Ñħ Ð¾
Ð¸ Ñİ
ÑĢ Ð°Ð·
ÑĢ Ð°Ð¶
Ð» ÐµÐ³
ĠÐ½ ÐµÐº
ĠÐ½ Ð¸Ð·
ĠÑĢ ÑĥÑĩ
ÐĴ ÐµÑĢ
Ð½Ð¸ ÑĨÑĭ
Ð¸Ð½ ÑĥÑĤ
Ð¸Ð² Ð°Ð»
ĠÑĢÐ°Ð· ÑĥÐ¼
ĠÐ´ÑĥÑĪ Ðµ
ĠÑħÐ¾Ð» Ð¾Ð´
ĠÐ½ÐµÐ¿ ÑĢ
Ð¸ ÑĨÐ°
ÑĢ ÑĭÐ²
ĠÐ´ Ð°Ð»
ĠÐ¼ ÑĢÐ°Ñĩ
ÐĿ ÐµÐ´
ÐĿ ÐµÐ±ÐµÑģ
ĠÐ· Ð°Ð½
ĠÐ¿ÑĢ ÐµÐ²
Ð· Ñı
Ð°Ð½ Ð¸Ñı
Ð½Ð¸ Ñĩ
ĠÑĩ ÐµÑĢÑĤ
ĠÑĥ Ð²Ð¸Ð´
ĠÐ¿Ð¾ Ñħ
ĠÑĤÑĢ Ð°Ð²
ĠÑģÐ¸Ð» ÑĮ
Ðĸ Ð¸Ð²
ĠÐ½Ð°Ðº Ð¾Ð½ÐµÑĨ
Ġ "âĢĶ
ÑĢ ÑĭÑĤ
Ð½ Ð°ÑĤÑĮ
Ð» Ð°ÑģÑĮ
ÑĮ ÐµÐ¼
Ñı Ñģ
ĠÑģ Ð½Ð¾Ð²
Ñİ Ð¼
ĠÐ´ Ð¾Ð±
ĠÐ± Ð°Ð±
ĠÐ¼ Ð³
ĠÐ¼ Ð°ÑĤÑĮ
ÐµÑĢ Ð²
ĠÐº Ð½ÑıÐ·ÑĮ
Ð¾ÑĢ Ð¾Ð´
ĠÐ· Ð°Ð³
ĠÐ¿ÑĢ Ð¾Ð±
ĠÐ¿ÑĢ Ð¸ÑĪ
ÐĴ Ð¿
ĠÑĥ ÑģÐ»
ĠÑĪ ÐµÐ»
ĠÑĢÐ°Ð· Ð±
ĠÐ´ÑĥÑĪ Ð¸
ĠÐ´ÐµÑĢ Ð¶
ĠÑģÐ¾Ð» Ð´Ð°ÑĤ
Ð¸Ð¶ Ñĥ
ÑĮ Ð¸
ĠÑģ Ð´
ĠÑĤ Ð¾Ð¿
ĠÐ´ ÐµÐ´
ĠÐ´ Ð²Ð°
ÐµÐ» ÐµÐ¹
ÐĿ Ð°ÑĢ
Ð½Ð¾ Ñĩ
Ð½Ð¸ ÑĨ
Ð½Ð¸ ÑĨÐ°
ĠÑı Ð·
ĠÐºÑĢ Ð¸Ðº
ĠÐºÑĢ Ð¸Ñĩ
ĠÑģÐ» ÑĥÑĪ
Ð°Ð¹ ÑĤÐµ
ĠÐ¿Ð» Ð°Ð¼
ĠÐ½Ð¾Ñĩ Ð¸
Ð¡Ðº Ð°Ð·Ð°Ð»
ĠÑģÐ»Ð¾Ð² Ð¾
ĠÐ·Ð» Ð¾Ð±
Ñı Ð¼Ð¸
ĠÐ¿ Ð°Ð»
ĠÐ½ ÐµÐ½
ÐµÑĤ Ð°
ĠÐ´ Ð½Ñı
ĠÐ± Ð¸ÑĤ
ÐŁ Ð¾Ð³
Ð¾ÑģÑĤ ÑĮÑİ
Ð°Ð¶ Ð¸
Ðĵ Ð¾ÑģÐ¿Ð¾Ð´
ĠÑģÑĤÑĢ Ð°Ð´
ĠÐ±Ð» ÐµÐ´
ĠÐ´ÑĢ ÐµÐ²
ÑĥÑī ÐµÑģÑĤÐ²
ĠÐ²Ð¸Ð´ Ð¸ÑĤ
Ð¸Ð½Ñĥ Ð²
ĠÑģÐµÑĢÐ´ ÑĨÐ°
ĠÐ½Ð¸Ñĩ ÐµÐ³Ð¾
Ð½Ð°Ðº Ð¾
ĠÐ²Ð¸ÑĤ ÑıÐ·
Ð» Ð°Ð³
ĠÑģ Ð¾Ð³
ĠÐ² ÑģÑĤÑĢÐµÑĩ
ÑĪ Ð¸Ð¼
ĠÑĤ ÐµÑĢ
ĠÐ¼ Ð¾Ñİ
ĠÐ¼ Ð»Ð°Ð´
ĠÐº Ð¾Ð¿
Ð¾Ð½ Ñĩ
Ñĳ Ðº
ÐµÐ³ Ð¾Ð´
ĠÐºÑĢ ÐµÐ¿
Ð§ ÐµÐ¼
ÐĹ ÐµÐ¼
ĠÐºÐ°Ðº Ð¾Ð¹
ĠÐĵ ÑĢ
ĠÑĢÐ°Ñģ ÑģÐºÐ°Ð·
Ð»Ð¸Ð² Ð¾
ĠÐķ Ð³Ð¾
Ñģ ÐºÐ¾Ðµ
Ð´ ÐµÐ¼
Ñĩ Ð¸Ð½
ÑĪ ÐµÐ³Ð¾
ĠÑĤ ÐµÐ½Ð¸
Ð¾ÑĢ Ð¾Ð²
ĠÑĢ Ð°Ð½
ÑĨ Ð¾Ð²
Ð¾Ñģ Ð¾Ð±
ĠÑĩ Ð¸ÑĤ
Ð¾Ñĩ ÐºÐ¸
Ð¸Ñħ Ð°
Ð£ Ñģ
ÐĽ ÐµÑĤ
ĠÐ¿Ð» Ð¾Ð´
ĠÐ³Ð»Ð°Ð· Ð°
Ñĭ ÑģÐ»
ĠÑģ Ð¾ÑĤÐ²Ð¾ÑĢ
ĠÐ½ Ð¾Ð¶
ĠÑĤ ÑĥÐ¼
ĠÐ´ Ð°Ð²
ĠÐ´ Ð°Ð»ÐµÐº
ĠÐº Ð¾Ð¼
ĠÑĢ Ð¾Ðº
ĠÐ³ Ð¾ÑģÑĤ
ĠÑģÑĤ ÐµÐ½
Ð»Ð¸ Ðº
ĠÐ¾ÑĤ Ð¿
ĠÑģÐ» Ð°Ð±
ĠÐ³ÑĢ ÑĥÑģÑĤ
Ðķ Ð¼Ñĥ
ĠÐ¼Ð¾ Ð¸
ĠÐ¿Ð¾Ðº Ð¾ÑĢ
ĠÐ±Ð»Ð°Ð³ Ð¾Ð´
ĠÐ¼Ð¾ÑĢ Ðµ
Ð°ÑĤÑĮÑı Ð½Ð°
ĠÐ¡Ð°ÑĤ Ð°Ð½Ð°
ÑĥÑģÐ» Ð°Ð½
Ð» ÑıÑĤ
Ð» ÐµÐ½Ð½ÑĭÐ¹
ĠÐ¿ Ð¾Ð·Ð´
Ð² Ð°Ð½
ĠÐ´ Ð°Ð²Ð½Ð¾
ĠÐ¸ Ð´ÐµÑĤ
ĠÐ¼ Ð¸Ð³
ĠÐº ÑĥÐ´Ð°
Ð¾ÑĢ Ð¾Ð¶
Ð· Ð´
Ð¸Ð¼ ÑĭÐ¹
ÑıÑĤ ÐµÐ¶
Ð¾Ñĩ ÐºÐ°
Ð½Ñı Ð»
Ðķ Ð¹
ÑĥÑħ Ð°
ĠÑģÑĤÑĢ ÐµÐ¼
ĠÐ±Ð» Ð°Ð¶ÐµÐ½
ÑıÑĤÑĮ ÑģÑı
ĠÑĢÑĥ ÐºÐ¾Ð¹
Ð»Ñİ Ð±
ĠÐ´ÐµÑĢ Ð·
ĠÐºÑĢÑĥÐ³ Ð¾Ð¼
ĠÐ±Ð»Ð¸ Ð·
ĠÑģÐ¾Ñģ ÐµÐ´
ĠÑģ ÑĭÐ½
Ñĩ Ð°ÑĤ
ĠÑĤ ÐµÐ»
ĠÐ´ Ð½Ð¸
ĠÐ± Ð¾Ð¶
ĠÐ¿ÑĢ Ð¾Ð´
ÐŁ Ð¾Ñģ
ÐŁ Ð¾ÑģÑĤ
Ð¾Ð³ Ð°
Ðļ ÑĥÐ´Ð°
ĠÐµ Ñĳ
ĠÑĥ Ðº
ĠÑĪ ÑĥÑĤ
ĠÐ¿Ð» ÐµÑĩ
ĠÑįÑĤ Ñĥ
ĠÐ·ÐµÐ¼ Ð»Ð¸
ĠÐ·ÐµÐ¼ Ð»Ñİ
ĠÐ²Ð¿ ÐµÑĢÐµÐ´
ĠÐ´Ð¾Ð¼ Ð¾Ð¹
ĠÐ¿Ð¾Ð± ÐµÐ´
ÐŁÐ¾ÑĤ Ð¾Ð¼
Ð¼Ð¾Ð¶ Ð½Ð¾
Ġ *
ÑĢ ÑĥÑĪ
Ñĭ Ñģ
ĠÐ¿ Ð¸ÑĢ
ĠÐ² Ð¾Ð»ÑĮ
ĠÐ½ Ð¾Ñģ
ĠÐ½ ÑĥÐ¶
Ñĩ Ð¸Ðº
ĠÐ¾ Ð¶
ĠÐ¸ Ð³ÑĢ
ÐĿ Ð°Ð¼
ĠÐ» ÑĥÐ³
ĠÐ» Ð¸ÑĪ
Ð°Ð½ Ðµ
Ð°Ð½ Ð¸Ð¹
Ð¢ Ð¾ÑĤ
Ð¢ ÐµÐ±Ñı
ÐĶ ÑĥÑĪ
Ð»Ð¸ Ð·
Ðĳ ÑĥÐ´
Ð£ ÑĤ
Ðķ Ð´
ÐĽ ÑİÐ´
ĠÐ¿Ð¾Ðº Ð»Ð¾Ð½
ĠÐ¿ÑĢÐ¾ Ð¸Ð·
ĠÐ·Ð°Ðº Ð¾Ð½
ĠÐĲÐ½Ð³ ÐµÐ»
ĠÐ¿ÑĥÑĤ Ð¸
ĠÐ´ÑĢÑĥÐ· ÑĮÑı
Ð° Ð½Ð¾
Ð¼ Ðµ
ĠÐ´ Ð¾Ð¶Ð´
ĠÐ¼ ÑĥÐ·
ĠÐ· Ð´
Ðĺ Ð»Ð¸
ĠÐ¿ÑĢ Ð¾ÑĤÐ¸Ð²
Ð¡ ÑĢÐµÐ´
ÐµÐ´ Ð¸Ð½
Ñī Ñĳ
ĠÑģÑĤ ÐµÐ¿
Ð¾Ðº ÑĢÑĥÐ³
ĠÑĥ Ð²
ĠÑĪ ÐµÐ¿
ÑĥÐ¿ ÑĢÑĥÐ³
ĠÐ³Ð¾ÑĢ Ð¾Ð´
ÑĭÐ² Ð°ÑĤÑĮ
ĠÐ¿ÑĢÐ¸ Ñģ
ĠÐ¼Ð¾ Ñī
ĠÐ´ÑĢ ÐµÐ¼
Ð¾Ð±ÑĢ Ð°Ð·
ĠÑģÐ»Ð°Ð² Ñĭ
ĠÐ¾Ð±ÑĢ Ð°Ð·
Ñĥ Ð»Ñı
ĠÐ² Ð°Ð¶
ĠÐ½ Ð°Ð¹
ÑĪ ÐµÐ±
ÐµÐ½ Ð½ÑĭÐ¼
ÐµÑĢ Ð¸
Ð½Ð¸ Ð·
ĠÑĩ ÑĥÐ¶
ĠÑģÑĤ Ð¾Ð½
Ð¾Ðº Ð°
ÐµÑģÑĤ ÑĥÐ¿
ĠÑĥ ÐºÑĢ
ĠÑı Ñģ
Ð¾Ð»ÑĮ Ð·
ÐĹ Ð°Ðº
ĠÐ¾Ð± ÑĢÐ°ÑĤ
ÐµÐ»ÑĮ Ð·Ñı
ĠÐ¡ Ð¼ÐµÑĢÑĤ
Ð¯ Ð²
ĠÐ»Ð¸ ÑĨ
ĠÑģÐ²Ð¾ Ð¸Ð¼
Ð²ÐµÑĢ ÑĮ
ĠÐķ Ð²Ð°
ĠÑģÐ¾Ð² ÐµÑĢÑĪ
ĠÐ·Ð½Ð° Ñİ
ĠÑģÐ¼ÐµÑĢÑĤ ÑĮ
ĠÑħÐ» ÐµÐ±
ÑĢ Ð¾Ð´
ÑĢ ÐµÐ¶
Ð» ÐµÐ¹
ĠÐ¿ ÑĤÐ¸
ĠÐ² ÐºÑĥÑģ
Ð´ Ð°Ð¼
ĠÐ» Ñĥ
Ð°Ð½ Ð´
Ðļ Ð¾Ð»
Ð¾Ðº Ð¸Ð¹
ĠÐ¾ÑĤ Ðº
ĠÐ¾ÑĤ ÐµÑĨ
ÐŁÑĢ Ð¾
ÐŁÑĢ Ð¾ÑģÑĤ
ÐĹ Ð»
ĠÐ¿Ð¾ ÑįÑĤ
ĠÐ¢ ÐµÑĢÐºÐ¸Ð½
ĠÑģÐ²Ð¾ Ð¸Ñħ
ĠÐ½ÐµÐ¼ Ñĥ
ĠÐ·ÐµÐ¼ Ð»Ñı
ĠÐ¿Ð¾ÑģÐ» ÑĥÑĪ
ĠÑĥÐ´ Ð°Ð»
ĠÐ¿ÐµÑĢÐ² ÑĭÐ¹
ĠÐ½Ð¾Ð³ Ð¸
ĠÐºÐ°Ð¶Ð´ ÑĭÐ¹
ÑĢ Ð¾Ð³
Ð» Ð¸Ð¼
Ñı Ð»Ð¸
Ñı Ð»Ð°
ĠÑģ Ð¾Ð»Ð½ÑĨÐµ
ĠÐ² Ð°Ð»
ĠÐ½ ÐµÐ·
Ð¼ Ð°
ÐµÐ½ ÐµÑĢ
ĠÑĤ ÑĮÐ¼
ĠÐ¼ ÑĢÐ°Ðº
ÐµÐ» Ðµ
ĠÐ¿ÑĢ Ð¾Ð¼
ĠÐ¿ÑĢ ÑıÐ¼
ĠÐ½Ðµ Ñĩ
ĠÑģÑĤ Ð¾Ð»ÑĮ
ĠÑĥ Ð»ÑĭÐ±
ÐµÐ³ Ð¸Ð½
ÐµÐ¶ Ð°Ð»
ÐºÐ¾ ÑĪ
ĠÑĤÑĢ ÐµÐ¿
Ð¸Ð»Ð° ÑģÑı
ĠÐ° Ð»
ĠÑģÑĤÑĢ ÐµÐ»
Ð¾ÑģÐ» Ð¾Ð²
Ð»Ñİ Ñĩ
ĠÐ´ÑĥÑĪ Ð°
ĠÐ²ÐµÑĤ ÐµÑĢ
ĠÐ²ÐµÐ» Ð¸Ðº
ĠÐ»ÑĥÑĩ ÑĪÐµ
ĠÑģÐºÐ¾ÑĢ Ð¾
Ð» ÐµÐ¼
ĠÑģ ÑĥÐ¼
ĠÐ¿ Ð°Ð¼
Ð² Ð¸Ð³
ĠÐ¼ ÑĥÑĩ
ÐŁ ÐµÑĢÐµÐ´
ÐĴ Ð¸Ð´
Ð¾ÑĤ Ñĥ
Ð°Ð½ Ð¸Ðµ
ĠÑĩ ÐµÑĤ
Ð°Ð´ ÑĨÐ°ÑĤÑĮ
ÐŁÑĢ Ð¸Ð²
ĠÐ¾Ð± Ð»Ð°Ðº
ĠÐ¿Ð¾Ð» Ñı
ĠÑģÐ¿ Ð°Ñģ
ÑĥÑĢ Ð¾Ð²
ĠÑįÑĤ Ð¾Ð¹
ĠÐ´ÑĢÑĥÐ³ Ð¾Ð¹
ĠÐ·ÐµÐ¼ Ð»Ðµ
ĠÐ¼ÐµÑĩ ÑĤ
ĠÐ²Ð»Ð° ÑģÑĤÑĮ
ĠÑģÑĢÐµÐ´ ÑĮ
ĠÐ¿ÑĢÐµÐ¶ Ð´Ðµ
ÑĢ Ñħ
ĠÐ¿ ÑĭÐ»
Ðº Ð¾Ð½
ĠÐ² ÐµÑī
ĠÐ² ÑĤÐ¾ÑĢ
ÐµÑĢ Ð²Ð°
ĠÐº Ð½ÑıÐ·
ÐĿ ÐµÐ¼
ĠÑĢ ÐµÐ²
ÐŁ Ð¾ÑģÐ»ÐµÐ´
ÐĴ ÐµÑģ
Ð¾ÑĤ Ð¾Ð¹
Ðŀ Ð³
ÐŁÑĢ Ð¸ÑĪ
ÐĹ Ð´ÐµÑģÑĮ
ĠÐ²Ñģ ÐµÐ¹
ĠÐ¡ ÑĤ
ĠÐ³Ð¾ÑĢ Ñı
ĠÐ¾Ð´ Ð½Ð¾
ÑĭÐ² Ð°ÐµÑĤ
ÑĦ Ð¸ÑĢ
ĠÑĢÐ¾Ð´ Ð½Ð¾Ð¹
ĠÐķ Ð²
ĠÑĥÐ´ Ð°ÑĢ
ĠÑģÐ»ÐµÐ· Ñĭ
ĠÑĤÐ¾ÑĢ Ð¶
Ð° Ñī
Ð¸ ÑĨÑĭ
ÑĢ ÐµÐ±
Ðº Ð°Ð¼
ĠÐ² Ð½Ð¸Ð¼
ĠÐ² Ð¼ÐµÑģÑĤ
Ñİ Ð´Ð°
ĠÑĤ Ðµ
ĠÑĤ Ð¾Ð³Ð¾
ĠÐ´ ÑĥÐ±
Ð¾Ð´ Ð½Ð¾
Ð¾ÑĤ Ðµ
Ð¾ÑĤ Ñı
ĠÐ½Ðµ Ñİ
ĠÑģÐ» ÑĥÑĩ
Ðľ Ð¾Ð¹
ĠÐ²Ñĭ Ð¿
ĠÐĿ Ð°
ĠÑĤÑĢ ÐµÐ²
Ð¸Ð»Ð¸ ÑģÑı
ĠÐ³Ð¾ÑĢ ÑĮ
ĠÑĢÑĥ Ðº
ÑĳÑĤ ÑģÑı
ĠÐ·Ð½ Ð°Ð»
Ð¡Ð» Ð¾Ð²Ð½Ð¾
ÑĭÐ½ ÑĩÐµ
ĠÑģÑĤÑĢÐ°Ð½ Ð½Ð¸ÐºÐ¸
ĠÐ¾ÑĤÐ² ÐµÑĩ
ÑĤ Ñĥ
Ð¸ ÐµÐ¼
ĠÐ² Ð¾Ð²
ÑĪ Ð¸ÑĢ
ĠÐ· Ð°Ð»
Ð°Ð½ Ð³
Ð°Ð½ Ð½Ð¾Ð¹
ĠÐ¶ Ð¸Ð»
ĠÑĥ ÑģÐ¿
ĠÑħ Ð¾Ð·Ñı
ÑĢÐ° ÑģÑĤ
ĠÑĪ Ð°Ð¿
ĠÐ³Ð¾ÑĢ Ðµ
ĠÐ»Ð¸ ÑģÑĤ
ĠÐ±ÑĢ Ð¾Ñģ
ĠÐ¿Ð¾Ðº Ð¾Ð¹
ĠÑĥÐ¼ ÐµÑĢ
ÑıÑī Ð¸Ð¹
ÐļÑĢ Ð°Ñģ
ĠÐ²ÐµÐ» Ð¸Ñĩ
ĠÑģÐ½Ð¾Ð² Ð°
ĠÐ² Ð»Ð°Ð´
ĠÐ¾ Ð½Ð¾
Ð¾Ð» ÐµÑĤ
ĠÐº Ð°ÑĤ
ÐĿ Ð¸Ðº
ĠÑĢ Ð¾Ð·
ÐĴ Ð»Ð°Ð´
Ðŀ ÑģÑĤ
ĠÑģÑĤ Ð°Ð»Ð¾
Ð¸Ð² Ð¾
ĠÑĥ Ð½Ñĭ
ÐµÑĩ Ð½Ð¾
ÐµÐº Ð¸
ÐĲ Ñħ
ĠÑģÐº Ð°Ð¶
ĠÑģÐ¿ ÐµÑĪ
ĠÐ¾Ð´ Ð½Ð¾Ð¹
Ð¾ÑĪ Ð¾
Ð¸ÑĤÐµÐ»ÑĮ Ð½Ð¾
ĠÑģÐ¸Ð» Ñĭ
ĠÐ¼ÑĥÐ¶ Ð¸Ðº
ĠÐ¼Ð¾Ð»Ð¾Ð´ Ð¾Ð¹
ĠÐ¢Ð²Ð¾ÑĢ ÑĨÐ°
ÑĢ Ðµ
Ð» ÑĭÐ¹
Ñĭ Ð»Ð¸
ĠÑģ Ð¾Ð»Ð½
ĠÐ² ÑģÑĤÑĢ
ĠÐ´ Ð»Ð¸Ð½
ÐŁ Ð¾Ð·
Ð¾Ñģ ÑĥÐ´
ĠÐ½Ð° ÑģÑĤ
Ð¸Ð² ÑĭÐ¹
ĠÐ¾ÑĤ Ñĩ
ĠÐ¸Ð· Ð´
ĠÐł Ð°Ð¹
ÐŀÐ´ Ð¸Ð½
ĠÐĹÐµÐ¼ Ð»Ðµ
ĠÐ¾ÐºÑĢ ÑĥÐ¶
ĠÐ½ÐµÐ½ Ð°Ð²
ÐµÐ½ÐµÑĢ Ð°Ð»
ÑĢ ÑıÐ´
ÑĪ ÑĥÑİ
ĠÐ± Ð°ÑĪ
ĠÐº Ð½Ð¸
ĠÑĢ Ð°Ð²Ð½Ð¾
ĠÐ³ Ð¸Ð±
Ð°ÑĤ Ð¸
ÐĴ Ð¾Ð»
Ð°Ð² Ð¸Ð»
Ð°Ð½ Ð½ÑĭÑħ
Ð¢ ÐµÐ¼
Ñĳ Ñģ
Ð¶ Ð°Ð»
ĠÐºÑĢ Ð°Ñı
Ðľ ÑĥÐ¶
ĠÑģÐº Ð»Ð¾Ð½
ĠÑģÐº Ð²Ð¾Ð·ÑĮ
ÐºÑĥ Ñİ
Ð¡ÑĤ Ð¾Ð»ÑĮ
Ð¾Ñħ Ð¾ÑĤ
ĠÐºÐ¾Ð½ ÑĨÐ°
ĠÐ·Ð² Ð¾Ð½
ĠÐ¿ÐµÑģ Ð½Ð¸
ÐŃ Ð¹
ĠÐĳÐ¾Ð¶ Ð¸Ð¹
ÐµÐ³Ð¾Ð´ Ð½Ñı
) ,
ĠÐ ĸ
Ð» ÐµÐ½ÑĮÐµ
ĠÑģ Ð¾Ñħ
ĠÐ² Ðº
ĠÐ½ Ð°Ð¼Ð¸
ÐµÐ½ ÐµÐ¼
ĠÑĤ Ñĥ
ĠÑĤ Ð²Ð¾ÑĢ
ĠÐ¼ ÐµÑĢÑĤÐ²
Ð¸ÑĤ ÑĢ
ÐĿ Ð°Ð²
Ð°ÑĤ ÑĭÐ¹
ĠÐ¿ÑĢ Ð¾Ñħ
ÐŁ Ð¾ÑģÐ»
Ð± Ð¾
ĠÐ» Ð°Ð´
ĠÐ» Ð¾Ð¶
ĠÐºÑĢ Ð¾Ð²ÑĮ
Ðľ Ð¾Ð³
ÐĹ Ð°Ð²
ÐĹ Ð°Ð¿
Ð£ Ð±
Ð£ Ð¿
ÐĲ Ð´Ð°Ð¼
Ð°Ð»Ð¸ ÑģÑı
ĠÐ¿Ð¾Ð´ Ð¾Ð±
ĠÐ¸Ð· Ð¼ÐµÐ½
Ð»Ð¾ Ñī
ĠÐ³Ð» ÑĥÐ¿
Ð¾ÑĪ Ð°Ð´
ĠÐ¿Ð¾Ðº Ð°
ÑĥÑī Ð¸Ð¹
ĠÐ´ÑĥÑĪ Ñĥ
ĠÑģÑĤÐ¾ Ð¸ÑĤ
ĠÐ½Ð°Ñĩ Ð°Ð»
ĠÐ¼ÐµÐ¶ Ð´Ñĥ
ĠÐºÑĢÐµÑģÑĤÑĮÑı Ð½Ð¸
ÑĥÑģÐº Ð°Ð¹
ĠÐ²Ð¾ÑĢ Ð¾ÑĤ
ĠÐ ¨
Ð¸ ÑīÐµ
ĠÐ¾ Ð²
ĠÐ´ ÐµÐ»Ð°
Ð¾Ð² Ð°Ð²
ĠÐ± Ð°Ð»
ĠÐ¿ÑĢ Ð¸ÑĢ
ĠÐ¿ÑĢ Ð¸Ñĩ
ÑĨ ÐµÐ²
Ð°ÑĢ Ð°
Ñī ÐµÑĤ
Ð½Ð¸ Ð²
Ð¢ Ð¾Ð³Ð´Ð°
Ð¸Ð¼ ÑģÑı
ĠÑģÐ² Ð¾Ð±Ð¾Ð´
Ðľ Ð¾
ÑģÐº ÑĥÑİ
ĠÑĪ Ð°ÑĤ
ĠÑģÐ¼ Ð¾ÑĤÑĢ
ĠÐŁ ÐµÑĤ
ĠÑĨ ÐµÐ»
ĠÐ¿Ð» ÐµÐ½
ĠÐ¼Ð¾ Ð¸Ñħ
ĠÑįÑĤ Ð¸
ĠÐ¼Ð¾Ð³ Ð¸Ð»
ÐµÐ½Ð¸ ÐµÐ¼
Ð°Ð·Ð°Ð» Ð¾ÑģÑĮ
ÐŁÐ¾Ðº Ð°
ĠÐ²Ð¾Ð¹ Ð½Ðµ
ĠÑģÐ¼ÐµÑĢÑĤ Ð¸
ĠÐ·Ð½Ð°Ðº Ð¾Ð¼
ĠÑģ Ð¾Ñĩ
Ð¼ Ð¾ÑĤÑĢ
ĠÑĤ ÐµÐ½ÑĮ
Ð¾Ð» Ð¾Ð²
ĠÐ´ ÑĭÑĪ
ĠÐ´ Ð°Ð±Ñĭ
ĠÐ¸ Ð½
ĠÐ¼ ÑĥÐ´ÑĢ
ÐµÑĢ Ð³
ĠÐ¿ÑĢ Ð¸ÑĤ
ÐŁ Ð¾Ñĩ
ÐŁ Ð¾ÑĪ
Ð°ÑĢ Ñı
Ð°ÑĢ Ð¸Ñı
ĠÑĩ ÐµÐ³Ð¾
Ð¸Ð½ ÑģÑĤÐ²
ĠÑģÑĤ Ð¸Ñħ
ÐŁÑĢ Ð¾ÑĤÐ¸Ð²
Ð§ ÑĥÐ´
ĠÐĴ Ð¾ÑĤ
ÐŀÑĤ ÐµÑĨ
ĠÑĨ ÐµÐ¿
ĠÐ»ÑİÐ± Ð¾Ð²
ĠÐ´ÑĢ Ð¾Ð¶
ĠÐ²Ð¾Ð» Ð½
ĠÑģÐ²ÐµÑĤ Ðµ
ÐĹÐ° ÑĩÐµÐ¼
ĠÐ¿Ð¾Ð³ Ð¸Ð±
ĠÐ»ÐµÑģ Ñĥ
?.. Â»
ĠÐ»ÐµÐ³ ÐºÐ¾
ĠÐ¼Ð½ Ð¾Ð³
ÑĢ Ð¾Ð±
ÑĢ ÐµÑĪ
ÑĮ ÐµÑĤ
ĠÑģ ÑĥÐ¿ÑĢÑĥÐ³
ĠÐ¿ ÑıÑĤ
ĠÐ¿ ÑĭÑĪ
ĠÐ² Ð¸Ð¶Ñĥ
ĠÐ½ ÑĭÐ½Ðµ
ĠÐ¸ Ð´
ĠÐ³ Ð¾Ð½
ĠÐ¿ÑĢ Ð°Ñħ
Ð°Ð· ÐµÐ¿
Ð¢ ÐµÐ±Ðµ
ÐĶ Ð¾Ð²
Ð»Ñı Ð»
ÐĹ Ð°Ð¼
ĠÐ³ÑĢ ÐµÑĪ
ĠÑĢÐ°Ð· Ð²
Ð°Ð»Ð° ÑģÑı
ĠÐ½Ð°ÑĪ Ð¸Ñħ
ĠÐ²Ð¸Ð´ ÐµÐ»
ĠÐ³Ð¾Ð» Ð¾Ð´
ĠÐºÐ¾Ð½ ÑĮ
ĠÑģÑĤÑĢÐ° ÑģÑĤ
ĠÑĤÐ²Ð¾ ÐµÐ¹
ĠÐ¿Ð¾ÑģÐ» Ðµ
Ð¡Ð¼ ÐµÑĢÑĤ
ĠÐ±Ð°ÑĢ Ð¸Ð½
ĠÐ½ÐµÐ± Ð¾
ÐĳÐ» Ð°Ð¶ÐµÐ½
ĠÑģÑĢ Ð¾Ðº
ĠÑĤÐ¾Ð± Ð¾Ñİ
ĠÐºÑĢÐµÑģÑĤÑĮÑı Ð½
ĠÐ¼Ð¾Ð»Ð² Ð¸Ð»
ĠÐ³ÑĢÑĥÐ´ Ð¸
ĠÑĥÐ³ÑĢ ÑİÐ¼
ĠÐ²Ð¸ÑĤÑıÐ· ÑĮ
Ð ¤
ÑĤ Ð°Ðº
Ð» Ñĥ
ĠÐ½ ÐµÐ³
ĠÐ½ ÐµÐ»ÑĮÐ·Ñı
Ð¼ Ð°Ñħ
Ð¼ Ð¾Ð»Ð²
ÐµÐ½ ÑģÐºÐ¸Ð¹
ĠÐ´ Ð¸ÑĤ
ĠÐº Ð½ÑıÐ¶
Ð¡ Ð²ÐµÑĢ
ĠÑĩ ÐµÑģÑĤ
Ð¾Ð½ Ð°
ĠÐ¶ ÐµÑģÑĤ
ÐĶ Ð¾ÑĢ
ÐĶ Ð°Ð²Ð½Ð¾
ĠÑĥ Ñĩ
Ð¾Ð¶ Ð¸ÑĤÑĮ
Ð°Ñı Ð½
Ðĵ Ð»Ð°Ð²
Ðł Ð¾Ð´
Ð°ÑģÑĤ ÑĮ
Ð¸Ñĩ ÐµÑģ
ĠÑįÑĤ Ð°
ĠÐĹ Ð¼
Ð°Ð¶Ð´ Ñĭ
ĠÑĤÐ²Ð¾ Ð¸Ñħ
ĠÐ¼Ð¾ÑĢ Ñı
ĠÐĳÐ¾Ð³ Ð°
ĠÐĿÐµÐ±ÐµÑģ Ð°Ñħ
ÐŃ ÑĤÐ¾
ĠÐ½ÐµÑģ ÑĩÐ°ÑģÑĤ
Ð¾Ð½ÑĮ ÐºÐ¾
ĠÑĩÑĥÐ² ÑģÑĤÐ²
ĠÑĩÐ°ÑģÑĤ Ð¾
ĠÐĿÐµÐ± Ð¾
ÑİÑĪ ÐºÐ°
ÑĢ ÑĭÐ»
Ð½ ÐµÐ·
ĠÐ¿ Ð¾Ð¹
ĠÐ² Ð¾ÐºÑĢÑĥÐ³
Ð´ Ñĭ
ĠÑĤ ÑĥÐ´Ð°
ĠÐ¾ ÑĩÐ¸
ĠÐ´ Ð¾Ðº
ĠÐ´ ÑĭÐ¼
ĠÐ¼ ÐµÐ»ÑĮ
ĠÐº Ð¾Ð²
ĠÐº ÑĥÐ¿
ĠÐ¿ÑĢ Ð¾Ð½
Ð¡ Ð¸Ð´
Ð³ Ð°
Ð¾Ñģ Ñģ
Ð°ÑĢ Ð¸
ÐµÐ² Ð¾Ð¹
Ð¸Ð¼ Ð¾Ð¹
ÐŁÑĢ Ð¾Ñģ
Ð»Ð° ÑģÑĤ
Ð§ ÐµÑĢ
Ð§ ÑĥÑĤÑĮ
ĠÐ²Ñģ ÐµÐ³Ð¾
Ð½Ñı Ñı
ĠÑĤÑĢ ÑĥÐ±
ĠÑģÐ¿ Ð¾ÐºÐ¾Ð¹
ĠÐ½Ð°Ð´ ÐµÐ¶Ð´
Ð¸Ð½Ñĥ Ð»
ÑıÐ» ÑģÑı
ĠÐ±ÐµÑģ Ñģ
Ð£Ð¶ Ðµ
ÐĴÑĭ Ñģ
ÑĥÐ½ ÑĤ
ÐŀÐ¿ ÑıÑĤÑĮ
ĠÐ²Ð·Ð´ Ð¾Ñħ
ĠÐ²Ð·Ð³ Ð»ÑıÐ´
ÐļÑĢÐµÑģÑĤÑĮÑı Ð½Ðµ
ĠÑĤÐ¾ÑĢÐ¶ ÐµÑģÑĤÐ²
" .
Ð» ÑĥÐ±
ĠÐ² ÑģÑĤ
ĠÐ² Ð½Ñĥ
ĠÐ´ Ð°Ð¼
ĠÐ¼ Ð½Ð¾Ñİ
ĠÐº ÑĥÑģÑĤ
Ð¾ÑĢ Ñĭ
ÐĿ ÐµÐ¿
ĠÐ³ Ð¾ÑģÑĤÐ¸
ÐĴ ÑĢÐ°Ð³
ÑģÑı ÑĤ
Ñī Ð¸Ð¹
ĠÑĩ ÐµÑģÑĤÑĮ
ÐµÐ² ÑĭÑĪ
ÐµÐ· Ð´Ðµ
ĠÑģÐ² ÐµÐ¶
Â» ,
Ð£ Ð´
ĠÐ²Ñĭ Ð´
ĠÐ¸Ð· Ð³
ĠÑĤÑĭ ÑģÑı
Ðķ Ñĳ
ÐŀÑĤ Ðº
ĠÐ¿Ð» Ð°Ðº
ĠÐ¿Ð» Ð¾ÑĤ
ĠÐ³Ð» ÑĥÑħ
ĠÑĥÑĤ ÑĢÐµÐ½
ĠÑĤÐ²Ð¾ Ñı
ĠÐ¼Ð¾ÑĢ Ð¾Ð·
ĠÑģÐ»Ð°Ð² Ñĥ
ĠÑĢÐ°Ð´ Ð¾ÑģÑĤ
ĠÐ¶ÐµÐ½ Ñī
ĠÑģÐºÐ¾ÑĢ Ð±
ĠÐ¿ÑĢÐ¸Ðº Ð°Ð·
ĠÐ¿ÑĢÐ¾Ðº Ð»ÑıÑĤ
ÑĢ ÐµÐ»
Ð» Ð¾Ð²
Ð» ÑĥÑĪ
Ñĭ Ð³
Ñı ÐµÑĤ
ĠÐ½ ÑĭÐ½ÑĩÐµ
ÐµÐ½ Ð½Ð°Ñı
ĠÑĤ Ð¾ÑĩÐ½Ð¾
ĠÐ¾ ÑģÐº
Ð¾Ð» Ð¶
Ð¾Ð´ Ðµ
ĠÑĢ Ð¾Ð¶Ð´
ĠÐ¿ÑĢ ÐµÐ»
ÐµÐ¹ ÑģÑĤÐ²
Ð¢ Ð°ÑĤÑĮÑıÐ½Ð°
ÐµÐ² Ð°ÑĤÑĮ
ĠÑģÐ² Ð¾Ð±
ĠÑħ ÑĥÐ´
ĠÑħ Ð»Ð°Ð´
ĠÐĿ Ñĥ
ĠÐĿ ÐµÑĤ
ĠÑģÐº Ð°Ð»
ÐĿÐ° ÑĪ
ĠÐ±ÐµÐ· ÑĥÐ¼
ÐĴÑģ Ñİ
ĠÑģÑĤÑĢ Ð¾Ð³
ÐŁÐ¾Ð´ Ð¾Ð±
ĠÐł ÑĥÑģ
ĠÑģÐ¸Ð» Ð¾Ð¹
Ðĸ ÐµÐ»
ĠÑĨÐ°ÑĢ ÑĮ
ĠÐ³Ð»ÑıÐ´ Ð¸ÑĤ
ĠÐ²Ð·Ð³ Ð»Ñı
Ðµ ÐµÐ½
Ñģ ÐµÐ¼
Ñĥ ÐºÐ°
ĠÑģ Ð¾ÑĢ
ĠÑģ ÐµÐ»
ĠÑģ ÐµÑģÑĤ
ĠÐ½ ÐµÑĢ
Ñİ ÑģÑĮ
Ð¾Ð» Ð³Ð¾
ĠÐ´ Ð¸Ðº
ĠÐ´ Ð¾ÑĩÑĮ
ĠÐº Ð¾ÑģÑĤ
ĠÐ¿ÑĢ Ð¸Ð»
ĠÐ¿ÑĢ ÐµÑģÑĤÑĥÐ¿
ÐŁ Ð¾Ð±
ÐĴ ÑģÑı
Ð½Ð¾ ÑģÑĤÑĮÑİ
Ð± Ñĭ
ĠÐ½Ðµ Ðµ
Ð°Ð´ Ð°
Ðŀ ÑģÑĤÐ°Ð²
Ðļ Ð½ÑıÐ·ÑĮ
Ð¸Ð² ÑĪÐ¸ÑģÑĮ
ÐĶ ÑĢ
ĠÑĥ ÑĪ
ÐµÐ· Ð¶
ÐµÐ½ÑĮ ÐºÐ°
ÑĥÑĩ Ð¸Ð¹
ĠÐ²Ñĭ ÑĢ
ĠÑĢÐ°Ð· Ð³Ð¾Ð²Ð¾ÑĢ
ĠÐ³Ð¾ÑĢ Ñĭ
ĠÑģÐ¼ ÐµÑħ
ĠÐ³Ð» Ð°Ñģ
ĠÐ° ÑĢ
ĠÐ²Ð¾Ð» Ðµ
ĠÑģÐ°Ð¼ Ð°
ĠÐ´ÑĥÑĪ Ð¾Ð¹
ĠÐ¿Ð¾Ð¼ Ð¾Ñī
ÑıÑī ÐµÐ¹
ĠÐ±ÐµÐ´ Ð°
ÐŀÐ´ Ð½Ð°ÐºÐ¾
ĠÐĽ ÑİÐ´
ÑĥÐº Ð°Ð²
ĠÐ±Ð¾ÑĢ ÑĮÐ±
ÑģÑĤÑĢÐµÑĩ Ñĥ
ĠÐ¼ÐµÑģÑĤ Ð°
ĠÑħÐ¾Ñĩ Ñĥ
ÐĳÐµÑģ Ñģ
Ð½ Ð°Ð²
Ð» Ð¾Ð¶
Ñĥ Ð»Ð°
ÑĮ ÐµÐ¹
ĠÑĤ Ñİ
ĠÑĤ ÐµÑĢÐ¿
ĠÐ± Ð¾Ñİ
ÐµÑĢ ÐµÐ²
ĠÐ³ ÑĥÐ»
Ð°ÑĤ Ñĭ
Ð³ ÐµÐ½Ð¸Ð¹
ĠÐ½Ðµ Ð¸Ð·
Ð°Ð´ Ð½Ð¾
Ð¸Ð½ Ñı
ÐºÐ° Ñĩ
ĠÑħ ÑĢÐ°Ð½
ĠÑħ Ð²Ð°Ð»
Ðĳ ÑĭÐ»Ð°
Ðĳ ÑĭÑĤÑĮ
Ð£ Ð·
Ðĵ Ð¾ÑĤÐ¾Ð²
ĠÐ¡ ÑĭÐ½
ĠÐ¸Ð· ÑĥÐ¼
ĠÑĢÐ°Ð· Ð³
ÐļÐ°Ðº Ð¾Ð¹
ÑģÐ» ÑĥÑĪ
ĠÐ¼Ñĭ ÑģÐ»Ð¸
ĠÐ½Ð°ÑĪ ÐµÐ¹
ĠÑģÑĤÐ°ÑĢ ÑĭÐ¹
ĠÑįÑĤ Ð¾Ð¼
ĠÐ²Ð¾Ð» Ñİ
ĠÐºÐ¾Ð½ Ñı
ĠÐºÐ¾Ð½ Ñĩ
ĠÐ·Ð² ÐµÐ·Ð´
ÐµÐ½Ð¸ Ð¸
ĠÐ·Ð½ Ð°ÑĤÑĮ
ĠÐ¶Ð¸Ð² Ð¾Ð¹
ĠÐ¼ÐµÑĩ ÑĤÑĭ
ĠÐºÑĢÐ¾Ð² Ð°Ð²
ĠÑĤÐ² ÐµÑĢÐ´
ĠÑĤÐ¸ÑĪ Ð¸Ð½Ðµ
ĠÑĢÐµÐ±ÑıÑĤ Ð°
Ð¸ ÐµÐ²
Ñģ Ðµ
Ð» ÐµÑĩ
Ð» ÐµÐ½ÑĮÑı
ĠÑģ Ð¾Ð±ÑĢ
Ð¼ Ð¸Ð³
Ð°Ð» Ð¸Ð²
ĠÐ´ ÑĥÑĢ
ĠÐ¼ Ð°Ð»Ð¾
ÐµÑĢ Ð·
ÐĿ Ð¯
ĠÐ· ÑĥÐ±
Ð°ÑĤ Ð°
ĠÐ¿ÑĢ Ð¾Ð·
ÐŁ Ð¾Ð½
Ð· Ð°
Ð¡ ÐµÑĢÐ´
ĠÐ» Ð¸Ðº
ĠÐ» ÐµÐ¶Ð¸ÑĤ
ĠÐ» Ð¾ÑĪÐ°Ð´
ÐµÐ´ Ñĥ
Ð¢ Ð²Ð¾ÑĢ
Ð¢ ÐµÑĢÐºÐ¸Ð½
Ñĳ Ð·Ð´
Ð¾Ñĩ ÐºÑĥ
ÑĥÐ¼ Ñı
ĠÐ¡ Ñĭ
ÑĮÑı Ð¼Ð¸
ĠÐ¿Ð¾Ð» Ð½Ð¾
ĠÑĤÑĢ Ð¾Ð½
ĠÐ¿ÑĢÐ¸ Ð¿
ĠÐĶ ÑĢÐµÐ²
ĠÐ±ÑĥÐ´ Ñĥ
ĠÑĢÑĥ ÐºÑĥ
Ð½ÑĥÐ» Ð°ÑģÑĮ
Ð¸ÑĤÐµÐ»ÑĮ Ð½ÑĭÐ¹
ĠÐ¼Ð¸ÑĢ Ð°
ÑıÑī Ð¸Ñħ
ĠÑĤÐµÐ¼ Ð½Ð¾
ĠÐ§ ÑĤÐ¾
ÑĢÑı Ð¼
ĠÐ·Ð» Ð¾Ð´
ÑĢÐ°Ñģ Ð½Ð¾
ĠÐ³Ð¾Ð»Ð¾Ð² Ñĥ
ĠÐ²ÐµÑģ ÐµÐ»
ĠÐ²ÐµÑģ ÐµÐ»Ð¾
Ð¡ÑĤÐ°ÑĢ Ð¸Ðº
ĠÑģÐµÑĢ ÐµÐ±
ÑĢÑħ Ð°Ð½Ð³
. )
ÑĢ Ð°Ð»
ÑĢ Ð°Ð¼
Ð» Ð¾Ð¹
Ð» ÑĥÑĩ
Ðº Ð¾Ð³Ð¾
Ð² ÑıÑĤ
Ð¼ Ð°ÑĤ
ÐµÐ½ ÑĤ
ĠÑĤ ÐµÑģ
ĠÑĤ Ð¾Ð¶Ðµ
ĠÑĤ Ð¾Ð²Ð°ÑĢ
ÐµÐ¼ Ñı
ĠÑĢ ÐµÐ·
Ð¡ Ð¾Ð·Ð´
ĠÐ» Ð¾Ð²
Ð°Ð² Ð°
Ð°Ð½ ÐµÑĤ
Ð°Ð½ ÑĮÑİ
Ð°ÑĢ Ð¼
Ñī Ð°
Ðļ Ð¾Ð¼Ñĥ
ĠÑģÑĤ ÑĥÐ¿
ÑĥÑĤ ÑģÑı
ĠÑĪ Ð°ÑĢ
ĠÐ¡ Ð¾Ð»Ð½ÑĨÐµ
Ð½Ñı Ð²
ÐŀÑĤ Ð²ÐµÑĤ
ĠÐ²Ð¾Ð· Ð¼
ĠÑģÑĤÑĢ Ð¾Ð¹
ĠÐ¿ÑĢÐ¸ Ð³Ð¾Ð²Ð¾ÑĢ
ÑĳÐ½ Ð½ÑĭÐµ
ĠÐ³Ð¾Ð» ÑĥÐ±
ĠÐ²ÐµÑĢ ÑĪ
ĠÐ´ÑĢÑĥÐ³ Ð°
ĠÐ»ÐµÑĤ Ð¸ÑĤ
ĠÐ±Ð»Ð°Ð³ Ð¾ÑĢÐ¾Ð´
ĠÐ²ÑĭÑģ Ð¾Ðº
ĠÐĹÐµÐ¼ Ð»Ñı
ĠÐ¸ÑģÐ¿ ÑĥÐ³
ĠÐ½Ð¸Ðº Ð¾Ð³Ð´Ð°
ĠÐ¼Ð½ Ð¾Ð¶
ĠÐ¡Ð¼ÐµÑĢÑĤ ÑĮ
ĠÐ²ÑģÑĤÑĢ ÐµÑĤ
Ð» Ð¾ÑģÑĮ
ĠÑģ Ð¾ÑģÑĤ
ĠÑģ Ð¾Ð¼Ð½
Ð¼ ÑĥÑĢ
Ñħ Ð°
ÐµÐ½ Ð½ÑĥÑİ
Ð°Ð» ÑĤ
Ð¾Ð² ÑĭÐ¹
ĠÐ¼ Ð¸Ð½ÑĥÑĤ
Ð½Ñĭ ÑĪ
Ð¸ÑĤ Ñĭ
Ð¸ÑĤ ÑĭÐ¹
Ð¾Ð¼ Ð¸Ð½
Ðĺ ÑģÐ¿
ĠÑĢ Ð¾Ð±
ĠÐ³ ÑĥÑģÑĤ
ĠÐ¿ÑĢ Ð¾Ð»
ĠÐ¿ÑĢ Ð¾Ð³
ĠÐ¿ÑĢ ÐµÑģ
Ð¾Ð³ Ñĥ
Ð°ÑĢ Ð¾Ð¼
Ð¾Ð½ Ñĭ
Ð¢ Ð°
Ñĳ Ð´
ĠÐµ ÑīÑĳ
ÐĶ Ð²Ð°
ÐĶ Ð°Ð±Ñĭ
ĠÐ¾ÑĤ ÑĢÐ°Ð´
ÐŁÑĢ Ð¾Ð²
ĠÑħ Ð²
ĠÐ¾Ð± Ð¼Ð°Ð½
ĠÐ²Ñĭ Ð±
ĠÑģÐ¼ Ð¸ÑĢ
ĠÐ±Ð» ÐµÑģÑĤ
ĠÐļ Ð»Ð¸Ð¼
Ð¾Ð±ÑĢ Ð°Ð¶
ĠÑįÑĤ Ð¸Ñħ
ĠÐ²Ð¾Ð» ÑĪÐµÐ±
ĠÑĥÐ¼ Ð¸ÑĢ
ÑĪÐµ Ðµ
ĠÐ¿Ð¾Ð² ÐµÐ»
ĠÐ¿ÑĢÐ¾ Ñī
ĠÐ½Ð°Ð² ÐµÐº
Ð¸Ñī Ð°
ĠÐºÐ°ÑĢ ÑĤ
ĠÐ´Ð² ÑĥÑħ
ĠÐ´ÐµÑĤ ÐµÐ¹
ĠÐµÐ´ Ð²Ð°
ĠÐ³ÐµÑĢ Ð¾Ð¹
Ð¸ ÑģÐº
Ñģ ÑĥÐ´
ÑĢ Ð¾Ðº
ÑĢ Ð¾Ñĩ
ÑĢ ÐµÐº
Ð½ Ð¾Ð¶
Ð» Ð°Ð¶
Ñĭ Ð·
Ð² ÐµÑĩ
Ñħ Ð²Ð°ÑĤ
ĠÐ¸ Ð±Ð¾
ĠÐ¼ Ð¾ÑģÑĤ
ÐµÑĢ ÐµÐ³
ĠÐº Ð¾Ð³Ð¾
ĠÐº ÑĥÑĢ
ĠÐ» ÐµÐ¶
Ð°Ð² ÑĪÐ¸Ð¹
Ð°Ð½ Ñĥ
Ñī Ð¸Ðº
ĠÑĩ ÑĥÑĤÑĮ
Ð¾Ð½ Ð¸
ĠÑģÑĤ ÑĭÐ´
Ð¸Ð² Ð°ÑĤÑĮ
Ñĳ Ð³
Ð¸Ð¼ ÑĭÑħ
ÐµÐ· Ð´Ð°
ÐºÐ° ÐµÑĤ
ÐŁÑĢ Ð¸ÑĢ
Ð¸ÑĢ ÐµÐ¿
ÐĹ Ð²
ĠÐ¾Ð± Ð¸Ð´
ÑģÐº Ð¾Ð¼
Ðł Ð°Ð±
Ðł ÑĥÑģÐ»Ð°Ð½
ĠÐĶ ÐµÐ¼
ÑĳÐ½ Ð½ÑĭÑħ
ĠÐ¿Ð¾ÑĢ Ð¾Ð¹
ÑĦ ÐµÑĢ
ÐĺÐ· Ð±
ĠÑģÐ²ÐµÑĤ Ð°
ĠÑĥÑĤ ÑĢÐ°
ĠÐ¿ÑĢÐ°Ð² ÐµÐ´
ĠÐ±Ð¾Ð»ÑĮ ÑĪ
Ð¡Ð¿ Ð°Ñģ
ĠÐ¿ÐµÑģ ÐµÐ½
ĠÐ²Ð¾Ð¹ Ñģ
ĠÐ²Ð¾Ð¹ Ð½Ð°
ĠÐ´Ð¾Ð¼ Ð°
ĠÐŁÑĢ ÐµÑģÑĤÐ¾Ð»
ĠÐ¸ÑģÐ¿ ÑĭÑĤ
ĠÐ·Ð°Ñģ Ð»
ĠÑħÐ¾ÑĤ Ñı
ĠÐ²Ð¾ÑģÑĤ Ð¾ÑĢÐ³
ĠÐ·Ð¾Ð² ÐµÑĤ
ĠÐ¼ÑĥÐ· Ñĭ
ĠÑĤÑĢÐµÐ¿ ÐµÑĤ
ĠÑģÐ¾Ñħ ÑĢÐ°Ð½
) .
Ñ Ķ
ÑĢ ÐµÐ·
Ð» ÑıÑĤÑĮ
ĠÑģ Ð¾Ð¿
ĠÑģ Ð¸Ñı
ĠÐ¿ ÐµÐ½
ĠÐ¿ Ð¾ÑģÐ¿
ĠÐ¿ Ð¸Ñģ
ĠÐ½ Ð°Ð±
Ñĩ ÐµÐ·
ĠÑĤ ÐµÐ¿
ĠÑĤ Ð¾Ð¼Ñĥ
Ð¾Ð» Ð¾Ð´
ĠÐ¼ ÐµÑģÑı
ĠÐ¼ ÑıÑĤÐµÐ¶
ÐµÑĢ Ñħ
Ð¾ÑĢ Ð°
ĠÐ· Ð°Ñħ
ĠÑĢ Ð¾Ñī
ÐĴ Ð¾Ñģ
ÐµÐ´ Ð¾Ð¼
Ð°ÑĢ ÐµÐ¹
Ð½Ð¸ ÐºÑĥ
Ð°Ð´ Ð¸
Ð¢ Ð²Ð¾Ð¹
ÐµÐ² ÐµÑĢ
Ñĳ ÑĪÑĮ
ĠÑģÐ² ÐµÑĢÑĪ
Ð½Ñĥ Ð»Ð¸ÑģÑĮ
ĠÐ²Ñģ Ñİ
ĠÐ²Ñģ ÐµÐ³Ð´Ð°
ĠÐ¾Ð± Ñī
ÑģÑĤÐ² Ð¾Ð²Ð°Ð»
ÑĥÐ¼ Ð°Ð»
ÑģÐº Ð¾Ð¼Ñĥ
ĠÐ¿Ð¾Ð» Ð¾Ð²
ĠÑģÐ¼ ÑĥÑĤ
ĠÑģÐ¿ ÐµÑĢÐ²Ð°
ÐĴÑģ ÐµÑħ
ĠÑģÑĤÑĢ Ñĥ
Ð½Ð¸Ðº Ð¾Ð¼
ĠÐľ Ð¾ÑģÐº
ĠÐļ ÑĤÐ¾
ÑĥÑī Ðµ
ĠÐ²Ð¸Ð´ Ð½Ð¾
ÑıÐ´ ÑĥÑī
ÐµÐ½Ð¸ Ñİ
ĠÑģÐ¸Ð» Ñĥ
ĠÐ¿Ð¾ÑĤ ÐµÑĢ
ĠÐ·Ð°Ð¿ ÑĢÐµÑĤ
ĠÐ¿ÐµÑĩ Ð°Ð»Ð¸
ĠÐ½Ð¾Ð² ÑĭÐ¹
ĠÑħÐ¾Ð» Ð¼
ĠÐ¿Ð¾Ñĩ ÑĤ
ĠÑģÑĢÐµÐ´ Ð¸
ĠÑħÐ¾Ñĩ ÐµÑĪÑĮ
ĠÐķÐ² Ð³ÐµÐ½Ð¸Ð¹
ĠÐ²Ð¼ÐµÑģÑĤ Ðµ
Ð°Ð·ÐµÐ¿ Ð°
ĠÐ´Ð¸ÑĤ Ñı
Ñĭ Ð½Ñı
ĠÑģ Ð°Ð¼Ð¸
ĠÑģ ÑĥÑīÐµÑģÑĤÐ²
ĠÑģ ÑĥÑĢÐ¾Ð²
ĠÐ¿ Ð»Ð°Ñĩ
ÐµÑĤ ÐµÑĢ
Ð¾Ð² Ð°Ñı
Ð¾Ð² ÑĭÑħ
ĠÐ± ÐµÐ¶Ð¸ÑĤ
ĠÐ± ÑĥÐ½ÑĤ
ÐµÑĢ Ð½Ð¾
ĠÐº Ð»Ð°Ð´
Ð¸ÑĤ ÐµÐ»Ñı
ĠÐ³ ÐµÐ½ÐµÑĢÐ°Ð»
ĠÐ¿ÑĢ ÐµÐ·ÑĢ
ÐĴ ÐµÑģÑĮ
Ð¡ Ð¾Ð²
Ð¡ Ð¾Ð±
Ð¡ Ð²Ð¾Ð¹
Ð°Ð½ Ð½Ð°Ñı
Ð½Ð¸ ÑĨÑĥ
Ð°Ð´ Ñĭ
Ð¾Ð½ Ð¾Ñģ
ĠÐ¶ Ð´ÐµÑĤ
ĠÐ¶ ÐµÑĢÑĤÐ²
ÐĶ Ð°Ð¹
Ð»Ð¸ Ð¶
ÑĥÐ³ Ð¸
ĠÐºÑĢ ÑĥÑĤ
ĠÑħ Ð¸ÑĤÑĢ
ÐĹ Ð°Ð´
Ð°Ð¹ ÑģÑı
Ðĵ Ð¾Ð²Ð¾ÑĢ
ĠÐ¡ Ð²Ð¾
ĠÐ¡ Ð°Ð»ÑĤ
ĠÑģÐº ÑĥÑĩ
Ð½Ñı Ð³
ÐŀÑĤ ÐºÑĢ
ĠÑģÐ¿ Ð¾ÑģÐ¾Ð±
ĠÐ° Ð´
ĠÐ½Ð°ÑĪ Ð°
ÑĢÐ°Ð² Ð½
Ð¾Ñħ Ð½Ð¾Ð²
Ð²ÐµÑĢ Ð¶
ĠÐ½Ð¾Ñĩ ÑĮÑİ
ĠÐ¼Ð¾Ð³ Ð»Ð°
ĠÑģÐ¸Ð» Ð°Ñħ
ĠÐ·Ð½Ð° ÐµÑĤ
ĠÐ´ÐµÑĤ Ð¸
ĠÐºÑĢÐ¾Ð² Ð¸
ĠÐ´Ð¾Ð»Ð¶ ÐµÐ½
ĠÐ²ÑĢÐ°Ð³ Ð¾Ð²
ĠÐ¼ÑĭÑģÐ» ÑĮ
ĠÑģÐ¾Ð³ Ð»Ð°Ñģ
ÐķÐ´ Ð²Ð°
Ð¡ÑĢÐµÐ´ ÑĮ
ĠÐ¿Ð°Ð¼ ÑıÑĤ
Ð½ÐµÐ· Ð°Ð¿
ÑĤ ÐµÑģÑĮ
ÑĢ Ð¸ÑģÑĤ
Ð½ Ð°Ð»Ð°
Ð½ Ð°Ð¶Ð´Ñĭ
Ð» Ð¾Ð¼
ĠÑģ Ð½Ðµ
Ð² ÐµÐ¹
ĠÐ½ Ð¸Ð²
Ñħ Ð¾
ĠÐ´ Ð°Ð¹
ĠÐ´ Ð²ÐµÑĢ
ĠÐ´ ÐµÑģÑı
ĠÐº Ð°Ð¿
ĠÐº Ð¸Ð¿
Ð¾ÑĢ Ðµ
Ð¾ÑĢ Ð¶
ĠÐ· Ð²ÐµÑĢ
Ð°Ðº Ð°
Ð¾Ð³ Ð¸
Ð¡ Ð°ÑĪÐ°
Ð¾Ñģ Ð°
Ð¸Ð² Ð°ÐµÑĤ
Ð¸Ð² ÑĪÐ¸Ð¹
ÑĥÐ¶ Ðµ
ĠÐ±Ñĭ Ð²
ÐŁÑĢ Ð¸Ð±
Ð»Ð° ÑĪ
ĠÐºÑĢ Ð°ÑĤ
ĠÐºÑĢ Ð¾ÑĤ
Ð§ Ñĥ
ÑģÑĤÐ² ÐµÐ½Ð½Ð¾Ð¹
ÐĿÐ° Ñĩ
ĠÐ·Ð° Ð¾Ð´Ð½Ð¾
ĠÐ¿ÑĢÐ¸ ÑıÑĤ
ĠÐ²Ð¸Ð´ ÐµÑĤÑĮ
Ð¸ÑĤÐµÐ»ÑĮ Ð½Ð¾Ð¹
Ð¥ Ð¾ÑĤÑı
ĠÐķ ÑĢ
ĠÐ·Ð² ÑĳÐ·Ð´
ÐļÑĢ Ð¸Ñĩ
ÐŀÐ´ Ð½Ð°
ĠÐ½ÐµÐ´ Ð²Ð¸Ð¶
ĠÐ³Ð¾Ð»Ð¾Ð² Ð°
ĠÐ³Ð¾Ð»Ð¾Ð² Ð¾Ð¹
ĠÑģÐ¾Ð² ÑģÐµÐ¼
ĠÑĩÐµÑĢ ÐµÐ·
Ð½Ñİ Ñİ
ĠÑĩÑĥÐ´ Ð¾
ÐĴÐ· Ð´
ĠÐ¾ÑĢ ÑĥÐ¶
ĠÑħÐ¾Ñĩ ÐµÑĤ
ÑİÑī Ð¸Ð¹
ĠÑģÐ¸Ð´ Ð¸ÑĤ
ĠÑģÐ´ ÐµÐ»
ĠÐºÑĢÐ¸Ñĩ Ð¸ÑĤ
ĠÐ´Ð°Ð»ÐµÐº Ð¾
ĠÐ»Ð¸ÑĨ Ð¾
Ð° ÑĦ
ÑĢ ÐµÑģÑĤ
Ð½ ÑĳÐ¼
Ð» Ð°Ð¶Ð´
ĠÑģ ÑĥÐ¶Ð´
ĠÐ¿ ÑĤ
ĠÐ¿ Ð°Ñħ
ĠÐ² Ð¼Ð¸Ð³
Ñĩ ÐµÑģ
Ð¼ Ð¸Ð»Ð°
ÑģÑĤ Ð°
ÐµÐ½ Ð½Ð¾Ð³Ð¾
ĠÐ¸ Ð´ÑĥÑĤ
ĠÐ± ÐµÐ¶
ÐµÑĢ ÑĥÐ²
Ð¾ÑĢ Ð±
ÐĿ Ð¸Ñĩ
ĠÐ¿ÑĢ Ð¸Ñħ
Ð¡ Ð¸Ñı
Ð¿ Ð¾Ð´
Ð½Ð¸ ÑĨÐµ
ÐµÑģ Ð°
Ðŀ Ðº
Ðļ Ð¾Ð½
ĠÑģÑĤ Ð°ÑĤÑĮ
ÐĶ ÐµÑĢÐµÐ²
Ð¾Ð¶ Ñĥ
ÐµÐ½ÑĮ ÐºÐ¸Ð¹
ĠÑģÐ² Ð¾Ð´
Ð§ ÐµÐ³Ð¾
Ð£ Ð²
Ð£ Ð²Ð¸Ð´
ĠÐ²Ñģ ÐºÐ¾ÑĢ
ĠÐ³ÑĢ ÑıÐ·
ÑĥÑĩ Ð¸ÑĤ
ĠÐ¸Ð· Ð¼
ĠÑĤÑĢ ÐµÑĤ
ĠÑģÐ¼ Ðµ
ĠÑģÐ¿ ÑĢÐ¾Ñģ
ĠÐ¿ÐµÑĢ ÐµÐ²
ĠÐ° Ð½Ð³
ĠÐ±Ð» ÐµÑģÐº
ĠÐŀ Ð»ÑĮ
ĠÐ½Ð°Ð´ ÐµÐ¶
ÑģÑĤÑĢ Ð¾
Ð¥ Ð¾ÑĢ
Ð»Ð¸Ð² ÑĭÐ¹
ĠÑģÐµÑĢÐ´ ÐµÑĩ
Ð¡Ðº Ð°Ð·
ĠÐ»ÑİÐ´ ÑģÐºÐ¾Ð¹
ĠÐ¼ÑĥÐ¶ Ð¸ÐºÐ¸
ĠÐ¾Ð³ Ð¾Ð½ÑĮ
ĠÑģÐ¾Ð± Ð»Ð°Ð·
ĠÑģÐ»Ð°Ð² Ð°
ĠÐ³Ð¾Ð»Ð¾Ð² Ñĭ
ĠÑģÐ¾Ð² ÐµÑĤ
ĠÑĩÑĤÐ¾Ð± Ñĭ
ĠÐĹÐµÐ¼ Ð»Ñİ
ĠÐ´Ð¾ÑĢÐ¾Ð³ Ñĥ
ĠÑĢÐµÑĩ Ð¸
ĠÐ¾Ð±ÑĬ ÑıÑĤ
ĠÐ¿Ð¾Ð¼ÐµÑī Ð¸Ðº
ÐµÑĢÑĥÐ² Ð¸Ð¼
Ðµ ÑıÐ½
ÑĢ Ð¾Ð¹
ÑĢ ÑĥÐ´
Ð½ ÐµÑĤÑģÑı
Ð» Ñĭ
Ð» ÑĭÑħ
Ñĥ ÑİÑĤ
ÑĮ Ñĳ
ĠÐ¿ ÐµÐ²
ĠÐ¿ Ð»Ñı
ĠÐ² Ð¸Ñħ
ÐµÑĤ ÐµÐ»ÑĮ
ĠÐ´ Ð²Ð¸Ð¶
ĠÐ¸ Ð½Ð¾Ð¹
Ð¾Ð² ÑĭÐµ
ĠÐº Ð¾Ð»ÑĮ
ĠÐº Ð°Ð±
Ð½Ñĭ Ð½Ðµ
ÐµÐ» Ñİ
ĠÐ³ Ð¾ÑģÑĥÐ´
ĠÐ¿ÑĢ Ð¾ÑĩÑĮ
ÐĴ ÑĤÐ¾ÑĢ
Ð¡ Ð½
Ð°Ð½ ÐºÐ¸
Ð°Ð½ Ð½ÑĭÐµ
ĠÑĩ ÑĥÐ¶Ð´
Ð¢ Ð¾Ð»
Ð¾Ð· Ð²
ÐĶ Ð¾Ð¼
ÑĥÑĪ Ð¸
ÑĥÑĪ ÐºÐµ
Ðľ ÐµÑĩ
Ðĳ Ð¾Ð»ÑĮ
ĠÐ¿Ð¾Ð´ ÑĭÐ¼
ĠÐ²Ñĭ Ð·
ĠÐ¡ Ð¿
ĠÐ¿Ð¾Ð» Ð½Ð°
Ðķ ÑģÐ»Ð¸
ĠÐ·Ð° ÑĩÐµÐ¼
Ð¸Ðµ Ñħ
ĠÑģÐ¿ ÑĢÐ°Ð²
ĠÐ¼Ð¾ Ðµ
Ð¸ÑģÑĤ ÑĭÐ¹
ĠÐĵ ÐµÐµÐ½
ĠÐ¿Ð¾ÑĢ Ñĭ
ĠÐ¿Ð¾ÑĢ ÑıÐ´
ĠÐºÐ¾Ð½ ÐµÑĨ
ĠÐ´ÑĢÑĥÐ³ Ð¸Ñħ
ĠÐ¼Ð¾Ð³ Ñĥ
ÐµÐ»Ð¾Ð² ÐµÑĩ
Ð¡Ð» ÑĥÑĩ
ĠÐ¿ÐµÑģ Ð½Ñı
ĠÐ¿ÑĥÑģÑĤ ÑĭÐ½
ĠÐ£ Ð¶
ĠÐ·Ð°ÑĤ ÐµÐ¼
ÑıÐ³ Ñĩ
ĠÐ§ÐµÐ»Ð¾Ð²ÐµÐº Ð°
ĠÐ¼ÐµÐ´ Ð»ÐµÐ½
ĠÐ½Ð°Ð· Ð°Ð´
ĠÑģÐ»Ð°Ð´ Ð¾ÑģÑĤ
ĠÑĤÐ¾Ð»Ð¿ Ð¾Ð¹
ĠÐ¿ÑĢÑıÐ¼ Ð¾
ĠÐłÑĥÑģ Ð¸
ĠÑĤÑİ ÑĢ
ĠÑĤÐ¾Ð²Ð°ÑĢ Ð¸Ñī
ÑĤ Ð°
ĠÑģ ÑĩÐ¸ÑĤ
ĠÐ¿ ÑıÑĤÑĮ
ĠÐ¿ Ð¸ÑģÑĮ
ĠÐ² ÑģÑĤÑĥÐ¿
Ð² Ð°ÑĤÑĮ
Ñĩ Ð°
ĠÐ´ Ð¾Ð³
ĠÐ¼ ÐµÐ½ÑĮ
ĠÐ¼ Ð°Ð»ÑĮ
Ð¾ÑĢ ÑĥÐ¶
Ð¾Ð´ ÑĥÑĪ
ÐĿ Ð¾Ñĩ
Ðĺ Ð´ÐµÑĤ
ĠÑĢ Ð¾Ð³
Ð°ÑĤ Ðµ
ÐŁ ÐµÑĩ
Ð°Ðº Ð¾Ð²
Ð¡ ÑĩÐ°ÑģÑĤ
Ð¾ÑĤ Ð½Ð¾
Ð³ ÑĢÐ°
Ð½Ð¸ Ð¶
Ðļ ÑĥÐ¿
Ð¢ ÑĢÐ¸
Ð¸Ð² Ð¾Ð¹
ĠÐ¶ Ð°Ð¶Ð´
Ð¾Ð¶ ÐµÑĤ
Ð¸Ñħ Ð¾Ð¹
ÐŁÑĢ Ð¸Ð´
ÐŁÑĢ Ð¾ÑĪ
ÐŁÑĢ ÐµÐºÑĢÐ°Ñģ
ĠÐºÑĢ ÑĥÐ¶
Ðĳ ÐµÐ´
Ðĳ Ð°ÑĢ
ÐĹ Ð°Ñģ
Ð¾Ð¿ ÑĤ
ĠÐ³ÑĢ Ð°Ð´
ĠÐ¿Ð¾Ð´ ÑĥÐ¼
ĠÐ¿Ð¾Ð» Ð´
Ðł ÐµÑĪ
ĠÐĴ Ð»Ð°Ñģ
ÐŀÐ½ ÐµÐ³Ð¸Ð½
ĠÑĢÑĥ ÐºÐ°Ñħ
ĠÑģÐµÑĢÐ´ ÑĨÐµÐ¼
ĠÐ¼Ð¸ÑĢ Ðµ
ĠÐ¾Ð¿ ÑĥÑģÑĤ
ĠÐ·Ð² ÑĥÐº
Ð»ÐµÐ½ Ð°
ĠÑĤÐ²Ð¾ ÐµÐ³Ð¾
ĠÐ·Ð°Ð± Ð¾ÑĤ
ĠÐ½Ð°ÑĢ ÑıÐ´
ĠÐºÑĢÐ°Ñģ Ð°Ð²
ĠÐĿÐµÐ±ÐµÑģ Ð°
ĠÐ½Ð¾Ð² Ð¾Ð¹
ĠÐ·Ð½Ð° ÐµÑĪÑĮ
ĠÐ¾Ð±ÑĢ ÐµÑĤ
ĠÐ³Ð»ÑĥÐ± Ð¾Ðº
ĠÐ³Ð»ÑĥÐ± Ð¾ÐºÐ¾
ĠÐ±Ð¾ Ñı
ĠÑĤÐ² Ð¾Ñİ
ĠÑĥÑģÑĤ Ð°Ð»
ĠÐ²Ð»Ð° ÑģÑĤ
Ð°ÑİÑī Ð¸Ð¹
ĠÑħÐ¾ÑĢ Ð¾ÑĪ
Ð½Ð°Ðº Ð¾Ð¼
ĠÐ´Ð°Ð»ÑĮ ÑĪÐµ
ĠÐĴÑĢÐ°Ð³ Ð°
ÐĹÐ°ÑĤ Ð¾
ĠÑıÐ· ÑĭÐº
ĠÐ¿Ð¾Ð·Ð´ Ð½Ð¾
ÐĵÐ»Ð°Ð² Ð°
ĠÐ¿ ÑĮÑı
ĠÐ² Ð°Ñħ
ĠÐ² Ð¸Ð½Ð¾Ð²
Ð² Ð°ÑĢ
ĠÐ½ Ð°ÑĤ
ÐµÐ½ Ð¸ÑĤ
ÐµÐ½ Ð½Ð¾Ðµ
ĠÐ¾ ÑģÐ»
ĠÐ´ Ð¾Ð¿
ĠÐ± ÑĥÐ¹
ĠÐ¼ Ð¾Ð½
ÐµÐ» Ð¾ÑģÑĮ
ĠÐ· ÑĢ
Ðĺ ÑģÐº
ĠÑĢ Ð°ÑĤÑĮ
ĠÑĢ Ð°Ð¹
ĠÐ¿ÑĢ Ð¾ÑģÐ»Ð°Ð²
ÐĴ Ð°Ð¼
Ð¡ Ð²ÐµÑĤ
ÑĨ ÐµÐ»
Ð³ Ñĥ
Ð¢ Ð¾Ð³Ð¾
ÐĶ ÐµÐ²
Ð¾Ð¶ ÐµÑģÑĤÐ²
ĠÐ¾ÑĤ ÑĨÐ°
Ð½Ñĥ Ð»Ð¾
ÐŁÑĢ Ð¾Ñī
Ðľ Ð°ÑĢÐ¸Ñı
ÐĹ Ð°Ð³
ĠÐ³ÑĢ ÐµÐ¼
ĠÐ¿Ð¾Ð´ ÑĢÑĥÐ³
ĠÐ¸Ð· Ð²
ĠÑģÐº Ð°ÑĤ
Ðķ ÑģÑĤÑĮ
ĠÐ¢ Ð²Ð¾
ĠÑģÐ¼ Ð¾Ð»Ðº
ĠÐ»Ð¸ ÑĨÐ°
ĠÐ¿Ð» Ð¾Ð´Ñĭ
ĠÐĶ Ð°
ĠÐ»ÑİÐ± Ð¸Ð»
Ð¡ÑĤ ÑĢÐµÐ¼
ĠÐľ Ð¾
ĠÐľ Ð¸ÑħÐ°
ĠÐ½Ð°Ñģ Ð»Ð°Ð¶Ð´
ĠÐ²Ð¾Ð» Ð½Ñĭ
ĠÐ½ÐµÐ¼ ÐµÑĨ
ĠÐ²Ð¾ Ð¸Ð½
ĠÐ²Ð´ Ð¾ÑħÐ½Ð¾Ð²
ĠÐ¾Ð³ Ð½ÐµÐ¼
ĠÐ¾Ñģ Ð²
ĠÐ¾Ñģ Ð¾Ð±
ĠÐ§ ÐµÑĢ
ĠÐºÐ¾Ð» ÐµÑģ
ĠÐ¼Ð¾Ð¶ Ð½Ð¾
ĠÐ¿ÐµÑģ Ð½Ñİ
ĠÐ²ÐµÑĩ Ð½Ð¾
ĠÐ·Ð°Ð² ÑĤ
ĠÐ´Ð¾Ð±ÑĢ ÑĭÐ¹
ĠÑģÑĤÐ¾ ÑıÐ»
ĠÑģÑĭ Ð½Ð°
ĠÐºÐ¾ÑĤÐ¾ÑĢ ÑĭÑħ
ĠÐ²ÐµÐ´ ÑĮ
ĠÐ¥ Ð°
ĠÐ½Ð¸Ðº ÑĤÐ¾
ĠÑģÐ»ÑĭÑĪ Ð¸ÑĤ
ĠÑĤÐ¾ÑĢ Ð¾Ð¿
ĠÑģÑĥÐ´ÑĮÐ± Ð°
ĠÐ²Ð¾Ð¿ ÑĢÐ¾Ñģ
ÐŁÐ¾ÑĢ Ð°
ĠÐĶÑĥÑħ Ð¾Ð²
ĠÐ¸ÑģÑĤ Ð¸Ð½
Ð¢ÑĢ ÑĥÐ´
ĠÑģÐ²ÑıÑĤ Ð¾Ð¹
ĠÐ¿ÑĢÐ°Ð·Ð´ Ð½Ð¸Ðº
ÐĴÐµÐ» Ð¸Ðº
ÐĿÐ°ÑĢ Ð¾Ð´
ÐĿÐ¸Ðº ÑĤÐ¾
ĠÐ½ÐµÐ½Ð°Ð² Ð¸ÑģÑĤ
ĠÐĹÐ¼ Ð¸Ð¹
ÑĢÑħÐ°Ð½Ð³ ÐµÐ»
? "
Ð ©
ÑĤ Ð°ÑĢ
Ð¸ ÑģÐ»
Ð» Ð°ÑĤ
ĠÑģ Ð½Ð°
ĠÑģ Ð¾Ð¶
ĠÐ¿ Ñģ
Ðº Ð°Ðº
Ð¼ Ð¾
Ð¼ Ð¿
ÐµÐ½ Ð¾Ðº
Ð¾Ð» Ñĩ
Ð¾Ð» Ð¾Ñģ
ĠÐ´ Ð¾Ñĩ
ĠÐ± Ð¾Ð»Ð¾ÑĤ
ĠÐ¼ Ñĩ
ĠÐ¼ ÑĥÐº
ĠÐº Ð¾Ð²Ð°ÑĢ
Ð¾Ð´ ÑĢ
ĠÐ· Ð»Ð¾
ĠÐ³ ÐµÑĤ
ÐŁ ÑĥÑģÐºÐ°Ð¹
Ð¡ Ð¾Ð»
Ð°Ð½ Ñı
ÑĤÐ¾ Ñĩ
Ñī Ñĥ
Ñī Ð¸Ñħ
Ðŀ Ð¹
ĠÑģÑĤ Ð°Ð»Ð°
ĠÐ¶ Ð°Ð»ÑĮ
ÐµÑģÑĤ ÑĢ
ĠÐµ ÑģÑĤ
Ð»Ð¸ ÑĪ
ĠÑģÐ² Ð¸ÑģÑĤ
ĠÑģÐ² ÑıÑī
Ð»Ñı Ñı
Ðľ Ð½Ð¾Ð³Ð¾
ÐĹ Ð´
ĠÐ¾Ð± Ð°
ÐµÐ»ÑĮ Ðµ
ÐµÑĪ Ð½Ð¾
Ð´Ð° ÐµÑĤ
ĠÐ¡ Ð²ÑıÑĤ
ÐĽ ÑĥÑĩ
ÐµÑħ Ð°Ð»
ĠÐ±ÐµÐ· Ð¼ÐµÑĢ
ÐĴÑģ ÐµÐ³Ð´Ð°
ĠÐ¼Ð¾Ð» Ð¸ÑĤ
ĠÐ¿ÑĢÐ¸ Ð³
Ð¡ÑĤ Ð°Ð»
ĠÐľ Ð½Ðµ
Ð°ÑĪ Ðµ
ÐŁÐ¾Ð´ Ð¾Ð±Ð½Ð¾
ĠÐļ Ð¸ÐµÐ²
ĠÑĢÐ°Ñģ Ðº
ĠÐ±ÑĥÐ´ ÐµÑĪÑĮ
ĠÑĢÑĥ ÐºÐ°
ĠÐ¿ÑĢÐµÐ´ ÐµÐ»
ĠÐ¿ÑĢÐµÐ´ Ð¿
ĠÑĢÐ¾Ð´ Ð½Ð°Ñı
ĠÐ·Ð² ÑĥÐºÐ¸
Ð»ÐµÐ½ Ñĭ
ĠÐ¿Ð¾Ð² ÑĤÐ¾ÑĢ
ĠÐĺ Ð·
ĠÐ¼Ð¸Ð» ÑĭÐ¹
ĠÐĽ ÐµÐ½ÑģÐºÐ¸Ð¹
ĠÐ´ÑĥÐ¼ Ð°Ð»
ÐłÐ°Ð· Ð´
ĠÐ²ÑĢÐµÐ¼ ÐµÐ½Ð¸
ĠÑģÑĩÐ°ÑģÑĤ ÑĮÐµ
ĠÐ¸ÑģÐº ÑĥÑģ
ĠÐ¶ÐµÐ» ÐµÐ·
ĠÑĤÐ¾ÑĤ ÑĩÐ°Ñģ
ĠÐ´Ð¾ÑĢÐ¾Ð³ Ð¸
ĠÑĨÐ²ÐµÑĤ Ñĭ
ÐĴÐ¾Ð· Ð¼Ð¾Ð¶Ð½Ð¾
Ð°ÑİÑī Ð¸Ñħ
ĠÐ²Ð¾Ð·Ð² ÑĢÐ°Ñī
ÑĭÑĢ ÑĮ
ĠÑħÑĢ Ð°Ð¼
ĠÑĢÐ°Ð·Ð´ ÐµÐ»
ĠÐ¿Ð¾ÑģÐ»ÐµÐ´ Ð½Ð¸Ð¹
ĠÑģÐ¾Ð· ÐµÑĢ
ĠÐ¿ÑĢÐ¸Ð± Ð»Ð¸Ð¶
ĠÐ»Ð°Ñģ ÐºÐ¾Ð²
ĠÐ¼Ð³ Ð½Ð¾Ð²
ĠÐ²Ð¾Ð² ÑģÐµ
Ðµ ÑİÑĤ
Ð¸ ÑĨÑĥ
ÑĢ ÑĥÐ±
Ð½ Ð°ÑĤ
Ñĭ Ð½Ð¸
ĠÐ² Ð¸Ð½
ĠÐ² Ð½Ð¸Ð·
Ð² Ð¾Ñİ
Ð¼ Ð¸ÑĢ
ĠÑĤ ÑĳÐ¼
ĠÑĤ ÑıÐ³
ĠÐ´ Ñĥ
Ð¾Ð² ÐµÐ¹
ĠÐ¼ ÐµÑĤ
Ð¾ÑĢ Ð¾Ð¼
ĠÐ· Ð°Ð¶
ĠÐ³ ÑĥÐ»Ñı
ĠÐ¿ÑĢ Ð¾ÑĢ
ĠÐ¿ÑĢ ÐµÐ·
ÐŁ Ð¾Ñħ
ÐĴ ÐµÐ´ÑĮ
Ð¡ ÑĥÐ´ÑĮÐ±
Ð± ÐµÐ¶
Ð¾ÑĤ Ð¾Ð¼
Ð³ Ðµ
ĠÐ» ÐµÐ´
ĠÐ» ÑĥÐºÐ°Ð²
Ð°ÑĢ Ñİ
Ð°ÑĢ Ð¾Ð²
Ðŀ Ñħ
Ð°Ð· ÑĥÐ¼
Ðļ Ð¾Ð»ÑĮ
ĠÑģÑĤ Ð°Ð»Ð¸
ĠÐ¶ ÐµÐ½Ñĭ
Ñĳ Ð¶
ÐĶ Ð¾Ð±ÑĢ
ÐĶ ÐµÑĢÐ¶
Ð¾Ñĩ Ð¸Ð»
ĠÑģÐ² ÐµÐº
Ð½Ñĥ ÑģÑĮ
Ð»Ñı ÐµÑĤ
Ðľ Ð°Ð·ÐµÐ¿Ð°
Ð£ ÑģÐ»
Ð£ ÐºÑĢ
ĠÐ¾Ð± Ð¸ÑĤ
ÑģÑĤÐ² Ð¾Ð²Ð°ÑĤÑĮ
ÑĥÑĩ Ð¸Ð»
ĠÐ¿Ð¾ ÐµÑĤ
ĠÐ¿Ð¾ ÑħÐ¾Ð´
ĠÑĢÐ°Ð· Ð²Ðµ
ĠÑĢÐ°Ð· Ð»Ð¸Ñĩ
ĠÐ¿Ð¾Ð» ÐµÑĤ
ĠÐ¿Ð¾Ð» Ð¾Ñģ
ĠÐ¿Ð¾Ð» ÐµÐ¹
ĠÐĴ ÑĢÐ°ÑĤ
Ð²Ð¾ Ðµ
ĠÑģÐ¿ Ð¸ÑĤ
ĠÐŁ Ð¾
ĠÐ¿ÐµÑĢ ÐµÑģ
Ð°Ð»ÑĮ Ð½ÑĭÐ¹
Ð°Ð»ÑĮ Ð½Ð¾Ð¹
ĠÐ±ÑĢ Ð°ÑĤÑĮÑı
ÑģÑĤÑĢ ÐµÐ¼
ĠÑģÑĤÐ°ÑĢ ÑĥÑħÐ°
ÑĥÑī Ð¸Ñħ
ÐµÐ½ÑĮÑı Ñħ
ĠÐ²ÐµÑĢ Ñħ
ĠÐł ÑĥÑģÐ»Ð°Ð½
ĠÐ·Ð² ÑĥÑĩ
ĠÐ¼Ð¾Ð³ Ð»Ð¸
Ð¡Ðº Ð¾ÑĢ
Ð¡Ðº Ð²Ð¾Ð·ÑĮ
ĠÑĤÐ²Ð¾ Ð¸
ĠÐ±ÐµÑģ ÐµÐ´
ĠÐ·Ð» Ð°ÑĤ
ĠÐĳÐ¾Ð³ Ñĥ
ÐŁÐ¾Ðº Ð¾ÑĢ
ĠÐ»ÐµÑģ Ð°
ĠÐ²Ð¾Ð¹ Ð½Ñĭ
ĠÑĢÐ°Ð´ Ð¾ÑģÑĤÑĮ
ĠÐ¿ÑĢÐ¸Ð² ÐµÑĤ
ĠÑĥÐ· Ð½Ð°
ĠÑģÐºÐ¾ÑĢ ÐµÐ¹
ĠÐ´Ð² Ðµ
ĠÐ¥ ÐµÑĢÑĥÐ²Ð¸Ð¼
Ð¡Ð² Ð¾Ð±Ð¾Ð´
ĠÑī ÐµÐ´
ĠÐ±Ð¾ ÐµÑĨ
Ð¦ Ð°ÑĢÑĮ
ĠÐ¼Ð¾Ð»Ñĩ Ð°
ĠÐĲÐ½Ð³ ÐµÐ»Ð¾Ð²
ĠÐ´Ð¾ÑģÑĤ Ð¾Ð¹
Ð¾Ð¹Ð´ ÐµÐ¼
Ð½Ð°Ñĩ Ð°Ð»Ð°
ĠÑħÐ» Ð¾Ð¿
ĠÐºÐ°Ð· Ð½ÑĮ
Ð¡ÑĤÐ¾ Ð¸ÑĤ
ĠÑĢÑĥÐ± ÐµÐ¶
ĠÐ¾ÑģÑĤÑĢ Ð¾Ð²
ÐµÑĢÐ² ÑĭÐµ
ĠÐ´ÐµÐ´ ÑĥÑĪÐºÐ°
ĠÑĤÑĥÐ¼ Ð°Ð½
ĠÐ¸Ð½ Ð¾Ð³Ð´Ð°
ĠÐ²ÑģÐºÐ¾ÑĢ Ðµ
Ð¾ ÑıÐ½
Ð¸ Ð½ÑĭÐ¹
Ð¸ ÑĦ
Ð¸ Ð½Ð¾Ñĩ
ÑĢ Ð¾ÑĪ
Ð½ Ð°Ð½ÑĮÐµ
Ð» Ð¾Ð´
Ð» Ð¾ÑĤ
ĠÑģ Ð¸Ð»Ð°
ĠÑģ ÐµÐ³Ð¾Ð´Ð½Ñı
ĠÐ¿ ÑĭÑĤ
ĠÐ² Ð¾Ð¶Ð´
ÑĪ Ð¸Ð±
ÐµÐ½ Ñĩ
ĠÐ¾ Ð¼
Ð¾Ð» Ð½Ðµ
ĠÐ¼ Ð°ÑĪ
ĠÐº Ð»ÑİÑĩ
ÐµÐ» Ð¾Ð¼
Ð¾Ð´ Ð¸
ĠÐ· Ð¾Ð»
ĠÑĢ Ð¾Ð¼
ĠÑĢ Ð¾Ð¶
ÐŁ ÐµÑģ
Ð¡ Ð¾Ð³
Ð± Ñĥ
Ð°Ð¼ ÐµÐ½
Ð³ Ð½Ð¾Ð²
Ð³ Ð»Ð°Ñģ
ĠÐ» Ð¸ÑĢ
Ð°Ð½ Ð½Ð¾Ðµ
Ð°Ð½ Ð½ÑĥÑİ
Ð½Ð¸ Ð½
ĠÑĩ Ð°ÑĢ
ĠÑĩ Ð°Ð¹
Ðļ ÑĢÑĥÐ³
Ð¸Ð² Ð°Ñı
Ð½Ð° Ñħ
ÐµÐ² Ð°Ð»
ÐµÑģÑĤ ÑĮÑİ
ĠÐµ Ð¶
ĠÑĥ Ð»Ð¸
ÐµÐ½ÑĮ ÐºÐ¸
ĠÐ¾ÑĤ Ð²ÐµÑĢÐ³
ÐŁÑĢ Ð¾Ðº
Ðľ Ð³Ð½Ð¾Ð²
Ð½Ðµ ÑĪÑĮ
ÐĹ Ð¾Ð²
Ð°Ð¶ ÐµÑĤÑģÑı
Ð£ Ð²Ñĭ
ĠÐ¾Ð± Ð½
ÑģÑĤÐ² ÑĥÐµÑĤ
Ð°Ð± ÑĢ
ÐµÑĪ ÐµÐ½
ĠÐ³ÑĢ Ð°Ð½
ĠÐ¿Ð¾Ð´ ÑĬ
Ðł Ð°ÑģÑĤ
Ðł Ð°Ð²Ð½Ð¾
Ð°ÑģÑĤ Ð¸
ĠÑĤÑĢ Ð¾Ð¿
Ð¸Ð· Ð½
ÐĴÑģ ÐµÐ¼
ĠÐ¿ÐµÑĢ ÐµÐ¼
ĠÐ¿ÐµÑĢ ÐµÐ¿
ĠÐ²Ð¾Ð· Ð¼Ð¾Ð¶Ð½Ð¾
ĠÐ³Ð» ÑĥÑĪÐ¸
ĠÑģÑĤÑĢ Ð¾
ĠÐ¿ÑĢÐ¸ ÑģÑĤ
ĠÐ±Ð» ÐµÑģ
ĠÐ½Ð°ÑĪ Ðµ
ĠÑģÑĤÐ°ÑĢ ÑĥÑħ
ĠÐ¿Ð¾ÑĢ ÑĤ
ĠÑįÑĤ Ð¸Ð¼
Ð»Ñİ ÑģÑĮ
Ð¥ ÑĢÐ°Ð½
ĠÐ´ÑĢÑĥÐ³ Ñĥ
ĠÐķ ÑģÐ»Ð¸
ĠÐ¾Ð¿ Ð°Ñģ
Ð¡Ðº Ð°Ð¶Ð¸
ĠÐĺ Ð³Ð¾ÑĢ
ÐµÑģÑĤÐ² Ð¾Ð¼
ĠÐ¼ÑĥÐ¶ Ð°
ĠÐ´ÐµÐ² Ñĭ
ĠÑĢÐ°Ð´ Ð¾ÑģÑĤÐ¸
ĠÐ³Ð¾Ð²Ð¾ÑĢ Ð¸Ð»
ĠÐŀÐ½ ÐµÐ³Ð¸Ð½
Ð¡Ð² ÑıÑĤ
ĠÐ´ÐµÐ» Ð°ÑĤÑĮ
Ð¸ÑĨ ÐµÐ¹
ÐĵÑĢ Ð¾Ð·
ĠÑģÑĤÐ¾ÑĢÐ¾Ð½ Ðµ
ĠÑĢÑıÐ´ Ð¾Ð¼
ĠÐ·Ð°Ð´ ÑĥÐ¼
ĠÑĩÑĥÐ² ÑģÑĤÐ²Ð°
ÐŁÐ¾Ð¼ ÐµÑī
ĠÐĿÐµÐ± Ð°
ĠÑĪÐ¸ÑĢ Ð¾Ðº
ÐŁÑĥÑģÑĤ ÑĮ
ĠÑģÐ¾Ðº ÑĢÑĥÑĪ
ĠÐ¿ÑĢÐ¾Ð´ Ð¾Ð»Ð¶
ĠÑģÐ¾Ð²ÐµÑĢÑĪ ÐµÐ½
ÐĶÐ¾Ð² Ð¾Ð»ÑĮÐ½Ð¾
Ð§ÐµÑĢ ÐµÐ·
ĠÑģÐ¾Ð±Ð»Ð°Ð· Ð½
Ð¼Ð¿ Ð¸ÑĢ
Ð¾ Ð¸Ð½
ÑĢ ÑıÑĤ
Ñĥ Ð½Ð°
ÑĮ ÑĤÐµ
Ñı Ñı
ĠÐ¿ ÑĥÑĩ
ĠÐ½ Ñı
ĠÐ½ ÑĢÐ°Ð²
ĠÐ½ ÐµÐ±Ðµ
Ñĩ Ñĥ
ÐµÐ½ Ñĥ
ĠÑĤ ÐµÐº
Ð¾Ð» Ðµ
ĠÐ¼ Ð¾Ð»ÑĮ
Ð¾ÑĢ Ð¾ÑĤ
ĠÐ· ÐµÐ»ÐµÐ½
Ðĺ Ñģ
ÐµÐ¼ ÑĮ
ĠÐ³ Ð¸Ð¼
ĠÐ³ Ð¾Ð´Ð°
ÐĴ ÐµÐ»Ð¸
Ð°Ðº Ð¸
Ð³ Ð»Ñı
Ð°Ð² ÑĪÐ¸ÑģÑĮ
Ð°Ð½ Ð½Ð¾
Ð°Ð½ Ð½ÑĭÐ¼
ĠÐ½Ðµ Ð¾Ð±
Ð½Ð¸ ÑģÑĮ
Ð¾Ð± Ñī
ĠÐ¶ Ð¸Ð»Ð¸
ĠÐ¶ ÐµÑĢÑĤ
Ð¸Ð¼ Ð¸ÑĢ
ÐĶ Ð¾Ð±
Ð¾Ñĩ Ð°Ð¹
ĠÑı Ð´
ÑĥÐ³ Ð°
ÐŁÑĢ Ð¾Ñħ
ÐŁÑĢ Ð¸Ñģ
Ð§ Ð¸ÑĤ
ĠÑħ ÑĥÐ¶Ðµ
Ðľ Ð¸ÑĢ
ĠÑģÐº Ð¾Ð»ÑĮÐºÐ¾
Ð¸Ñĩ ÑĮ
Ð¸Ñĩ Ð°Ð»
ÐĽ ÐµÐ³
ĠÐ³Ð¾ÑĢ Ð¸ÑĤ
ĠÑģÐ¼ Ð¾Ð»
ĠÑĨ ÐµÐ»ÑĭÐ¹
ÐµÐ»Ð¸ ÑģÑĮ
Ð¾ÑĪ ÐµÐ»
ĠÐ¼Ð¾ ÐµÐ³Ð¾
ĠÐ±ÑĢ ÐµÐ³
ĠÐ½Ð°ÑĪ Ñĥ
ĠÑģÑĤÐ°ÑĢ Ð¸Ð½
Ð²ÐµÑĢ Ñħ
ĠÐ²Ð¸Ð´ Ð¸ÑĪÑĮ
Ð¸ÑĤÐµÐ»ÑĮ Ð½ÑĭÑħ
ĠÐł Ð°Ñİ
ĠÑģÑĤÑĢÐ° ÑģÑĤÐ¸
ĠÐ·Ð² ÐµÐ·Ð´Ð°
ĠÐ¸Ð¼ Ñı
ÑıÐ» Ð°ÑģÑĮ
Ð¸Ð± Ð¾
ÐŀÐ± ÑĬ
ÑĩÐ¸ ÐºÐ¸
ÑĩÐ¸ ÑģÐ»
Ð¡Ð» ÑĭÑĪ
ĠÐ±Ð»Ð°Ð³ Ð¾ÑģÐ»Ð¾Ð²
ĠÐ¾Ñģ ÐµÐ½
ĠÐ·Ð°Ð± Ð°Ð²
Ð¡Ð¼ Ð¸ÑĢ
ĠÐ·Ð°Ðº ÑĢ
ĠÐŁÑĢ Ð¸ÑĢ
ĠÐ·Ð°Ð² Ð¸ÑģÑĤ
ĠÐ·Ð°Ð¼ ÐµÑĤ
ĠÑģÑĩÐ°ÑģÑĤ ÑĮÑı
Ð§ÑĤÐ¾Ð± Ñĭ
ĠÐºÐ¾ÑĤÐ¾ÑĢ ÑĭÐ¹
ÐµÑĢÐ¿ ÐµÐ»
ĠÐ¿Ð¾Ð· Ð¾ÑĢ
ĠÐ±Ð»Ð¸ ÑģÑĤ
ÐłÐ°Ñģ Ð¿
ĠÐ´Ð¾Ð»Ð¶ Ð½Ñĭ
ĠÐ¼ÐµÑģÑĤ Ð¾
ÐŀÐ¿ Ð°Ñģ
ĠÐ²Ð¾Ð·Ð² ÑĢÐ°ÑĤ
ĠÐ¾ÑĤÐ´ Ð°Ð»
ÑĭÑĢ Ðµ
ĠÑģÐºÐ°Ð· Ð°ÑĤÑĮ
ĠÑĢÐ°ÑģÑģ Ð²ÐµÑĤ
ĠÐ³ÑĥÐ± ÐµÑĢ
ĠÑĤÑĥÑĩ Ð¸
ĠÑģÐµÐ¹ ÑĩÐ°Ñģ
ĠÑıÐ· Ñĭ
ĠÐ²Ð¿ÐµÑĢÐµÐ´ Ð¸
ĠÐ¾Ð¶ Ð¸Ð´
ĠÐ·Ð´ Ð¾ÑĢÐ¾Ð²
ĠÐ¼Ð¾Ñī ÑĮ
ÐľÑĥÐ¶ Ð¸Ðº
ĠÐºÑĢÐµÑģÑĤÑĮÑıÐ½Ð¸ Ð½Ð°
ĠÑģÑĤÑĢÐ°ÑģÑĤ ÐµÐ¹
Ð¡Ð¼ÐµÑĢÑĤ ÑĮ
Ð¸ Ð¾Ð½
ÑĢ ÑĥÑĤ
ÑĢ Ð°Ð¶Ð´
ÑĢ Ð¾ÑĤÐ¸Ð²
Ð½ ÐµÐ¼Ñĥ
Ð» Ñĳ
Ð» ÐµÐ±
Ð» ÐµÑĩÑĮ
Ñĥ ÐºÑĥ
ÑĮ ÐµÑĤÑģÑı
ĠÑģ ÑĥÑħ
ĠÑģ ÐµÐ²ÐµÑĢ
ĠÐ¿ ÑĥÐ³
ĠÐ¿ Ð»Ð°
ĠÐ¿ ÑĥÑīÐµ
Ð² Ð¸Ð½
Ð² ÐµÑĢÐ´
ĠÐ½ Ð°Ð»
Ñĩ Ð°Ð¹
Ð¾Ð² Ñĭ
ĠÐ¼ Ð°Ñħ
ĠÐº ÑĥÐ´
ĠÐº Ð¾Ð¼Ñĥ
Ð¸ÑĤ ÐµÑģÑĮ
ĠÑĢ Ñĭ
ĠÑĢ Ð¾Ð²
ĠÐ³ Ð°Ð»
ĠÐ¿ÑĢ ÐµÑģÑĤÐ¾Ð»
ÐĴ Ð¾ÑģÑĤ
Ð¿ ÐµÑĢ
ĠÐ» Ð°Ð¿
ÐµÐ´ ÐµÑĤ
Ð¾Ñģ ÐµÑĢÐ´
ÐµÑģ Ñģ
Ðŀ Ð½Ð¾
Ðļ Ð¾
ÐµÐ² Ð°
ÐµÐ² Ð°ÐµÑĤ
Ð¾Ð· ÑĢ
ĠÐµ Ð´ÐµÑĤ
ÐĶ Ð°Ð²
ÐĶ Ð¾Ñģ
ÐĶ ÑĥÑħ
ÐĶ Ð²Ðµ
Ð¾Ñĩ ÑĥÐ±
ÑĥÐ¶ Ñĥ
ĠÑģÐ² ÑıÐ·
ÐŁÑĢ Ð¸Ð½
ÐŁÑĢ Ð¸Ð¼
ÐŁÑĢ Ð¾ÑģÑĤÐ¸
ÑĥÑĪ ÐºÐ¾Ð¹
ĠÑģÐ» ÑĥÑħ
Ðľ Ð¾ÑĢ
Ð¾Ð»ÑĮ ÐºÑĥ
ĠÐ¿Ð¾ Ñī
ĠÐºÐ°Ðº Ð°Ñı
ĠÐ¡ Ð¸Ð»
ÑĮÑı Ñħ
ĠÐ»Ñİ ÑĤ
ĠÑģÐ¼ ÐµÐ»
ÐĴÑģ ÐµÐ²ÑĭÑĪ
ĠÐ¿ÑĢÐ¸ ÑİÑĤ
ĠÐŀ Ð´
ĠÐ»ÑİÐ± Ð¸Ð¼
Ð¸ÑĪÑĮ ÑģÑı
ĠÐĵ Ð²Ð¸Ð´
ĠÐ¿Ð¾Ðº ÑĢÑĭÑĤ
ÑĳÐ½ Ð½Ð¾Ð¹
ÑĳÐ½ Ð½ÑĭÐ¼
ĠÐ¿Ð¾ÑĢ Ñĥ
ĠÐ²ÑĢ Ð°Ð¶
ĠÐ±ÑĥÐ´ ÑĮ
ĠÐ±ÑĥÐ´ ÑĥÑĤ
ÐµÑī ÑĥÑĤ
ĠÐºÐ¾Ð½ ÐµÐ¹
ĠÑĢÐ¾Ð´ Ð½ÑĭÐµ
ĠÐł Ð¾ÑģÑģ
Ð°Ñİ ÑģÑĮ
ĠÑĥÑĤ ÐµÑĪ
ĠÑĤÐ²Ð¾ Ð¸Ð¼
ÑĢÑı Ñģ
ĠÐ²Ð¿ ÑĢÐ°Ð²
ĠÐ¿Ð¾Ð³ ÑĥÐ±
ĠÐ±Ð¾Ð³ Ð¾Ð¼
ĠÐ»ÐµÑģ Ð½Ð¾Ð¹
ĠÐ¿ÑĢÐ¾ÑģÑĤ ÑĢÐ°Ð½
ĠÐ³Ð»Ð°Ð· Ð°Ñħ
ĠÑĥÐ¿ Ð¾
ĠÑĩÐ°Ñģ Ñĭ
ĠÐ¿Ð°ÑĢ ÐµÐ½ÑĮ
ĠÐ½Ð°Ðº Ð°Ð·
ĠÐ·Ð¾Ð»Ð¾ÑĤ Ð¾Ð¹
ĠÑģÐµÐ¼ ÑĮÑı
Ð°Ð»ÐµÐº Ð°
ĠÐ´Ð²Ð¾ÑĢ ÑıÐ½
ĠÐ´Ð¸Ð² Ð¾
ĠÐĲÐ½Ð³ ÐµÐ»ÑĮ
ÐĳÐµÑģ Ð¿
ÑİÑī Ð¸Ñħ
ĠÑģÐºÐ°Ð· Ð°Ð»Ð°
ĠÐŃ Ð´ÐµÐ¼
Ð¡Ð²Ð¾ Ð¸
ÐļÑĢÐµÑģÑĤÑĮÑı Ð½
ĠÐ²ÑģÐ¿ Ð¾Ð¼Ð½
ĠÐºÑĢÐµÐ¿ ÐºÐ¾
ĠÐĵÑĢ Ð¸ÑĪ
Ð½ÑıÐ» ÑģÑı
Ð½ÑıÐ³ Ð¸Ð½Ñı
ĠÐķÑĢ Ð¼Ð¸Ð»
Ð¢Ð¾Ð» Ð¿
Ñģ Ñİ
Ð½ Ð¾Ð³
Ð½ Ð°Ð´
Ð½ Ð¾Ðº
Ð½ Ð°Ð¹
Ð½ Ð°Ð½ÑĮÑı
Ñĭ ÑģÐº
ĠÑģ Ð¸Ð½
ĠÑģ ÑĥÑī
ĠÑģ ÑİÐ´Ð°
ĠÐ¿ Ð¸ÑĤ
ĠÐ² Ð¾Ð½
ĠÐ² Ð¾ÑģÐ»ÐµÐ´
ĠÐ² Ð»ÑİÐ±
Ð¼ ÐµÑĪ
Ð¾Ð¹ Ð´ÐµÑĤ
Ð¾Ð» ÐµÐ·
ĠÐ´ Ð²ÐµÑĢÑĮ
ĠÐ´ ÐµÐ¹ÑģÑĤÐ²
Ð¾Ð² ÑĭÐ¼
ĠÐ± Ð°ÑĤ
ĠÐ± ÑĥÐ»
ÐµÑĢ ÐµÐ¶
ĠÐº Ð¾Ð·
Ð¾Ð´ ÑıÑĤ
ĠÐ¿ÑĢ Ðµ
ÐĴ Ð¾Ð·Ð´
Ð½Ð¾ ÑĪ
Ð¡ ÑĭÐ½
ÑĨ Ð°Ð¼
Ð³ Ð»Ð°Ð²
Ð°ÑĢ Ð¸ÑħÐ¾Ð¹
ĠÐ½Ðµ ÑģÐº
ĠÑĩ Ð¸Ñģ
ĠÑĩ ÐµÐ¼Ñĥ
ĠÑĩ ÑĳÑĢ
ĠÑģÑĤ Ð¾Ð¹
ĠÑģÑĤ Ð°Ð²
ĠÐ¶ ÑĢÐµÐ±
ÐĶ Ð²
ÐĶ Ð¸Ð²
Ð¾Ñĩ ÐµÑĤ
ĠÑı Ð¼
ÐµÑĩ Ð½ÑĭÐ¹
ĠÐºÑĢ Ð°Ñİ
ÐµÐº Ð°
ÐĹ Ð½Ð°
Ð°Ð¶ Ñĥ
Ðĵ Ð»Ð°Ð·
ÑĢÐ° Ñħ
ĠÐ³ÑĢ Ð°Ð¼
ĠÐ³ÑĢ ÑıÐ´ÑĥÑī
ĠÐ¿Ð¾Ð´ Ð²Ð¸Ð³
ĠÐ²Ñĭ ÑĪÐµ
ĠÑĪ ÑĤ
Ð½Ñı Ð»Ð°
ĠÑģÐ¼ ÑĥÑī
ĠÐŁ Ð¾Ð»
ĠÐ¿Ð» ÑĭÐ²
ĠÐ¾Ð´ Ð½Ñĥ
ĠÐ¾Ð´ Ð½Ð¸Ð¼
ĠÐĲ Ð´Ð°
ÑĭÐ² Ð°Ñı
ÑĭÐ² Ð°Ð»Ð¾
ĠÐŀ Ð±
Ð½Ð¸Ðº Ð°Ð¼
ĠÐ½Ð°Ð´ Ð¾Ð±Ð½Ð¾
Ð¾Ñħ Ð½ÑĥÑĤÑĮ
ĠÑĢÐ°Ñģ ÑģÐº
ĠÐ±ÑĥÐ´ ÐµÐ¼
ĠÐ¿ÑĢÐµÐ´ Ð¼ÐµÑĤ
ĠÐ²ÐµÑĢ Ð½Ð¾
ĠÐ²Ð¾Ð» Ð¾Ñģ
ĠÑģÐ²ÐµÑĤ Ñĥ
ĠÐķ Ð²Ñĥ
ĠÐ¿Ð¾Ð¼ Ð½Ñİ
Ð¡Ðº Ð¾Ð»ÑĮÐºÐ¾
ĠÑĥÑĤ ÑĢÐ°ÑĤ
ÐŀÐ± ÑĪÐ¸ÑĢ
Ð¡Ð» ÑĥÐ¶
ĠÐ¾Ð³ ÑĢÐ¾Ð¼
ĠÐ±ÐµÐ´ Ñĥ
ĠÐ¼Ð¾ÑĢ Ñİ
ÑĢÐ¸ Ð¸Ð»
ĠÑĥÐ´ ÐµÐ»
Ð¡Ð¿ Ð¾ÑģÐ¾Ð±
ĠÐºÐ¾Ð» Ð¾Ñģ
ĠÐºÑĢÐ°Ñģ Ð¾ÑĤÑĭ
ĠÐ²Ð¾Ð´ Ñĭ
Ð¡Ð¼ Ð¾ÑĤÑĢ
ĠÐ±Ð°ÑĢ Ð¸Ð½Ð°
ĠÐ´Ð¾ÑĢ Ð¾Ð¶
ÐŃ Ñħ
ĠÐ¿ÑĥÑģÑĤ ÑĭÐ½Ðµ
ĠÐ½Ð°Ð² ÑģÑĤÑĢÐµÑĩÑĥ
ĠÐ¿Ð¾ÑģÑĤ ÑĥÐ¿
ĠÐºÐ¾ÑĢ Ð¼
ĠÐ½Ð°Ð¿ ÑĢÐ°Ð²
ĠÐĳÐ¾Ð¶ ÑĮ
ĠÑģÑĭ Ð½Ð¾Ð²
ĠÐ´ÐµÑĢÐµÐ² Ð½Ðµ
ĠÑĩÑĥÐ´ ÐµÑģ
ĠÐ¾Ñĩ ÐµÐ½ÑĮ
Ð¦ Ð²ÐµÑĤ
ÑĢÑĭ Ð³
ĠÑģÐ¾Ð» Ð½ÑĭÑĪ
ĠÐºÐ» ÑĥÐ±
ĠÑģÑĤÐ¾ÑĢÐ¾Ð½ Ñĭ
ĠÐ²ÑĭÑĪ ÐµÐ»
ĠÐ²Ð¾Ð·Ð´ÑĥÑħ Ðµ
ĠÐ±Ð¾Ð» ÐµÐµ
ĠÑģÐ¾Ð·Ð´ Ð°Ð»
ĠÐ´ÑĢÑĥÐ· ÐµÐ¹
ÐĴÐµÐ» Ð¸Ñĩ
ĠÑģÐ¸Ð»ÑĮ Ð½ÐµÐ¹
Ð½Ð¸ÑĨ ÐµÐ¹
ĠÐ³Ð¾ÑģÑĤ ÐµÐ¹
ĠÐ±Ð»Ð°Ð³Ð¾Ð´ Ð°ÑĢ
Ð¡ÑĢÐµÐ´ Ð¸
ÐĹÐ°Ðº Ð¾Ð½
ĠÐºÐ½ÑıÐ· Ñı
ĠÑħÐ¾Ð·Ñı Ð¹
ĠÐ¾ÑģÐº Ð¾ÑĢÐ±
ĠÐ·Ð»Ð¾Ð´ ÐµÐ¹
ĠÐ²Ð¾Ð¹Ñģ ÐºÐ°
Ð½ÐµÐ·Ð°Ð¿ Ð½Ð¾
ĠÐľÐ¸ÑħÐ° Ð¸Ð»
Ð¼Ð¿Ð¸ÑĢ ÐµÐ¹
ÑĤ Ð¾Ð¼
Ð½ ÑıÑĤ
Ð½ Ð°Ð»Ð¸
Ð½ ÑĳÑĤ
Ñĥ Ð»ÑĮ
ÑĮ ÐµÐ²
ÑĮ ÑİÑĤ
Ñı Ñĩ
Ñı Ð½ÑĥÐ»
ĠÑģ Ð³
ĠÑģ Ð°Ð±
ĠÑģ Ð°Ð¿
ĠÑģ ÑĢÐ°Ð²Ð½
ĠÐ¿ Ð¸Ð»
ĠÐ¿ Ð°Ð»ÑĮ
ĠÐ² ÑĮÑİ
ĠÐ² ÐµÑģÑĤÑĮ
Ð² Ð¾Ð»ÑĮ
Ð¼ Ð¸ÑģÑĤ
Ð¼ ÐµÑı
ĠÑĤ ÑīÐµÑĤ
ĠÐ´ ÐµÐ½
ĠÐ´ Ð¾Ð¼Ñĥ
Ð¾Ð² Ð°Ð»Ð¸
Ð¾Ð² ÐµÑī
ĠÐ¼ Ð¾Ð´
ÐµÑĢ Ñĥ
Ð¸ÑĤ ÐµÑĢ
Ð¸Ð» Ð¸Ð¹
ÐĿ Ð°Ðº
ÐĿ Ð¸Ð·
ĠÐ· Ð½Ð¾Ð¹
ĠÐ· Ð»Ð°
ĠÐ· Ð²ÐµÑĢÑĮ
ĠÑĢ Ð°Ð½Ð¾
ĠÐ³ Ð¾Ð´Ñĭ
ÐĴ ÑģÑĤ
Ð¡ ÐµÐ¹
Ð± Ð¾Ð¹
Ð¿ ÑĢ
ÑĨ Ð²ÐµÑĤ
Ð°Ð´ Ñĥ
Ð°Ð´ ÑĮÐ±
Ðļ Ð°Ð·Ð°Ð»Ð¾ÑģÑĮ
Ð¶ Ñĥ
Ð¾Ñĩ ÐµÐº
ÐµÑĩ ÐºÐ¾
ĠÑģÐ² Ð¸Ð´
ÐŁÑĢ Ð°Ð²
ÐŁÑĢ Ð¸Ð¿
Ðľ Ð»Ð°Ð´
Ðĳ Ð¾Ð¶ÐµÑģÑĤÐ²
ÐĹ Ð°ÑĢ
Ð£ Ð»ÑĭÐ±
ĠÐ¾Ð± Ð¾
Ð¸Ðº Ð¾Ð¼
ÑĥÑĩ Ð¸Ðµ
ĠÐ¸Ð· Ð²ÐµÑģÑĤ
ĠÐĿ ÐµÐ±Ðµ
ĠÑģÐº Ð¾ÑĤ
ĠÐ¿Ð¾Ð» Ñĥ
ĠÐ¿Ð¾Ð» Ð½ÑĭÐ¹
Ðł ÑĥÑģ
Ð°Ð»Ð° ÑĪ
ÑĭÑħ Ð°Ð»
ĠÑĤÑĢ Ð¸Ð´
Ðķ ÑīÑĳ
ĠÐ¢ Ð°ÑĤÑĮÑı
ÐŀÑĤ Ð´
ĠÑģÐ¿ Ð°ÑĤÑĮ
ĠÐ¿Ð» Ð°ÑĤ
ĠÐ²Ð¾Ð· Ð½ÐµÑģ
ÑĭÐ² Ð°ÑİÑĤ
Ð¾ÑĪ Ð»Ð°
ĠÐ¼Ð¾ Ð¸Ð¼
ĠÐ¿Ð¾Ðº Ð°Ð·
ĠÐľ Ð¾Ð¹
ĠÐ²ÑĢ Ð°Ð¶Ð´
ÐµÑĪÑĮ ÑģÑı
ÐµÑī ÐµÑĤ
ÑĦ Ðµ
ÑĦ Ð¸Ð¼
ĠÑģÐ°Ð¼ Ð¾Ð¹
ĠÐ½Ð¾Ñĩ Ð½Ð¾Ð¹
Ð¡Ðº Ð»Ð¾Ð½
ĠÐ·ÐµÐ¼ Ð½Ð¾Ð¹
ĠÐ¸Ð¼ Ð¸
ÑħÐ¾Ð´ Ñı
ĠÑĥÑĤ ÑĢÐ¾
Ð»ÐµÐ½ Ð½Ð¾Ð¹
Ð»ÐµÐ½ Ð½ÑĭÑħ
ĠÐ»ÑİÐ´ ÑıÐ¼
ĠÐ¿ÑĢÐ°Ð² Ð´Ð°
ÑĢÐ°Ð½ ÑĨ
ÑĩÐ¸ ÐºÐ°
Ð¡Ð» ÐµÐ·
ĠÐ¼Ð¸Ð» Ð¾Ð¹
ĠÐ½Ð°ÑĢ Ð¾Ð´Ñĥ
ĠÐ½ÐµÐ² ÐµÐ´Ð¾Ð¼
ĠÐ´ÐµÐ² Ð°
ĠÐ·Ð½Ð° ÑĩÐ¸ÑĤ
ĠÐºÐ¾ÑĢ Ð°Ð±
ĠÐĹÐµÐ¼ Ð»Ð¸
ĠÐºÐ¾ÑĤÐ¾ÑĢ Ð¾Ð¹
ÐĽÑİÐ± Ð¾Ð²ÑĮ
Ð¾ÑģÐº Ð»Ð¾Ð½
ĠÐºÑĢÑĥÐ³ Ñĥ
ĠÐ¾Ñĩ ÐµÐ¹
ĠÐ½Ð¸Ðº Ð°Ðº
ĠÐ´Ð¸Ð² Ð½ÑĭÐ¹
ĠÐ½Ð°Ð³ ÑĢÐ°Ð´
ĠÐĴÑģ ÐµÐ¼
ĠÑĢÐµÐº Ð¸
ĠÐ½Ð°Ð· Ð½Ð°Ñĩ
ĠÑģÑĤÑĢÐ°Ñħ Ð°
ÐĿÐ°Ð¿ ÑĢÐ°ÑģÐ½Ð¾
ĠÐ¾Ð· Ð°ÑĢ
ĠÐ¼Ð°ÑĤ ÐµÑĢÐ¸
ĠÐ²ÐµÐ»Ð¸ ÐºÐ¸Ð¹
ÐĶÐ¾Ð» Ð¶
ĠÐĵÑĢ ÐµÑħ
ĠÐ½ÑĥÐ¶ Ð½Ð¾
Ð»Ð¸Ð· Ð¸
ĠÐ»Ñĥ Ð½Ð°
ĠÐ³Ð¾ÑĢÑı Ñĩ
ĠÑģÐ»ÑĥÑĩ Ð°Ð¹
ÐŁÐ¾ÑģÐ» ÑĥÑĪ
ĠÑĤÑĭÑģÑı Ñĩ
ĠÐ§ÐµÑĢ Ð½Ð¾Ð¼
ĠÐĵÐ²Ð¸Ð´ Ð¾Ð½
ÑĤ Ð¾Ð¶
Ð¸ ÐµÐ¹
Ð½ Ð°Ð´ÑĨÐ°ÑĤÑĮ
Ñĥ Ð»Ð¸
ÑĮ Ð¼Ñĥ
ÑĮ Ð¼Ð¸
ĠÑģ Ð¾Ð´
ĠÑģ ÑĦÐµÑĢ
ĠÐ¿ Ð°Ñģ
ĠÐ¿ Ð¸ÑĤÑĮ
ĠÐ¿ Ð¸ÑĪ
ĠÐ¿ Ð°ÑģÑĤ
ĠÐ¿ Ð¸Ñī
ĠÐ² Ð¸
ĠÐ² ÐµÑĪ
ĠÐ² Ð°Ð¼Ð¸
ĠÐ² Ð¸Ð½Ð°
ĠÐ½ Ñĥ
ÐµÐ½ ÐºÐ°
Ð¾Ð¹ ÑĤÐ¸
ÐµÑĤ Ñĭ
ĠÐ´ Ð»
ÐµÑĢ ÑĳÐ´
ĠÐº ÐµÐ¼
ĠÐº ÑĥÐ¼
Ð¸ÑĤ Ð°
Ð¾Ð´ Ð¸Ð»
Ð¾Ð´ Ð¾Ð±
Ð¾Ð¼ Ðº
ÐĿ ÐµÐ±
Ðĺ Ð´ÑĥÑĤ
ĠÑĢ Ð°ÑĤ
ĠÐ³ Ð»Ñı
ĠÐ³ Ð°ÑĢÐ¼
ĠÐ¿ÑĢ ÐµÐ³
ĠÐ¿ÑĢ Ð¸ÐµÑħ
ÐĴ Ðº
ÐĴ Ð½Ð¸Ð¼
ÐĴ ÐµÑĤÐµÑĢ
Ð¡ Ð¾Ñģ
Ð± Ð»Ð¸Ð·Ð¸
ĠÐ» ÐµÐ½
Ð°ÑĢ Ñħ
Ð°ÑĢ Ð»Ð°
Ð¸Ð½ Ð¾Ð¼
Ð¸Ð½ ÑģÑĤÐ²ÐµÐ½
ĠÑģÑĤ Ð¾Ð¿
Ð¾Ðº Ð¸
ĠÐ¶ ÑĥÑĢ
ÑĥÑĤ ÑģÑĤÐ²
ÑĥÑĤ ÑĢÑĥ
ÐµÐ² Ð¾
ÐµÐ± ÐµÐ´ÑĮ
Ð»Ð¸ ÑģÑĤ
ÑıÑĤ Ð°
ÐµÐ³ Ð¸
ÐµÐ½ÑĮ ÐºÐ¾
ĠÐ¾ÑĤ ÑĤ
ĠÐ¾ÑĤ ÑģÑĤÑĥÐ¿
Ð§ ÐµÑĤ
ĠÑģÐ» ÐµÐ¿
ĠÐ²Ñģ Ð»ÐµÐ´
Ðĵ ÐµÑĢ
Ðĵ Ð»ÑĥÐ±
ĠÐ³ÑĢ ÑĥÐ±
ĠÐ¿Ð¾Ð´ Ð¿
ĠÑĪ ÐµÑģÑĤ
ĠÑĪ Ð»Ð¸
ĠÑĪ Ð»ÐµÐ¼
ĠÐĿ ÐµÐ²
ĠÐ¿Ð¾Ð» ÐºÐ¸
ĠÐ¿Ð¾Ð» Ð¾Ð¶
ĠÐ¢ Ð°ÑĤÑĮÑıÐ½Ð°
ÐŀÑĤ Ð²
ĠÐ±ÐµÐ· Ð·
ĠÑĨ ÐµÐ»ÑĮ
ĠÑĤÐ°Ðº Ð¸Ð¼
ĠÐ¾Ð´ Ð¸Ð½Ð¾Ñĩ
ÑĭÐ² Ð°Ð¹
ĠÐ¿ÑĢÐ¸ ÑģÐ»
ĠÐ»ÑİÐ± Ð¸ÑĤ
ĠÐ»ÑİÐ± Ð»Ñİ
ĠÑģÐ²Ð¾ ÐµÐ³Ð¾
ĠÑģÑĤÐ°ÑĢ Ð¾ÑģÑĤ
Ð»Ñİ Ð´
ĠÐ²ÐµÑĢ Ð½ÑĭÐ¹
ÑīÐµ Ðµ
ĠÑģÐ°Ð¼ Ð¾Ð¼
ĠÐ´ÑĢÑĥÐ³ Ð¸Ðµ
Ð»ÑıÐ´ ÐµÐ»
Ð°Ð»Ð¾ ÑģÑı
ĠÐ±ÐµÐ´ Ð½Ð°Ñı
ĠÐ¶Ð¸Ð· Ð½
ÑĢÐ¸ Ð¿
ĠÑģÐ¾Ð± ÑģÑĤÐ²ÐµÐ½
ĠÐ·Ð°Ð± Ð²
ĠÐ¼Ð¸Ð» ÑĭÐµ
ĠÐºÐ¾Ð» Ð¾Ðº
ÐŁÐ¾Ðº ÑĥÐ´Ð°
ĠÐ´ÑĥÐ¼ Ð°ÑĤÑĮ
ĠÐ²Ð¾Ð´ Ð°
ĠÐ²ÐµÑĩ Ð½ÑĭÐ¹
ĠÐ³Ð¾Ð»Ð¾Ð² Ð¾Ñİ
ĠÐ¿ÑĢÐ¾ÑģÑĤ Ð¾
ĠÑĢÐ°Ð´ Ð¸
ĠÐ²ÑĭÑģ Ð¾ÐºÐ¾
ĠÐ¿ÑĥÑģÑĤ ÑĮ
ĠÐ¿Ð¾ÑģÑĤ Ð¸Ð³
ĠÐ¿ÑĢÐ¸Ð² ÑĭÑĩ
ĠÐ¿Ð¾Ñĩ ÐµÐ¼Ñĥ
ĠÑĥÐ± Ð¾Ð³
ĠÐ½Ð°Ñĩ Ð¸Ð½
ĠÑģÑĤÑĢÐ°ÑĪ Ð½ÑĭÐ¹
ÐĽÑİÐ± Ð²Ð¸
ĠÐ±Ð¾ ÑıÐ·
ĠÐ¿Ð¾Ð· Ð°Ð±
ĠÐ²ÑģÑı ÐºÐ¸Ð¹
Ð¸Ð»Ð¾ ÑģÑı
ĠÐ´Ð¾Ð»Ð¶ Ð½Ð°
ĠÐµÐ´ Ð¸Ð½ÑĭÐ¹
ĠÐ²Ð¾Ñģ Ñħ
ĠÑħÐ¾ÑĤ ÐµÐ»
ĠÑħÐ¾ÑĢ Ð¾ÑĪÐ¾
ĠÐ²Ð¾Ð¿ Ð»Ð¾Ñī
Ð¡Ð°Ð¼ Ð°
ĠÐ¼ÐµÑĢ Ð·
ÐĶÐ¾ÑģÑĤ Ð¾Ð¹
ĠÑĤÐ¾Ñģ ÐºÐ¾Ð¹
ĠÐ¿Ð¾ÑĪ ÐµÐ»
ĠÐ¸Ñģ ÑĩÐµÐ·
ĠÐ¶Ð´ Ð°Ð»
ĠÐ·Ð°Ð½ Ð¸Ð¼
ÐĴÐ¿ ÐµÑĢÐµÐ´
ÐŁÐ¾Ð³ Ð¸Ð±
ĠÑĤÐµÑĢ Ð·
ĠÐ±Ð»Ð°Ð¶ÐµÐ½ ÑģÑĤÐ²Ð¾
ĠÐ¾Ð¶ Ð¸Ð²
ÐĳÑĥÐ´ ÐµÑĤ
ĠÑĤÑĮÐ¼ Ðµ
ĠÑĥÐ»ÑĭÐ± ÐºÐ¾Ð¹
ĠÐ¿Ð°Ð¼ ÑıÑĤÑĮ
ĠÑģÐºÐ°Ð¶ Ñĥ
ĠÑģÐ¾Ð»Ð½ ÑĨÐ°
ĠÐ²Ðº ÑĥÑĪ
ĠÐ¿ÑĢÐ¾Ð½ Ð¸Ðº
ÐŀÑĤÐº ÑĥÐ´Ð°
ĠÑĥÑĤÑĢÐµÐ½ Ð½ÐµÐ¹
ĠÐĽÑİÐ´ Ð¼Ð¸Ð»
ÐĵÐ¾Ð²Ð¾ÑĢ Ð¸ÑĤ
ĠÐ³Ð¾ÑģÑĥÐ´ Ð°ÑĢ
ĠÐ¼ÐµÐ´Ð»ÐµÐ½ Ð½Ð¾
ĠÑģÐ¾Ð·ÐµÑĢ ÑĨ
ÐŁÐ¾Ð¼ÐµÑī Ð¸Ðº
ÑģÑİ Ð´Ñĥ
ÑĢÐ°Ð½ÑĨ ÑĥÐ·
ÑĢ ÐµÐ¿
Ð» ÑĥÑħ
Ð» ÐµÑĨ
Ð» ÑĳÐ½
ĠÑģ Ð¾ÑĤ
ĠÑģ ÑĩÐµÑĤ
ĠÐ¿ Ð»Ð¾Ñī
ĠÐ² Ð½ÐµÐ¼
ĠÐ² ÐµÐ·Ð´Ðµ
ĠÐ½ ÐµÐ»
Ñĩ Ð¾Ð½
ĠÐ¾ ÐºÐµ
ĠÐ´ Ð¾Ð·
ĠÐ± Ð¾Ðº
ĠÐ¼ ÐµÑĪ
ÐµÐ¼ Ñĩ
ĠÑĢ ÑĥÐ¼Ñı
Ð°ÑĤ ÑģÑı
ĠÐ¿ÑĢ ÐµÐ±
Ð· ÐµÐ¼
Ð¡ ÑĥÐ´
Ð¡ ÐµÐ±Ñı
Ð± ÑĥÑĢ
Ð¿ Ð¿
Ð°Ð¼ Ð¿
ĠÐ» Ð°Ð²
ĠÐ» ÐµÑģÑĤ
Ð°Ð² ÑĪÐ¸Ñħ
Ð½Ð¸ Ð¸
ĠÑĩ ÐµÑĢÐµÐ´
ĠÑĩ Ð¸Ð½Ð¾Ð²
Ðŀ Ñĩ
Ð¾Ð½ ÑıÑĤ
Ðļ Ð¾Ð³Ð¾
Ðļ ÑĥÑĢ
ĠÑģÑĤ Ð°Ð´
Ð¸Ð¼ ÑĭÐ¼
ĠÐµ Ñħ
ÐĶ ÐµÑĤ
ĠÑĥ ÑĩÐ°ÑģÑĤ
ĠÑĥ ÑģÑĤÑĢÐµÐ¼
Ð¶ ÐµÑĤ
Ð¾Ñĩ Ð¸
ĠÑģÐ² ÐµÑĢ
ĠÑģÐ² Ð¸ÑĢÐµÐ¿
ÐŁÑĢ Ð¾Ð¿
Ðľ Ð¸Ð»
Ðľ Ð°ÑĤ
Ðĳ ÐµÐ»
ÐĹ Ð°ÑģÑĤ
ĠÐ²Ñģ Ðº
Ð¸Ðº Ðµ
Ðĵ ÑĢÐ¾Ð¼
ĠÐ²Ñĭ Ð²
ĠÑĪ ÐµÐ²
ĠÐ¡ Ð°ÑĪÐ°
ĠÐĿ Ð¸Ðº
ĠÑĤÑĢ ÑĥÐ´Ð°
ĠÐĴ Ð¾Ð»
ĠÐĴ Ð°Ñģ
ĠÐ¿ÐµÑĢ ÐµÑģÑĤ
ĠÐ²Ð¾Ð· ÑĮÐ¼
ÑĭÑĪ Ðµ
ĠÑģÐ²Ð¾ Ðµ
ĠÐľ Ñĭ
ÑģÑĤÑĢ ÐµÐ±
Ð°ÑĪ Ñĥ
ĠÐļ Ð¾ÑĩÑĥÐ±
Ð¢Ð°Ðº Ð°Ñı
ĠÐ½Ð°Ñģ Ð»ÐµÐ´
ÐºÑĢ ÐµÑģ
ĠÐ²ÐµÑĢ ÑģÑĤ
ĠÐĹ Ð»Ð°
ÐŁÐ¾ ÑįÑĤ
ĠÑģÐ°Ð¼ ÑĭÐ¹
Ð»Ð¸Ð² Ð°Ñı
ĠÐł ÑĥÑģÑĮ
ĠÑģÐµÑĢÐ´ ÑĨÑĥ
ÑĢÐµÐ´ ÐµÐ»
ĠÐ²Ð´ Ð°Ð»Ð¸
ĠÐ¿Ð¾Ð² ÐµÑĢ
ÑıÑī ÐµÐ³Ð¾
ĠÐ·Ð½ Ð°Ð¼
ĠÐ·Ð½ Ð°Ð»Ð°
ĠÐ¼ÑĥÐ¶ Ð¸ÐºÐ¾Ð²
ĠÐ±ÐµÐ´ Ð½ÑĭÐ¹
ĠÑĨÐ°ÑĢ Ñı
ĠÑģÐ¾Ð± Ð¾Ñİ
ĠÑģÐ¾Ð± ÑģÑĤÐ²ÐµÐ½Ð½Ð¾Ð¹
ĠÐ²Ð¿ Ð¾Ð»Ð½Ðµ
ĠÐ¼Ð¾Ð»Ð¾Ð´ ÑĭÑħ
ĠÑĥÐ³ Ð¾Ð»
ĠÐ¯ ÐºÐ¾Ð²
ĠÐ³Ð»ÑıÐ´ ÑıÑĤ
ĠÐ¸ÑģÐ¿ Ð¾Ð»Ð½
ĠÑģÑĤÑĢÐ°ÑĪ Ð½Ð¾
ĠÐ·Ð¾Ð»Ð¾ÑĤ Ð¾Ð¼
ĠÐ¿Ð¾Ð½ ÑıÑĤÑĮ
ĠÑī ÐµÐº
ĠÐ´Ð¾ÑĢÐ¾Ð³ Ð°
Ð°ÑĤÐµÐ»ÑĮ Ð½Ð¾
ĠÑģÑĤÐ°Ð½ Ð¾Ð²
ĠÐ²Ð°ÑĪ Ð¸
ĠÐ¡Ð°ÑĤ Ð°Ð½Ñĭ
ĠÐ´Ð¾Ð»Ð¶ Ð½Ð¾
ĠÐ±ÐµÑĢÐµÐ³ Ð¾Ð²
ĠÑĢÑĥÑģ ÑģÐºÐ¸Ðµ
ĠÐ¿ÑĢÐ¸Ð½ ÐµÑģ
ÐĶÑĢÑĥÐ³ Ð¾Ð¹
ĠÑĩÐ°ÑģÑĤ ÑĮ
ĠÐ±Ð¾Ð» Ðµ
ĠÑĢÐ°Ð² Ð½
ĠÐ³ÐµÑĢ Ð¾Ñı
ĠÐ·Ð°ÑģÑĤ Ð°Ð²
ĠÐ±ÑĭÑģÑĤÑĢ Ð¾
ĠÐ½ÐµÐº Ð¾Ð³Ð´Ð°
ĠÐ±Ð¸ÑĤ Ð²Ñĭ
ĠÑĢÐ¾Ðº Ð¾Ð²Ð¾Ð¹
ĠÐ¿Ð¾ÑįÑĤ Ð°
ĠÑĤÑĢÐµÐ² Ð¾Ð¶
ÐĴÐ¾Ð» ÑĪÐµÐ±
ĠÐ»ÑİÐ±Ð¾Ð² ÑĮÑİ
ĠÐ½Ð°Ð´ÐµÐ¶Ð´ Ñĭ
ĠÑħÐ² Ð¾ÑģÑĤ
ĠÐ¼ÐµÑģÑı ÑĨ
ĠÐ¡Ð°Ð»ÑĤ Ð°Ð½
ĠÐ·Ð°Ð²ÑĤ ÑĢÐ°
ĠÐ³ÐµÑĤ Ð¼Ð°Ð½
ÑĢ Ð¾Ð¶
Ð½ ÑĳÑģ
Ð» Ð¸Ð»
Ð» Ð¾Ð±
Ð» ÑĭÐµ
Ð» ÑĳÐº
Ñĭ ÑĤÐ¾
Ñĭ ÑĢÑı
Ñı Ðº
Ñı ÑĤÐ¾
ĠÑģ ÑĥÑĪ
ĠÑģ Ð¸ÑĢ
ĠÑģ ÐµÐ»Ð¾
ĠÑģ ÑĬ
ĠÐ¿ ÐµÑĪ
ĠÐ¿ Ð¾Ð»ÑĮÐ·
ĠÐ² Ð¾ÑĢÐ¾Ð½
ĠÐ½ ÐµÐ·ÑĢ
ÑĪ ÐµÐ¼Ñĥ
ÐµÐ½ ÑĭÐ¹
ĠÐ¾ ÑĤÐ¾
ĠÐ´ Ð¾Ð½
ĠÐ´ Ð¸ÐºÐ¸
Ð¾Ð² Ð¾
ĠÐ¼ Ð¸Ð½Ñĥ
ĠÐ¼ ÑĥÐºÐ¸
ÐµÑĢ ÐºÐ¾Ð²
Ð¾ÑĢ Ð²
ÐµÐ» ÐµÐ½Ð½Ð¾Ð¹
Ð¸ÑĤ ÐµÐ»ÐµÐ¹
ĠÐ· ÐµÑĢÐº
Ðĺ ÑģÑĤ
Ðĺ Ð³ÑĢ
Ðĺ ÐĿÐ¯
ÐµÐ¼ ÑģÑı
ÐµÐ¼ Ð»ÐµÑĤ
ĠÑĢ ÐµÐ´
ĠÑĢ Ð¾Ð¿
ĠÑĢ ÑĭÐ´
ĠÐ¿ÑĢ Ð¾Ð²Ð¾ÑĢ
ĠÐ¿ÑĢ Ð¾Ð¹Ð´
ÐŁ Ð¾Ð¹
ÐŁ Ð¸ÑĤ
ÐŁ Ð°Ð´
ÐŁ Ð¾ÑģÐº
Ð¡ Ñĭ
Ð¡ Ð°Ð´
Ð¡ ÑĥÑĢÐ¾Ð²
Ð± Ð°
Ð± Ð¾Ð¼
Ð± Ð°ÑĤ
ÑĨ ÐµÐ½
Ð¾ÑĤ ÐµÐ»
Ð°Ð¼ ÐµÑģÑĤ
ĠÐ» Ð¾Ð±
Ð°Ð² Ð½ÑĭÐ¹
Ð°Ð½ Ð¾Ð¼
ĠÑĩ ÐµÐ¹
ÐµÑģ Ð¸Ð»ÑĮ
Ð¸Ð½ ÐºÐ¸
Ðļ Ð¾Ñģ
Ðļ Ð»Ñı
Ðļ ÐĿÐ¯
ĠÑģÑĤ ÐµÐ·
ĠÐ½Ð° ÑģÑĤÑĥÐ¿
Ð¾Ð± Ð¾Ð¹
ÑĥÐ´ Ð¾Ð²Ð°
Ð¸Ð² Ð°
ĠÐ¶ ÐµÐ½Ð°
ÑĥÑĤ ÐºÐ¸
ÐµÐ² Ð½Ð°
ÐĶ Ð²Ð¾ÑĢ
ĠÑĥ Ð²ÐµÑĢ
Ð¾Ñĩ Ð½ÑĭÐ¹
ÐºÐ° ÑİÑĤ
ĠÐ¾ÑĤ Ñģ
ĠÐ¾ÑĤ Ð²Ð¾ÑĢ
ÐµÐº Ð»Ð¾Ð½
Ð»Ñı ÐµÑĤÑģÑı
Ðľ Ð°ÑĤÑĮ
Ðĳ Ð¾
Ðĳ ÑĥÑĢ
Ð°Ð¶ ÐµÑĤ
Ð£ Ð³ÑĢ
ÐĲ Ð¹
Ðĵ ÐĺÐĿÐ¯
ÐµÐ»ÑĮ Ñı
ÐµÐ»ÑĮ Ñī
ĠÐ¿Ð¾Ð´ Ð²
ĠÐ¿Ð¾Ð´ ÑĩÐ¸Ð½
ĠÑĪ Ð»Ð°
ĠÐ¡ Ð°Ð²
ĠÐ¡ ÐµÑĢÐ°
ĠÐ¡ ÐµÑĢÐ³
ĠÑģÐº Ð¾Ð»ÑĮ
Ð¸ÑĪ ÐºÐ¸
ĠÐ¿Ð¾Ð» Ð¾Ð½
ĠÐ¿Ð¾Ð» ÑİÐ±
ĠÐĴ Ð»Ð°Ð´
ĠÐĴ Ð¾Ð¶Ð´
ÐĽ ÐµÑģ
ÐĽ Ð¸ÑĨ
ĠÑģÐ¼ ÐµÑĪ
ĠÐŁ Ð¾Ð´
ĠÐ»Ð¸ ÑĨÐ¾Ð¼
ĠÐ²Ð· Ð²
ĠÐ¼Ð¾Ð» ÑĩÐ¸ÑĤ
ĠÐ° ÑĢÐ¾Ð¼
Ð¸Ñı Ñħ
Ð¾ÑĪ Ð»Ð¸ÑģÑĮ
ĠÐĶ Ð¾Ð±ÑĢ
Ð¡ÑĤ ÑĢÐ°Ð´
ĠÑģÐ²Ð¾ ÐµÐ¼
ÑĳÐ½ Ð½Ð¾Ðµ
ÐŁÐ¾Ð´ ÑĥÐ¼
ĠÐ²ÑĢ ÐµÐ´
ĠÐ²Ð¸Ð´ Ñĥ
Ð»Ð¸Ð² Ð¾Ð¹
ĠÐ´ÑĢÑĥÐ³ Ð¾Ð¼
ĠÐł Ð°Ñı
ĠÑģÑĤÑĢÐ° ÑģÑĤÑĮ
ĠÑĥÑĤ ÑĢÐ¾Ð¼
ÐµÑģÑĤÐ² Ðµ
ĠÐ¾Ð³ Ð½
ĠÐ¾Ð³ Ð½Ñı
ĠÐ±ÐµÑģ ÐºÐ¾Ð½
ĠÑģÐ»Ð°Ð² Ð¾Ð¹
ĠÐ±Ð¾Ð»ÑĮ ÑĪÐ°Ñı
ÐŀÐ´ Ð½Ð¾
ÐŁÐ¾Ðº Ð»Ð¾Ð½
ĠÐ½ÐµÐ² Ð·
ĠÐ½ÐµÐ² Ð¸Ð½
ĠÐ½ÐµÐ´ Ð¾ÑģÑĤ
ĠÐ±Ð°ÑĢ Ð¸Ð½Ñĥ
ĠÐ·Ð°Ð² Ð¸Ð´
ĠÐ¿ÐµÑĩ Ð°Ð»
ĠÐ¿Ð¾Ð¿ ÑĢÐ°Ð²
ĠÐ²ÑĭÑģ Ð¾ÑĤÑĭ
ÐĳÐµÐ· Ð¼ÐµÑĢ
ĠÐ²ÐµÑĤ Ð²ÐµÐ¹
ĠÐ²Ð¾ÑĤ Ñĩ
Ð¨ Ð¸ÑĢ
ĠÐ½ÐµÐ± Ð¾Ñģ
ĠÐ½Ð¾Ð³ Ð°Ð¼
ĠÑī Ð¸ÑĤ
ĠÐ´Ð¾ÑĢÐ¾Ð³ Ðµ
ĠÑģÑĢ Ð°Ð·
ĠÑģÑĢ Ð°Ð¶
ĠÐºÐ°Ð¶Ð´ ÑĭÐ¼
ĠÐ´Ð²Ð¾ÑĢ Ð°
ĠÐ½Ð¸Ðº Ð¾Ð³Ð¾
ĠÐ±Ð»Ð¸ Ð¶
ĠÑģÑĤÐ°Ð½ ÐµÑĤ
ĠÐºÐ» ÐµÐ²
ĠÐĴÑģ Ðµ
ĠÑģÐµÐ´ Ð¾Ð¹
ĠÑģÐ½ÐµÐ³ Ñĥ
ĠÑĢÐµÑĩ ÐµÐ¹
ĠÐ¤ ÐµÐ´
ĠÐ¼ÐµÑĢ Ðµ
ÐºÐ¾ÑĢ ÐµÐ¹
ĠÐ´Ð¾Ð² Ð¾Ð»ÑĮ
ÑĢÐ¾Ð½ ÑĤ
ÑĳÑĢ ÑĤ
ĠÐ¿Ð¾ÑĪ Ð»Ð°
ĠÐ´Ð¾Ñģ ÐµÐ»ÑĮ
Ð¢Ð²Ð¾ Ð¸
ĠÑĩÐµÐ»Ð¾Ð²ÐµÐº Ð°
ĠÐ¼Ð°ÑĤ ÐµÑĢ
ĠÑĢÑĭÐ± ÐºÐ°
ĠÐ¦ Ð°ÑĢÑĮ
ĠÐ¿ÑĢÐ¾Ð± ÑĥÐ´
ĠÑĤÐµÑĢ ÐµÐ¼
Ð£ÑĤ ÑĢÐ°ÑĤ
ĠÐ¿ÑĤÐ¸ ÑĨÑĭ
ÐļÐ¾Ð» Ð¸
ĠÑĤÑĮÐ¼ Ñĭ
ĠÐ¾Ð±Ð»Ð°Ðº Ð°
ÐŁÑĢÐ¸ÑĪ ÐµÐ»
ĠÑĥÐ¼ÐµÑĢ ÐµÑĤÑĮ
ÐĶÑĢ ÑĥÐ·
ĠÐ·Ð²ÐµÐ·Ð´ Ñĭ
ĠÐ¼Ð½Ð¾Ð¶ ÐµÑģÑĤÐ²Ð¾
ĠÐ±ÑĭÐ² Ð°Ð»Ð¾
ĠÑĤÑĢÐµÑĤ Ð¸Ð¹
ÐĳÐ°ÑĢ Ð¸Ð½
Ð°ÑĢÐ»Ð° ÑĦ
ÐļÐĿÐ¯ ÐĵÐĺÐĿÐ¯
Ð° ÑīÐµ
Ð¸ ÑĨÐµ
Ñģ ÐµÐ³Ð´Ð°
ÑĢ Ð¾Ð·
ÑĢ ÑĥÐ·
Ð½ Ð¸ÑĤ
Ð½ ÑĮÐµ
Ñĭ Ð»Ð¾
Ñı Ð½Ð¾Ð¹
ĠÑģ ÑĥÐµÑĤ
ĠÑģ ÑħÐ²Ð°ÑĤ
ĠÐ¿ ÐµÐ»
ĠÐ¿ ÐµÑħ
ĠÐ² Ð»Ð°Ð¶
Ð´ ÑĢÑĥÐ³
ĠÑĤ Ð¾Ð½
Ð¾Ð» Ð¾Ð¼
ĠÐ´ Ð°ÑģÑĤ
ĠÐ´ ÑĭÑħ
ĠÐ´ ÑıÐ´
Ð¾Ð² Ð¾Ð¼
ĠÐ± ÐµÐ¶Ð°Ð»
ĠÐ¼ ÑĥÐ´
ĠÐº Ð»Ð¸
Ð¸ÑĤ ÐµÐ»Ð¸
Ð¾Ð´ Ð¾Ð¹
ÐĿ Ð¾Ñģ
ÐĿ Ð°Ð·
ÐĿ Ð°Ð³
ÐĿ Ð¾ÑĩÑĮ
Ðĺ Ð´
ÐŁ Ð°ÑĢ
ÐĴ Ð¾ÑģÐ¿
Ð± Ð»
Ð¾ÑĤ ÑĢÐ¸
ĠÐ» Ð¸Ñĩ
Ñī Ð¸Ðµ
ĠÑĩ ÐµÐ»Ð¾Ð²ÐµÑĩ
ÐµÑģ ÐºÐ¸Ð¹
Ð¾Ð½ Ðµ
Ðļ Ð°ÑĢ
Ðļ Ð¸Ð¿
Ðļ Ð½ÑıÐ¶
ĠÑģÑĤ Ð²Ð¾Ð»
ĠÐ½Ð° Ñħ
Ð¢ ÑĥÐ´Ð°
Ð¢ ÑıÐ¶
ÑĥÐ´ ÐµÑĤ
ĠÐ¶ Ð°Ð´Ð½Ð¾
Ð¸Ð¼ Ð°
ĠÑĥ ÐµÐ´Ð¸Ð½
ÐµÐ· Ð°ÑĢ
Ð¾Ñĩ Ð¸ÑĤ
ÐµÑĩ ÐºÐ°
ÐŁÑĢ Ð¾Ð·
ÐŁÑĢ Ð¸Ðº
ĠÐºÑĢ ÑĥÑĩ
ĠÐºÑĢ ÑĭÐ»Ð°
ĠÑģÐ» Ð¾Ð¶
Ð¾Ð³Ð¾ Ñİ
Ðľ Ð¾Ð¶ÐµÑĤ
Ð½Ðµ ÐµÑĤ
Ðĳ ÑĥÐ´ÑĮ
Ðĳ ÑĭÐ²Ð°Ð»Ð¾
Ðĵ ÑĢÐµÐ¼
ÑĥÑĩ Ð¸Ñħ
ĠÐ¡ Ðº
ĠÐ¡ Ð¾Ð»Ð½
ĠÑģÐº ÑĢÐ¾Ð¼
ÐĿÐ° ÑģÑĤ
Ð¾Ñİ ÑĤ
ĠÑĢÐ°Ð· Ð¾Ð¼
ĠÐ¿Ð¾Ð» Ð°Ð³
Ðł ÐµÐ±
ĠÐ¢ Ð²Ð¾Ð¹
ĠÐ·Ð° ÑĪ
ÐŀÑĤ Ð¿
ĠÑį ÑĦÐ¸ÑĢ
ĠÐŁ Ð¾ÑģÐ»ÐµÐ´
Ð»Ð¾ Ñħ
ĠÐ±ÐµÐ· Ð¼Ð¾Ð»Ð²
ĠÑĨ ÐµÐ»Ð¸
ĠÑĤÐ°Ðº Ð¶Ðµ
ÑĥÑģÑĤ ÑĮ
ĠÐ¿Ð» ÐµÐ¼
ĠÐ²Ð¾Ð· Ð·
ĠÐ¾Ð´ Ð½Ð°ÐºÐ¾
Ð°Ð»ÑĮ Ð½Ð¾
ĠÐ±ÑĢ Ð¾Ð´Ð¸ÑĤ
Ð¸ÑģÑĤ Ð¾Ð¹
ĠÐĶ ÐµÐ½ÑĮ
ĠÐ»ÑİÐ± Ð¸ÑĤÑĮ
ĠÐĵ Ð°Ð²
ĠÐ´ÑĢ Ð¾Ð²
ĠÐ²ÑĢ Ð°ÑĤ
ĠÑįÑĤ Ð¾Ð³Ð¾
ĠÐ¿ÑĢÐµÐ´ ÑģÑĤ
Ð¸Ð½Ñĥ Ð»Ð¸ÑģÑĮ
ĠÐĹ Ð°
ĠÐ²Ð¾Ð» Ð½Ñĥ
Ð¸ÑĤÐµÐ»ÑĮ Ð½ÑĭÐ¼
ĠÑĢÐ¾Ð´ Ð°
ĠÑĢÐ¾Ð´ Ð¸Ð¼
ĠÐł Ð°Ð·
ĠÐ¿Ð¾Ð¼ Ð¾ÑĩÑĮ
ÐµÑĤÑĮ ÑģÑı
Ðĸ Ð¸Ð·
ĠÐ¿ÑĢÐ°Ð² Ð°
ĠÐ¿ÑĢÐ°Ð² ÑĭÐ¹
ĠÐ±Ð»Ð°Ð³ Ð¾
ĠÐ¶Ð¸Ð² ÑĭÐµ
ĠÐ¾Ñģ Ð½Ð¾Ð²
ĠÐ·Ð°Ð± ÑĭÐ»
ÑĢÑı Ð¶
ĠÐĳÐ¾Ð³ Ð¾Ð¼
ĠÐ¼Ð¸Ð» Ð¾ÑģÐµÑĢÐ´
Ð¡Ð¿ ÑĢÐ¾Ñģ
ÑĢÐ°Ñģ ÑģÑĥÐ´
ĠÐ±Ð¾Ð³ Ð¾Ð²
ĠÐ²Ð¾Ð¹ Ð½Ñĥ
ĠÐ´ÑĥÐ¼ Ð°Ð»Ð°
Ð£Ð¶ Ð°Ñģ
ĠÐ²Ð¾Ð´ Ð¾Ð¹
ĠÐ¼Ð¾Ð»Ð¾Ð´ ÑĭÐµ
ĠÐ¿ÑĢÐ¾ÑģÑĤ Ð¾Ð¹
ĠÐ½Ð¾Ð² ÑĭÐµ
ĠÐ³Ð¾Ð²Ð¾ÑĢ ÑıÑĤ
ÐłÐ°Ð· Ð²
ĠÑĥÐ¿ Ð°Ð»
ĠÐ±ÐµÑĢ ÐµÑĤ
ÑĥÐ² ÑģÑĤÐ²
Ð½ÑĥÑĤÑĮ ÑģÑı
Ð¸Ð»ÑĮ Ð½Ð¾
ĠÑĢÐ°Ð± Ð°
ĠÐ¶ÐµÐ½ Ð¸Ñħ
ĠÑģÑĭ Ð½Ñĭ
Ð¾ÑĤÑĢ ÐµÐ±
ĠÐ¸ÑģÐº ÑĥÐ¿
ĠÑĤÐ¾Ð» ÐºÑĥ
ĠÐ³ÑĢÐ¾Ð· Ð½ÑĭÐ¹
ĠÐ·Ð¾Ð»Ð¾ÑĤ Ð¾
ĠÐ·Ð¾Ð»Ð¾ÑĤ ÑĭÐµ
ĠÐ³Ð»ÑĥÐ± Ð¸Ð½Ðµ
Ð¡Ð² Ð¾Ð±
ĠÐºÐ°Ð¶Ð´ Ð¾Ð³Ð¾
Ð¦ ÐµÐ»
ĠÑĤÐ² Ð°ÑĢ
ÐĴÐ¾Ð· Ð½Ð¸Ðº
ĠÐ±Ð»Ð¸ Ð¶Ðµ
ĠÑĥÑģÑĤ Ð°
ĠÐ¼Ð°Ð» ÑĭÐ¹
ĠÐ¾ÑĢ Ð´
ĠÐ¼Ð¾Ð»Ñĩ Ð°Ð½ÑĮÐµ
ĠÐ²Ð¾Ñģ Ñģ
ĠÐ²Ð¾Ñģ ÐºÑĢÐµÑģ
ĠÐ±ÑĥÑĢ Ñı
ĠÐ³Ð¾Ð»Ð¾Ñģ Ð¾Ð¼
ĠÐ¿ÑĢÐ¸Ð· ÑĢÐ°Ðº
ĠÑģÑĥÐ´ÑĮÐ± Ñĥ
ĠÐŀÑĤ ÑĨÐ°
ĠÐŀÑĤ ÐµÑĨ
ÐļÐ¾ÑĤÐ¾ÑĢ ÑĭÐ¹
ĠÐĶÑĥÑħ Ð¸
ĠÑĢÐ°Ð² Ð½Ð¸
Ð¼Ñĭ ÑģÐ»
ĠÐ³ÑĢÐ¾Ð± Ð°
ĠÐ¿ÑĢÐ¸Ð¼ ÐµÑĢ
ÐĹÐ°ÑĤ ÐµÐ¼
ĠÐ¾ÑĤÐºÑĢ ÑĭÑĤ
ĠÐ³Ð¾ÑģÐ¿Ð¾Ð´ Ð°
ĠÐ²ÑģÐ¿ ÑĭÑħ
ĠÐºÐ°Ð¼ ÐµÐ½ÑĮ
ĠÐ³Ð»Ð°Ð² Ñĥ
ÐĵÐ»ÑıÐ´ Ð¸
ĠÑĩÐµÑĢÑĤ Ñĭ
ĠÐ¼Ð³ Ð»Ðµ
ĠÐ¿ÑĢÐ¸ÑĪ ÐµÐ»
ĠÑĥÑģÐ» ÑĭÑĪ
ĠÑģÑĤÑĢÐµÐ¼ ÑıÑģÑĮ
ĠÐ»ÑĥÐ³ Ð°
ĠÐ¿ÑĤÐ¸ ÑĨ
ÐŀÐ³ ÑĢÐ¾Ð¼
ĠÐ²ÐµÐ»Ð¸Ñĩ Ð°Ð²
ĠÐ¾ÑĤÑĩ Ð°ÑıÐ½
ĠÐ¸Ð·Ð´ Ð°Ð»ÐµÐºÐ°
ĠÐ³Ð¸Ð± ÐµÐ»ÑĮ
ĠÐ¿ÑĢÐ¾Ñħ Ð»Ð°Ð´
ĠÐ¾Ð² ÑĢÐ°Ð³
Ð»ÑıÐ» ÑģÑı
ÐĶÐ¾ÑĢ Ð¾Ð³Ð°
ĠÐ´Ð¾Ðº Ð°Ð·
ĠÐ¿ÑĢÐµÐ» ÐµÑģÑĤ
ĠÐ¡Ñĭ Ð½Ð°
ĠÐĶÑĢÐµÐ² Ð°
ÑĢÐ¾Ñĩ ÐµÐ¼
ĠÐ´ÐµÑģÑı ÑĤÑĮ
Ð¥Ð¾ÑĢ Ð¾ÑĪÐ¾
ĠÑĤÑİÑĢ ÑĮÐ¼
ĠÑģÐºÐ°ÑĤ ÐµÑĢÑĤ
Ð»Ð¸ÑĪ ÐºÐ¾Ð¼
ÐļÑĢÑĥÐ³ Ð¾Ð¼
ĠÐ¡ÐµÑĢÐ° ÑĦÐ¸Ð¼
ĠÐ½ÐµÐ±Ð¾Ñģ Ð²Ð¾Ð´
. âĢĶ
Ðµ ÐµÑĪÑĮ
ÑĤ Ð¾Ð²
Ð¸ Ð½Ð¾Ñİ
ÑĢ Ð¾Ð²ÑĮ
ĠÑģ Ñģ
ĠÑģ Ñĩ
ĠÑģ ÐµÐ½
ĠÑģ ÐµÑĤ
ĠÑģ Ð¶
ĠÑģ ÐµÐ»ÑĮ
ĠÑģ Ð¾Ñİ
ĠÑģ ÑħÐ¾Ð´
ĠÑģ ÑĥÐ»
ĠÑģ Ð»Ð¸ÑĪÐºÐ¾Ð¼
ĠÐ¿ ÑĮÐµÑĤ
ĠÐ½ ÑĥÐ¶Ð´
ÐµÐ½ ÐºÐ¸
ĠÑĤ ÐµÐ»Ð°
ÐµÑĤ ÐµÐ»
Ð¾Ð» Ð°
ĠÐ´ Ð°ÑĤÑĮ
ĠÐ¸ Ð³ÑĢÐ°
ĠÐ¸ ÑģÑĤÑĢÐµÐ±
Ð¾Ð² Ñī
ĠÐ± Ð°Ð±Ñĭ
ĠÐ¼ ÐµÐ»
ĠÐ¼ Ð¸Ð½ÑĥÐ²
ĠÐº Ð°Ð½
ĠÐº Ð°Ñģ
ĠÐº ÑĥÑī
ĠÐº Ð°Ñĩ
ĠÐº Ð°Ð·Ð°Ð»Ð¾ÑģÑĮ
ĠÐº Ð°Ð¶ÐµÑĤÑģÑı
Ð¾ÑĢ Ñĥ
Ð¸ÑĤ Ð¾Ð¹
Ð¾Ð¼ Ð°Ð½
ĠÐ· Ð¾ÑĢ
ÐµÐ¼ ÑĥÐ´ÑĢ
ĠÐ¿ÑĢ ÑĭÐ³
ÐŁ Ð¾ÑģÐ¿
Ð°Ðº Ð¾Ð¼
Ð¡ Ð´
Ð¡ ÐµÐ¼
Ð¡ Ð»Ð°Ð´
Ð¡ ÐµÐ³Ð¾Ð´Ð½Ñı
ÑĨ Ð¾
ÑĨ Ð°ÑĢ
Ð³ Ð¾Ð´
ĠÐ» Ð¾Ð¼
ĠÐ» ÐµÐ²
ÐµÐ´ Ð»Ð¸Ð²
Ð°Ð² ÑĪÐ¸
Ð°Ð´ ÐºÐ¾Ð¹
ÐµÑģ ÐµÐ»
ÐµÑģ ÐºÐ¾Ð¹
Ð¸Ð½ Ð°Ð¼Ð¸
Ð¾Ð½ Ð½ÑĭÐ¹
Ðļ Ð½ÑıÐ³Ð¸Ð½Ñı
ĠÑģÑĤ ÐµÐº
ĠÑģÑĤ Ð¾Ð»ÑĮÐºÐ¾
Ð¢ Ð¾Ð¹
Ð¢ Ð¸Ñħ
ÑĥÐ´ Ð¸ÑĤ
Ð¸Ð² Ð°Ð¹
Ð½Ð° ÑĩÐµ
ÐĶ ÐµÐ½ÑĮ
ĠÑĥ ÐºÐ¾ÑĢ
Ð¾Ñĩ ÐºÐ¾Ð¹
Ð¾Ñĩ ÐºÐµ
ÐºÐ° ÐµÑĤÑģÑı
ÑĥÐ¶ Ð¸
ĠÐ¾ÑĤ ÑĨÐ¾Ð¼
ĠÐ¾ÑĤ ÑĨÐ¾Ð²
ÐŁÑĢ Ð¾Ð³
ÐŁÑĢ Ð¾Ð½
ÐŁÑĢ Ð¸ÑģÑĤ
ĠÐºÑĢ Ð¾Ð¼
ĠÑħ Ð²Ð¾ÑĢ
Ðľ ÐµÐ´
Ðľ Ð¸Ð¼Ð¾
Ð¾Ð»ÑĮ Ð½ÑĭÐ¹
Ðĳ Ð¾ÑĢ
ÐµÐ¶ Ð½Ð¾
ÐµÐ¶ Ð°Ð»Ð¸
ĠÐ¾Ð± Ð²
ĠÐ¾Ð± Ð»ÐµÐ³
ĠÐ¿Ð¾Ð´ Ð°ÑĢ
ĠÐ²Ñĭ ÑħÐ¾Ð´
ĠÐºÐ°Ðº Ð¾Ðµ
ĠÐ¡ Ð°Ð¼
ÑĮÑı Ð½
ÑĮÑı Ð¼
ĠÑģÐº ÑĢÑĭÐ»
ĠÑĢÐ°Ð· Ð¼
ĠÑĤÑĢ ÐµÐ±
ĠÑĤÑĢ ÐµÑī
ĠÑĤÑĢ ÐµÑĤÑĮ
ĠÐĴ Ñĭ
Ð¸Ð»Ð¸ Ð¿Ð¿
ĠÐ¢ ÐµÐ±Ðµ
ĠÐ¢ Ð°Ð½Ñı
ĠÑģÐ¼ ÑıÑĤ
ÐµÑħ Ð°Ð»Ð¸
Ð»Ð¾ ÑĪ
ĠÐ²Ð· ÑıÐ»
ÐĴÑģ ÐµÐ³Ð¾
ÑĥÑģÑĤ Ð¸Ð»
ĠÐ¿ÐµÑĢ ÑģÑĤ
ĠÐ¾Ð´ Ð¾Ð»
ĠÐĲ Ð»
ĠÐĲ Ð´Ñĥ
ĠÐ±ÑĢ Ð¾Ð´
ĠÐ±ÑĢ ÐµÐ´
ĠÐĵ Ð´Ðµ
Ð¡ÑĤ ÑĥÐ¿
ĠÐľ Ð°ÑĤ
ĠÐľ ÐµÐ¶
ĠÐľ ÑĥÐ·
ĠÐ½Ð°ÑĪ Ð¸Ð¼
ĠÑģÑĤÐ°ÑĢ Ð¸ÐºÐ°
ĠÑĢÐ°Ñģ ÑģÑĤ
Ð¸Ð³ Ð¾ÑĢ
ĠÑģÐ°Ð¼ Ð¾Ð³Ð¾
ĠÐ½ÐµÑĤ Ñĥ
ĠÐºÐ¾Ð½ Ðµ
ĠÑģÑĤÑĢÐ° Ð½Ñĭ
ĠÐ½Ð¾Ñĩ Ð»ÐµÐ³
Ðĸ Ð°Ð»
Ðĸ ÐµÐ½Ð°
ĠÐ¿Ð¾Ð² ÐµÐ´
ĠÑĨÐ°ÑĢ ÑģÑĤÐ²Ð¾
ĠÐ¼Ð¸Ð» Ð¾ÑģÑĤÐ¸
ĠÑĥÐ´ ÐµÑĢÐ¶
Ð¡Ð¿ ÐµÑĪ
ĠÐ¿Ð¾Ð³ ÑĢÑĥÐ¶
Ð½ÑĮ ÐµÐ¼
ĠÐ¿Ð¾Ñģ ÑĢÐµÐ´
ĠÐ·Ð°Ð² ÐµÑĢÑĪ
ĠÑģÐ½ ÐµÐ¶
ĠÐ¿Ð¾Ð¿ Ð°Ð´
ĠÐ·Ð°Ð¼ ÐµÑĩ
ÐĳÐµÐ· Ð¼Ð¾Ð»Ð²
ĠÐ½Ð°Ð² ÑģÐµÐ³Ð´Ð°
ĠÑĥÐ¿ ÑĢÐ°Ð²
ĠÐ¿Ð¾ÑģÑĤ Ð°Ð²
ĠÐ²ÐµÐ» Ð¸ÑĤ
ĠÐ¿ÑĢÐ¸Ð² ÑĭÐº
ĠÐ»ÑĥÑĩ ÐµÐ¹
ĠÐĳÐ¾Ð¶ ÐµÑģÑĤÐ²Ð°
ĠÑĤÑĢÑĥÐ´ Ð½Ð¾
ĠÐ¸ÑģÐº ÑĥÑĪ
ĠÐ½Ð°Ðº Ð»Ð¾Ð½
ĠÑĥÐ± Ð¸ÑĤ
ĠÐ³Ð»ÑıÐ´ ÐµÐ»
ĠÐ²Ð¾Ð·Ð´ Ð²Ð¸Ð³
ĠÐ¾ÑģÑĤ Ð°Ð»ÑĮ
ĠÐ¾ÑģÑĤ Ð¾ÑĢÐ¾Ð¶
ĠÐ´Ð¾ÑĢÐ¾Ð³ Ð¾Ð¹
ÐĴÐ· Ð³Ð»Ñı
Ð°Ð»ÐµÐº Ð¾
Ð°Ð»ÐµÐº Ðµ
ĠÑĥÑģ Ñĭ
ĠÐ³Ð¾ÑĢÐ´ ÑĭÐ¹
ÐłÐ°Ñģ Ñģ
ÐłÐ°Ñģ ÑģÐºÐ°Ð·
ĠÐ´Ð¾ÑģÑĤ Ð¸Ð³
ĠÐ²Ð·Ð´ ÑĭÑħ
ĠÐ±ÐµÑĢÐµÐ³ Ñĥ
ĠÐ½ÐµÐ¶ Ð½Ð¾Ð¹
ĠÑģÑĥÐ´ÑĮÐ± Ðµ
ĠÐ¾ÑĤÐ´ ÑĭÑħ
ĠÑĢÐµÐº Ð°
ĠÑħÑĢ ÐµÐ±
ĠÑħÑĢ Ð°Ð±ÑĢ
ĠÐºÑĢÑĭÐ» ÑĮ
ĠÐ¾Ð±ÑĬ ÑıÐ²
ĠÐ¢Ð²Ð¾ÑĢ ÑĨÐ¾Ð¼
Ð¡Ð²Ð¾ Ð¸Ñħ
Ð¡ÑĤÐ¾ ÑıÐ»
ĠÐ¿Ð¾Ð¶ Ð°Ð»
ĠÑĢÐ¾Ñģ ÐºÐ¾ÑĪ
ĠÐ¦ Ð°ÑĢ
ÐĵÐ»ÑıÐ´ Ð¸ÑĤ
ÐĽÐµÑĤ Ð¸ÑĤ
ĠÑģÐ¾ÑĤÐ²Ð¾ÑĢ ÑĳÐ½
ÑĭÑģ ÐµÐ»
ĠÐĲÐ½Ð³ÐµÐ» Ñĭ
ĠÐ½Ð°Ð¹ ÑĤÐ¸
ĠÑĩÑĥÐ¶ Ð¾Ð¹
ĠÐ¡Ð¼ÐµÑĢÑĤ Ð¸
ĠÐ½ÐµÑĩ ÐµÐ³Ð¾
ĠÐ¾ÑĤÐ²ÐµÑĩ Ð°Ð»
ĠÐ½ÐµÐ½Ð°Ð² Ð¸Ð´
ĠÑģÐ¼Ð¾ÑĤÑĢ Ð¸ÑĤ
ĠÐ¸Ð´ ÑĤÐ¸
Ð¡Ð²ÐµÑĢ ÑĪ
Ð¡Ð¸Ð´ Ð¸ÑĤ
ĠÑģÐ¿Ð¾ÐºÐ¾Ð¹ Ð½Ð¾
ÐĴÑĭÑģ Ð¾Ðº
Ð£Ð´ Ð°ÑĢ
ĠÑĢÐ°Ð´Ð¾ÑģÑĤ Ð½Ð¾
ÐĳÐµÑģÑģ Ð¼ÐµÑĢÑĤ
ÐĹÐ°Ð´ ÑĥÐ¼
Ð¡Ð½ ÐµÐ³
Ð¡ÑĩÐ°ÑģÑĤ Ð»Ð¸Ð²
ĠÑīÐµÐ´ ÑĢ
ĠÐµÐ¶ ÐµÐ»Ð¸
ĠÐ²Ð¿ÑĢÐ°Ð² Ðµ
ĠÑĢÐ°Ð²Ð½ Ð¾Ð´ÑĥÑĪ
ÐĽÐ¸ÑĨ Ð¾
ĠÐ°ÑĢÐ¾Ð¼ Ð°ÑĤ
ĠÐ ®
Ð¾ Ð¸
ÑĤ Ñı
ÑĤ Ð¾Ð¹
Ð¸ Ð½Ð¸
Ð¸ ÐºÐ¸Ð¹
ÑĢ Ð°ÑĤÑĮ
Ð» ÐµÐ¶
Ð» ÐµÐ½ÑĮÐµÐ¼
Ñĥ ÐºÐ¾Ð²
Ñĭ Ð¶
Ñı Ð±
ĠÑģ Ð½Ð¾Ð¼
ĠÐ¿ ÐµÑĤ
ĠÐ¿ ÐµÑī
ĠÐ¿ ÐµÑģÑĤÑĢ
Ðº Ð½ÑĥÐ»
ĠÐ² ÑĤ
ĠÐ² Ð½Ðµ
ĠÐ² ÐµÑĢÑĤ
ĠÐ² Ð»ÐµÐº
Ð´ ÑĮ
Ð¼ ÐµÐ½Ð½ÑĭÐ¹
ÑģÑĤ Ð°ÑĢ
ÐµÐ½ Ð¾Ð¹
ĠÑĤ ÐµÐ½
ĠÑĤ ÐºÐ°Ñĩ
Ð¾Ð» ÑİÐ±
ĠÐ± ÐµÑĪÐµÐ½
ĠÐ¼ Ð¸Ð½
ÐµÑĢ ÐµÑĩÑĮ
ĠÐº Ð»Ñı
ĠÐº Ð¸Ñģ
Ð¾ÑĢ ÐµÑĩ
Ð¾ÑĢ Ð¾Ð¿
ÐµÐ» ÐµÐ¼
ĠÐ· ÑĢÑı
Ðĺ Ð´Ð¸
ÐµÐ¼ Ð¾Ð½
ÐŁ Ð¾Ð¶
ÐĴ ÑĭÑħ
Ð¾Ð³ ÑĥÑī
Ð¡ ÐµÐ´
Ð¡ Ð¾Ðº
Ð¡ ÐºÑĢ
Ð¡ Ð¾Ð¼Ð½
Ð¡ ÑİÐ´Ð°
ÑĨ ÐµÐ¿
Ð³ Ð¾Ð¹
Ð³ Ð»Ð°ÑĪ
ĠÐ» Ð¶
ĠÐ» Ð¸Ñħ
Ð°Ð² Ð°Ð»
Ð°Ð² Ð¸Ð´
Ð°Ð½ Ð¾Ð¹
ĠÑĩ Ð¸ÑģÐ»
ÐµÑģ Ð»Ð°Ð²
Ð°Ð· ÑĥÑĢ
ÑĥÐ´ Ñĥ
ĠÐ¶ Ð°Ð´
ÐµÑģÑĤ Ð¾Ñĩ
ĠÑĥ Ð¹
ĠÑĥ ÑģÑĤÑĥÐ¿
Ð¾Ñĩ ÐµÐ½
ÐµÑĩ Ð°ÑĤ
ĠÐ¾ÑĤ Ð²ÐµÑĢ
Ð½Ñĥ ÑĪ
Ð»Ñı Ð¿
Ðľ ÐµÐ»ÑĮ
Ðľ Ð¾Ñı
ÐµÐ¶ Ð´Ðµ
Ð¸ÑĢ Ð°ÑĤÑĮ
Ð¸ÑĢ Ð°ÐµÑĤ
Ð°Ð¶ ÐµÐ½Ð½ÑĭÐ¹
ĠÐ²Ñģ ÐºÑĢ
ĠÐ³ÑĢ ÑĥÐ·
ĠÐ³ÑĢ Ð°Ð¶Ð´
Ð°Ñħ Ð¾Ð¼
ĠÐ¿Ð¾Ð» Ñİ
Ð½Ñı Ð¼
Ðł ÐµÐ²
ĠÑĤÑĢ ÐµÑħ
ĠÐ¢ Ð°Ð¼
ĠÐ¢ ÑĢÐ¾Ð½
ÐĽ Ð¸ÑĪ
ĠÐŁ ÑĢÐµÐ´
ĠÐ±ÐµÐ· Ð¼
ĠÑĤÐ°Ðº Ð¸Ðµ
ĠÑĤÐ°Ðº Ð¾Ðµ
ĠÐ²Ð· Ð¼Ð°Ñħ
ÐĴÑģ Ð¿
ĠÐ¿ÐµÑĢ ÐµÐ½
ĠÐ¿Ð» ÐµÑĤ
ĠÐ¾Ð´ Ð½Ð¸
ĠÐ¾Ð´ Ð½Ð¾Ð³Ð¾
ĠÐ¾Ð´ Ð½Ð°Ð¶Ð´Ñĭ
ĠÐĲ Ð³
ĠÐĲ ÑĢÑħÐ°Ð½Ð³ÐµÐ»
Ð¸ÑģÑĤ Ð¸Ð½Ñĥ
ĠÐ»ÑİÐ± Ñı
ĠÐĵ ÑĥÐ±
ĠÑģÐ²Ð¾ ÑĳÐ¼
ĠÐľ Ð°ÑĢÐ¸Ñı
ÑĢÐ°Ð² Ð´
ĠÑģÑĤÐ°ÑĢ Ð¾Ð¹
ĠÐ¿Ð¾ÑĢ Ð°Ð·
ĠÐ½Ð°Ñģ Ðº
ÑĥÑī ÐµÐ¹
ĠÐ²ÐµÑĢ Ð½Ð¾ÑģÑĤÑĮ
ĠÑĥÐ¼ Ð¸Ð»
ĠÐ´ÑĥÑĪ Ð¾Ñİ
ĠÐķ Ð²Ñĭ
ĠÐ¼Ð¸ÑĢ Ñĥ
ÑĢÐµÐ´ ÑĮ
ĠÑĥÑĤ Ð¾Ð»
ĠÐ¿Ð¾ÑĤ Ð¾Ðº
ÐļÑĢ ÑĭÐ»
ÑĢÐ°ÑĤ Ð½Ð¾
ĠÐ±ÐµÐ´ Ñĭ
ĠÐ¼Ð¾ÑĢ ÐµÐ¼
ÑĢÐ¸ ÑıÑĤ
ĠÑĨÐ°ÑĢ Ñİ
ĠÐ·Ð°Ð± ÑĭÑĤÑĮ
ÐŀÐ´ Ð½Ð°Ð¶Ð´Ñĭ
ĠÐ¿ÐµÑģ Ð½ÑĮ
ĠÑģÐ¾ Ð¾Ð±Ñī
ĠÐ¿Ð¾Ñģ ÐºÐ¾ÑĢÐµÐ¹
ĠÐ½ÐµÐ² ÐµÑģÑĤ
ĠÐ·Ð°Ð² ÐµÑĤ
ĠÐ½Ð¾Ð² ÑĭÑħ
ĠÐºÐ¾ÑĢ Ð¾ÑĤ
ĠÐ²ÐµÐ» ÐµÐ»
ĠÐ¾Ð±ÑĢ ÐµÑģÑĤÐ¸
ĠÑĤÑĢÑĥÐ´ Ñĭ
ĠÐ¶ÐµÐ½ Ðµ
ĠÐ¶ÐµÐ½ Ñĥ
ĠÑĦ Ð¾Ð½
ĠÐ´ÐµÑĢÐµÐ² Ð½Ñİ
ĠÐ²ÐµÐ´ ÐµÑĤ
ĠÐ³Ð»ÑıÐ´ Ð¸
ĠÐ´Ð² Ð°Ð´ÑĨÐ°ÑĤÑĮ
ĠÑĪÑĥÐ¼ Ð¸ÑĤ
ĠÐ³Ð»ÑĥÐ± Ð¾ÐºÐ¾Ð¹
ĠÐ¾ÑģÑĤ Ð°Ð½Ð¾Ð²
ĠÐ½ÐµÑģ Ð¼ÐµÑĤ
ĠÐ´ÐµÐ» Ðµ
ĠÐºÑĢÐ¾Ð² ÑĮÑİ
ĠÐ½Ð¸Ñĩ ÐµÐ¼
ĠÐ²Ð»Ð° ÑģÑĤÐ¸
ĠÐ²ÑģÐµÐ¼ Ð¸
ĠÐ±ÐµÐ» Ð¾Ð¹
ĠÐ¾ÑĤÐ² Ð°Ð¶
ĠÐ·Ð°ÑĢ Ñı
ĠÐ¿ÑĥÑĤ ÐµÐ¼
ÑİÑī ÐµÐ¹
ĠÑĤÑıÐ¶ ÐµÐ»Ð¾
ĠÑħÐ¾ÑĤ ÑıÑĤ
ĠÐ½ÐµÐ¶ Ð½Ð¾
ĠÐĴÑģ ÐµÐ²ÑĭÑĪ
ĠÐ¿ÑĢÐ¸Ð· ÑĭÐ²
ĠÐ¾ÑĤÐ´ Ð¾ÑħÐ½ÑĥÑĤÑĮ
ĠÐ²ÑĭÑĪ Ð¸Ð½Ñĭ
ĠÐ±ÐµÐ·Ð´ Ð½Ñĥ
ĠÐ¼Ð¾Ð»Ð² Ð¸Ð»Ð°
ĠÐ´Ð¾Ð² Ð¾Ð»ÑĮÐ½Ð¾
ÐĿÐ°Ð¿ ÑĢÐ°Ð²
ÐĶÐ¾ÑģÑĤ Ð¸Ð³
ĠÐ¿Ð¾Ð¶ Ð°ÑĢ
ĠÐ²ÐµÐ½ ÐµÑĨ
ĠÑĤÐ¾Ñģ ÐºÐ¸
ĠÑĤÐ¾Ñģ ÐºÑĥ
ĠÐ¾Ñħ Ð¾ÑĤ
ĠÐ²Ð¾ÑģÑĤ Ð¾Ðº
Ð½Ð¾Ñģ Ð¸ÑĤ
ÐľÐµÐ¶ Ð´Ñĥ
ĠÐ¿ÑĢÐµÐºÑĢÐ°Ñģ Ð½ÑĭÐ¹
ÑĢÐ°Ð· Ð¸Ð»
ĠÐ½ÐµÐº Ð¸Ð¹
ĠÐ¼ÑĢÐ°Ñĩ Ð½ÑĭÐ¹
ÐĹÐµÐ¼ Ð»Ñı
ĠÐ±Ð»Ð°Ð³Ð¾Ð´ Ð°ÑĤ
ĠÑĥÐº Ð°Ð·
ĠÐ´ÑĢÐµÐ¼ Ð»ÐµÑĤ
ĠÐ½Ð°Ð¹ Ð´
ĠÐ¿ÑĤÐ¸ ÑĨÐ°
ĠÐ¼ÑĢÐ°Ðº Ðµ
ĠÑĩÐµÑĤ ÑĭÑĢÐµ
ĠÑĤÑĢÐµÐ² Ð¾Ð³
ĠÑģÐ¿ÐµÑĪ Ð¸ÑĤ
ĠÑĤÑĭÑģÑı ÑĩÐ¸
ÐĶÑĢ Ð¾Ð¶
ĠÐĽÑİÐ´ Ð¼Ð¸Ð»Ð°
ĠÑģÐ¾Ð¼Ð½ ÐµÐ½ÑĮÑı
ÐŁÑĢÐ¸ÑĢ Ð¾Ð´Ð°
Ð°ÑĦ Ð°
ĠÑģÑĥÐ¶Ð´ ÐµÐ½Ð¾
ÐĶÐ¾Ð¼ Ð¾Ð¹
ĠÐ¡Ð¿ Ð°Ñģ
ĠÐ¥Ð° Ð¾Ñģ
ĠÐ½Ñı Ð½Ñı
ĠÐ¶ÑĢÐµÐ± Ð¸Ð¹
ĠÐ§ÐµÑĢÐ½Ð¾Ð¼ Ð¾ÑĢ
ĠÐĴÐ°Ñģ Ð¸Ð»Ð¸Ð¹
Ñģ Ð°
Ð» ÑİÑĤ
ĠÑģ ÐµÐ»Ð°
ĠÑģ Ð¸Ð½Ðµ
ĠÐ¿ ÑĥÑħ
ĠÐ¿ ÑĭÐ»Ð°
ĠÐ¿ ÑĥÑģÐºÐ°Ð¹
ĠÐ² Ð½ÑĥÑĤ
ĠÐ² ÑħÐ¾Ð´Ð¸ÑĤ
ĠÐ² Ð±Ð»Ð¸Ð·Ð¸
Ð² ÑıÑī
Ñĩ Ð°Ð»ÑģÑı
Ð¼ Ð°Ð·
Ð¼ ÑĥÑĤ
ÑĪ Ð¸Ð¼Ð¸
ĠÑĤ ÐµÑĪ
ĠÐ¾ Ñī
ĠÐ¾ ÐºÐ¾ÑĪ
Ð°Ð» Ðµ
ĠÐ´ Ð¾Ð»ÑĮ
ĠÐ´ Ð°Ð»Ð¸
ĠÐ± Ð¸ÑĤÑĮ
ĠÐ± Ð¾Ð´ÑĢ
ĠÐ¼ Ð°Ð½
ĠÐ¼ ÐµÑģÑĤÑĮ
ĠÐ¼ ÑıÐ³
ĠÐº Ð²
Ð¾Ð´ Ð¾Ð¼
ÐĿ ÑĥÐ¶
ÐĿ Ð°Ñħ
ĠÐ· Ð°Ð·
ĠÑĢ Ð¶
ĠÐ³ Ð°Ð´
ÐŁ Ð¸ÑģÑĮ
ÐĴ ÐµÐ´
ÐĴ Ð»Ð°Ñģ
ÐĴ Ð¼ÐµÑģÑĤ
Ð°Ðº Ñĥ
Ð¡ Ð±
Ð¡ Ð¾Ð¿
Ð¡ Ð²Ð¸Ð´
Ð¡ ÑĢÐ°Ð¶
ÑĨ Ð°Ð¼Ð¸
Ð³ Ð¾ÑĤÐ½Ð¾
ĠÐ» Ð¾Ð¶Ðµ
ÐµÐ´ Ð¸
Ð°Ð½ Ð¸Ð½
Ð°Ñģ Ðº
ÑĤÐ¾ Ñİ
ĠÐ½Ðµ Ð¸Ñģ
Ð½Ð¸ ÑĪÑĮ
ÐµÑģ Ð½
Ðŀ Ð·
Ðŀ ÐºÑĢ
Ð¸Ð½ Ð°Ð¼
ĠÐ½Ð° ÑħÐ¾Ð´
Ð¢ Ð¾Ð¼Ñĥ
Ð¸Ð² ÑĭÐµ
ĠÐ¶ ÐµÐ¼Ñĩ
ĠÐµ Ð»
Ð¾Ñĩ Ñĥ
ÐºÐ° ÑıÐ½
ÐµÐ½ÑĮ Ð¸
ÑĥÐ³ Ñĥ
ÐŁÑĢ Ð¾Ð¼
ĠÐºÑĢ ÑĥÐ¿
Ð§ Ð°Ñģ
ĠÑħ Ð¾Ð´Ð¸ÑĤ
Ð»Ñı Ñħ
Ðľ ÑĥÑĩ
Ðĳ ÑĢ
Ðĳ Ð¾Ð¹
Ðĳ Ð»Ð¸Ð·
ÐµÐ¶ Ð°Ð»Ð°
Ð¸ÑĢ Ð°Ñı
ÐĿÐµ Ð¸ÑģÑĤ
Ð£ Ð¹
ĠÐ²Ñģ ÑĶ
ĠÐ¾Ð± ÐµÑī
ĠÐ¾Ð± ÑıÐ·
ĠÐ¾Ð± ÑĭÑĩ
ÑģÑĤÐ² ÐµÐ½Ð½Ð¾
ÑģÑĤÐ² ÑĥÑı
Ð°Ð± Ð¾ÑĤ
Ð°Ð³ Ñĥ
ĠÐ³ÑĢ ÐµÐ±
ĠÐ³ÑĢ Ð¾ÑĪ
ĠÐ¿Ð¾Ð´ Ð´
ĠÐ¿Ð¾Ð´ Ð¾Ð±Ð½Ð¾
ÑĥÑĩ Ð°Ñı
ĠÐ¿Ð¾ ÑİÑĤ
ĠÑĪ Ð»ÑıÐ¿
ĠÐ¡ ÑĥÐ´
ĠÑĢÐ°Ð· Ð¾ÑĢ
ĠÐ¿Ð¾Ð» Ð½Ñĭ
ĠÐ¿Ð¾Ð» Ð·
Ðł Ð¾Ñģ
ÐļÐ°Ðº Ð°Ñı
ÐļÐ°Ðº Ð¾Ðµ
ĠÐ³Ð¾ÑĢ Ñĥ
ÐµÑħ Ð¸
ĠÐ»Ð¸ ÑĨÐµ
ĠÑĨ ÐµÑĢÐº
ĠÑĨ ÐµÑĢÐºÐ¾Ð²
ÑĥÑİ Ñī
ĠÐ¿Ð» ÐµÐ¼Ñı
ĠÐ²Ð¾Ð· Ð½Ð¸Ðº
ĠÐ¾Ð´ Ð°ÑĢ
ĠÐŀ Ð½Ð¸
ÑģÐ» Ð°Ð²
Ð¾ÑĪ Ð»Ð¸
Ð¸ÑģÑĤ ÑĭÑħ
Ð¸ÑģÑĤ ÑĭÐµ
ĠÐ»ÑİÐ± Ð¾Ð¹
ĠÐ»ÑİÐ± ÐµÐ·
Ð¡ÑĤ ÑĢÑĥ
ÑĥÐ· Ð´
ĠÑĢÑĥ ÐºÐµ
ÐµÑī Ð°Ñı
ĠÐ´Ð¾Ð» Ð¸Ð½Ñĭ
ĠÐ²Ð¸Ð´ Ð°Ð»
ĠÐ¿ÑĢÐµÐ´ ÑģÑĤÐ°Ð²
ĠÐ¿ÑĢÐµÐ´ Ð»Ð°Ð³
ĠÐĹ Ð´ÐµÑģÑĮ
ĠÐ²Ð¾Ð» Ð¸
ĠÑĥÐ¼ Ð°
ĠÑĥÐ¼ ÐµÐ»
ĠÑĥÐ¼ Ð¾Ð»Ðº
ĠÐķ Ð¼Ñĥ
Ð¡Ðº Ð°Ð¶
ĠÑģÐ»Ð¾Ð² Ð¾Ð¼
ĠÑĥÑĤ Ð¾Ð¼
Ð»ÐµÐ½ Ð½ÑĭÐµ
ÑıÑī Ð¸Ð¼
ĠÐ¿ÑĢÐ°Ð² Ð´Ñĥ
ÑıÐ½ ÑĥÑĤ
ĠÐ·Ð½ Ð°Ð»Ð¸
ÑĩÐ¸ Ð½Ñĭ
ĠÐ»ÐµÑĤ Ð¾
ÑĭÐ½ ÐµÑĤ
ĠÑĤÐ²Ð¾ Ðµ
ĠÐ±ÐµÑģ ÑģÑĤ
Ð½Ð¸Ð¼ Ð°ÐµÑĤ
ĠÑģÐ»Ð°Ð² Ðµ
ÐŀÐ´ Ð½Ð¸
ÑĢÑı Ñħ
ÑĢÑı Ð³
ĠÐ²Ð¿ ÐµÑĢÐ²ÑĭÐµ
ĠÐ·Ð» Ð¾Ð¹
ĠÑĥÐ´ Ð¸Ð²
ĠÐ±Ð¾Ð³ Ñĥ
ĠÐ»ÐµÑģ Ð¾Ð²
ĠÐ²Ð¾Ð¹ ÑģÐº
ĠÐ´ÑĥÐ¼ Ñĭ
Ð¡Ð¼ Ðµ
ĠÐ¼Ð¾Ð»Ð¾Ð´ Ð°Ñı
ĠÐ·Ð°Ð¿ Ð°Ñģ
ĠÐ·Ð°Ð¿ Ð»Ð°Ðº
ĠÐ·Ð°Ðº Ð°ÑĤ
ĠÑģÐ½ Ð¾Ð¿
ĠÐ²ÑĭÑģ Ð¾ÐºÐ¾Ð¹
ĠÐ¿ÑĥÑģÑĤ Ð¾Ð¹
Ð»ÐµÑĤ ÐµÐ»
ĠÐ³Ð¾Ð²Ð¾ÑĢ Ð¸ÑĤÑĮ
ÐłÐ°Ð· Ð±
ĠÐ»ÑĥÑĩ ÐµÐ·Ð°ÑĢ
ĠÐ¾Ð±ÑĢ ÐµÑĩ
Ð¨ Ð»Ð¸
ĠÐ¿Ð¾Ð± ÐµÐ¶Ð´
ĠÐ¿Ð¾Ñĩ ÑĤÐ¸
ĠÐ½ÐµÐ± Ð°
ĠÐ½ÐµÐ± Ð¾Ð¼
ĠÐ½ÐµÐ± ÑĢÐµÐ¶
ĠÐºÐ¾ÑĤÐ¾ÑĢ ÑĭÐ¼
ĠÐ´ÐµÑĢÐµÐ² Ð¾
ĠÐ³Ð»ÑıÐ´ ÐµÑĤÑĮ
ĠÐ¿ÐµÑĢÐ² ÑĭÐ¼
Ð½ÑĥÐ² ÑĪÐ¸ÑģÑĮ
ĠÑģÐ»ÐµÐ· Ð°Ð¼Ð¸
ĠÐ²Ð¾Ð·Ð´ ÑĥÑĪ
ĠÐ·Ð¾Ð»Ð¾ÑĤ ÑĭÑħ
Ð¡Ð² ÐµÐº
ĠÑĤÐ² Ð°ÑĢÐµÐ¹
ĠÐ±Ð¾Ð¹ ÑĨÑĭ
ĠÑģÑĤÐ°Ð½ Ñĥ
ÐŁÑĢÐ¸ ÑıÑĤ
ĠÐ¾Ðº Ð½Ð¾
ĠÐºÐ» ÑıÑĤ
ĠÐ½ÐµÐ±ÐµÑģ Ð½Ð¾Ð¹
ĠÐ¸Ð·Ð± ÑĢÐ°Ð½
ĠÐ²Ð¾Ð·Ð² ÑĭÑĪ
ĠÐ±ÐµÑĢÐµÐ³ Ð°
ĠÑİ Ð½Ð¾ÑģÑĤÐ¸
ĠÐŃ Ð¼Ð¿Ð¸ÑĢÐµÐ¹
ĠÑĢÑıÐ´ Ñĭ
ĠÑıÑĢ Ð¾ÑģÑĤ
ĠÐºÐ°Ð· Ð½Ð¸
ĠÐ¢Ð²Ð¾ÑĢ ÐµÑĨ
ĠÑĩÑĥÐ² ÑģÑĤÐ²Ð¾
ÐĶÑĢÑĥÐ³ Ð¸Ðµ
ĠÑĪÐ°Ð³ Ð¾Ð¼
ĠÑģÑĥÐ´ Ð¸ÑĤÑĮ
ÐŀÑģ Ð¾Ð±
ĠÐ¿ÑĢÐ¾Ð² Ð¾Ð·
ĠÐ¾ÑĤÐºÑĢ ÑĭÐ»
ĠÐ¿Ð¾Ð¼ÐµÑī Ð¸Ñĩ
ĠÑģÐ»ÑĥÐ¶ Ð¸ÑĤÑĮ
ĠÐ¸Ñģ ÑħÐ¾Ð´
ĠÐ¾ÑģÑĤÑĢ Ð¾Ð²Ð°
ÐļÐ¾ÑĢ Ð°Ð±
ÐĶÐ¾Ð» Ð³Ð¾
ĠÑĥÐ³ÑĢ Ð¾Ð·
ÐĳÐ»Ð°Ð³ Ð¾
ÐĳÐ»Ð°Ð³ Ð¾ÑģÐ»Ð¾Ð²
ĠÐ¿ÑĢÐµÐ² Ð¾Ñģ
ĠÑĢÐ°Ð·Ð± Ð¾Ð¹
ĠÑĤÐ¾Ð¿ Ð¾ÑĢ
ĠÐºÑĢÐ¸Ðº Ð¾Ð¼
ÐĵÐ¾ÑģÐ¿Ð¾Ð´ ÑĮ
ĠÑĤÐµÐ» ÐµÐ³
ĠÑĥÐº ÑĢÐ°ÑĪ
ĠÐ¿ÑĢÐ¸Ñģ ÑĥÑĤÑģÑĤÐ²
ĠÐ²Ð¾Ð² ÐµÐº
ĠÑħÐ¾Ð·Ñı Ð¸Ð½
ĠÑĪÐ°Ð¿ ÐºÑĥ
ÐĴÐ»Ð°Ð´ Ñĭ
ÐĴÐ»Ð°Ð´ Ð¸Ð¼Ð¸ÑĢ
ĠÐ²Ðº ÑĢÑĥÐ³
Ð¼Ð¾ÑĤÑĢ ÐµÐ»
Ð¸Ð½ÑģÑĤÐ² ÐµÐ½Ð½ÑĭÐ¹
ĠÐ²Ð½Ñĥ ÑĪ
ĠÐ½ÐµÐ¸Ð· Ð²ÐµÑģÑĤ
ĠÐ´ÑĥÑĢ Ð°Ðº
ĠÑģÐ¾ÑģÑĤ Ð°Ð²
ĠÐ±Ð»ÐµÑģÑĤ Ð¸ÑĤ
ĠÐ¿Ð¾ÑģÐ¿ ÐµÑĪ
ĠÑĢÐ¾Ñī Ð¸
ÐļÑĢÐ¸Ñĩ Ð¸ÑĤ
ĠÐ¿ÑĤ ÐµÐ½
ĠÐ°Ð½Ð³ ÐµÐ»
ĠÐ¿Ð»Ñı Ñģ
ĠÐ¾ÑģÐ» ÐµÐ¿
ĠÐ¼Ñĩ Ð¸ÑĤÑģÑı
ÐľÐ³Ð½Ð¾Ð² ÐµÐ½Ð½Ð¾
ĠÑĩÐ¸Ñģ Ð»Ð°
ÐĶÐ¾Ð»Ð¶ Ð½Ð¾
ĠÐ¶Ð¸Ð·Ð½ ÑĮÑİ
ĠÐ²Ð½ÐµÐ¼ Ð»ÐµÑĤ
ĠÐ½ÑĥÐ¶Ð´ Ñĭ
ĠÑĤÐºÐ°Ñĩ Ð¸ÑħÐ°
! )
Ì ģ
Ġ .
Ð° Ð¸Ð¼
ÑĢ Ð¾ÑģÑĤ
ÑĢ ÑĳÐº
ÑĢ ÐµÐºÐ¸
Ð½ Ð°Ð½
Ð» ÑĳÐ½Ð½ÑĭÐ¹
Ñĥ Ð½Ñĭ
ĠÑģ Ð°Ð½
ĠÑģ Ð¸Ñħ
ĠÐ¿ Ð°Ð»Ð°
ĠÐ¿ ÑĭÐ»Ð¸
Ðº Ð°Ð·
Ðº Ð°Ð»Ð¸
ĠÐ² Ñĩ
ĠÐ² Ð²ÐµÑĢÑħ
Ð´ Ð¾Ð¼
ÑĪ ÐµÐ¼
ÑĪ ÐºÐ¸
ĠÑĤ ÐµÑĩ
Ð¾Ð» ÐµÐ¿
ĠÐ´ Ð¾Ð¶
ĠÐ´ ÑĮÑı
ĠÐ´ Ð½ÐµÐ¼
ĠÐ¸ Ð½Ð°ÑĩÐµ
ĠÐ± ÑĢÐ°Ñĩ
ĠÐ± Ð¾Ð¶Ðµ
ĠÐ¼ ÐµÑĢÑĤ
ÐµÑĢ ÐµÐ½
Ð¾ÑĢ Ð½Ð¾
ÐµÐ» Ð°ÑģÑĮ
Ð¾Ð´ ÐµÑĢÐ¶
ÐĿ ÐµÐº
ĠÑĢ Ð²
ĠÑĢ ÑĥÐ³
ĠÐ³ Ð½
ÐŁ Ð°Ð»
ÐĴ Ð°Ñģ
ÐĴ ÑģÐº
ÐĴ Ð¾ÐºÑĢÑĥÐ³
ÐĴ ÐµÐ·Ð´Ðµ
Ð¡ Ð¾ÑĢ
Ð¡ Ð¾Ð·
Ð± Ð¾Ð¶
ÑģÑı ÑģÑĮ
Ð¿ ÑĢÐµÐ¶
ÑĨ Ð°Ñħ
Ð°Ð¼ Ð°ÑĤ
ĠÐ» ÐµÐ¶Ð°Ð»
ÐµÐ´ Ñĭ
ÐµÐ´ Ð»Ñı
Ð°Ð½ Ð½Ð¾Ð³Ð¾
Ð°ÑĢ ÑıÐ´
ĠÑĩ ÐµÑĪ
ĠÑĩ Ð°ÑĪ
ĠÑĩ Ð°ÑīÐµ
Ð°Ð´ Ð¸Ð»
Ð°Ð´ ÑĥÑĤ
ÐµÑģ ÐºÐ¸
Ðŀ ÑĢ
Ð¾Ð½ Ð¾Ð¼
Ðļ Ð°Ð·
ĠÑģÑĤ ÐµÐ½Ñĭ
ĠÑģÑĤ Ð¾ÑĢÐ¾Ð¶
Ð¢ Ðµ
Ð¢ ÐµÐ»
Ð¢ Ð¾Ð¼
Ð¢ Ð¾Ñģ
Ð¢ ÑĢÐµÐ²
Ð¾Ðº Ð¾Ð¼
Ð¸Ð² ÑĭÑħ
ĠÐ¶ Ð³
Ð¸Ð¼ ÑĭÐµ
ÐµÐ± ÑĢ
ÐĶ ÐµÐ»
ÐĶ Ð°ÑĢ
ÐĶ ÑĥÐ¼
ĠÑĥ Ñħ
ĠÑĥ Ñī
Ð¾Ð¶ Ð¶
ÐµÐ· Ñĭ
ÐµÑĩ Ð½Ð¾Ð¹
ÐµÑĩ Ð½ÑĭÑħ
ÐµÑĩ ÐºÑĥ
ÑĥÐ¶ ÑĤÐ¾
ĠÑģÐ² ÐµÑĢÐº
ĠÐ¾ÑĤ Ð¼
ĠÐ¾ÑĤ ÑĨÑĥ
Ð½Ñĥ Ñģ
ÐŁÑĢ ÐµÑģÑĤÐ¾Ð»
ÐŁÑĢ ÐµÐ·ÑĢ
ĠÐºÑĢ ÑĭÑĪ
ÐµÐº ÑĢÐµÑģÑĤ
Ðľ Ð¾Ñİ
Ð½Ðµ Ñİ
Ð½Ðµ ÑĨ
Ðĳ ÐµÑĢ
Ðĳ ÐµÐ³
Ðĳ ÑĢÐ¾Ð´
ÐĹ Ð¾Ð»Ð¾ÑĤ
Ð¸Ð´ Ñĭ
Ð£ Ñĩ
ÐĲ ÑĢ
ĠÐ¾Ð± ÐµÐ´
ĠÐ¾Ð± Ð¸ÑĤÐµÐ»ÑĮ
ĠÐ¾Ð± Ð»Ð¸Ñĩ
ĠÐ¾Ð± ÑĢÐ°Ñī
Ð°Ð¹ ÑĤÐµÑģÑĮ
ÑģÑĤÐ² Ð¸Ðµ
Ðĵ ÑĥÐ»Ñı
Ðĵ ÐµÐ½ÐµÑĢÐ°Ð»
ĠÐ³ÑĢ Ð¸Ð±
ĠÐ¿Ð¾Ð´ Ð±
ĠÐ¿Ð¾Ð´ Ð°Ð²
ÑĥÑĩ Ð¸
ÑĥÑĩ Ð°Ð»
ĠÐ¿Ð¾ Ñį
ĠÐ²Ñĭ ÑĤ
ĠÐ¡ Ð²ÐµÑĤ
ĠÑģÐº Ð¾Ð»ÑĮÐ·
ÑĥÐ¿ ÑĢ
ĠÑĢÐ°Ð· Ð»
ĠÑĢÐ°Ð· ÑĬ
ĠÑĢÐ°Ð· ÑĢÐµÑĪ
ĠÐ¿Ð¾Ð» ÑĥÑģ
ĠÑĤÑĢ Ð¾Ð¹
Ðķ Ð´Ð¸
ĠÐ¢ ÐµÐ±Ñı
ÐŀÑĤ Ñģ
ÐŀÑĤ Ñĩ
ÐŀÑĤ Ð¼
ÐŀÑĤ Ð½ÑĭÐ½Ðµ
ĠÐ³Ð¾ÑĢ Ñİ
ĠÐ³Ð¾ÑĢ Ð¾Ð´Ð°
ĠÑģÐ¿ Ð»ÐµÑĤ
ĠÐ±ÐµÐ· Ð²ÐµÑģÑĤ
ĠÐ±ÐµÐ· ÑĢÐ°ÑģÑģÑĥÐ´
ĠÐ²Ð· ÑıÑĤÑĮ
ĠÐĳ Ð°Ð±
ĠÐ¼Ð¾ ÐµÐ¼
ĠÐ±ÑĢ Ð°Ð½
Ð¡ÑĤ ÑĢÐ°ÑĪ
ĠÑģÐ²Ð¾ ÐµÐ¼Ñĥ
ÑĭÐ» ÑĮ
ĠÐ´ÑĢ Ð¾Ð³
ĠÐļ Ð°ÑĤ
ĠÐ½Ð°ÑĪ ÐµÐ¼Ñĥ
ÑĢÐ°Ð² Ð°
ÑĭÑĤ Ð°
ÑĭÑĤ ÑĭÐ¹
ĠÑĢÑĥ ÐºÐ¾Ñİ
ĠÐ¿ÑĢÐµÐ´ Ð¾
ĠÐ¿ÑĢÐµÐ´ Ð¾ÑģÑĤ
ĠÐĹ Ð»Ð¾
Ð¥ Ð¾Ð»
ĠÑĥÐ¼ Ðµ
ĠÑģÐ²ÐµÑĤ Ð¸Ð»
ĠÐ¼Ð¸ÑĢ Ð¾Ð¼
ĠÐ½ÐµÐ¼ Ð¾Ð¹
ĠÐ¾Ð¿ Ð¸Ñģ
ĠÐ½Ð¾Ñĩ ÐµÐ¹
ĠÐ¼Ð¾Ð³ ÑĥÑĩÐ¸Ð¹
ĠÐ·ÐµÐ¼ Ð»ÐµÐ¹
ÐºÐ¾Ð² Ñĭ
ĠÐ²Ð´ Ð°Ð»ÑĮ
ÑıÑī Ð°Ñı
ÑıÐ½ ÐµÑĤ
ÐļÑĢ Ð¾Ð²ÑĮ
ĠÐ»ÐµÑĤ ÑıÑĤ
ĠÑĤÐµÐ¼ Ð½ÑĭÐ¹
ĠÑĤÐµÐ¼ Ð½Ð¾Ð¹
ĠÐ±ÐµÐ´ Ð½Ð¾Ð¹
ĠÐ±ÐµÐ´ Ð½Ñı
ĠÐ¶Ð¸Ð² Ð¾
ĠÐ¶Ð¸Ð² ÐµÑĤ
ĠÐ±Ð¾Ð»ÑĮ ÑĪÐ¸Ñħ
ĠÐ¼Ð¸Ð» Ð¾ÑģÑĤ
Ð¡Ð¿ Ð¾ÐºÐ¾Ð¹
ĠÐ½Ð°ÑĢ Ð¾Ð´Ð°
ĠÐ¿Ð¾Ð³ Ð»ÑıÐ´
ĠÐ´Ð° Ð½Ð¾
ĠÐĿÐµÐ±ÐµÑģ Ð½ÑĭÑħ
Ð°Ð½ÑĮÑı Ñħ
ĠÐ´ÑĥÐ¼ Ñĥ
ĠÐ´ÑĥÐ¼ Ð¾Ð¹
ĠÐ´ÑĥÐ¼ Ð°ÐµÑĤ
Ð£Ð¶ ÐµÐ»Ð¸
ĠÐ½ÐµÐ´ Ð°Ð²Ð½Ð¾
ĠÐ·Ð°Ðº Ð»ÑİÑĩ
ĠÐŁÑĢ Ð¾Ð²
ĠÐ±Ð°ÑĢ Ñī
ĠÑĥÐ³ Ð°Ñģ
ĠÐ¿ÐµÑĩ Ð¸
ĠÐ´Ð¾ÑĢ Ð¾Ð¶Ðµ
ĠÐ²ÑĭÑģ Ð¾ÑĤ
ĠÐ³Ð»Ð°Ð· Ð°Ð¼Ð¸
ĠÐ²ÑĢÐµÐ¼ ÐµÐ½Ð°
ĠÐ²ÑĢÐµÐ¼ ÐµÐ½ÐµÐ¼
ĠÐ·Ð½Ð° ÐµÑĤÐµ
ĠÐ²ÐµÑĤ Ð²Ð¸
ĠÐ½Ð°Ð¿ ÑĢÐ°Ñģ
ĠÐ½Ð°Ð¿ ÑĢÐ°ÑģÐ½Ð¾
ĠÑħÐ¾Ð» Ð¾Ð¿
ĠÑħÐ¾Ð» Ð¼Ñĭ
Ð¨ ÑĥÑĤ
Ð¨ ÑĥÐ¼
ĠÐ´Ð¾Ð±ÑĢ Ð¾Ð´
ĠÑģÑĩÐ°ÑģÑĤ Ð¸Ðµ
ĠÑģÐ¼ÐµÑĢÑĤ Ð½ÑĭÐ¹
Ð½Ñİ Ð´ÑĮ
ĠÑģÑĤÐ¾ ÑıÑĤ
ÐĳÐ» ÐµÑģÑĤ
ĠÑĥÐ· Ð½Ð°Ð»Ð°
ĠÐ¶ÐµÐ» Ð°Ð»
ĠÐ¿ÐµÑĢÐ² ÐµÐ½
ĠÐ¿ÐµÑĢÐ² Ð°Ñı
ĠÐ»ÐµÐ³ ÑĩÐµ
ĠÐ½Ð°Ñĩ Ð°Ð»Ð°
ĠÐ¿Ð¾Ð½ Ð¸Ð¼
ĠÐ¾ÑģÑĤ Ð°Ð»ÑģÑı
ĠÐ±Ð¾ ÐµÐ²
ĠÑģÐµÐ¼ ÐµÐ¹
ĠÑģÐµÐ¼ ÑĮÑİ
ĠÐ¾Ñĩ Ð°Ñħ
ĠÐ¾Ñĩ Ð°Ð¼Ð¸
ĠÐ¾Ðº Ð½Ð°
ÐĴÐ´ Ð°Ð»Ð¸
ĠÐ¼Ð¾Ð»Ñĩ Ð°Ð»
ĠÑģÑĤÐ¾ÑĢÐ¾Ð½ Ñĥ
ÐľÐ¾Ð» Ð¸ÑĤ
ĠÑģÐ¾Ñģ Ð½Ñĭ
ĠÑĤÐ¾ÑĢ Ð³
ÐŁÐµÑĢ Ð²
ĠÑĤÑıÐ¶ ÐµÐ»
ĠÐ§ÐµÐ»Ð¾Ð²ÐµÐº Ñĥ
ĠÑħÑĢ ÑĥÑģÑĤ
ĠÐºÑĢÑĭÐ» Ð°Ð¼Ð¸
ĠÑĢÐµÑĪ Ð¸Ð»
ĠÑĤÐ°Ð¹ Ð½Ñĭ
ĠÐ±ÐµÐ·Ð´ Ð½Ñĭ
ĠÐ¤ Ð°ÑĢÐ»Ð°ÑĦ
ĠÑģÐ°Ð´ Ñĥ
ĠÐ¼ÐµÑĢ Ñĭ
ĠÑĤÐ¸ÑĪ Ð¸Ð½Ð°
ĠÐ²ÐµÐ½ Ñĩ
ĠÐ²ÐµÐº Ð°
ĠÐ²ÐµÐº Ð¾Ð²
ĠÐ´ÑĥÑħ Ð¾Ð²
ĠÑĥÐ¶Ð°Ñģ Ð½ÑĭÐ¹
ĠÑģÐ¸Ð´ ÑıÑĤ
ĠÐ·Ð°ÑģÑĤ ÑĥÐ¿
ĠÑĢÐ¾Ñģ ÐºÐ¾
ĠÐ¿ÑĢÐ¸Ð¼ ÐµÑĤ
ĠÐ¿ÑĢÐ¸Ð´ ÐµÑĤ
ĠÐ·Ð¸Ð¼ Ð°
ĠÐ·Ð¸Ð¼ Ð¾Ð¹
ĠÐ¿Ð¾Ð¼ÐµÑī Ð¸ÐºÐ°
ÑİÑĪ ÐºÐ¸
ĠÐ³Ð¾ÑģÐ¿Ð¾Ð´ Ð¸Ð½
ĠÑĪÐ¸ÑĢ Ð¾ÐºÐ¾
ÐĳÐ¾Ð³ Ð°ÑĤ
ĠÑĢÐ°Ð±Ð¾ÑĤ Ñĥ
ĠÑĥÐ²Ð¸Ð´ ÐµÐ»
ĠÐ¿Ð¾Ñħ Ð²Ð°Ð»
ĠÐ´Ð¾Ð± ÑĢÐ°
ĠÐ±Ð°Ð± Ð¾Ð¹
ĠÑĥÑģÐ» Ð°Ð´
ĠÑĪÐµÐ» ÐºÐ¾Ð²
ĠÐ¿Ð»Ð°Ð¼ ÐµÐ½ÑĮ
ĠÐ¿Ð»Ð¾Ð´ Ð¾Ð²
ĠÐ±Ð¾Ð¶ ÐµÑģÑĤÐ²
ĠÐ¿Ð»ÐµÑĩ Ð¾
ÐĶÑĥÑĪ Ð°
ĠÑģÑĤÐµÐ¿ Ð¸
ĠÑĪÐµÐ¿ Ð¾ÑĤ
ĠÐ²Ð°Ð¶ Ð½Ð¾
ÐŁÑĢÐ¸Ð² ÑĭÑĩ
ÐŁÑĢÐ¸ÑĪ Ð»Ð°
ĠÐ´ÑĥÐ± ÑĢÐ°Ð²
ĠÑĢÑĥÐº Ð°Ð²
ĠÐ¾ÑĤÐ²ÐµÑĩ Ð°ÐµÑĤ
ÐĿÐ°Ð² ÑģÑĤÑĢÐµÑĩÑĥ
ĠÐ¿ÑĢÐ¸Ñĩ Ð¸Ð½
ĠÑĨÐµÐ¿ Ð¸
ĠÐºÐ½ÑıÐ¶ Ð½Ð°
ĠÐĹÐ¼ Ð¸Ñı
ĠÑģÐ²Ð¾Ð± Ð¾Ð´Ñĭ
ĠÐ±Ð¾ÑĢÑĮÐ± Ðµ
ĠÑħÐ²Ð°Ð» Ñĥ
ĠÐ·ÑĥÐ± Ñĭ
ĠÐ·Ð»Ð¾Ð´ ÐµÑı
ĠÐ²Ð¾Ð·Ð¼ ÑĥÑĤ
ĠÐ²ÐµÑĢÑĪ Ð¸Ð½Ñĭ
ĠÐ¼ÑĥÐ·Ñĭ ÐºÐ°
ÐļÐ¾Ð½ ÐµÑĩÐ½Ð¾
ĠÐ²Ð¸Ñħ Ð¾ÑĢ
ĠÐ¼ÐµÐ½ÑĮ ÑĪÐµ
ĠÐ¼Ð¾Ð½ Ð°ÑģÑĤ
ĠÐ³ÑĢÐµÐ¼ Ð¸ÑĤ
ĠÑģÐ¾Ð¶ Ð°Ð»
ĠÐ¶ÐµÑĢÑĤ Ð²Ð°
Ð»Ñĳ Ð¹
ĠÐ¾ÐºÐµ Ð°Ð½
Ð±ÑĥÑĢ Ð³
ÐŁÐ¾Ð¹ Ð¼
ĠÑģÑĢÐ°Ð· Ñĥ
ÐŁÑĢÐ¾Ð· ÑĢÐ°Ñĩ
ĠÐŁÐ¾ÑģÐ»ÐµÐ´ ÑĭÑĪ
ĠÐ¿ÐµÑī ÐµÑĢ
Ġ âĢ¦Â»
Ð¾ ÐµÐ¼
Ð¾ ÑĦ
ÑĤ Ð°Ð²
Ñģ ÐºÐ¾Ñİ
ÑĢ ÐµÑī
Ð» ÐµÐ²
Ð» ÐµÑģÑĤ
Ð» Ð¾Ð³Ð¾
Ñĥ ÐºÐ¾Ð¹
Ñĭ Ñī
Ñĭ Ð´Ð°
ĠÑģ Ñĥ
ĠÑģ Ð°Ð»
ĠÑģ Ð°ÑĢ
ĠÑģ ÐµÐ½ÑĮ
ĠÑģ ÐµÐ½Ð¸
ĠÑģ ÐµÐ»Ðµ
Ð² Ð¾Ð·Ð´
ĠÐ½ Ð¾ÑĪ
Ð¼ ÐµÐ»
Ð¼ ÐµÑħ
ĠÑĤ ÐµÑĤ
ĠÑĤ Ð°Ð±
ĠÑĤ ÐµÐ»Ð¾
ÐµÑĤ ÐµÐ»Ð¸
Ð°Ð» Ñĥ
ĠÐ¸ ÐºÐ¾Ð½
Ð¾Ð² Ñĥ
Ð¾Ð² Ð¾Ð»
Ð¾Ð² ÐµÐ´
ĠÐ± Ð°Ð·
ĠÐ¼ Ð¸Ð¼
ÐµÑĢ ÑĪÐ¸ÑģÑĮ
ĠÐº Ð»Ð¾Ð½
ĠÐº Ð¾Ð¼Ð½
ĠÐº Ð»Ð¸Ðº
ÐµÐ» ÐµÑģÑĤ
Ð¾Ð¼ Ñĭ
Ð¸Ð» ÑĮÐµ
ÐĿ Ð°Ð»
ĠÐ· Ð¼
ĠÐ· Ð°Ð¹
ÐµÐ¼ Ð½
ÐµÐ¼ ÐµÐ½
ĠÑĢ ÐµÑģ
Ð°ÑĤ Ñĥ
ĠÐ¿ÑĢ ÐµÐºÐ»Ð¾Ð½
ÐĴ ÑĭÑĪ
ÐĴ Ð½Ð¾Ð²ÑĮ
ÑĨ Ð°ÑĤÐ¸
Ð³ Ð´Ðµ
Ð³ Ð¸Ð¿
Ð°Ñģ Ð½Ð¾
ÐµÐ¹ ÑĪÐ¸Ð¹
ĠÐ½Ðµ Ñĳ
Ð°Ð´ Ðµ
ÐµÑģ Ð¿
ÐµÑģ ÐºÐ¸Ñħ
Ð¸Ð½ ÐµÑĤ
Ðļ Ð°ÑĤ
Ðļ Ð°Ð¶Ð´
Ðļ Ð¾Ð²Ð°ÑĢ
ÐºÐ¸ Ð¿
Ð¾Ð± ÐµÐ´
Ð¾Ð± ÑĢÐ°
Ð¢ Ð°ÑĤÑĮÑı
Ð¾Ðº ÑĢÐ°ÑĤ
Ð¸Ð² ÑĪÐ¸
ĠÐ¶ Ð´ÑĥÑĤ
ÐµÐ² Ñĥ
ÐµÐ² Ð¸Ñĩ
ÐµÑĩ Ðµ
ĠÑģÐ² ÑıÑĤÐ¾
ĠÐ¾ÑĤ Ð±
ĠÐ±Ñĭ ÑĤ
ÐŁÑĢ Ð¾Ð´
ÐŁÑĢ Ð¸Ñħ
ÐŁÑĢ ÐµÐ»ÐµÑģÑĤ
ÑĥÑĪ Ðº
ĠÑģÐ» Ð¾Ð¼
Ðĳ ÐµÐ¶Ð¸ÑĤ
ÐĹ Ð½Ð°ÐºÐ¾Ð¼
Ð£ ÑĪ
Ð£ ÑģÐ¿
ĠÐ¾Ð± Ð¾Ð»ÑĮ
ĠÐ¾Ð± Ð»Ð°Ð´
ĠÐ¾Ð± ÑĪÐ¸ÑĢ
ÑģÑĤÐ² ÑĥÐ¹
ĠÐ³ÑĢ Ñı
ĠÐ³ÑĢ ÑĭÐ·
ĠÐ¿Ð¾ ÑĥÑĤÑĢÑĥ
ĠÐ²Ñĭ Ð³
Ð´Ð° ÐµÑĤÑģÑı
ĠÑĪ Ð¸Ð½
ĠÐ¸Ð· Ð¾
ĠÑģÐº ÑĢÑĭÐ²
ĠÑĢÐ°Ð· Ð²ÐµÑĢ
Ðł ÑĥÐ±
ĠÑĤÑĢ ÑĥÐ¿
ĠÐĴ Ð¾ÑģÑĤ
ĠÐ¢ Ð¸Ð¼Ð¾
ĠÐ·Ð° Ñī
ÐĽ Ð¸Ðº
ÐĽ ÐµÐ¶Ð¸ÑĤ
ĠÑģÐ¼ ÑĭÑģÐ»
ĠÐŁ ÑĥÑģÑĤÑĮ
ÑĥÑħ Ð¸
ĠÑĤÐ°Ðº Ð¾Ð²
ĠÑĤÐ°Ðº Ð°Ñı
ĠÐ¿Ð» ÑĥÑĤ
ĠÐ¿Ð» Ð¾ÑĤÑĮ
ĠÐ²Ð¾Ð· Ð¶
Ð½ÐµÐ¹ ÑĪÐ¸Ð¹
ĠÑģÑĤÑĢ Ð°Ð½Ð°
ĠÐ¿ÑĢÐ¸ ÑģÑĤÑĥÐ¿
Ð°Ð»ÑĮ Ð½ÑĭÑħ
ĠÐĶ Ð°ÑĢ
ĠÐĵ Ð¾ÑĢ
ÑĳÐ½ Ð½Ð°Ñı
ĠÐļ Ð°ÑĢ
ĠÐļ Ð¾Ð³Ð´Ð°
ĠÐ½Ð°ÑĪ ÐµÐ³Ð¾
ĠÑģÑĤÐ°ÑĢ ÑĭÐµ
ĠÑģÑĤÐ°ÑĢ Ð¸Ð½Ñĭ
ĠÐ¿Ð¾ÑĢ Ð°Ð¶
ĠÐ¿Ð¾ÑĢ Ð¾Ñİ
Ð¢Ð°Ðº Ð¾Ð¹
ĠÐ²Ð¸Ð´ Ð¾Ð¼
ĠÐ²ÐµÑĢ Ñİ
ĠÐ²Ð¾Ð» Ñı
ĠÐ²Ð¾Ð» Ð½Ð°Ñħ
ÐĺÐ· Ð´
ĠÐ´ÑĢÑĥÐ³ Ð¸
ĠÐ´ÑĢÑĥÐ³ Ð°Ñı
ĠÑĢÐ¾Ð´ Ñĥ
ĠÐł ÑĥÑģÐ»
ĠÐł Ð°ÑĦÐ°
ĠÐ¿Ð¾Ð¼ Ð¾Ð³
ĠÐ²Ð¾ Ð¾Ð±ÑĢÐ°Ð¶
ĠÐ¼Ð¾Ð³ ÑĥÑī
ĠÑĥÑĤ Ð²ÐµÑĢÐ¶
ĠÐ¿Ð¾ÑĤ Ð¾Ð¿
ĠÐ²Ð´ Ð¾Ð»ÑĮ
ÑıÑī ÑĥÑİ
ĠÐ¿ÑĢÐ°Ð² Ð´Ðµ
ÐµÑģÑĤÐ² Ñĥ
ĠÐ¾Ð³ Ð½Ðµ
ĠÐ±ÐµÐ´ Ðµ
ĠÐ¶Ð¸Ð² ÑĭÑħ
ĠÐ¾Ñģ ÑĥÐ¶Ð´
ĠÑģÐ¾Ð± Ð°Ñĩ
ĠÐ²Ð¿ ÑĢÑıÐ¼
ĠÐ²Ð¿ ÑĢÐµÐ´ÑĮ
Ð¡Ð¿ ÐµÑĢÐ²Ð°
ĠÐºÐ¾Ð» Ð´Ñĥ
ĠÐĽ ÐµÐ½
ĠÐĽ Ð¸ÑĪÑĮ
ÐŁÐ¾Ðº Ð¾Ð¹
ĠÐ¼Ð¾Ð¶ ÐµÑĪÑĮ
ĠÐ½ÐµÐ² Ð¾Ð»ÑĮÐ½Ð¾
ĠÐ½ÐµÐ´ ÑĢ
ĠÐ¼Ð¾Ð»Ð¾Ð´ ÐµÑĨ
ĠÐ¼Ð¾Ð»Ð¾Ð´ ÑĨÑĭ
ĠÐŁÑĢ Ð¾Ðº
ĠÐ¿Ð¾Ð¿ Ñĥ
ĠÐ¿ÑĢÐ¾ÑģÑĤ Ð¾ÑĢ
ĠÑĢÐ°Ð´ Ñĭ
ĠÐ½Ð¾Ð² ÑĥÑİ
ĠÐ·Ð°Ð¼ ÑĭÑģÐ»
ĠÐ²ÐµÑĤ ÑĢÐµÐ½
ĠÐ´Ð¾Ð±ÑĢ Ð¾
ĠÐ²Ð·Ð¾ÑĢ Ñĭ
ĠÐ²Ð·Ð¾ÑĢ Ð¾Ð¼
ĠÑĤÑĢÑĥÐ´ Ð¾Ð²
ĠÑĤÑĢÑĥÐ´ Ð¾Ð¼
ĠÑģÑĤÑĢÐ°Ð½ Ñĥ
ĠÑĥÐ· Ð½Ð°Ð»
ĠÐ²ÐµÐ´ ÑĮÐ¼
ĠÑĤÐ¸Ñħ Ð¸Ð¹
ĠÐ´Ð² ÐµÐ½
ĠÐ½Ð°Ñĩ Ð°Ð»ÑĮ
ĠÐ¿Ð¾Ð½ Ð¸Ðº
ÐĽÑİÐ± Ð»Ñİ
ĠÐ¥ ÑĢÐ¸ÑģÑĤ
Ð¡Ð² Ð¾Ñİ
Ð¡Ð² ÑıÑī
ĠÑģÐµÐ¼ ÑĮ
ĠÐ¿Ð¾Ð· Ð²Ð¾Ð»
ĠÑĨÐ²ÐµÑĤ Ð¾Ð²
ÐĴÐ¾Ð· Ð²
ĠÑĥÑģ ÑĭÐ¿
ĠÐ²Ð°ÑĪ Ðµ
ĠÐ²Ð°ÑĪ ÐµÐ¹
ÐµÐ¶Ð´ Ñĭ
ÐĵÑĢ ÐµÑħ
ĠÐ½ÐµÐ±ÐµÑģ Ð°
ĠÐ½ÐµÐ±ÐµÑģ Ð½ÑĭÑħ
ĠÑģÐ»ÐµÐ´ Ð°
ĠÐ¼Ð¾Ð»Ñĩ Ð°Ð»Ð¸Ð²
ĠÐ´Ð¾ÑģÑĤ ÑĥÐ¿
ĠÑģÑĤÐ¾Ð» Ð¾Ð¼
Ð°ÑİÑī Ð¸Ð¼
ĠÐ²Ð·Ð´ ÑĢÐ¾Ð³
Ð¾Ð¹Ð´ ÑĳÑĤ
ĠÑģÑĥÐ´ÑĮÐ± Ñĭ
ĠÑģÑĥÐ´ÑĮÐ± Ð¾Ð¹
ĠÐ²Ð¾Ð¿ ÑĢÐ¾ÑĪ
ĠÐ²ÑĢÐ°Ð³ Ð°
Ð½Ð°Ñĩ Ð°Ð¹
ĠÐ±ÐµÐ³ ÑĥÑĤ
ĠÑĢÐµÐº Ð¾Ð¹
ĠÐºÑĢÑĭÐ» Ð¾Ð¼
ÐļÐ¾ÑĤÐ¾ÑĢ ÑĭÑħ
ÐļÐ¾ÑĤÐ¾ÑĢ ÑĭÐ¼
ĠÐ¿ÑĢÐ¾Ñģ Ð¸ÑĤ
ĠÑģÑĤÑĢÐ°Ñħ Ð¾Ð¼
ĠÐ²ÐµÑĩÐµÑĢ Ð°
ĠÐ²ÐµÑĩÐµÑĢ Ð¾Ð¼
ĠÑĤÐ° Ñī
Ð¡Ð²Ð¾ ÐµÐ¹
ĠÐ´Ð¾Ð² ÐµÑĢ
ĠÐ³ÑĢÐµÑħ Ð°
ĠÐ±ÐµÑģÐ¿ Ð»Ð¾Ð´
ĠÐ±Ð¾Ð³Ð°ÑĤ ÑĭÑĢÑĮ
ÐĿÐµÐ² Ð¸Ð½
ĠÐ¿ÑĢÐ¸Ð± Ð°Ð²
Ð°Ð½ÑĤ ÑĥÐ¹
ĠÑĤÑĥÑĩ Ð°
Ð¾Ð»Ð² Ð¸Ð»
ÐĿÐµÐ´ Ð²Ð¸Ð¶
ÑıÑģ Ð½
ĠÐ¿ÑĢÐ¾Ð± ÑĥÐ¶Ð´
ĠÑģÐ»ÑĥÑĪ Ð°ÑĤÑĮ
ĠÐ·Ð»Ð¾Ð± Ð°
ĠÐ±Ð¸ÑĤ Ð²Ðµ
ĠÑĪÑĥÑĤ Ñı
ĠÐ¿Ð»ÐµÑĩ Ð¸
ĠÐ·Ð´ ÑĢÐ°Ð²
ĠÐ²ÑĤÐ¾ÑĢ Ð¾Ð¹
ĠÐ³Ð¾ÑĢÑĮ ÐºÐ¾
ĠÐºÐ°ÑĤ Ð¾ÑĢÐ³
ÐŀÑģÑĤ Ð°Ð½Ð¾Ð²
ĠÐºÐ½Ð¸ Ð¶
ĠÐ´ÑĭÑĪ Ð¸ÑĤ
ÐŁÐ¾ÑĪ Ð»Ð¸
ÐŁÐ¾ÑĪ Ð»Ð°
ĠÐ¶ÐµÑģÑĤ Ð¾Ðº
Ð¸ÑĩÐµÑģ ÐºÐ¸Ñħ
ĠÐ¿Ð¾Ð¹ Ð¼
ĠÐ³Ð»ÑĥÑħ Ð¾Ð¹
ĠÑģÐ²Ð¾Ð± Ð¾Ð´Ð°
ĠÑģÐ²Ð¾Ð± Ð¾Ð´Ñĥ
ĠÐ¿Ð¾Ð¼Ð¾Ñī ÑĮÑİ
ĠÐ»Ð¾ÑĪÐ°Ð´ ÐµÐ¹
ĠÑģÐµÑĢÐµÐ± ÑĢÑı
ĠÑĢÐµÐ· Ð²
ĠÐ¶ÐµÑĢÑĤÐ² Ñĥ
ĠÐ´Ð²ÐµÑĢ Ð¸
ĠÐ·Ð²ÐµÑĢ ÐµÐ¹
ÐĿÐ°Ñĩ Ð°Ð»ÑĮ
ÐĿÐ¸Ñĩ ÐµÐ³Ð¾
ÐĹÐ°Ñģ Ð»
ĠÐ´Ð¾Ñĩ ÐµÑĢÐ¸
ÐĹÐ´ Ð¾ÑĢÐ¾Ð²
Ð£ÑģÐ» ÑĭÑĪ
ĠÐ¾Ð¼ ÑĢÐ°Ñĩ
ĠÐ¾Ð±Ð½ Ð°Ð¶
ĠÐ¿Ð¾ÑĢÑĤ ÑĢÐµÑĤ
ĠÐºÑĥÐ´ ÑĢÐ¸
ÐľÐ¾ÑĢ Ð¾Ð·
ĠÑĤÑĢÐ¸Ð´ ÑĨÐ°ÑĤÑĮ
ĠÑģÐ¾Ð´ ÑĢÐ¾Ð³
ÐĴÐº ÑĥÑĪ
ÐļÐ»Ñı Ð½ÑĥÑģÑĮ
ĠÐ½ÐµÐ²Ð· Ð½Ð°ÑĩÐ°Ð¹
Ð¨Ð¸ÑĢ Ð¾Ðº
ĠÐĵÐ°Ð² ÑĢÐ¸Ð¸Ð»
ĠÑģÐºÐ°ÑĤÐµÑĢÑĤ ÑĮ
ĠÑģÐ¾Ñİ Ð·
ĠÐ²Ð½Ðµ ÑĪ
ĠÐĵÑĥÐ± Ð¸Ð½Ñĭ
Ð¿ÑĢÐµÐ¶ Ð½ÐµÐ¼Ñĥ
ĠÐ²Ð¸ÑħÐ¾ÑĢ ÑĮ
ĠÐ¢Ð¸Ð¼Ð¾ ÑĦÐµ
Ð¾ ÑĨ
Ðµ ÑıÐ»
ÑĤ Ð°Ð»
ÑĢ Ð¸Ð½
ÑĢ Ð¸Ð²
ÑĢ ÑĥÑĩ
ÑĢ ÐµÑĤÑĮ
Ð½ Ð´
Ð½ Ð¾Ð±
Ð½ ÐµÐ¿
Ð» Ð¸ÑĤ
Ð» Ð¾Ð¿
Ð» ÑĥÐ¿
Ñĥ ÑıÑģÑĮ
Ñı ÐµÑĤÑģÑı
ĠÑģ Ð¸
ĠÑģ ÑĥÐ³
ĠÑģ ÑĥÑĢ
ĠÑģ ÐºÐ°Ñĩ
Ðº Ð°Ð»
ĠÐ² Ð°ÑĢ
ĠÐ² Ð¸Ð·
ĠÐ² ÑıÐ·
Ð² Ð¾Ð±Ð¾Ð´
Ð´ Ð°Ð¹
ĠÐ½ ÑıÐ½
ÑĪ ÐºÐ°
ÐµÐ½ Ð¸Ðº
ÐµÐ½ Ð½ÐµÐ¹
ÐµÐ½ Ð½ÑĭÐ¼Ð¸
ĠÑĤ Ð°Ð½
ĠÑĤ Ð°Ð½ÐºÐ¸
ĠÐ¾ ÑĪÐ¸Ð±
ÐµÑĤ Ð¾Ð²
ÐµÑĤ Ð½Ð¾
Ð¾Ð» ÐµÐ±
ĠÐ´ Ð°Ð½ÑĮ
ĠÐ´ Ð¸ÐºÐ¸Ð¹
ĠÐ¸ ÑīÐµÑĤ
Ð¾Ð² ÐµÑĤ
Ð¾Ð² Ð¾Ð»ÑĮ
ĠÐ¼ Ð°ÑģÑĤ
ĠÐº Ð»Ñİ
ĠÐº Ð¾ÑģÑĤÐ¸
ÐµÐ» Ð¸Ð½
Ð¸ÑĤ Ð°Ñı
Ð¾Ð´ Ð¾Ð»
Ð¾Ð´ Ð½Ð¾Ð¹
Ð¾Ð´ Ð¸Ð»Ð°
Ð¸Ð» ÑĮÑı
ÐĿ Ð°Ð¹
ĠÐ· ÐµÐ»
ĠÐ· Ð½Ð°Ñı
ĠÐ· ÐµÑĢÐ½Ð¾
Ðĺ Ð½ÑĭÐµ
ÐµÐ¼ ÑĭÐ¹
ĠÑĢ Ð¾Ð¹
ĠÑĢ ÑĥÐ´
ĠÑĢ Ð¾ÑģÑĤ
ĠÑĢ Ð¸Ð³
ĠÑĢ Ð°Ð½Ñĭ
ĠÐ³ ÑĢÐ°
Ð°ÑĤ Ð¾ÑĩÐ½Ð¾
ĠÐ¿ÑĢ Ð¾ÑĤ
ĠÐ¿ÑĢ ÐµÐ¿
ĠÐ¿ÑĢ ÐµÑĢÐ²
ĠÐ¿ÑĢ Ð¾Ð»ÐµÑĤ
ÐŁ Ð¾ÑĤÑĢÐµÐ±
ÐĴ ÐµÑĩ
ÐĴ Ð¾Ð»ÑĮ
ÐĴ ÑģÑĤÑĥÐ¿
ÐĴ Ð½ÐµÐ·Ð°Ð¿Ð½Ð¾
Ð¾Ð³ Ð¾Ð¼
Ð¾Ð³ ÑĥÑīÐ¸Ð¹
Ð½Ð¾ ÑģÑĤ
Ð¡ Ð°Ð²
Ð¡ Ð¸Ð»Ð°
Ð¡ Ð¾Ð±ÑĢ
Ð± Ð°Ñİ
Ð¿ Ð¾ÑĢ
ÑĨ ÐµÐ¹
Ð¾ÑĤ ÐµÑĨ
Ð³ Ð¾Ð½
ĠÐ» ÑĳÐ³
ÐµÐ´ ÐµÐ¼
ÐµÐ´ Ð½ÐµÐ²
Ð°Ð² Ð°ÑĤÑĮ
Ð½Ð¸ ÑģÑĤ
ĠÑĩ ÑĢÐµÐ·
ÐµÑģ Ð»Ð¸
Ð¸Ð½ Ð°Ñħ
Ð¸Ð½ ÑĥÑĤÑĮ
Ðļ Ð°Ñĩ
ÑĥÐ´ Ð¸Ð»
Ð¾Ðº ÑĥÐ¿
Ð¸Ð² Ð°Ð»Ð¸
Ð¸Ð² Ð°ÑİÑĤ
Ð¸Ð² Ð°ÑĤÑĮÑģÑı
Ð¸Ð² ÑĪÐ¸Ñħ
ĠÐ¶ ÐµÑĢ
ÐµÐ² Ð°Ð»Ð¸
Ð¸Ð¼ Ð°Ñı
ÐµÑģÑĤ Ð¸Ð²
ĠÐµ Ð´Ñĥ
ÐĶ Ð°Ð»
ÐĶ ÑĥÐ±
ÐĶ Ð°Ð»ÑĮ
ÐĶ ÑĢÐµÐ¼
ÐĶ Ð°Ð»ÐµÐºÐ¾
Ð»Ð¸ ÑģÑı
ĠÑĥ Ð»ÐµÑĤ
Ð¾Ñĩ Ð½Ð¾Ð¹
ÐºÐ° ÑĩÐµÑĤ
ÐµÐ³ Ð°
ÐŁÑĢ Ð¸ÑĤ
ÐŁÑĢ Ð¸Ð³
ÐŁÑĢ ÐµÑģÑĤÑĥÐ¿
Ð»Ð° ÑģÑĤÐ¸
Ð§ ÐµÐ¹
Ð§ Ð°Ð¹
ÑĥÑĪ ÐµÐº
ĠÑģÐ» ÑĥÐ³
Ð»Ñı ÑİÑĤ
Ðľ ÑıÑĤÐµÐ¶
Ðĳ Ð»Ð¸ÑģÑĤ
Ð¸ÑĢ Ð°Ð»
ÐĹ Ð½Ð°ÑĤÑĮ
Ð£ ÑģÑĤ
ÐĲ Ð²
ÐĲ Ð»ÐµÐº
ÐĲ ÑĢÑħÐ°Ð½Ð³ÐµÐ»
ĠÐ¾Ð± Ð½Ð¾Ð²
Ðĵ ÑĥÑģÑĤ
ĠÐ¿Ð¾Ð´ Ð½ÑıÐ»
ĠÐ¿Ð¾Ð´ Ð½ÑıÐ²
ÑģÐº Ðµ
ÑģÐº Ð°ÑĤÑĮ
ĠÐ²Ñĭ Ð¼
ĠÐ²Ñĭ ÑħÐ¾Ð´Ð¸ÑĤ
Ð´Ð° ÑİÑĤ
ĠÑĪ ÐµÑİ
ĠÐºÐ°Ðº Ð¸Ðµ
ĠÐ¸Ð· ÑĬ
ÑĥÐ± Ð¸Ð»
ĠÐĿ ÐµÐ¼
ĠÐĿ Ð¸Ð¼
ĠÑģÐº Ð°Ð¶Ð¸
ĠÑĢÐ°Ð· ÑĢÑĥÑĪ
ĠÐ¿Ð¾Ð» ÑĥÐ´
ĠÐ¿Ð¾Ð» Ð½Ð¾Ð¹
ĠÐ¿Ð¾Ð» ÐºÐ¾Ð²
ĠÐ¿Ð¾Ð» Ð½Ð¾Ñĩ
Ðł Ð°Ð²
ĠÐĴ Ð¿
Ðķ ÑĢ
Ð¸Ñĩ Ð½Ð¾
ĠÐ¢ Ð°Ð½Ð¸
ÐĽ ÑĥÐºÐ°Ð²
ĠÐŁ ÑĢÐ°
ĠÐ±ÐµÐ· Ð¾ÑĤ
ĠÑĤÐ°Ðº Ð¾Ð³Ð¾
ĠÑĤÐ°Ðº ÑĥÑİ
ĠÐ¿Ð» Ð¾Ð´Ð°
ĠÐ²Ð¾Ð· Ð½
ÑĥÑĢ Ñĥ
ÑĥÑĢ Ð°Ð²
ĠÐ° Ð¼
ĠÐĳ ÐµÐ·
ĠÐĲ Ð²
ĠÐĲ Ð»ÐµÐº
ÑĭÐ² Ð°ÐµÑĤÑģÑı
ĠÐ±Ð» ÑİÐ´
Ð°Ð»ÑĮ Ð½ÑĭÐµ
ĠÐŀ Ð»ÐµÐ³
ĠÐ¼Ð¾ ÐµÐ¼Ñĥ
ĠÐ±ÑĢ Ð¾Ð½
ĠÐĶ Ð¾Ð¼
ĠÐ»ÑİÐ± Ð¸Ð»Ð°
ĠÐľ Ð°ÑĢ
ĠÐľ Ð½Ð¾Ð¹
ÑĳÐ½ Ð½Ð¾Ð³Ð¾
Ð°ÑĪ ÐµÐ½ÑĮÐºÐ°
Ð½Ð¾Ð² Ð°
Ð¢Ð°Ðº Ð¾Ðµ
ĠÑĢÐ°Ñģ ÐºÑĢ
ĠÑĢÐ°Ñģ ÑĩÐµÑĤ
ĠÑĢÑĥ ÐºÐ°Ð¼Ð¸
ĠÐ´Ð¾Ð» Ðµ
ÑĦ Ð°Ð½
ÐµÐ½ÑĮÑı Ð¼
ĠÐ²ÐµÑĢ ÑĮ
Ð¸ÑĤÐµÐ»ÑĮ Ð½ÑĭÐµ
ÐĺÐ· Ð²ÐµÑģÑĤ
ĠÐºÐ¾Ð½ Ð¸
ĠÐºÐ¾Ð½ ÑĨÐµ
ĠÑĥÐ¼ Ð¾Ð¼
ĠÐ¿Ð¾Ð¼ ÑĭÑģÐ»
ĠÐ¼Ð¾Ð³ ÑĥÑĤ
ĠÑĥÑĤ ÐµÑħ
Ðĸ Ð´
Ðĸ Ð¸Ð»
Ð»ÐµÐ½ Ð¸Ñı
ÑıÑī Ð¸Ðµ
ĠÐ¿ÑĢÐ°Ð² Ð´
ÑıÐ½ ÐºÐ¸
Ð¸Ð± Ð¸ÑĤ
ĠÐ·Ð½ Ð°Ð¹
ÑĢÐ°ÑĤ Ð¸ÑĤÑĮ
ÐŀÐ± Ð¼Ð°Ð½
ĠÐ¾Ð³ Ð»Ð°Ñģ
ĠÐ¶Ð¸Ð² Ð¾ÑĤ
ĠÑĨÐ°ÑĢ Ð¸ÑĨÐ°
ĠÐ±Ð¾Ð»ÑĮ Ð½Ð¾Ð¹
ĠÐºÑĢÐ°Ñģ Ð½ÑĭÐµ
ĠÐ¿Ð¾Ð³ Ð°Ñģ
ĠÐ¿Ð¾Ñģ ÐµÐ»
ĠÐ¿Ð¾Ñģ ÐµÐ¼Ñĥ
ĠÐ²Ð¾Ð´ Ñĥ
ĠÐ´Ð¾Ð¼ Ð°ÑĪ
ĠÐ·Ð°Ð² Ð»Ð°Ð´
ĠÐ³Ð¾Ð»Ð¾Ð² Ðµ
ĠÐ½Ð¾Ð² Ð¾Ðµ
ĠÐ½Ð¾Ð² Ð¾Ð·Ð´
ĠÑģÐ¾Ð² ÐµÑģÑĤÐ¸
ÐĳÐµÐ· ÑĥÐ¼
ĠÐ²ÑĢÐµÐ¼ ÑĳÐ½
ĠÐ²ÐµÑĤ Ð²
ĠÐ¿ÑĢÐ¸Ð² Ð»ÐµÐº
ĠÐ»ÑĥÑĩ Ð¸
ĠÐ´Ð¾Ð±ÑĢ ÑĭÐµ
ĠÐŀÐ½ ÐµÐ³
ĠÐ¼ÐµÑĩ Ð¾Ð¼
ĠÑĢÐ°Ð± Ð¾ÑĤÐ°
ÐŁÑĢÐµÐ´ Ð¼ÐµÑĤ
ĠÐ¶ÐµÐ½ Ð¾Ð¹
ĠÑģÑĭ ÑĢ
ĠÑģÑĭ Ð¿
ĠÐ¿Ð°ÑĢ Ñĭ
ĠÐ¿Ð°ÑĢ ÑĥÑģ
ĠÑĥÐ· Ð½Ð°ÑĤÑĮ
ĠÐºÐ¾ÑĤÐ¾ÑĢ Ð¾Ð¼
ĠÑĦ Ð¾ÑĢ
ĠÑĦ ÑĢÐ°Ð½ÑĨÑĥÐ·
ĠÑĤÐ¾Ð» ÑģÑĤ
ĠÐĵÐ¾ÑģÐ¿Ð¾Ð´ Ð°
ĠÐ¸ÑģÐ¿ Ð¾Ð»
ĠÑĪÑĥÐ¼ ÑıÑĤ
ĠÐ·Ð¾Ð»Ð¾ÑĤ Ð°Ñı
ĠÐ¿Ð¾Ð½ ÑıÑĤ
ĠÐ¥ Ð¾ÑĢ
Ð¡Ð² Ð¸ÑĢÐµÐ¿
ĠÐ¾Ñĩ Ð°ÑĢÐ¾Ð²
Ð°Ð·Ð´ Ð¾
ĠÐ²Ð°ÑĪ Ð¸Ñħ
ĠÐ¾Ð´Ð¸Ð½ Ð¾Ðº
ĠÐ¡Ð°ÑĤ Ð°Ð½Ñĥ
ĠÐ±ÐµÐ» Ð°Ñı
ÐľÐ¾Ð» Ñĩ
ĠÐ²Ð¾Ñģ ÑģÑĤ
Ð¾Ð¹Ð´ Ñı
ĠÑħÐ¾ÑĤ ÐµÐ»Ð°
ĠÐ½ÐµÐ¶ Ð½ÑĭÐ¹
Ð°Ð½Ð¸ Ñİ
Ð°Ð½Ð¸ ÐµÐ¼
ĠÐ±ÑĢÐ°ÑĤ Ð°
ĠÐŃ ÑĤÐ¾
ĠÑĢÑĥÑģ ÑģÐºÐ¸Ð¹
ÐŁÐ¾ÑĢ ÑıÐ´
ĠÐ¢Ð²Ð¾ÑĢ ÑĨÑĥ
ÑĩÐ¸Ð² Ð¾
ĠÐ´Ð¾Ð»Ð³ Ð¸Ð¹
Ð¡Ð²Ð¾ Ð¸Ð¼
ĠÐ´Ð¾Ð² ÐµÐ»Ð¾ÑģÑĮ
ĠÐ±Ð¾Ð» ÑĤ
Ð¡ÑĤÐ¾ ÑıÑĤ
ĠÐ¾ÐºÑĢ ÐµÑģÑĤ
ĠÐ³Ð½ÐµÐ² Ð°
ĠÑģÑĩÐ°ÑģÑĤÐ»Ð¸Ð² Ð¾
ÑĳÑĢ Ð´
ĠÐ³ÑĥÐ± Ñĭ
ĠÐ¿Ð¾ÑĪ Ð»Ð¸
Ð¢Ð²Ð¾ ÐµÐ¹
ĠÐ´Ð°ÑĢ Ñĭ
ĠÐ¼Ð°ÑĤ ÑĥÑĪÐºÐ°
ĠÑĪÐ¸ÑĢ Ð¾ÐºÐ¸Ð¹
ĠÐ¶Ð´ Ð°Ð»Ð°
ĠÐ¦ Ð°ÑĢÑı
ĠÑħÐ¾Ð´ Ð¸Ð»
ĠÑħÐ¾Ð»Ð¾Ð´ Ð½Ð¾Ð¹
ĠÐ¿Ð¾Ñħ Ð¾Ð¶
ĠÑĤÑĢÐ°Ð² Ñĥ
ĠÐ±Ð°Ð± Ð°
ĠÐ¿ÑĢÐ¸ÑĪ Ð»Ð¾ÑģÑĮ
ĠÐ¿Ð¾ÐºÐ»Ð¾Ð½ Ð¾Ð¼
ĠÑĪÐµÐ¿ ÑĩÐµÑĤ
Ð½Ð¸Ð· Ñĥ
ĠÑģÑĤÐ¾Ð½ ÐµÑĤ
ĠÑĥÐºÑĢ ÐµÐ¿
ĠÐ½ÐµÐ· Ð½Ð°ÐºÐ¾Ð¼
ÐĴÐ¸Ð´ Ð¸ÑĤ
ĠÐ²Ð¼ÐµÑģÑĤ Ð¾
ĠÑĥÑģÐ¿ ÐµÑħ
ĠÑģÐºÐ°Ð¶ ÐµÑĤ
ĠÐ´Ð»Ð¸Ð½ Ð½ÑĭÐ¹
ĠÐºÑĢÐµÑģÑĤÑĮÑıÐ½Ð¸ Ð½Ñĥ
ĠÐ¿ÑĢÐ¸ÑĢ Ð¾Ð´Ñĭ
ÐľÐ¾ Ð¸
ĠÐ¿ÑĢÐ¸ÑĤ Ð²Ð¾ÑĢ
ĠÐ´ÑĢÐ¾Ð¶ Ð¸ÑĤ
ĠÐ²Ð¾Ð»Ð½ ÐµÐ½ÑĮÐµ
ĠÐ¼Ð½Ð¾Ð³ Ð¸Ñħ
ĠÑĥÐ³ÑĢÑİÐ¼ ÑĭÐ¹
ĠÐ½ÐµÐ³ Ð¸
ĠÐ²Ð·Ð³Ð»ÑıÐ´ Ð¾Ð¼
ĠÐ¶ÐµÐ½Ñī Ð¸Ð½Ñĭ
ĠÑģÐºÐ¾ÑĢÐ± Ð¸
ĠÑħÑĥÐ´ Ð¾
ÐŀÑģÑĤÐ°Ð² ÑĮ
ĠÑĥÑĪ ÐµÐ»
ĠÑĥÑĪ Ð»Ð°
ĠÐ²ÑĭÑĢ Ð²
ĠÑģÐ¼ÐµÑħ Ð¾Ð¼
ĠÐ°ÑĢ ÑĦ
ĠÐ¿Ð¾Ð¼Ð¾Ñī Ð¸
ĠÐ³ÑĥÐ» ÑıÑĤÑĮ
Ð¡ÐµÑĢÐ´ ÑĨÐµ
ÐŀÑĤÐ²ÐµÑĤ Ð¸Ð»
ÐĺÑģÐ¿ Ð¾Ð»Ð½
ĠÐ±Ð¾Ð»ÑĮÑĪ Ð¾Ð¹
Ð¡Ð¿Ð°Ñģ Ð¸Ð±Ð¾
ĠÐ·Ð°ÑģÐ» ÑĥÐ³
Ð¡Ð»ÑĥÑĩ Ð°Ð¹
ĠÐ´Ð¾Ð³ Ð°Ð´
ÐĿÐ¾Ñĩ ÑĮÑİ
ĠÐ²Ð°Ñħ Ð»Ð°Ðº
ĠÐ²Ð¸Ð½Ð¾Ð² Ð°ÑĤ
ĠÐ¾ÑģÐ» Ð°Ð±
Ð¡Ð¾Ð» Ð´Ð°ÑĤ
ĠÐ±ÐµÐ·Ð¼ÐµÑĢ Ð½Ð¾
ĠÐ¿ÑĢÐµÐ´Ð¿ Ð¾Ñĩ
ÐłÐ°Ð·Ð´ Ð°Ð»ÑģÑı
Ð¡ÑĥÐ´ÑĮÐ± Ð°
ÐŁÑĢÐ¾Ðº Ð»ÑıÑĤ
ÐĶÑĥÑħ Ð¾Ð²
ÐĴÑģÐµÐ²ÑĭÑĪ Ð½ÐµÐ³Ð¾
Ð¼Ð¸ÑģÑĤ ÑĢ
Ð°Ð»Ð°ÑĪ Ð½Ð¸ÐºÐ¾Ð²
ĠÐ¿Ð°Ñģ Ð¼ÑĥÑĢ
ĠÐ²Ð¸ Ð½Ð¾
ĠÐºÐ¾Ð»Ð¾Ðº Ð¾Ð»ÑĮ
ÐŁÐ¾ÑģÐº Ð¾Ð»ÑĮÐºÑĥ
ÐĸÐ¸Ð· Ð½ÑĮ
ĠÐ¾Ð±Ð»ÐµÐ³ Ñĩ
ĠÐ±ÐµÐ·Ð¼ ÑıÑĤÐµÐ¶
Ð°Ð¼Ð°ÑĤ ÐµÑĢÑĮ
. ]
Ð¾ ÑıÐ»
Ðµ Ð¸
Ð¸ ÑģÐºÐ¸
Ñģ Ð°Ð½Ð´
ÑĢ Ð°Ð¼Ð¸
Ð½ Ð°Ð·
Ð» Ð°Ð½
Ð» Ð¸ÑĤÑĮ
Ð» ÑĭÐ¼
Ð» ÑĥÑİ
Ñĭ Ð½Ð¾Ñģ
ÑĮ ÑĳÐ¼
Ñı ÐºÐ¸
ĠÑģ Ð½Ñĭ
ĠÑģ ÐµÐº
ĠÑģ ÐµÑĢÐ¿
ĠÑģ Ð¶Ð°Ð»
ĠÑģ ÐºÐ°ÑĩÐµÑĤ
ĠÐ¿ Ð°ÑĤ
ĠÐ¿ Ð°Ð»Ð¸
ĠÐ¿ Ð¸ÑģÑĤ
ĠÐ¿ Ð°ÑģÑĤÑĮ
Ðº Ð¾Ð¼Ñĥ
ĠÐ² ÑħÐ¾Ð´
ĠÐ² ÑģÑĤÐ°Ð²
Ð² ÐµÑĢÑĤ
Ð² ÐµÐ»Ð°
Ñĩ ÑĤÐ¾
Ñĩ Ð¸Ð¹
Ñĩ Ð¸ÐºÐ¾Ð²
Ð¼ ÐµÐ»ÑĮ
Ð¼ Ð°Ð½Ð°
ÑĪ ÐµÐ»ÑĮ
ÐµÐ½ ÐºÑĥ
ÐµÐ½ Ð½Ð¾Ð¼
ÐµÐ½ ÐµÐµ
Ð°Ð» Ð¸ÑĤ
Ð¾Ð» Ð¾Ð¶
ĠÐ´ Ð½Ð¾
ĠÐ´ Ð½ÑĳÐ¼
ĠÐ¸ Ñī
Ð¾Ð² Ð¸
Ð¾Ð² Ð¾Ð³Ð¾
Ð¾Ð² ÑĥÑİ
ĠÐ± ÑĥÐ³
ĠÐ± ÑĥÐ±
ĠÐ± ÑĮÐµÑĤ
ĠÐ± ÑĮÐµÑĤÑģÑı
ĠÐ¼ ÑĭÑĪ
ĠÐ¼ Ð½Ð¸Ð¼
ĠÐ¼ Ð¸Ð¼Ð¾
ĠÐ¼ ÐµÐ½ÐµÐµ
ÐµÑĢ Ð¸Ð»
ÐµÑĢ ÐµÐº
ĠÐº Ð½ÑĥÑĤ
Ð¾ÑĢ Ð¾Ðº
Ð¾ÑĢ Ð¸ÑĤÑĮ
ÐµÐ» ÑıÐ¼
Ð¸ÑĤ Ð¾
Ð¸Ð» ÑĥÐ¹
ÐĿ ÐµÑĢ
ÐĿ ÐµÐ·ÑĢ
ĠÐ· ÐµÑĢ
Ðĺ ÑĤÐ°Ðº
ĠÑĢ Ð°Ñİ
ĠÐ³ ÑĥÑģ
ĠÐ³ Ð¾ÑģÑĤÑĮ
ĠÐ³ Ð½ÑĥÑģ
ĠÐ¿ÑĢ Ñı
ĠÐ¿ÑĢ Ð¾Ð¶
ĠÐ¿ÑĢ Ð¾ÑģÑĤÐ¸
ĠÐ¿ÑĢ Ð¾Ð²Ð°Ð»
ÐŁ ÐµÐ²
ÐŁ ÑĥÑĩ
ÐĴ Ð¾Ð½
ÐĴ Ð¾Ð¶Ð´
ÐĴ ÑģÑĤÐ°Ð²
Ð¡ Ð¾Ð½
Ð¡ ÑĥÐ¿ÑĢÑĥÐ³
Ð¾ÑĤ Ð²
ĠÐ» Ð¾Ð½
ĠÐ» Ð¾Ð·
ĠÐ» ÐµÐº
ĠÐ» ÐµÐ¿
ĠÐ» ÑĥÐ½
ĠÐ» ÐµÐ±ÐµÐ´ÑĮ
Ð°Ð² ÑĢ
Ð¾Ñģ ÑĩÐ°ÑģÑĤ
Ñī Ð¸ÐºÐ°
Ð½Ð¸ Ð¼Ð¸
ĠÑĩ ÐµÑģÑĤÐ¸
Ð°Ð´ ÑĮ
Ð°Ð´ Ð¾Ð¹
Ð¸Ð½ ÑĮ
Ð¾Ð½ ÑĤ
ĠÑģÑĤ ÑĭÐ´Ð°
Ð¢ ÐµÑĢÐ·
ÐµÐ² Ñĭ
ÐĶ ÐµÐ´
ÐĶ Ð¾Ð·
ĠÑĥ Ð²Ñĭ
ĠÑĥ Ð½Ð¸Ñĩ
Ð¶ Ð¸Ð´
Ð¾Ñĩ ÑĥÑĤ
ÐµÐ½ÑĮ ÐºÑĥ
ĠÑı Ð±Ð»
ÐµÑĩ Ñĥ
ÐµÑĩ ÐºÐ¸
ÑĥÐ³ Ð¾Ð¼
ÑĥÐ³ ÑĥÐ½
ĠÐ¾ÑĤ Ð»Ð¸Ñĩ
ĠÐ¾ÑĤ ÑĢÐ°Ð¶
ĠÐ¾ÑĤ ÑĭÑģÐº
ÐŁÑĢ Ðµ
ÐŁÑĢ ÐµÑģ
ÐŁÑĢ Ð¾Ð±
ÐŁÑĢ Ð¾Ð²Ð¾ÑĢ
Ð»Ð° Ñı
Ð§ Ð¸ÑģÑĤ
ĠÑħ Ð°Ð½
ĠÑħ Ð²Ð°ÑĤ
ĠÑħ Ð¾ÑħÐ¾ÑĤ
Ðľ Ð°Ð»
ÐĹ Ð°Ñħ
ÐĹ ÐµÐ»ÐµÐ½
ÐĲ Ð»
ÐĲ Ð¼
Ð¸Ðº Ñĥ
Ð¾Ð¿ ÑĭÑĤ
Ð¸Ð¹ ÑģÐºÐ¸Ñħ
ÑģÑĤÐ² ÑĥÑİ
Ðĵ Ð¾ÑģÑĤ
ÐµÐ»ÑĮ Ð½ÑĭÐ¹
ÐµÐ»ÑĮ Ð¼Ð¾Ð¶
ĠÐ³ÑĢ Ð¾ÑħÐ¾ÑĤ
ÑĥÐ¼ Ð°Ð»Ð¸
ĠÐ¿Ð¾Ð´ ÑĤ
ĠÐ¿Ð¾Ð´ ÐµÐ»
ĠÐ¿Ð¾Ð´ Ð½Ñı
ĠÐ¿Ð¾Ð´ Ð½Ð¸Ð¼
ĠÐ¿Ð¾Ð´ Ð·ÐµÐ¼
ÑĥÑĩ Ð½Ð¾
ÑĥÑĩ ÐµÐ¹
ĠÐ¿Ð¾ Ñİ
ĠÐ²Ñĭ Ð½ÐµÑģ
ĠÐ²Ñĭ ÑĢÐ°Ð¶
ĠÑĪ Ð¸Ð¿
ĠÑĪ ÐµÐµ
ĠÐºÐ°Ðº Ð¸Ð¼
ĠÐĿ Ð¸Ñĩ
ĠÐĿ Ð¾ÑĩÐ¸
ÐĿÐ° ÑĩÐ¸Ð½
ĠÑĢÐ°Ð· Ð¾Ð³
ĠÑĢÐ°Ð· Ð½ÑĭÑħ
ĠÑĢÐ°Ð· Ð¼Ð°Ñħ
ĠÐĴ Ð¾
ĠÐĴ Ð°Ð½ÑĮ
Ð¸Ñĩ ÐºÐ°
ÐĽ Ð°Ñģ
ÐĽ ÐµÑģÐ°
ÐŀÑĤ ÑĨÐ°
ÐŀÑĤ ÑģÑĤÑĥÐ¿
ĠÐ³Ð¾ÑĢ ÐµÑģÑĤ
ĠÑģÐ¼ ÑĥÐ³
ĠÑģÐ¼ ÑıÐ³Ñĩ
ĠÑģÐ¿ ÑĢÑıÑĤ
ĠÑį Ñħ
ĠÐ»Ð¸ Ð¿
ĠÐ¿ÐµÑĢ ÐµÐ»
ĠÐ¿ÐµÑĢ ÐµÑĩ
ĠÐ²Ð¾Ð· Ð³Ð»Ð°Ñģ
Ð½ÐµÐ¹ ÑĪÐ°Ñı
ĠÐ¾Ð´ Ð½Ð¾Ð¼
ĠÐĳ Ð¾ÑĢ
ĠÑģÑĤÑĢ Ð¾Ð³Ð¾
ĠÐ¼Ñĭ Ñģ
ĠÐĶ Ð¾Ð½
ĠÐ½Ð°Ð´ Ð¼ÐµÐ½Ð½ÑĭÐ¹
Ð¡ÑĤ Ð¾ÑĢÐ¾Ð½
ĠÐ¿Ð¾Ðº Ð¾Ðµ
ĠÐ¿Ð¾Ðº Ð¾Ñı
ĠÐ¿Ð¾Ðº Ð¸Ð½ÑĥÐ²
ĠÑģÐ²Ð¾ Ñĳ
ĠÐľ Ð¸ÑĢ
ĠÐľ ÐµÐ½Ñı
Ð°ÑĪ ÑĮ
ÐŁÐ¾Ð´ Ð´
ĠÐ´ÑĢ Ð°Ð³
ĠÐļ Ð½ÑıÐ·
ĠÐ½Ð¸ Ð¶Ðµ
ĠÐ¿Ð¾ÑĢ ÑĭÐ²
Ð¢Ð°Ðº Ð¸Ðµ
ĠÐ½Ð°Ñģ Ð¼ÐµÑĪ
ĠÐ²ÑĢ ÑĥÑĩ
ĠÑĢÐ°Ñģ ÑħÐ¾Ð´
ÐµÑī Ð°
ÑĦ Ð¾Ð½
ĠÐ²ÐµÑĢ Ð½ÐµÐ¹
ĠÐ²ÐµÑĢ Ð½ÑĥÐ»ÑģÑı
ĠÐĹ Ð°Ð¿
ĠÐ²Ð¾Ð» Ð¾ÑģÑĤÐ¸
Ð¥ ÑĢ
ÐĺÐ· Ð¼
Ð»Ð¸Ð² ÑĭÐµ
ĠÐºÐ¾Ð½ ÐµÑĩÐ½Ð¾
ĠÐ´ÑĢÑĥÐ³ Ð¸Ð¼
ĠÑģÐ²ÐµÑĤ ÐµÐ»
ĠÑģÐ²ÐµÑĤ Ð»Ð¾
ĠÐ½ÐµÐ¼ ÑĨÐ°
ĠÐ¿Ð¾Ð¼ Ð½
ĠÐ¾Ð¿ ÑĭÑĤ
ĠÐ½Ð¾Ñĩ Ð°Ð¼
Ð¡Ðº Ð¾Ð»ÑĮ
Ð¡Ðº Ð¾Ð»ÑĮÐ·
ĠÑģÐ¸Ð» Ðµ
ĠÐ¸Ð¼ ÐµÐ½
ĠÐ¸Ð¼ ÐµÐ»
ĠÐ¸Ð¼ ÐµÐ½Ð°
ĠÐ²Ð´ Ð°Ð»ÐµÐºÐµ
ĠÐ¿Ð¾Ð² Ð°ÑĢÐ¸ÑħÐ¾Ð¹
ĠÐ¿ÑĢÐ°Ð² Ð¾
ĠÐ¿ÑĢÐ°Ð² Ð¸Ð»
ĠÐ¿ÑĢÐ°Ð² Ð´Ñĭ
ÐļÑĢ Ð¸Ðº
ĠÐ»ÐµÑĤ Ð¾Ð¼
Ð¡Ð» Ð°Ð²Ð°
ÑıÐ· Ð²
ĠÑĤÐ²Ð¾ Ñĳ
ĠÐ¾Ñģ ÑĥÑīÐµÑģÑĤÐ²
ĠÐ¿Ð¾ÑģÐ» Ð°Ð½
ĠÐ·Ð°Ð± Ð»
ÐŀÐ´ Ð½Ð¸Ð¼
ÑĥÐ» ÑģÑı
ĠÐ·Ð» Ð¾Ð²ÐµÑī
ĠÐ¼Ð¸Ð» ÐµÐ¹
Ð¡Ð¿ Ð¸
ĠÐºÐ¾Ð» Ð¾Ð½
ĠÐĿÐµÐ±ÐµÑģ Ð½ÑĭÐ¹
ÐĿÐ°Ð´ Ð¾
ĠÐ¿Ð¾Ñģ Ðº
ĠÐ¿Ð¾Ñģ ÑĭÐ»Ð°
ĠÐ½ÐµÐ² Ð¾Ð·
ĠÐ½ÐµÐ² Ð¸Ð´
Ð£Ð¶ ÐµÐ»ÑĮ
ĠÐ½ÐµÐ´ ÑĢÑĥÐ³
Ð¡Ð¼ ÐµÑĪ
ĠÐ´ÐµÐ½ÑĮ Ð³Ð¸
ĠÐ²ÐµÑĩ Ð½Ð¾Ð¹
ĠÐ±Ð°ÑĢ ÑĭÐ½Ñı
ĠÑģÐ½ Ð°ÑĢÑıÐ´
ĠÐ²ÑĭÑģ Ð¾ÑĩÐ°Ð¹
ĠÐ·Ð°Ð¼ ÐµÑĢ
ÑıÐ¶ ÐµÑĤ
ÑĢÐ¾Ñģ Ð¸ÑĤÑĮ
Ð²Ñĭ Ñģ
ĠÑĥÐ¿ ÑĢÑıÐ¼
ĠÐ¿Ð¾ÑģÑĤ ÐµÐ»Ð¸
ĠÐ±ÐµÑĢ ÐµÐ·
ĠÑĩÐµÑĢ Ð½ÑĭÐµ
ĠÑģÐ¼ÐµÑĢÑĤ ÑĮÑİ
ĠÐ²ÐµÑģ Ð½Ð¾Ð¹
ĠÐ½ÐµÐ± Ñĥ
ÐĴÑĭ Ð¿
ĠÑģÐ¾Ð½ Ð¼
ĠÑģÑĭ Ð½Ñĥ
ĠÑĥÐ· ÑĢÐµÐ»
ĠÐºÐ¾ÑĤÐ¾ÑĢ ÑĥÑİ
Ð¸Ð¿ ÐµÐ»Ð°
ĠÑĤÐ¸Ñħ Ð¾Ð½ÑĮÐºÐ¾
ĠÐ³Ð»ÑıÐ´ Ñı
ĠÐ¶ÐµÐ» Ð°Ñı
ĠÐ´ÐµÑĤ ÑģÑĤÐ²Ð°
ĠÐ¸ÑģÐ¿ ÑĢÐ°Ð²
ĠÐ¾ÑģÑĤ Ð°Ð½
ÐĽÑİÐ± Ð¾Ð²
Ð°Ñĩ ÐµÐ¼
ĠÐ¾Ñĩ ÑĥÑĤ
ÑĭÑĩ Ñĥ
ĠÑĨÐ²ÐµÑĤ Ð¾Ðº
ĠÑĥÑģÑĤ Ð°Ñħ
ĠÐ½Ð¸Ñĩ ÑĥÑĤÑĮ
ĠÐ±Ð¾Ð¹ ÑĨÐ¾Ð²
ĠÐ²Ð»Ð° ÑģÑĤÑĮÑİ
ÐĵÑĢ ÑıÐ´ÑĥÑī
ĠÐ¾Ðº Ð°Ð·
ĠÐºÐ» Ð°Ð½
ĠÐ³Ð¾ÑĢÐ´ Ð¾
ĠÐ¼Ð°Ð» ÑĭÐµ
ĠÐ¼Ð¾Ð»Ñĩ Ð°ÑĤ
Ð²Ð¸Ð¶ Ñĥ
ĠÑģÑĤÐ¾Ð» Ð±
ĠÐ³Ð¾Ð»Ð¾Ñģ Ð°
ĠÑĤÑıÐ¶ ÐµÐ»ÑĭÐ¹
ĠÐ§ÐµÐ»Ð¾Ð²ÐµÐº Ð¾Ð¼
ĠÑİ Ð³
ĠÐĴÑģ ÐµÐ²
ĠÐ²ÐµÑģÑĮ Ð¼Ð°
ĠÐ¿ÑĢÐµÐ¶ Ð½Ð¸Ð¹
ĠÐ²Ð¾Ð¿ ÑĢÐµÐºÐ¸
ĠÐ±ÑĢÐ°ÑĤ ÑĨÑĭ
ĠÑıÐ² Ð¸Ð»Ð°ÑģÑĮ
ĠÑĢÐµÐº Ðµ
ĠÑĢÐµÐº Ð¾Ñİ
ĠÑıÑĢ ÐºÐ¾
ĠÐºÑĢÑĭÐ» ÑĮÑı
ĠÐºÑĢÑĭÐ» ÑĮÑıÑħ
ĠÑĢÑĥÑģ ÑģÐºÐ¾Ð¹
ĠÑģÐ½ÐµÐ³ Ð°
ĠÑģÐ½ÐµÐ³ Ð¾Ð¼
ÐļÐ¾ÑĤÐ¾ÑĢ ÑĭÐµ
ÐļÐ¾ÑĤÐ¾ÑĢ ÑĥÑİ
ĠÐĲÐ´Ð°Ð¼ Ð°
ĠÑĤÐ°Ð¹ Ð½ÑĭÐ¹
ÑĩÐ¸Ð² ÑĭÐ¹
ĠÐ¿ÑĢÐ¸Ð½ ÑıÑĤÑĮ
ĠÐ¿ÑĢÐ¸Ð½ ÑıÐ»
ĠÑĩÐ¸ÑģÑĤ Ð¾Ð¹
ĠÑĩÐ¸ÑģÑĤ ÑĭÐ¹
ĠÐ³ÑĢÐµÑħ Ð¸
ĠÐ¾ÐºÑĢ Ð¾Ð²Ð°Ð²
ĠÑĢÐ°Ð² Ð½Ñĭ
ĠÐ¿ÐµÑĩÐ°Ð»ÑĮ Ð½ÑĭÐ¹
ĠÑĤÐ¸ÑĪ Ð¸Ð½Ñĭ
ĠÐ³Ð¾ÑĤÐ¾Ð² Ð°
ÐĿÐµÐ² Ð¾Ð»ÑĮÐ½Ð¾
ĠÐ³Ð½ÐµÐ² Ð¾Ð¼
ĠÐ¾Ñħ ÑĢÐ°Ð½
ĠÑĥÐ¶Ð°Ñģ Ð¾Ð¼
ĠÐ³ÑĢÐ¾Ð± Ñĥ
ÐĿÐµÑģ ÑĩÐ°ÑģÑĤ
ÐĿÐµÑģ Ð¼ÐµÑĤ
ĠÐ¿ÑĢÐ¾Ñĩ Ð¸Ñħ
ĠÐ¿ÑĢÐ¾Ñĩ Ð¸Ðµ
ĠÑģÐ»ÑĥÐ¶ Ð¸Ð»
ĠÐºÐ¾Ñģ Ñĭ
ĠÐºÐ¾Ñģ Ð¾Ð¹
ĠÐ²ÐµÐ»Ð¸ ÐºÐ¸Ðµ
ĠÐ¿ÑĢÐ¾ÑĪ ÐµÐ»
ĠÐ¿ÑĢÐ¾ÑĪ Ð»Ð°
ÐĶÐ¾Ð» Ð³
ÐĵÐ»ÑıÐ´ ÑĮ
ĠÐ¿ÑĢÐ¾Ð¿ Ð°Ð»
ÐĴÐµÑĢ Ñħ
ÐĿÐµÐ´ Ð¾Ð»Ð³Ð¾
ÐĿÐµÐ´ Ð°ÑĢÐ¾Ð¼
ÐĿÐµÐ±ÐµÑģ Ð½ÑĭÐ¹
ÐĿÐµÐ±ÐµÑģ Ð½ÑĭÑħ
ĠÐ·Ð°Ð½ ÐµÑģ
ĠÐ¿ÑĢÐµÐ² Ð¾Ð·
ĠÐ¿Ð¾Ñħ Ð¾ÑĢÐ¾Ð½
ĠÐ´ÐµÑĢÐ¶ Ð°ÑĤÑĮ
ÐĿÐ°ÑĢ Ð¾Ð´Ñĥ
ĠÐ¿Ð»Ð°Ð¼ ÐµÐ½ÐµÐ¼
ĠÐ±Ð¸ÑĤ Ð²
ĠÐ¼Ð»Ð°Ð´ ÐµÐ½
ĠÑĩÐ¸ÑĤ Ð°Ð»
ĠÑĩÐ¸ÑĤ Ð°ÑĤÑĮ
ĠÑĩÐ¸ÑĤ Ð°ÐµÑĤ
ĠÑĩÐ¸ÑĤ Ð°ÑĤÐµÐ»ÑĮ
ĠÐ½Ð¾Ð¶ ÐºÐ¸
ĠÑĤÑĥÐ¼ Ð°Ð½Ñĭ
ĠÐ³ÑĢÑĥÑģÑĤ Ð½Ð¾
ĠÑģÑĤÑĢÐµÐ¼ Ð³Ð»Ð°Ð²
ÐŁÐ¾ÑģÑĤ Ð¾Ð¹
ĠÐ¿ÑĢÐ¾ÑĤÐ¸Ð² Ð¾ÑģÑĤ
ĠÑģÑĤÐµÐ¿ Ð½Ð¾Ð¹
Ð¯Ð² Ð¸Ð»ÑģÑı
Ð°Ð½Ð´ Ð¸ÑĢ
ĠÐ¾ÑĤÐº ÑĥÐ´Ð°
ÐŁÑĢÐ¾ Ð¸Ð·
ĠÑĤÑĮÐ¼ Ð°
ĠÑģÑĤÑĢÐµÐ» Ñĭ
ĠÐ²ÐµÐ»Ð¸Ðº Ð¾Ð¹
ĠÑģÑĥÐ¼ ÑĢÐ°Ñĩ
ĠÑģÑĥÐ¼ ÑĢÐ°Ðº
ÑĢÑħ Ð¸Ð²
ĠÐ³Ð¾ÑĢÑĮ ÐºÐ¾Ð¹
ĠÐ»Ð¸ÑģÑĤ ÑĮÑı
ÐļÑĢÐ°Ñģ Ð°Ð²
ÐĿÐ¸Ðº Ð°Ðº
ĠÑĥÐ½Ñĭ Ð»ÑĭÐ¹
ĠÑģÐ¿ÐµÑĪ Ð°ÑĤ
ĠÐ´Ð»Ð¸Ð½ Ð½Ð¾Ð¹
ĠÐ½Ð°ÑģÑĤ Ð¾
ĠÐ¸Ð·Ð´ Ð°Ð»Ð¸
ĠÐ±Ð°ÑĪ Ð½Ð¸
ÐĲÐ´Ð°Ð¼ Ð°
ĠÐ¨ Ð°Ð»Ð°ÑĪÐ½Ð¸ÐºÐ¾Ð²
ĠÐ¾Ð² Ð»Ð°Ð´
ÐľÐ¾ ÐµÐ¹
ĠÐ¼Ð¾Ð³Ð¸Ð» Ñĭ
ĠÑģÐ¾Ñĩ ÐµÑĤ
ĠÐ¼Ð½Ð¾Ð³ Ð¸Ðµ
ĠÑģÑĥÐ¿ÑĢÑĥÐ³ Ñĥ
ĠÐ³Ð¾Ð½ Ð¸ÑĤ
ÐĹÐ°Ð¼ ÐµÑĤ
ĠÐ¿Ð»Ð°Ðº Ð°ÑĤÑĮ
ĠÐ²Ð·Ð³Ð»Ñı Ð½ÑĥÐ»
ĠÑģÐ¾ÑĢ Ð¾Ðº
ÐŁÐ¾Ð± ÐµÐ´
ĠÑģÑĤÑĥÐ¿ Ð°Ð¹
ĠÐ¿Ð¾Ð²ÐµÐ» ÐµÐ»
ĠÐºÐ°ÑĢÑĤ Ð¸Ð½
Ð½Ð¾Ð¶ ÐºÐ¾
ÐłÐ°Ð± Ð¾ÑĤ
ĠÐ²Ð¾Ð¹Ñģ ÐºÐ¾
ĠÑģÐ¾Ð¿ ÐµÑĢ
ÐĴÐ¾Ñģ ÑģÑĤ
ĠÐľÐ¾ÑģÐº Ð²Ñĭ
ĠÐ±ÑĥÐ½ÑĤ Ð¾Ð²Ñī
ĠÐ¿Ð°Ð¼ÑıÑĤ Ð¸
ĠÐ¿Ð°Ð¼ÑıÑĤ Ð½Ð¸Ðº
ĠÐ±ÐµÐ¶ Ð°ÑĤÑĮ
ĠÐ¿ÑĢÐ¸Ñħ Ð¾Ð´
ĠÐ½Ð°Ð´ÐµÐ¶ Ð´Ñĥ
ĠÐ£Ð¶ ÐµÐ»ÑĮ
ĠÑĤÑİÑĢ ÑĮÐ¼Ñĥ
ĠÐ¿Ð¸ÑģÑĮ Ð¼Ð°
ĠÐ¿Ð¾Ð»Ð´ ÐµÐ½ÑĮ
ĠÐ¿Ð¾Ð»Ð´ Ð½Ñı
ĠÐ¥Ð° Ð¾ÑģÐ°
ĠÐ½ÐµÐ½Ð°Ð²Ð¸ÑģÑĤ ÑĮ
ĠÐ¡Ð²ÑıÑĤ Ð¾ÑģÐ»Ð°Ð²
ÐĽÑĥÑĩ ÑĪÐµ
ĠÑĢÐ¾Ð¶ ÑĮ
Ð¡Ð¾Ð³ Ð»Ð°Ñģ
ÐĺÑģ ÑĩÐµÐ·
ÐĴÐµÐ»Ð¸ ÐºÐ¸Ð¹
ĠÐłÐ¾ÑģÑģ Ð¸Ð¸
ÐĵÐ»Ð°Ð· Ð°
ĠÑĢÐ°ÑģÑģÐº Ð°Ð·Ð°Ð»
ĠÑģÐ¾Ð»Ð½ÑĭÑĪ ÐºÐ¾
ÐĿÐ¸Ð· Ð²ÐµÑĢÐ³
ĠÐ¿Ð¸ÑĪ ÐµÑĤ
ÐŀÑĤÐ² Ð°Ð¶
ĠÐļÐ¾ÑĩÑĥÐ± ÐµÐ¹
ĠÐ·ÐµÑĢÐº Ð°Ð»Ð¾
ĠÑĥÐµÐ´Ð¸Ð½ ÐµÐ½Ð½ÑĭÐ¹
ĠÐ¡Ð¾Ð»Ð½ ÑĨÐ°
ĠÐ²Ð¾Ð·Ð· Ð²Ð°Ð»
ĠÐ²Ð¾ÑģÑģ ÐµÐ´
ĠÐºÐ¸Ñģ ÐµÑĤ
ĠÐĲÐ³ Ð°Ð¿
ĠÐĳÐ°Ð± Ð°ÑĢÐ¸ÑħÐ¾Ð¹
ĠÑĥÑĤÐ²ÐµÑĢÐ¶ Ð´
ĠÐ¢Ð¸Ð¼Ð¾ÑĦÐµ ÐµÐ²Ð½Ð°
Ð ®
Ðµ ÑıÑĤÑĮ
Ð° ÑĨ
ÑĤ Ð¸Ð»
ÑĤ Ð¸ÑĢ
ÑĤ Ð°Ñħ
Ñģ ÑĭÐ¿
ÑĢ Ð¸Ð¼
Ð½ ÑıÑĤÑĮ
Ñĭ ÐºÐ°
Ñĭ ÑĩÐ¸
Ñĭ Ð³ÑĢ
ÑĮ ÑİÑĤÑģÑı
Ñı Ð¹
Ñı Ð½Ð¸
Ñı ÑİÑĤ
ĠÑģ Ñħ
ĠÑģ Ð°Ð²
ĠÑģ Ð°Ð¶
ĠÑģ ÑĥÐ¿
ĠÑģ ÑĥÑĤÑĮ
ĠÑģ ÑĥÐº
ĠÑģ ÐµÐ½Ð¾
ĠÑģ Ð½Ð°ÑĩÐ°Ð»Ð°
ĠÐ¿ Ð°ÑĪ
ĠÐ¿ ÐµÑĤÑĮ
ĠÐ¿ Ð¾Ð¹Ð´ÐµÐ¼
Ðº ÑĤ
Ðº Ð½ÑıÐ·ÑĮ
ĠÐ² Ð¸Ð½Ñĥ
ĠÐ² Ð¸Ñģ
ĠÐ² ÑĢÐ°Ñī
ĠÐ² ÑģÑĤÐ°Ð»
ĠÐ² Ð²ÐµÑĩ
Ð² Ð°Ð»Ð°
Ð² ÑĭÑħ
Ð² ÐµÐ´ÑĮ
ĠÐ½ Ð°Ð½
Ð¼ Ð¾Ð½
ÑģÑĤ Ð¸ÑĤÑĮ
ÑģÑĤ Ð°ÑĤÐ¸
ÑĪ Ð°
ÐµÐ½ Ð¸ÑĤÑĮ
Ñİ Ñħ
ĠÑĤ Ñī
ĠÑĤ ÑĥÑĢ
Ð¾Ð» Ð¾
Ð¾Ð» Ñĥ
Ð¾Ð» Ñİ
Ð¾Ð» Ð·
ĠÐ± Ð¾Ð¼
ĠÐ¼ Ð¸Ð»Ð°
ÐµÑĢ Ð°ÑĪ
ĠÐº Ñĥ
ĠÐº ÑĥÑĪ
ĠÐº ÑĥÐº
ĠÐº Ð»Ð¸Ñĩ
ĠÐº Ð¸Ð±Ð¸ÑĤ
Ð¸ÑĤ ÑĭÐµ
Ð¸ÑĤ ÐµÐ»Ñİ
ÐĿ Ðĺ
ÐĿ ÐµÐ»ÑĮÐ·Ñı
ĠÐ· Ð¼Ðµ
Ðĺ Ð½Ð¾Ð¹
Ðĺ Ð²Ð°Ð½
Ðĺ Ð³ÑĢÐ°
ĠÑĢ Ð¾ÑĤ
ĠÑĢ ÑĥÐ¶
ĠÑĢ Ð²ÐµÑĤ
ĠÑĢ Ð¸ÑĦ
ĠÐ³ Ð°Ñģ
ĠÐ³ ÐµÐ½Ð¸Ð¹
Ð°ÑĤ Ð¾Ð¹
Ð°ÑĤ ÐµÐ»Ñı
ĠÐ¿ÑĢ ÐµÑĤ
ĠÐ¿ÑĢ Ð¾Ð±ÑĢ
ÐŁ ÐµÑĤ
ÐŁ Ð¾Ð·Ð´
ÐĴ Ð¾Ð¹
ÐĴ ÑĢÐµÐ¼
ÐĴ ÐµÑĢÑĪ
ÐĴ ÐºÑĥÑģ
ÐĴ ÑĢÐ°Ð¶Ð´
Ð· Ð²
Ð¾Ð³ Ð¾Ð²
Ð½Ð¾ ÑģÑıÑĤ
Ð¡ Ð¾Ð»Ð½ÑĨÐµ
Ð¡ ÑĢÐ°Ð·
Ð¡ Ð½Ð°ÑĩÐ°Ð»Ð°
Ð¡ Ð½Ð¾Ð²Ð°
ÑĨ Ð¸Ð¸
Ð¾ÑĤ Ñĩ
ĠÐ» Ð°Ð½
ĠÐ» Ð¾Ð¿
ĠÐ» Ð¸ÐºÐ¾Ð²
Ð°Ð² ÑĪÐµÐ³Ð¾
Ð°Ð½ Ñİ
Ð½Ð¸ Ð³Ð¸
ĠÑĩ Ð¸Ð½
ĠÑĩ ÑĢÐµÐ²
Ð°Ð· Ñĭ
Ð¾Ð½ ÐµÐº
Ðļ Ð¾Ð½Ñĩ
Ðļ ÐĿÐĺ
ĠÑģÑĤ ÑĥÐ»
ĠÑģÑĤ Ð°Ð´Ð°
ÐºÐ¸ Ð¼Ð¸
Ð¾Ð± Ñĭ
Ð¾Ð± Ð¾Ñİ
Ð¾Ð± Ð»Ð°Ñĩ
Ð¢ ÐµÑĢÐ¿
Ð¢ Ð¾ÑĢÐ³
Ð¸Ð² Ð°ÐµÑĤÑģÑı
ÐµÐ² Ð°Ñı
Ñĳ Ð·
Ð¸Ð¼ Ñĭ
Ð°ÑĤÑĮ ÐµÐ¹
Ð°ÑĤÑĮ ÐµÐ²
ĠÐµ Ð·Ð´
ÐĶ Ñĥ
ÐĶ ÐµÐ»Ð°
ÐĶ Ð²Ð¸Ð¶
ĠÑĥ ÑģÐº
ĠÑĥ ÑĪÐ¸
ĠÑĥ ÑħÐ¾
Ð¾Ñĩ ÐµÑĪÑĮ
ÐµÑĩ Ð½ÑĭÐµ
ĠÑģÐ² Ð°ÑĤÑĮÐµÐ¹
ĠÐ¾ÑĤ ÑģÑĤ
ĠÐ¾ÑĤ ÑĢÐ°Ð²
ĠÐ¾ÑĤ Ð½ÑĭÐ½Ðµ
ÐŁÑĢ Ð¾ÑĤ
ÐŁÑĢ Ð¸Ð·
ÐŁÑĢ Ð¸Ð·Ð½
Ð»Ð° ÑĨ
Ð»Ð° ÑģÑĤÑĮ
Ð»Ð° ÑĩÐµÑĤ
ĠÐºÑĢ Ð¾ÑħÐ¾ÑĤ
Ð§ ÐµÑĢÑĤ
ĠÑģÐ» ÐµÑĤ
ĠÑģÐ» ÑĭÑħ
ĠÑħ Ð»Ñı
Ð»Ñı Ð»Ð¸
Ð»Ñı Ð¶Ñĥ
Ðľ ÐµÑĤ
Ðľ Ð¸Ð½ÑĥÑĤ
Ðĳ Ð°Ð±
Ðĳ ÑĢÐ¾Ñģ
Ðĳ ÑĭÐ»Ð¾
ÐµÐ¶ Ð°ÑĤÑĮ
ÐĹ Ð°Ð¶
Ð£ ÑģÑĤÐ°
ÐµÐ¿ ÐµÐ½Ð½Ð¾
ĠÐ¾Ð± Ð¸Ð»ÑĮ
ĠÐ¾Ð± Ð»Ð°Ñĩ
Ð¾Ð¿ Ð°Ð»
ÑģÑĤÐ² Ð¸Ð¹
Ðĵ Ð¾Ð½
Ðĵ ÐĲ
Ðĵ Ð¾Ð»Ð¾Ð²
Ðĵ Ð¾Ð»Ð¾Ð´
ÐµÐ»ÑĮ Ð½Ð¾
ĠÐ¿Ð¾Ð´ Ñģ
ĠÐ¿Ð¾Ð´ Ð½ÑıÐ»ÑģÑı
ÑĥÑĩ Ð°
ĠÐ¿Ð¾ ÑıÐ²
ĠÐ¿Ð¾ ÑıÑģ
Ð´Ð° ÑĳÑĤÑģÑı
ĠÑĪ Ð¿
ĠÐ¡ Ð»
ĠÐĿ ÐµÑĢ
ĠÐĿ Ð°Ðº
ĠÑĢÐ°Ð· Ð½Ð¾
ĠÑĢÐ°Ð· Ð½ÑĭÐµ
ĠÑĢÐ°Ð· Ð²ÐµÐ´
Ð¯ ÐºÐ¾Ð²
Ðł Ð¾Ð¼Ð°Ð½
ÐļÐ°Ðº Ð¸Ðµ
ĠÑĤÑĢ Ð¾ÑģÑĤ
ĠÐĴ Ð·
ĠÐĴ Ð¾Ð·
ĠÐĴ ÐµÐ´ÑĮ
ĠÐĴ ÑĭÑģ
Ð¸Ð»Ð¸ ÑīÐµ
Ð¸Ð· Ð½Ñĭ
ÐŀÑĤ ÑĤ
ÐŀÑĤ Ð±
ÐŀÑĤ ÑĢÐ°Ð´
ÐŀÑĤ Ð²ÐµÑĩ
ĠÐ³Ð¾ÑĢ Ð¾Ð¹
ĠÐ³Ð¾ÑĢ ÑıÑĤ
ĠÑģÐ¼ Ð¾Ð³
ĠÑģÐ¼ ÐµÑı
ĠÑģÐ¿ ÑĥÑĤ
ĠÑģÐ¿ ÑĥÑģÑĤ
ĠÑį Ð¿
ĠÐŁ Ð¾Ð±ÐµÐ´
ĠÐŁ ÑĥÑĪÐº
ĠÐ»Ð¸ ÑģÑĤÐ²
Ð»Ð¾ ÑĪÑĮ
ĠÐ±ÐµÐ· Ð½Ð°Ð´
ĠÑĨ ÐµÐ»Ð¾Ð²
ĠÑĨ ÐµÐ½ÑĤ
ÑģÐºÐ¸ Ð¼Ð¸
ĠÑĤÐ°Ðº Ð¸Ñħ
ÐµÑĨ ÐºÐ¾Ð¹
ÐµÑĨ ÐºÐ¸Ð¹
ĠÐ²Ð· ÑıÑĤ
ĠÐ²Ð· ÑıÐ»Ð¸
ÐĴÑģ ÐµÐ¼Ñĥ
ĠÐ¿ÐµÑĢ ÐµÐ¶
ĠÐ²Ð¾Ð· Ð»ÑİÐ±
ĠÐ²Ð¾Ð· ÑĢÐ°Ð·Ð¸Ð»
ĠÐ³Ð» ÑĭÐ±
ĠÐ¼Ð¾Ð» Ð½Ð¸Ð¹
ĠÐ¾Ð´ Ð½Ð¾Ð¼Ñĥ
ĠÐ° Ñħ
ĠÐ° Ð»ÑĮ
ĠÐĳ ÑĥÑı
ĠÐĳ Ð»Ð°Ð³
ĠÐĲ ÑĢÑħÐ¸Ð²
ĠÐ±Ð» ÐµÑīÑĥÑĤ
Ð°Ð»ÑĮ Ð½Ð°Ñı
ĠÐŀ Ð½Ð°
ĠÐ±ÑĢ Ð°Ð½Ð¸
ĠÐ±ÑĢ ÐµÐ¼Ñı
ĠÐĶ Ð¾Ð±ÑĢÐ°
ĠÐ»ÑİÐ± Ð¾
ĠÐ»ÑİÐ± Ð¸ÑĪÑĮ
ĠÐĵ Ð¸ÑĢ
Ð¡ÑĤ Ð¸Ñħ
ĠÐ¿Ð¾Ðº Ð¸Ð´
ĠÐ¿Ð¾Ðº Ð¸Ð½Ñĥ
ĠÐ¿Ð¾Ðº ÑĢÐ¾Ð²
ĠÐľ Ð¸ÑĤ
ĠÐľ ÐµÑģÑģ
ÑģÑĤÑĢ Ð¾Ð¹
ĠÐļ ÑĢ
ĠÐļ Ð°Ð·
ĠÐ½Ð°ÑĪ Ð»Ð¸
ĠÑģÑĤÐ°ÑĢ Ð°Ñı
ĠÑģÑĤÐ°ÑĢ Ð¾Ð³Ð¾
ĠÑģÑĤÐ°ÑĢ ÑĭÑħ
Ð¾Ñħ Ð¾Ð´Ð¾Ð¼
ÑĥÑī Ð°Ñı
ÑĥÑī Ð¸Ðµ
Ð²ÐµÑĢ Ð½
ÐµÐ½Ñı ÐµÑĤ
ÐºÑĢ Ð°Ð¹
Ð½ÑĥÐ» Ð¾ÑģÑĮ
ĠÐ´Ð¾Ð» Ñİ
ÑĦ Ð¸ÑĨ
ĠÐĹ Ð°ÑĩÐµÐ¼
Ð¸Ð³ Ð°Ð½ÑĤ
ĠÑģÐ°Ð¼ Ð¾Ðµ
ÐĺÐ· Ð¼ÐµÐ½
ĠÐ½ÐµÑĤ ÐµÑĢÐ¿ÐµÐ»
ĠÑĢÐ¾Ð´ Ð½ÑĭÑħ
ĠÑĥÐ¼ Ð¾Ð»
ĠÑģÐ²ÐµÑĤ Ð»ÐµÐ¹
ĠÐ´ÑĥÑĪ ÐµÐ²
ĠÐ¿Ð¾Ð¼ ÑĭÑĪ
ĠÐ¿Ð¾Ð¼ ÐµÑĢÐº
ĠÐ¾Ð¿ ÑĢÐµÐ´ÐµÐ»
ÐµÑĢÑĮ ÑĤÐµ
ĠÐ·Ð² Ð°Ð»
ĠÐ²Ð¾ Ð¾ÑĢÑĥÐ¶
ĠÑģÐ¸Ð» Ð¾Ñİ
ÐµÐ»Ð¾Ð² Ð°
ĠÑģÐ»Ð¾Ð² Ð°Ð¼
ĠÑĥÑĤ Ð²ÐµÑĢÐ´
Ð°Ð·Ð°Ð» Ð°ÑģÑĮ
ĠÐ¿Ð¾ÑĤ ÑĢÑıÑģ
ĠÐĺ ÑģÐº
ĠÐĺ Ð»ÑĮ
ĠÐĺ ÑĤÐ°Ðº
ÑıÐ½ ÑĮ
ÑĢÐ°Ð½ Ð¸Ñĩ
Ð¸Ð± Ð¸ÑĢ
ĠÐ¼ÑĥÐ¶ ÐµÐ¼
Ð¡Ð» Ð°Ð±
ĠÐ¾Ð³ ÑĢÐ°Ð´
ĠÐ¾Ð³ Ð½ÑĳÐ¼
ÑĥÑģ ÐºÐ°ÐµÑĤÑģÑı
ĠÐ¶Ð¸Ð² Ð°
ĠÐ¾Ñģ ÐµÐ½ÑĮÑİ
Ð²Ð¾Ð¹ Ð½Ðµ
ĠÑģÐ»Ð°Ð² Ð½Ð¾
ĠÐ²Ð¿ ÐµÑĢÑĳÐ´
ĠÐ²Ð¿ ÑĢÐ¾ÑĩÐµÐ¼
ÑĥÐ» Ð°ÑģÑĮ
ĠÐ¼Ð¸Ð» Ð¾ÑģÑĤÑĮ
ĠÐºÑĢÐ°Ñģ Ð¾ÑĤÐ¾Ð¹
ĠÐĽ Ñĥ
ĠÐ±Ð¾Ð³ Ð°
ĠÐĿÐµÐ±ÐµÑģ Ð°Ð¼
Ð°Ð½ÑĮÑı Ð¼
ĠÐ´ÑĥÐ¼ Ð°Ð»Ð¸
ĠÐ²Ð¾Ð´ Ðµ
ĠÐ¼Ð¾Ð»Ð¾Ð´ Ð¾ÑģÑĤÑĮ
ĠÐ·Ð°Ð¿ Ð°Ñħ
ĠÐ±Ð°ÑĢ ÑĭÑĪ
ĠÐ±Ð°ÑĢ ÑĭÐ½Ð¸
ĠÑĥÐ³ Ð°Ð´
ĠÑĥÐ³ Ð»Ñĥ
ĠÐ¿Ð¾Ð¿ Ð°Ð»
ĠÐ¿Ð¾Ð¿ ÑĢÐ¾Ð±
ÐŃ ÑĤ
ÐŃ ÑĦÐ¸ÑĢ
ÐłÐ°Ð· ÑĥÐ¼
ÐłÐ°Ð· Ð»Ð¸Ñĩ
ĠÐ·Ð½Ð° Ñĩ
ĠÐ²ÐµÑĤ ÑĢÐ¾Ð¼
ĠÐ²ÐµÐ» ÑıÑĤ
ĠÐ¾Ð±ÑĢ ÑĳÐ»
ĠÐ´Ð¾Ð±ÑĢ Ð¾Ðµ
ĠÐĳÐ¾Ð¶ Ðµ
ĠÐĳÐ¾Ð¶ ÑĮÐµÐ¹
ĠÐ²ÐµÑģ Ð½Ð°
ĠÐ²ÐµÑģ ÐµÐ»ÑĭÐ¹
ĠÐ½ÐµÐ± Ð¾ÑģÐºÐ»Ð¾Ð½
ĠÐ½ÐµÐ¿ Ð¾Ð´
ĠÑĢÐ°Ð± Ð¾Ð²
ĠÑģÑĤÐ¾ ÑıÐ»Ð°
ĠÑĦ ÑĢÐ¾Ð½ÑĤ
ĠÐ¸ÑģÐº Ð°Ð»
ĠÐ¸ÑģÐº Ð°ÑĤÑĮ
ĠÑĤÐ¾Ð» ÐºÐ¾Ð²
ĠÑģÐ»ÐµÐ· Ð°Ñħ
ĠÐ½Ð¾Ð³ Ð°Ð¼Ð¸
ĠÐ£ ÑĤ
ÐµÑĢÐ¶ Ð°Ð»
ĠÐ³Ð»ÑĥÐ± Ð¸Ð½Ñĭ
ĠÐ½ÐµÑģ ÑĥÑĤ
ÐĴÐ¾ Ð¸ÑģÑĤÐ¸Ð½Ñĥ
ĠÑģÑĢ Ð°Ð¼
ÐŁÐ¾Ð» Ð¾Ð¶
Ð¦ Ð°ÑĢ
ĠÑĤÐ² Ð°ÑĢÑĮ
ĠÑĤÐ² ÑĳÑĢÐ´
ĠÑĨÐ²ÐµÑĤ Ð°Ñħ
ĠÐ½Ð¸Ðº Ð¾Ð¼Ñĥ
ĠÑĥÑģ ÐµÑĢÐ´
ĠÑĥÑģ Ð°Ð´ÑĮÐ±
ĠÐ½Ð¸Ñĩ ÑĤÐ¾
ĠÐ·Ð°ÑĤ Ð¼
ĠÐ¾Ðº Ð½Ð¾Ð¼
ĠÐ³Ð¾ÑĢÐ´ ÐµÐ»
ĠÐ³Ð¾ÑĢÐ´ Ð¾ÑģÑĤÑĮ
ĠÐ¼Ð°Ð» Ð¾Ð³Ð¾
ĠÐ¡Ð°ÑĤ Ð°Ð½Ðµ
ÐłÐ°Ñģ ÑģÑĥÐ´
ĠÐ±Ð¾ÑĢ Ð¾Ð´
ĠÐ¿ÑĥÑĤ Ð½Ð¸Ðº
ĠÑģÑĤÐ¾Ð» Ð¿
ĠÑģÐ»ÑĭÑĪ Ð½Ð¾
Ð¸Ð¶ Ð´Ñĭ
ĠÐ±ÑĥÑĢ Ð¸
ÐŁÐµÑĢ ÐµÐºÑĢÐµÑģÑĤ
ĠÑĤÑıÐ¶ ÐºÐ¾
ĠÑĤÑıÐ¶ ÐºÐ¸Ð¹
ÐĵÐ¾ÑĢ Ð´
ĠÐ³ÑĢÐ¾Ð¼ ÐºÐ¾
ĠÐ²Ð¾Ð·Ð² ÐµÑī
ĠÐ¼ÐµÐ´ Ð²ÐµÐ´
ĠÐ¿ÑĢÐ¸Ð· Ð½
ĠÑħÐ¾ÑĢ Ð¾Ð²
ĠÑģÐºÐ°Ð· Ð°Ð»Ð¸
ĠÑĢÐ°ÑģÑģ ÑĭÐ¿
ĠÐŃ ÑĤ
ÐŁÐ¾ÑĢ Ð¾Ð¹
ĠÑģÐ»Ð°Ð´ ÐºÐ¾
ĠÐĲÐ´Ð°Ð¼ Ñĥ
Ð³Ð¾ÑĢ ÑĮ
ĠÐ²ÑĭÑĪ Ð»Ð¸
ĠÐ²ÑĭÑĪ Ð»Ð°
ĠÐ²ÑĭÑĪ Ð¸Ð½Ðµ
ĠÐ´Ð°Ð»ÑĮ Ð½Ð¸Ñħ
ĠÐ¿ÑĢÐ¸Ð½ ÑĥÐ¶Ð´
ÐĶÑĢÑĥÐ³ Ð°Ñı
ĠÐ±ÐµÐ·Ð´ Ð¾Ð½
ĠÐ¼Ð¾Ð»Ð² Ð¸ÑĤÑĮ
ĠÐ´Ð¾Ð² ÐµÐ´
ĠÐ¿Ð¾ÑģÐ»ÐµÐ´ Ð½ÐµÐ¹
ĠÐ±Ð¾Ð» Ð¸
Ð¢ÑĢ ÐµÐ¿
ĠÑģÐ²ÑıÑĤ ÑĭÑħ
ĠÐ±ÐµÑģÐ¿ Ð¾Ð»ÐµÐ·
ĠÑĤÐ¸ÑĪ Ðµ
ÐĶÐ¾ÑģÑĤ Ð¾Ð¸Ð½
ĠÐ±Ð¾Ð³Ð°ÑĤ ÑĭÑĢ
ĠÐ²ÐµÐ½ Ð¾Ðº
ĠÐºÑĢÐ°Ð¹ Ð½ÐµÐ¹
ĠÑĤÐ¾Ñģ ÐºÐ°
ĠÐ²Ð¾ÑģÑĤ Ð¾ÐºÐ°
ĠÐ¶Ð¸ÑĤÑĮ Ðµ
ĠÑĤÐ¾Ð»Ð¿ Ð°
ĠÑĤÐ¾Ð»Ð¿ Ð¾Ñİ
ĠÑĢÐ°ÑģÑĤ Ð¾Ñĩ
Ð¢Ð²Ð¾ Ñı
Ð¢Ð²Ð¾ Ñĳ
ĠÐ¾Ð· Ð»Ð¾Ð±
ĠÐ´Ð°ÑĢ Ð¾Ð¼
ĠÐ·Ð¸Ð¼ Ñĥ
ĠÐºÑĢÐµÑģÑĤ Ð¾Ð¼
ÐŁÑĥÑģÑĤ ÑĭÐ½
ĠÐ²ÑģÐ¿ Ð¾Ð¼Ð¸Ð½
ÐĿÐ°Ñģ Ð»ÐµÐ´
ĠÐ¿ÑĢÐµÐºÑĢÐ°Ñģ Ð½Ð¾Ð¹
ĠÐ³Ð»Ð°Ð² Ñĭ
ĠÐ¾ÑģÑĤÐ°Ð² Ð¸Ð»
ĠÐ¶Ð´ Ð°ÑĤÑĮ
ĠÐ¶Ð´ ÑĳÑĤ
ĠÐ¼ÑĭÑģÐ» Ð¸ÑĤ
ÑģÑĤÐ²Ñĥ ÑİÑĤ
ĠÐ¿ÑĢÐ¾Ð¿ Ð°ÑģÑĤÐ¸
ÐĳÐ»Ð°Ð³ Ð¾Ð´
ĠÐ½Ð¸Ð· Ð²ÐµÑĢÐ³
ĠÑĢÑĥÑĩ ÐµÐ¹
ĠÑĢÑĥÑĩ ÑĮÐ¸
ĠÐ¿ÑĢÐµÐ² ÑĭÑĪÐµ
ÐĴÐ¿ ÐµÑĢÐ²ÑĭÐµ
ĠÐºÑĢÐ¸Ñĩ Ð°ÑĤ
ĠÐ·Ð»Ð¾Ð± Ð¾Ð¹
ÐŁÐ¾Ð³ Ð»ÑıÐ´
ĠÑģÑĤÑĢÐ°Ð´ Ð°Ð½ÑĮÐµ
ĠÐ±Ð»ÐµÐ´ Ð½ÑĭÐ¹
ĠÐ´ÑĢÐµÐ² ÐµÑģ
ĠÐ²ÑģÑĤÑĢÐµÑĩ Ð¸
ĠÑģÑĤÐµÐ½ Ðµ
ĠÑģÑĤÐµÐ½ Ð¾Ð¹
ĠÐ¾ÑĤÐ¿ ÑĢÐ°Ð²
ĠÑģÐ»Ð°Ð± ÑĭÐ¹
ÑĩÐ°ÑĤ ÑģÑı
ĠÐ¿Ð¾Ð±ÐµÐ´ Ñĭ
ÐĶÑĥÑĪ Ð¾Ð¹
ÐķÐ´ Ð¸Ð½
ÐĽÑİÐ´ ÑģÐºÐ¾Ð³Ð¾
ĠÐ¿ÑĢÐ¾Ð¸Ð· Ð½ÑĳÑģ
ĠÐ´Ð¾Ð¶Ð´ ÑĮ
ĠÑĥÐ² Ð°Ð¶
ĠÑıÑģ Ð½Ð¾
ĠÐ»Ñĥ Ð½Ðµ
ĠÐ¾ÑĤÐº Ð°Ð·
ĠÐ²Ð°Ð» Ð¸ÑĤ
ĠÐ°Ð» Ð¼Ð°Ð·
ĠÐ¿ÑĭÐ» ÑĮ
ĠÑĢÐµÐ² Ð½Ð¸Ð²
ÐŁÐ¾ÑģÐ»ÐµÐ´ Ð½Ð¸Ð¹
ĠÑĥÐ´Ð°ÑĢ Ð¾Ð¼
ĠÑĪÐ°Ð¿ ÐºÐ¸
ĠÑĥÐ½Ñĭ Ð»Ð¾
ĠÑģÐ¾Ð»Ð½ ÑĨÐµÐ¼
ĠÐ¼ÐµÑĢÑĤÐ² ÐµÑĨ
ĠÐ¿ÑĢÐ¸ÑĢ Ð¾Ð´Ð°
ĠÑģÐ¼Ð¾ÑĤÑĢ ÐµÐ»
ĠÐ´ÑĭÑĪ Ð°
ĠÐ¼ÑĥÐ´ÑĢ Ð¾ÑģÑĤÑĮ
Ð¸Ð½ÑģÑĤÐ² ÐµÐ½Ð½ÑĭÑħ
ĠÐ½ÐµÑģÑĩÐ°ÑģÑĤ Ð½ÑĭÐ¹
ĠÐºÑĥÑģÑĤ Ñĭ
ĠÐºÑĥÑģÑĤ Ð°Ñħ
ĠÐ¶ÐµÐ½Ñī Ð¸Ð½Ð°
ÐŁÐ¾Ð´Ð¾Ð± Ð½ÑĭÐ¹
ÐµÐ·Ð¶ Ð°ÐµÑĤ
ĠÐ¿Ð¾Ð¼Ð¾Ñī ÑĮ
ĠÑĤÐµÑĢÐ¿ ÐµÑĤÑĮ
ĠÐ±Ð¾Ñİ ÑģÑĮ
ĠÐ¸Ð·ÑĥÐ¼ ÑĢÑĥÐ´
ĠÐºÑĢÐ¾Ð²Ð°Ð² ÑĭÐ¹
ĠÐ¡Ñĭ Ð½Ñĥ
ĠÑģÐ¾ÑģÑĤ ÑĢÐ°Ð´
ĠÐ¼Ð¸Ð½ÑĥÑĤ Ñĥ
ĠÑģÐ¼Ð¸ÑĢ ÐµÐ½Ð½Ð¾Ð¹
ĠÑģÑĤÑĭÐ´ Ð½Ð¾
ÐŁÑĢÐ¸ÑĢ Ð¾Ð´Ñĭ
ĠÐ²Ð¾ÑģÑĤÐ¾ÑĢÐ³ Ð¾Ð¼
ÐµÑĢÑħ Ñĥ
ĠÐºÐ»Ð°Ð´ Ð±
ÐŁÑĢÐ¸Ð± Ð»Ð¸Ð·
ÐĴÐ·Ð´ Ð¾Ñħ
Ð¡ÐºÐ°Ð· Ð°Ð»Ð¸
ÐľÐµÑĩ ÑĤ
ĠÐĵÐµÐµÐ½ Ð½
ÐŁÑĢÐ¾Ñī Ð°Ð¹
ĠÐ¾ÑģÐ² ÐµÑī
ÐµÐ½Ð¾Ðº Ð¾Ñģ
ÐĹÐ´ ÑĢÐ°Ð²
ĠÐ¼Ð¾Ð»Ð¸ÑĤ Ð²
ĠÑĢÐ°ÑģÐº Ð°Ð»
ĠÐ»Ð°ÑģÐºÐ¾Ð² Ð¾
ĠÐ¼Ð³Ð½Ð¾Ð² ÐµÐ½ÑĮÐµ
Ð½Ð°ÑĤ Ð¾ÑĢ
ĠÐ³ÑĥÐ»Ñı ÐµÑĤ
ĠÐ»ÐµÐ´ ÑıÐ½Ð¾Ð¹
ĠÐ¥ÐµÑĢÑĥÐ²Ð¸Ð¼ Ð¾Ð²
Ð¡Ð²Ð¾Ð±Ð¾Ð´ Ð½Ð¾
ĠÐĺÐ³Ð¾ÑĢ ÑĮ
ĠÐ·Ð°ÐºÑĢ Ð¸ÑĩÐ°Ð»
ĠÐ³ÑĥÐ±ÐµÑĢ Ð½Ð¸Ð¸
ĠÐ¡Ð¸Ð» Ñĭ
ĠÐ±ÑĥÐ» Ð°ÑĤ
ÐĴÐ¾Ð·Ð´ ÑĥÑĪ
ĠÐ³ÑĢÑıÐ´ÑĥÑī ÐµÐ¼
ĠÐ²ÑĮÑİ Ð³Ð°
ÐĴÑģÑĤ Ð°ÐµÑĤ
ĠÐ³Ð°ÑĢÐ¼ Ð¾Ð½
ĠÐ¿ÑĢÐµÐ³ ÑĢÐ°Ð´
ĠÐ¾ÑĤÑĤ ÑĥÐ´Ð°
ĠÐ¾Ð´Ð¸Ð½Ð¾Ñĩ ÐºÑĥ
ĠÐ¿ÑĢÐ¸ÑģÐ» Ð°Ð»
ĠÑģÑĤÐ°ÑĢÐ¾ÑģÑĤ Ð°
ĠÐĽÑİÐ´Ð¼Ð¸Ð» Ñĭ
ĠÑģÑĤÐ°Ð´ Ð¾
ĠÑģÐ¸ÑĢ Ð¾ÑĤ
ĠÐ¾ÑĤÐ¾ ÑĪ
Ð£Ð³ÑĢ ÑİÐ¼
ĠÐ½ÐµÐ´Ð¾ÑģÑĤ Ð¾Ð¹
ÐĶÑĢÑĥÐ· ÐµÐ¹
ÐĿÐ°Ð· Ð½Ð°Ñĩ
ĠÐ¿ÑĢÐµÐ´ÑģÑĤ Ð¾
ĠÐ¾ÑĤÑĩÐ°ÑıÐ½ ÑĮÐµ
ĠÐºÑĢÐ¾Ð¼ Ðµ
Ð¡ÑĤÑĥÐ¿ Ð°Ð¹
ĠÐľÑĥÐ· Ð°
ĠÐ¿Ð¾Ð¶Ð°Ð» ÑĥÐ¹
ĠÐ²ÑģÐºÑĢ Ð¸ÑĩÐ°Ð»
ĠÐ´Ð¾Ð»ÑĮ ÑĪÐµ
ÐŁÐ¸ÑģÑĮ Ð¼Ð¾
Ð¡ÐºÐ°Ð¶ Ð¸ÑĤÐµ
ĠÐ±Ð°Ð· Ð°ÑĢ
ĠÐłÑĥÑģÐ» Ð°Ð½Ð°
ĠÐłÐ°ÑĦÐ° Ð¸Ð»
ĠÐ²Ð¿ÑĢÑıÐ¼ ÑĮ
ĠÑģÑĥÐ³ ÑĢÐ¾Ð±
ÐĴÐ¾Ð»ÑĮ Ð³Ð¾ÑĤÐ½Ð¾
ĠÐ²Ð²ÐµÑĩ ÐµÑĢÑĥ
ÐļÐĿÐĺ ÐĵÐĲ
ĠÑħÐ»Ñı Ð±
ĠÐĲÑĢÑħÐ¸Ð² ÑĢÐ°Ð³
) :
) ;
l e
Ð Ļ
Ð¾ ÑĥÐ¼
Ð¾ ÑıÑĤÑĮ
ÑĤ Ð°Ð½
Ð¸ Ð°Ð½
ÑĢ ÑĮ
ÑĢ ÐµÐ¹
ÑĢ Ð°Ð»Ð¸
ÑĢ ÑĥÑģ
ÑĢ Ð¾ÑģÐ»Ð°Ð²
Ð½ ÑĳÑĤÑģÑı
Ð» ÑıÑĤÑĮÑģÑı
Ñĥ ÐµÐ¼
Ñĥ ÑĢÐ°
Ñĥ ÑİÑĤÑģÑı
ÑĮ ÐµÑĪÑĮ
Ñı Ð½Ñĥ
Ñı Ð»Ð¸ÑģÑĮ
ĠÑģ Ð½Ñĥ
ĠÑģ Ð°ÑĢÐ°
ĠÑģ Ð¾Ð¼Ðº
ĠÑģ ÑĥÑĤÐºÐ¸
ĠÑģ ÐµÐ½Ð¾ÐºÐ¾Ñģ
ĠÐ¿ ÐµÐ½ÑĮÐµÐ¼
ĠÐ² ÐµÑģÑĤ
ĠÐ² ÐµÐ·
ĠÐ² ÑĭÐ¹
ĠÐ² Ð²ÐµÑĢ
ĠÐ² Ð¾ÑģÐº
ĠÐ² Ð¾Ð»ÑĮÐ½Ð¾
ĠÐ² Ð»ÐµÑĩ
Ð² Ð¸ÑģÑĤ
Ð´ Ð¾Ð²
Ð´ ÐµÐ¹
Ð´ ÑĥÐ¼
Ñĩ ÐµÐ¹
Ñĩ ÑĥÑĤÑĮ
Ñĩ ÑĳÑĤ
ÑģÑĤ Ð°Ð½
ÑĪ Ð¸Ð½
ÐµÐ½ ÑĢÐ°Ð²
Ñİ Ð¶
Ñİ ÑĩÐ¸
ĠÑĤ ÑıÐ½
ÐµÑĤ ÐµÐ½
ÐµÑĤ Ð¾Ð¹
ÐµÑĤ Ð¸ÑĤ
Ð°Ð» ÑĩÐ¸Ð²
Ð¾Ð» Ð°Ð¼
ĠÐ´ ÐµÑģ
ĠÐ´ Ð°ÐµÑĤ
ĠÐ´ Ð½ÐµÐ²
ĠÐ´ Ð¾Ð½Ð¾Ñģ
ĠÐ¸ Ð½ÑĭÑħ
ĠÐ¸ Ð´Ðµ
ĠÐ¸ Ð½Ð¾Ðµ
ĠÐ¸ Ð´Ð¸
Ð¾Ð² Ð¾Ð½
Ð¾Ð² Ð°Ð»Ð°
Ð¾Ð² Ð¸Ñī
ĠÐ± Ð¾Ñģ
ĠÐ± Ð¸Ñĩ
ĠÐ¼ Ð°Ñģ
ĠÐ¼ Ð¾Ðº
ĠÐ¼ ÑĥÑĢÐ°Ð²
ÐµÑĢ Ñĭ
ÐµÑĢ ÐµÐ¼
ĠÐº Ð¾Ð³
ĠÐº Ð¾ÑĤ
ĠÐº Ð¾Ð¶
ĠÐº Ð¾Ñĩ
ĠÐº ÑĥÐ·
ĠÐº ÑĥÐ»
ĠÐº Ð¾ÑģÑĤÑĮ
Ð¾ÑĢ Ð½ÑĭÐ¹
Ð¾ÑĢ Ð¾Ñĩ
ÐµÐ» Ð¸Ð¹
Ð¸ÑĤ ÑĭÑħ
Ð¾Ð´ ÐµÐ¹
Ð¾Ð´ Ð¸ÑĤÑĮ
Ð¸Ð» Ñĥ
ÐĿ ÐµÐ·
ÐĿ Ð°Ð±
ÐĿ ÑĭÐ½ÑĩÐµ
ĠÑĢ ÐµÑĤ
ĠÑĢ ÑĥÑħ
ĠÐ³ Ð°Ð·
ĠÐ³ ÑĥÑĢ
ĠÐ³ Ð¾Ð´Ñĥ
ĠÐ¿ÑĢ Ð¸Ð¹
ÐŁ ÑĥÐ³
ÐŁ Ð¸ÑĢ
ÐŁ Ð°ÑģÑĤ
ÐŁ ÑĭÐ»Ð°
ÐŁ Ð¾Ð¹Ð´ÐµÐ¼
ÐĴ ÑĢ
ÐĴ Ñĩ
ÐĴ Ð¸ÑĪÑĮ
ÐĴ Ð»Ð°ÑģÑĤ
Ð°Ðº Ðµ
Ð°Ðº Ð¾Ð½
Ð¡ ÐµÐ»
Ð¡ ÐµÑģÑĤ
Ð¡ Ð°ÑĪÐµ
Ð¿ Ð°ÑĤ
ÑĨ Ð°ÑĤÑĭÐ¹
Ð³ Ð°Ð»
ĠÐ» Ð¸Ð»
ĠÐ» Ð±Ñĥ
Ð°Ð² ÑĪÐ¸Ðµ
Ð°Ð² ÐºÐ°Ð·
Ð°Ñģ Ð¿
ÑĤÐ¾ ÑĦ
ÐµÐ¹ ÑĤÐµ
ĠÐ½Ðµ ÑģÑĤ
ĠÑĩ ÑĢ
ĠÑĩ ÐµÐ»
ĠÑĩ Ð°Ð´
ĠÑĩ ÐµÐ¿
ĠÑĩ ÐµÐ»Ð¾
ĠÑĩ ÐµÑĤÐ°
ĠÑĩ ÑĮÑĳ
ĠÑĩ ÑĥÐ³ÑĥÐ½
ÐµÑģ Ð¸Ð»
Ðŀ Ð¶
Ðļ Ð¾Ð¿
Ðļ Ð»Ð¸Ð¼
ĠÑģÑĤ Ð¾ÐºÑĢÐ°ÑĤ
ĠÐ½Ð° ÑĥÑĩ
ĠÐ½Ð° ÑıÐ²
Ð¢ Ð¾Ð¿
Ð¢ Ð¾ÑĢÐ¶
Ð¸Ð² Ñĭ
ĠÐ¶ Ð°Ð¶
ĠÐ¶ Ð¸Ð´
ĠÐ¶ Ð¸Ð»ÑĮ
ÐµÐ² ÑĭÐµ
Ð¸Ð¼ ÑĥÑİ
ĠÐµ Ð·
ÐĶ ÑĭÑħ
ÐĶ ÑĥÑĢ
ĠÑĥ ÑĢÐ¾Ð½
ĠÑĥ ÑĢÐ¾Ð¶
Ð¾Ð¶ Ð°Ð¹
Ð¾Ñĩ Ð¸Ð»Ð°
ÐµÐ³ ÐºÐ°
ÐµÐ³ ÑĢÐ°Ð´
ÐµÐ½ÑĮ ÑĪ
ÐµÑĩ Ð°ÑģÐ½Ð¾
ÑĥÐ³ Ð¾Ð¹
ĠÑģÐ² ÐµÑĩ
ĠÐ¾ÑĤ Ð´Ð°
ĠÐ¾ÑĤ ÑĬ
ĠÐ¾ÑĤ ÑıÐ³Ñĩ
ĠÐ±Ñĭ Ð²Ð°Ð»
ÐŁÑĢ ÑıÐ¼
ÐŁÑĢ Ð¸ÐµÑħ
Ð§ ÑĥÐ¶
Ð§ ÐµÐ»Ð¾Ð²ÐµÐº
Ð§ Ð°ÑģÑĤÑĮ
ÑĥÑĪ ÐµÐ²
ÑĥÑĪ Ð¸ÑĤÑĮ
ÑĥÑĪ Ð°Ð¹
ÐµÐº Ð°Ð»
ÐµÐº Ð»Ð°
ĠÑħ Ð°
Ð»Ñı ÑİÑĤÑģÑı
Ðľ Ð°Ð½
Ðĳ Ð°Ñİ
Ð¸ÑĢ Ð°ÐµÑĤÑģÑı
ÐĹ Ð°Ð»
ÐĹ Ð½Ð°Ð¹
ÐĿÐµ Ð¾Ð±
Ð£ Ð¼ÐµÑĢ
ĠÐ²Ñģ Ð°Ð´
ĠÐ²Ñģ ÐµÐ¼Ñĥ
ÐĲ Ð¯
ÐµÐ¿ ÐµÐ½
ĠÐ¾Ð± Ð¼
ĠÐ¾Ð± ÐµÑĢ
ĠÐ¾Ð± Ð½Ð¸Ð¼
Ð¾Ð¿ Ð°Ñģ
Ð¸Ð¹ ÑģÐºÐ¸Ð¹
ÑģÑĤÐ² ÐµÐ½Ð½ÑĭÐ¹
Ðĵ ÑĥÐ±
Ðĵ ÐµÐµÐ½
ĠÐ³ÑĢ Ð°Ð±
ĠÐ¿Ð¾Ð´ ÐºÑĢ
ĠÐ¿Ð¾Ð´ Ð½ÑıÑĤ
ĠÐ¿Ð¾ ÑĨÐµÐ»
ĠÐ²Ñĭ Ðº
ĠÐ²Ñĭ ÑģÐ»ÑĥÑĪ
ĠÐ¡ Ð¾Ð·Ð´
ĠÐ¸Ð· Ð»ÑĥÑĩ
ÑĮÑı Ñĩ
Ð°Ñħ Ð°
ĠÐĿ Ð°ÑĪ
ĠÑģÐº ÑĢ
ĠÑģÐº Ð¸ÑĤ
ĠÑģÐº Ð°Ðº
ĠÑģÐº Ð»Ð°Ð´
ĠÑģÐº ÑĢÑĭÑĤ
ĠÑģÐº ÑĢÐ¸Ð¿
Ð¸ÑĪ ÐµÐº
ĠÑĢÐ°Ð· Ð°
ĠÑĢÐ°Ð· Ð»ÑĥÑĩ
ĠÐ¿Ð¾Ð» Ð¾ÑĤ
Ð½Ñı Ð¼Ð¸
ĠÑĤÑĢ Ð¾Ð³
ĠÐĴ ÐµÑĢ
ĠÐĴ Ð¸Ð´
ĠÐĴ ÐµÐ»Ð¸
Ð¸Ñĩ Ð°
ĠÐ¢ ÑĢ
ĠÐ¢ ÑĥÐ»Ð°
ĠÐ¢ ÑĢÑĥÐ±
ÐĽ Ð¾ÑĪÐ°Ð´
ÐĽ ÐµÐ±ÐµÐ´ÑĮ
ĠÐ³Ð¾ÑĢ Ð¾Ñİ
ĠÑģÐ¼ ÐµÑİ
ĠÑģÐ¼ ÐµÐµÑĤ
ĠÑģÐ¿ Ð¸Ð½Ñĥ
ĠÐŁ Ð¾Ð¼
ĠÐŁ Ð¾Ñģ
ĠÐŁ ÑĢÐ°Ñī
ĠÐŁ Ð¸ÑĤÐµÑĢ
ÐµÑħ Ð¾Ð´
ĠÐ²Ð· Ð¼
ĠÐ²Ð· Ð²Ð¾Ð´
ĠÐĲ ÑĢ
ĠÐ¿ÑĢÐ¸ ÑģÑı
ĠÐ¿ÑĢÐ¸ Ð¶
Ð°Ð»ÑĮ Ð·
ĠÐŀ ÑĢ
Ð¾ÑĪ ÐµÐ½
Ð¾ÑĪ Ð»Ð¾
Ð½Ð¸Ðº Ð°Ð¼Ð¸
Ð¸ÑģÑĤ ÑĥÐ¿
Ð¡ÑĤ Ð¾Ð»
ĠÐ¿Ð¾Ðº Ð¾Ð»
ĠÐ¿Ð¾Ðº Ð¸Ð½ÑĥÐ»
ĠÑģÐ²Ð¾ ÐµÑİ
ĠÐľ Ð¾Ð»
ĠÐ½Ð¸ Ð³Ð´Ðµ
Ð¢Ð°Ðº ÑĥÑİ
ÑĥÑī Ð¸Ð¼
ĠÐ´Ð¾Ð» Ð¸Ð½Ðµ
ĠÑĥÐ¶ Ð¸Ð½
ĠÐ²Ð¸Ð´ Ðµ
ĠÐ¿ÑĢÐµÐ´ ÑģÐºÐ°Ð·
ĠÐ²ÐµÑĢ ÐµÐ½
ĠÐ²ÐµÑĢ Ð½Ð¾Ð¹
Ð¸Ð½Ñĥ Ð»Ð°ÑģÑĮ
ĠÐ²Ð¾Ð» ÐµÑİ
Ð¥ Ð²Ð°Ð»
ĠÐ´ÑĢÑĥÐ³ Ð¾Ð³Ð¾
ĠÑĢÐ¾Ð´ Ð¸ÑĤ
ĠÑĢÐ¾Ð´ Ð¸Ð½Ñĥ
ĠÑĥÐ¼ ÑĢ
ĠÑģÐ²ÐµÑĤ Ð¾Ð¼
ĠÐ¿Ð¾Ð¼ Ð¾Ð»
ĠÐ¾Ð¿ ÑĢÐ°Ð²Ð´
ĠÐ·Ð² Ð°ÑĤÑĮ
ĠÐ¸Ð¼ ÐµÐ½Ð¸
Ðĸ ÐµÑģÑĤ
Ðĸ Ð°Ð»ÑĮ
Ð»ÐµÐ½ Ð½ÑĥÑİ
ĠÐ¿Ð¾ÑĤ ÑĥÐ¿
ĠÐ¿Ð¾ÑĤ ÑĢÐµÐ±
ĠÐ²Ð´ Ð²Ð¾
ĠÐ²Ð´ Ð²Ð¾Ð¹Ð½Ðµ
ĠÐ¿Ð¾Ð² ÐµÑģÑĤÑĮ
ĠÐ¿Ð¾Ð² ÐµÑĢÑħ
ĠÐ¿ÑĢÐ°Ð² Ð¾ÑģÐ»Ð°Ð²
ĠÐ¿ÑĢÐ°Ð² Ð¾ÑģÑĥÐ´
ÑıÐ½ ÑĮÐµ
ĠÐ·Ð½ Ð°ÑĤ
ÐµÑģÑĤÐ² ÐµÐ½Ð½ÑĭÐ¹
ÐŀÐ± ÑĭÑĩ
ĠÐ»ÐµÑĤ Ð°
Ð¡Ð» Ð¾Ð²
ĠÐ±Ð»Ð°Ð³ Ð°
ĠÐ¶Ð¸Ð² ÑĥÑĤ
ĠÐ¶Ð¸Ð² ÐµÑĤÑģÑı
ĠÐ¾Ñģ ÑĭÐ¿
ĠÐ¿Ð¾ÑģÐ» Ð°Ð»
ĠÐ·Ð°Ð± ÑĭÑĤ
ĠÐ±Ð¾Ð»ÑĮ Ð½Ð¾
ÐŀÐ´ Ð½Ð¾Ð¹
ĠÐ²Ð¿ Ð°Ð»
ÑĥÐ» ÐºÐ¸
ĠÐ¼Ð¸Ð» Ð°Ñı
ĠÐ¼Ð¸Ð» ÑĭÑħ
ĠÐºÐ¾Ð» Ð¸
ĠÐºÐ¾Ð» ÐµÐ½Ð¸
ĠÐºÑĢÐ°Ñģ Ð½
ĠÐºÑĢÐ°Ñģ Ñĭ
ĠÐ¿Ð¾Ð³ ÑĢÐµÐ±
ÐŁÐ¾Ðº Ð¸Ð½ÑĥÐ²
ÐŁÐ¾Ðº Ð°Ð¼ÐµÑģÑĤ
Ð»Ðµ Ñİ
ÐµÑĢÐµÐ´ ÐºÐ¾
ÐĿÐ°Ð´ ÐµÐ¶
ĠÐ¿Ð¾Ñģ Ð²ÑıÑī
ÑĭÐ± Ð»ÐµÐ¼
ĠÐ´ÑĥÐ¼ Ð°Ñİ
ĠÐ½ÐµÐ´ Ð°ÑĢÐ¾Ð¼
Ð¡Ð¼ ÑĥÑĤ
ĠÐ·Ð°Ð¿ ÐµÑĢ
ĠÐ±Ð°ÑĢ Ð°Ð±
ĠÑĥÐ³ Ð¾Ð´
ĠÐ¿ÐµÑĩ Ð°ÑĤÑĮ
ĠÐ´ÐµÐ² ÑıÑĤ
ĠÐ´ÐµÐ² Ð¸ÑĨÑĭ
ĠÐ´ÐµÐ² ÑĩÐ¾Ð½
Ð»ÐµÑĤ Ð²Ð¾ÑĢ
ĠÐ½Ð°Ð² ÐµÑĢÐ½Ð¾
Ð²Ñĭ ÑĢ
ĠÑĥÐ¿ Ð°Ð´
ĠÐ·Ð½Ð° ÐµÐ¼
ĠÐ²ÐµÑĤ ÑĢÐ°
ĠÐ²ÐµÑĤ ÑĢÑĭ
ĠÐ»ÑĥÑĩ ÑĪÐ¸Ð¹
ĠÑĩÐµÑĢ Ð²
ĠÑĩÐµÑĢ ÑĳÐ´
ÑģÑĤÑĥÐ¿ Ð°ÐµÑĤ
ĠÐ²ÐµÑģ ÐµÐ»ÑĮÐµ
ĠÐ¿Ð¾Ð± Ð¾
ĠÐ¿Ð¾Ñĩ ÑĳÑĤ
ÐµÑı Ð»Ð¸
ĠÐ½ÐµÐ¿ ÑĢÐ°Ð²
ĠÐ½ÐµÐ¿ Ð¾Ð½ÑıÑĤ
ĠÑģÐ¾Ð½ Ð¼Ñĭ
ĠÑģÑĭ Ð½Ð¾Ð¼
ĠÐ¿Ð°ÑĢ Ð½Ð¸
ĠÐºÐ¾ÑĤÐ¾ÑĢ Ð¾Ð³Ð¾
ĠÐºÐ¾ÑĤÐ¾ÑĢ ÑĭÐµ
Ð¾Ð´Ð¸ÑĤ ÐµÐ»ÐµÐ¹
ĠÐºÐ°ÑĢ Ð°
ĠÐºÐ°ÑĢ Ð°Ð²
ĠÐ´ÐµÑĢÐµÐ² ÐµÐ½
ĠÐ²ÐµÐ´ Ð°Ð»
ĠÐ²ÐµÐ´ Ð°ÐµÑĤ
ĠÑĤÐ¾Ð¼ Ð¸Ð¼
ĠÑĥÐ± Ð¸Ð¹
ĠÐ¶ÐµÐ» ÑĤ
ĠÐ¿ÐµÑĢÐ² ÑĭÑħ
ĠÐ»ÐµÐ³ ÐºÐ¾Ð¹
ĠÐ»ÐµÐ³ Ð¸Ð¾Ð½
ĠÐ³ÑĢÐ¾Ð· Ð½Ð¾
ĠÐ³ÑĢÐ¾Ð· Ð½Ð¾Ð¹
ĠÑĪÑĥÐ¼ Ð¾Ð¼
ĠÑĪÑĥÐ¼ Ð½ÑĭÐ¹
ĠÑģÑĤÑĢÐ°ÑĪ Ð½Ð¾Ð¹
ĠÑģÑĤÑĢÐ°ÑĪ Ð°ÑģÑĮ
ÑĢÐµÐ¼ ÐµÐ½Ð½Ð¾
ĠÑī Ð¸ÑĤÑĭ
ÑĢÐµÐ½ Ð¾
ÐĴÐ¾ Ð¾ÑĢÑĥÐ¶
ĠÑģÐµÐ¼ ÑĮÐ¸
ĠÐºÐ°Ð¶Ð´ Ð¾Ð¹
ĠÐ²ÑģÑı ÐºÐ¾Ð¹
ĠÑģÐ¾Ð» Ð¾Ð²ÐµÐ¹
ĠÑģÑĤÐ°Ð½ ÑĥÑĤ
ÐŁÐ¾ÑĤ Ð¾Ð¼Ñĥ
ĠÐºÐ» ÐµÐ¹
ĠÐ¡Ð°ÑĤ Ð°Ð½Ð¾Ð¹
ĠÐ¾ÑĢ ÑĥÐ´
Ð¡ÑĤÐ°ÑĢ ÑĥÑħÐ°
ĠÐ±Ð¾ÑĢ Ð·
ĠÐ±Ð¾ÑĢ Ð¾Ð´Ð°
ĠÐ·Ð°ÑĢ Ðµ
ÐĳÐµÑģ Ñĩ
ÐĳÐµÑģ ÑģÑĤ
Ð°ÑİÑī ÐµÐ¹
Ð°ÑİÑī Ð¸Ðµ
ÑİÑī Ð¸Ðµ
ĠÑģÐ»ÑĭÑĪ Ð°Ð»
ĠÐ¸Ð·Ð± ÑĢÐ°Ð»
ÑĢÐ¾Ð² Ð¾Ð¶Ð´
ĠÐ³ÑĢÐ¾Ð¼ Ð°Ð´
ĠÐ±ÐµÑĢÐµÐ³ Ð¾Ð¼
ĠÐ½ÐµÐ¶ Ð½ÑĭÑħ
ĠÐ¾ÑĤÐ²ÐµÑĤ Ð¸Ð»
ĠÑħÐ¾ÑĢ Ð¾Ð¼
ĠÐ²ÑĢÐ°Ð³ Ñĥ
ĠÐ´ÑĢÑĥÐ¶ Ð½Ð¾
ĠÑıÑĢ ÑĩÐµ
ĠÐĶÑĥÑħ Ð°Ð¼
ĠÐ·Ð°Ð´ ÐµÑĢÐ¶
ĠÐ¿ÑĢÐ¾Ñģ Ð¸Ð»
ĠÐ¿ÑĢÐ¾Ñģ Ð²ÐµÑĤ
ÐŁÐ¾Ð² ÐµÐ´
ÐŁÐ¾Ð² ÑģÑİÐ´Ñĥ
ĠÑģÑĤÑĢÐ°Ñħ Ðµ
Ð¾Ñı Ñģ
ĠÐ¤ Ð¸Ð½
ĠÐ¤ Ð¸Ð»Ð¸Ð¿Ð¿
Ð°ÐµÐ¼ ÑĭÐ¹
ĠÐ¼Ð¾Ð»Ð² Ð¸ÑĤ
ĠÑĩÐ¸ÑģÑĤ Ð¾Ð¼
ĠÑĪÐ°Ð³ Ð¾Ð²
ĠÐ³Ð¾ÑĤÐ¾Ð² Ñĭ
ĠÐ±Ð¾Ð³Ð°ÑĤ ÑĭÑĢÑı
ĠÑģÐ¾Ð·Ð´ Ð°Ð½
ĠÑĤÐ¾Ð»Ð¿ Ðµ
ÐŀÑģ Ð²Ð¾Ð±Ð¾Ð´
ĠÐ¿ÑĢÐ°Ð·Ð´ Ð½Ð¸Ñĩ
ĠÐ¾ÑĤÐºÑĢ ÑĭÐ²
ĠÐ¿ÑĢÐ¾Ñĩ Ð¸ÑĤ
ĠÐ²ÐµÐ»Ð¸ ÐºÐ°Ñı
ÐŁÐ» Ð¾Ð´
ÐŁÐ» Ð¾Ð´Ñĭ
ĠÑģÐ¾Ðº Ð¾Ð»
ĠÐ¿ÑĢÐ¾ÑĪ Ñĥ
ĠÐ¿ÑĢÐ¾ÑĪ Ð»Ð¸
ĠÐ¾ÑģÑĤÑĢ Ð¾Ð³
ÐĹÐ°Ð± ÑĭÐ»
ĠÐ³ÑĢÑĥÐ´ ÑĮÑİ
ÐĴÐµÑĢ Ð½ÑĥÐ»ÑģÑı
ĠÑħÐ¾Ð»Ð¾Ð´ Ð½Ð¾
ĠÑħÐ¾Ð»Ð¾Ð´ Ð½ÑĭÐ¹
ĠÐ½ÐµÐ¿ÑĢ Ð¸ÑģÑĤÑĥÐ¿
ĠÐ¼ÑĢÐ°Ñĩ Ð½ÑĭÐµ
ĠÑĥÐ²Ð¸Ð´ Ð°Ð»
ĠÑĥÐ²Ð¸Ð´ ÐµÑĤÑĮ
ĠÑĤÑĢÐ°Ð² Ð¾Ð¹
ĠÑģÐ¸Ð»ÑĮ Ð½Ð¾
ĠÐ·Ð°Ð³ Ð¾Ð²Ð¾ÑĢ
ĠÐ·Ð°Ð³ Ð»ÑĥÑĪ
ĠÐ¿ÑĢÐ¸ÑĪ Ð»Ð°
ĠÐ´ÐµÑĢÐ¶ Ð°Ð²
ĠÐºÐ¾Ð¿ ÑĮÑı
ĠÑģÐ¾ÑĤÐ²Ð¾ÑĢ Ð¸Ð»
ĠÐ½Ð¾Ð¶ Ð¾Ð¼
ĠÐ±Ð»Ð¸Ð· ÐºÐ¾
ĠÐ±Ð¾Ð¶ Ð¸Ð¹
ĠÐ¿Ð»ÐµÑĩ Ð°
ĠÐ¿Ð¾Ð±ÐµÐ´ Ñĥ
ĠÐ»ÑĥÐ³ Ñĥ
ÐĶÑĥÑĪ Ð¸
ÐĳÑĥÐ´ ÑĤÐ¾
ÐĽÑİÐ´ Ð¼Ð¸Ð»Ð°
ĠÑģÑĤÐ¾Ð½ Ñĭ
ĠÑħÐ»ÐµÐ± ÑĥÑĪÐºÐ°
ĠÐ»Ñĥ Ð½Ñĭ
ÐŁÑĢÐ¾ÑģÑĤ Ð¸ÑĤÐµ
ĠÐ·ÐµÐ¼Ð»Ñı Ð½
ĠÐ¿ÑĢÐ¾Ð¼ Ð¾Ð»Ð²Ð¸Ð»
ĠÐ½ÐµÑĩ ÑĤÐ¾
ĠÐ°Ð» ÑĤ
ĠÐ°Ð» Ñĩ
ĠÐ²ÐµÐ»Ð¸Ðº Ð¾Ðµ
ÐŁÑĢÐ¸Ð² ÐµÑĤ
ĠÐºÐ½ÑıÐ· Ñİ
ÐĿÐµÐ¼ Ð°Ð»Ð¾
ĠÑĢÐµÐ² ÐµÑĤ
ÐŀÐ³ Ð¾Ð½ÑĮ
ÑĦÐ¸ÑĢ Ð°
ĠÐ¾ÑĤÐ²ÐµÑĩ Ð°ÑĤÑĮ
ĠÐ·Ð°Ð» Ð¾Ð³
ĠÑĥÑģÐ¿ Ð¾ÐºÐ¾
ÐĹÐ°Ð¿ ÑĢÐµÑĤ
Ð£Ð± Ð¸Ð¹
ĠÑģÐ²Ð¾Ð±Ð¾Ð´ Ð½Ð¾
ÐľÐ¾ Ð¸Ñħ
ĠÐŁÐµÑĤ ÑĢ
ÐŁÐ¾Ñĩ ÑĤ
ÐŁÐ¾ÑĪ ÐµÐ»
ĠÐ¸Ð´ ÐµÑĪÑĮ
ĠÐ³Ð¾Ð»Ð¾Ð´ Ð½ÑĭÐ¹
ÐĳÐ»Ð°Ð¶ÐµÐ½ ÑģÑĤÐ²Ð¾
ĠÑĥÐ³ÑĢÑİÐ¼ Ð¾Ð¹
ÑĤÐ°Ðº Ð¸
ĠÐ´Ð¸ÑĤ ÑıÑĤ
Ð¸ÑĩÐµÑģ ÐºÐ¸Ð¹
ĠÐ¿ÑĢÐ¾Ð½ Ð·
ĠÐ±ÐµÑģÑģ Ð¸Ð»ÑĮ
ĠÐ±ÐµÑģÑģ Ð¼ÐµÑĢÑĤ
ĠÐ²ÑģÑĤ Ð°Ð½ÑĮ
ÐĴÑĢÐ°Ð³ Ð¾Ð²
ĠÐ¿Ð»Ð°Ðº Ð°Ð»Ð°
ĠÐ¿Ð»Ð¾ÑĤ Ð¸
ĠÑĢÐ¾Ð¶Ð´ ÐµÐ½
ÐĿÐ°ÑĪ ÐµÐ»
ĠÑģÐµÑģÑĤ ÑĢÐ°
ĠÑģÐµÑģÑĤ ÑĢÑĭ
ĠÐ´Ð¸Ðº Ð¾Ð¹
ĠÐºÐ¾Ð½Ñĩ Ð¸Ð»
ĠÐºÑĢÐ¾Ð²Ð°Ð² Ð¾Ð¹
ĠÐºÑĢÐ¾Ð²Ð°Ð² ÑĭÑħ
ĠÐĶÑĢÐµÐ² Ð¾
ĠÑĤÐµÑģ Ð½Ð¾
ĠÐ²ÑĭÑģÐ¾Ðº Ð¸Ñħ
ĠÐ³ÑĥÑģÑĤ Ð¾Ð¹
ĠÐ¿ÑĢÐµÑģ Ð»ÐµÐ´
ĠÑĥÐ¼Ð¸ÑĢ Ð°ÑĤÑĮ
ĠÐºÑĥÑĢ Ð³
ÐłÐ°Ð± Ð¾ÑĤÐ°
ĠÐ·Ð°ÑģÐ» ÑĥÐ¶
ĠÐ²ÑģÑİ Ð´Ñĥ
ĠÐľÐ¾ÑģÐº Ð²Ñĥ
ĠÑģÑĥÑĢÐ¾Ð² ÑĭÐ¹
ĠÐ¡Ð°Ð»ÑĤ Ð°Ð½Ð°
ĠÐ½Ð¸Ð² Ñĭ
ĠÐ´ÐµÑģÑı ÑĤ
ĠÐºÐ°Ð¿ Ð»Ð¸
Ð¸Ð²ÑĪÐ¸Ð¹ ÑģÑı
ĠÐ±ÑĭÐ² Ð°ÐµÑĤ
ĠÐ½ÐµÐ´Ð²Ð¸Ð¶ Ð½Ð¾
ĠÐ¾ÑĢÑĥÐ¶ ÑĮÐµ
ĠÑģÐ¿ÑĢÐ¾Ñģ Ð¸Ð»Ð°
Ð¥Ð¾ÑĢ Ð¾ÑĪ
ĠÐ¿Ð¾Ð¼ÐµÑīÐ¸Ðº Ñĥ
ĠÐ´Ð²Ð¸Ð¶ ÐµÐ½ÑĮÑı
ĠÐ¼Ð°Ð»ÑĮ Ñĩ
ĠÐ¼Ð°Ð»ÑĮ ÑĩÐ¸Ðº
ĠÐ¶Ð°Ð¶Ð´ Ñĥ
ÐŁÑĢÐ¸Ð´ Ð¸
ĠÐ±Ð¾Ñı ÑĢ
ÐĺÑģÐº ÑĥÑģ
ĠÐ´Ð¾Ñĩ ÐµÑĢ
ĠÑģÐ²ÑıÑī ÐµÐ½
ĠÐ´Ñĥ ÑĢÐ°Ñĩ
ĠÐ²ÐµÑĢÑħ Ð¾Ð¼
Ð¡ÐºÐ¾ÑĢ Ð¾
ĠÑĥÐ·Ð½Ð° ÐµÑĤ
ĠÐ¼Ð°ÑĪ ÐµÑĤ
ĠÑĢÐ¾Ð¼ Ð°Ð½Ð°
ÐĹÐ¾Ð² ÑĥÑĤ
ĠÐ³ÑĢÐ°Ð½ Ð¸ÑĨ
ĠÑģÑĤÐ°ÑĢÑĥÑħ Ðµ
ÐŁÑĢÐ¾Ñħ Ð»Ð°Ð´
ĠÐ·Ð°Ð²Ð¸ÑģÑĤ ÑĮ
ÐĴÐ¾ÑģÑĤ Ð¾ÑĢÐ³
ĠÐ½ÐµÑģÐº Ð¾Ð»ÑĮÐºÐ¾
ĠÑıÐ¼ ÑīÐ¸Ðº
ĠÐ¿Ð»ÑĭÐ² ÐµÑĤ
ĠÐ²ÑĢÐ°Ð¶Ð´ ÐµÐ±
ĠÐ¿Ð¸Ñī Ñĥ
ĠÐ¿ÑĢÐ¸ÐµÑħ Ð°Ð»
Ð¡Ð¾Ñģ ÐµÐ´
ĠÐ²Ð¾ÑģÑħ Ð¸Ñī
ĠÐ¿Ð»Ð¾Ñī Ð°Ð´Ð¸
ĠÑĪÐµÐ² ÐµÐ»
ĠÑĢÐ¾Ð¿ Ð¾ÑĤ
ĠÐ¡ÐµÑĢÐ³ ÐµÐ¹
ĠÐĶÐ¾Ð±ÑĢ Ð¾
ĠÐ½Ð°Ñħ Ð¼ÑĥÑĢ
ĠÐºÐ°Ð½ Ð°Ð²
Ð¢Ð¸Ñħ Ð¾Ð½ÑĮÐºÐ¾
ĠÐľÐµÐ¶ Ð´Ñĥ
ĠÑħÑĢÐµÐ± ÑĤÑĭ
ĠÐ³ÑĢÐ°Ð¶Ð´ Ð°Ð½Ð¸Ð½
ĠÐ¿ÐµÑĢÐµÐ½ ÐµÑģ
ĠÑģÐ¸Ð½Ðµ Ðµ
ĠÐºÐ² Ð°Ñģ
ÐĴÐ¼ÐµÑģÑĤ Ðµ
Ð¡Ð²Ð¸Ð´ ÐµÑĤÐµÐ»ÑĮ
ĠÑĨÐµÑĢÐº Ð²Ð¸
ĠÑĨÐµÑĢÐºÐ¾Ð² ÑĮ
ĠÐ¿ÑĢÐµÐ²Ð¾Ñģ ÑħÐ¾Ð´
ĠÑĩÐµÑĪ Ñĥ
ÐķÐ´Ð¸ Ð½ÑĭÐ¹
ĠÐļÐ°ÑĤ Ñı
ĠÐ¼Ð¸Ð¼ Ð¾ÑħÐ¾Ð´Ð¾Ð¼
ĠÐ¾Ð±Ð¾Ð»ÑĮ ÑģÑĤ
ĠÐ´Ð²ÐµÐ½ Ð°Ð´ÑĨÐ°ÑĤÑĮ
ĠÐ²Ð¾Ð¿ÑĢÐ¾ÑĪ Ð°ÐµÑĤ
ÐĹÐ°ÑģÐ» ÑĥÐ¶
ÐłÐ°Ð² Ð½Ð¸
ĠÐ½Ð¾Ð²Ð¾Ð·Ð´ Ð°Ð½Ð½ÑĭÐ¹
ĠÐ¿Ð¾ÑģÐº Ð¾Ð»ÑĮÐºÑĥ
ÐĹÐ´ÑĢÐ°Ð² ÑģÑĤÐ²ÑĥÐ¹
ĠÐ½Ð°ÑıÐ² Ñĥ
t e
Ð¾ ÑģÑı
Ðµ ÐµÐ¼
Ð° Ð½ÑĭÑħ
Ð° ÑıÑĤÑĮÑģÑı
ÑĤ ÑĥÑĢ
ÑĤ ÑĭÐ½
Ð¸ ÑģÑı
Ñģ Ñģ
ÑĢ Ð¸Ðº
Ð½ Ð°Ð¼
Ð½ Ð¾Ð¿
Ð½ Ð°Ð¼Ð¸
Ð½ Ð°Ð½Ð¸Ðµ
Ð» Ð¾Ð³
Ð» ÐµÐ»Ð°
Ð» ÐµÐ½ÑĮÑİ
Ñĥ ÐºÑĢ
Ñı Ñİ
ĠÑģ ÑĨ
ĠÑģ Ð¸Ð³
ĠÑģ Ð°Ð»Ð¾
ĠÑģ ÐµÑĢÐµÐ´
ĠÑģ Ð³Ð¾ÑĢ
ĠÐ¿ Ð°
ĠÐ¿ ÑĥÑĢ
ĠÐ¿ ÐµÐ»Ð¸
ĠÐ¿ ÐµÐ»Ð°
ĠÐ¿ ÑĥÑĪÐºÐ¸
ĠÐ¿ Ð¸ÑīÐ°
ĠÐ² ÑĬ
ĠÐ² Ð»Ð°Ð³
ĠÐ² Ð½ÐµÐ·Ð°Ð¿Ð½Ð¾
Ð² Ð°Ð¼Ð¸
Ð² ÑĢÐ¾Ð·
ĠÐ½ ÐµÐ³Ð¾Ð´
Ñĩ ÑĮ
Ñĩ ÑĥÑĤ
Ñĩ Ð¸ÑĤÑģÑı
Ñĩ ÑĤÐ¾Ð±
Ð¼ Ð°ÑĤÑĮ
Ð¼ ÐµÐ½Ð½Ð¾
Ð¼ ÑīÐ¸Ðº
ÑĪ ÑĥÑĤ
ÐµÐ½ ÐµÐ»
ÐµÐ½ Ð¸Ð²
ÐµÐ½ ÐµÐ±ÑĢ
ĠÑĤ ÑĥÐ¶
ĠÐ¾ ÑģÑĮ
ÐµÑĤ Ñĥ
Ð°Ð» ÐµÐ½Ð½ÑĭÐ¹
Ð¾Ð» ÐµÐ½
Ð¾Ð» Ð³
Ð¾Ð» ÐµÐ¹
Ð¾Ð» Ð°Ð³
ĠÐ´ Ð²Ð¾
ĠÐ´ Ð¾Ñħ
ĠÐ´ ÐµÑıÐ½
ĠÐ´ Ð²Ð¾Ðµ
Ð¾Ð² Ð¾Ñİ
ĠÐ¼ Ð¾Ñģ
ĠÐ¼ ÑĥÑĤ
ĠÐ¼ ÐµÑģÑĤÐ¸
ĠÐ¼ ÑĢÐ°Ð¼
ÐµÑĢ Ð¾Ð¼
ÐµÑĢ Ð½ÑĭÐ¹
ÐµÑĢ ÑĭÐ²
ĠÐº Ð¸Ð´
ĠÐº ÑĥÑħ
ĠÐº Ð¸ÐµÐ²
ĠÐº Ð²Ð°ÑĢ
ÐµÐ» Ð°Ð»
Ð¸ÑĤ Ñı
Ð¸ÑĤ ÑĢÐ¾
ÐĿ Ð¸Ð³
ĠÐ· ÑĭÐ±
Ðĺ Ð´Ñĥ
Ðĺ Ð³Ð¾ÑĢÑĮ
ÐµÐ¼ Ð¾Ð¹
ÐµÐ¼ ÐµÐ½ÐµÐ¼
ĠÑĢ Ð°
ĠÑĢ ÐµÐ¼
ĠÑĢ Ð¸Ð·
ĠÑĢ ÑĭÑĩ
ĠÑĢ ÑİÐ¼
Ð°ÑĤ ÑĢ
Ð°ÑĤ Ð¾Ð²
Ð°ÑĤ Ð¾ÑĢ
Ð°ÑĤ Ð°Ð¹
ĠÐ¿ÑĢ Ð¾ÑĤÑı
ĠÐ¿ÑĢ Ð¾Ð¹Ð´ÐµÑĤ
ÐŁ Ðŀ
ÐŁ ÑĭÑĤ
ÐŁ ÑĤÐ¸
ÐĴ Ð¾Ð¿
ÐĴ Ð¸Ð½Ð¾Ð²
ÐĴ Ð¸Ð¶Ñĥ
ÐĴ Ð¾ÑĢÐ¾ÑĤ
Ð· Ð¸Ð¸
Ð°Ðº Ð°Ð½
Ð¾Ð³ ÑĢÐ°Ð´
Ð½Ð¾ ÑģÑı
Ð¡ ÐµÐ±Ðµ
Ð¡ Ð¸Ð»ÑĮ
Ð¡ Ð¾ÑĪÐ»Ð¸ÑģÑĮ
Ð¿ Ð¸ÑģÑĮ
Ð¾ÑĤ Ð¾Ñİ
Ð°Ð¼ Ð°
ĠÐ» Ð¾ÑĢ
ĠÐ» ÐµÐ½ÑĤ
Ð°Ð² Ð°Ð»ÑģÑı
Ð°ÑĢ Ð¾Ð´
Ð°ÑĢ Ð¾Ð´Ð¸ÑĤÐµÐ»ÐµÐ¹
ĠÐ½Ðµ Ð¾Ð¶
Ñī ÐµÐ¹
ĠÑĩ ÑĤ
ĠÑĩ ÐµÐ»Ð°
Ð°Ð´ Ð»ÐµÐ¶
ÐµÑģ Ð½ÑĥÑİ
ÐµÑģ ÐµÐ»Ð¾
Ðŀ ÑģÑĤÑĢ
Ðŀ ÑĩÐ¸
Ð°Ð· ÐºÐ¸
Ð¸Ð½ Ð°ÑĢ
Ð¸Ð½ ÐºÐ°
Ð¸Ð½ ÑĥÑĪÐºÐ°
Ðļ Ð¾Ð²
Ðļ Ð¾Ð¼
Ðļ Ð°Ð±Ñĭ
Ðļ Ð½Ð¸Ð³Ð¸
ĠÑģÑĤ Ð°ÑĤ
ĠÑģÑĤ ÑĥÐº
ĠÑģÑĤ ÑıÐ³
ÐºÐ¸ Ð´
ĠÐ½Ð° ÑģÑĤÐ°Ð»
Ð¢ Ð²Ð¾Ñİ
Ð¾Ðº Ð¾Ñĩ
Ð¸Ð² ÑĭÐ¼
ĠÐ¶ Ð°ÑĤ
ĠÐ¶ ÐµÐ·
ĠÐ¶ Ð¸ÑĢ
ĠÐ¶ Ð¸ÑĤÐµÐ»ÑĮ
ÑĥÑĤ ÑĭÑħ
ÐµÐ² Ð¸Ð´
Ð¸Ð¼ Ð¾Ð³Ð¾
ÐĶ ÐµÐ¼
ÐĶ Ð¾Ð½
ÐĶ Ð¾Ðº
ÐĶ ÑĭÑĪ
ÐĶ Ð¾Ñħ
ÐĶ ÐµÐ»Ð¾
ÐĶ Ð°Ð¶Ðµ
ÐĶ ÐµÑģÑı
Ð»Ð¸ Ð¿
Ð»Ð¸ ÑĨ
ĠÑĥ ÑħÐ¾Ð´
ĠÑĥ ÑģÑĤÐ°Ð²
Ð¾Ð¶ Ð¸Ð»
Ð¾Ð¶ Ð½Ð¾
ÐµÐ· Ð²
ÐµÐ· Ð»Ð¸
Ð¾Ñĩ Ðµ
ÐµÐ½ÑĮ ÐºÐµ
ĠÑģÐ² Ð¸Ñī
ĠÐ¾ÑĤ ÑĢÐ°Ð·
ĠÐ¾ÑĤ ÑĢÑıÐ´
ĠÐ¾ÑĤ Ð½ÑİÐ´ÑĮ
ÐŁÑĢ Ð¾ÑģÐ»Ð°Ð²
Ð§ ÑĮÑı
ĠÑģÐ» Ð°Ð³
ĠÑħ Ð¾Ñħ
ĠÑħ Ð¾Ð´Ñĥ
Ð»Ñı Ð½
Ð»Ñı Ð¼Ð¸
Ðľ Ð¾Ðµ
Ð¾Ð»ÑĮ Ñİ
Ðĳ ÐµÐ¶Ð°Ð»Ð¸
ÐµÐ¶ Ð¸
ÐµÐ¶ ÐµÑĤ
Ð¸ÑĢ Ð°Ñİ
ÐĹ Ð°ÑĪ
ÐĹ Ð¸Ð¼Ð¾Ð¹
Ð°Ð¶ ÑĥÑĤ
Ð°Ð¶ ÑĥÑģÑĮ
Ð¸Ð´ Ð°
ÐĿÐµ Ð¸Ð·
Ð£ Ðº
Ð£ Ð½Ñĭ
Ð£ Ð³
Ð£ ÐµÐ´Ð¸Ð½
Ð£ Ð½Ð¸Ð¶
ĠÐ¾Ð± Ð¾Ð·
ĠÐ¾Ð± Ð¾Ð¶
ĠÐ¾Ð± ÐµÐ·
ĠÐ¾Ð± Ð¾Ñİ
Ð¾Ð¿ Ð°Ð´
Ðĵ Ð¾ÑģÑĤÐ¸
Ðĵ Ð»ÑĥÑħ
ÐµÐ»ÑĮ ÑģÑĤ
ÐµÑĪ ÐºÐ¸
ĠÐ³ÑĢ Ð¾Ð·Ð´
ÑĥÐ¼ ÑıÐ½
ĠÐ¿Ð¾Ð´ Ð°ÐµÑĤ
ĠÐ¿Ð¾Ð´ ÑħÐ¾Ð´Ð¸ÑĤ
ĠÐ¿Ð¾Ð´ ÑĢÑıÐ´
ĠÐ²Ñĭ Ð¼Ð¾Ð»Ð²
Ð´Ð° Ñħ
Ð³Ð¾ Ñİ
ĠÑĪ ÑĤÑĭ
ĠÑĪ Ð²ÐµÐ´
ĠÑĪ ÑĤÑĥ
ĠÐ¡ Ð°Ð´
ĠÐ¸Ð· Ð²Ð¾Ð»
ĠÐĿ Ð¸
ĠÐĿ ÐµÐ´
ĠÐĿ Ð°Ð¿
ĠÐĿ Ð¾ÑĩÑĮ
ĠÑĢÐ°Ð· ÑĢÑĭÐ²
ĠÐ¿Ð¾Ð» ÐµÐ¼
ĠÐ¿Ð¾Ð» ÐºÐ°Ð¼Ð¸
Ð¯ Ñģ
Ð¯ Ð·
Ðł Ð°Ð½
Ðł Ð¾Ð¶
Ðł ÑĥÑģÑĮ
Ð°ÑģÑĤ Ð¸ÑģÑĮ
ĠÑĤÑĢ Ð¸Ð¶Ð´Ñĭ
ĠÐĴ ÐµÐ»
ĠÐĴ Ð°Ð½
ĠÐĴ Ð´ÑĢÑĥÐ³
Ð¸Ñĩ Ð¾Ðº
ĠÐ¢ Ð¾Ð±Ð¾Ð¹
ÐĽ Ð¾Ð²
ÐĽ ÑĥÐ½Ð°
ĠÑģÐ¼ ÐµÐ»ÑĭÐ¹
ĠÑģÐ¿ Ð°Ð»
ĠÑģÐ¿ Ð¸Ð½Ð¾Ð¹
ĠÑģÐ¿ Ð»Ð¾ÑĪ
ĠÑį ÑħÐ¾
ĠÐŁ Ð°ÑĢ
ĠÐŁ Ð¾Ñĩ
ĠÐŁ Ð°ÑħÐ¾Ð¼
ÐµÑħ Ð°
ĠÐ»Ð¸ ÑĨÐµÐ¼
ĠÐ±ÐµÐ· Ð³
ÑĮÑİ ÑĪÐºÐ°
ÐĴÑģ ÐµÑģÐ¸Ð»ÑĮ
ÑĥÑģÑĤ Ð¸
ÑĥÑģÑĤ Ð¸Ð²
ĠÐ¿ÐµÑĢ ÐµÐ±
ĠÐ²Ð¾Ð· ÑĢ
ĠÐ²Ð¾Ð· Ð¾Ðº
ĠÐ²Ð¾Ð· Ð¼Ð¾Ð¶
ĠÐ¼Ð¾Ð» Ð¾ÑĤ
ĠÐ¼Ð¾Ð» Ð²Ð°
ĠÐ¾Ð´ ÐµÑĤ
ĠÐ¾Ð´ ÐµÐ¶Ð´Ðµ
ĠÐ° ÑĤ
ĠÑģÑĤÑĢ Ð°Ð¶
ĠÑģÑĤÑĢ ÑĥÑı
ÑĭÐ² Ð°Ð»Ð°
ĠÐ¿ÑĢÐ¸ Ð½Ð¸Ð¼
ĠÐ¿ÑĢÐ¸ Ð³Ð¾ÑĢ
Ð½Ð¸Ðº Ðµ
ĠÐ¼Ð¾ Ñĳ
ĠÐ±ÑĢ ÐµÐ²
ĠÐ±ÑĢ Ð°Ð»Ð°
ĠÐ±ÑĢ Ð¾ÑĪ
ĠÐĶ Ð½ÐµÐ¿
ĠÐĵ Ð»Ð°Ð²
ĠÐ¿Ð¾Ðº ÑĥÐ´Ð°
ĠÐ¿Ð¾Ðº Ð°Ð¼ÐµÑģÑĤ
ĠÑģÐ²Ð¾ ÐµÐ½ÑĢÐ°Ð²
ĠÐľ Ð°Ð·ÐµÐ¿
ÑģÑĤÑĢ ÐµÐ»
ÐŁÐ¾Ð´ Ð²
ÐŁÐ¾Ð´ Ð½ÑıÐ»ÑģÑı
ĠÐ´ÑĢ Ð¾Ð²Ð°
ĠÐ´ÑĢ ÑıÑħ
ĠÐ´ÑĢ Ð°ÐºÐ°
ĠÐ´ÑĢ ÑıÐ½ÑĮ
ĠÐļ Ð¾ÑĢ
ĠÐļ ÑĥÐ·
ĠÐļ Ð¾Ð½Ñĩ
ĠÐļ Ð°Ð²ÐºÐ°Ð·
ĠÐ½Ð°ÑĪ ÐµÐ¼
Ð²Ð° Ñĩ
ĠÑģÑĤÐ°ÑĢ ÐµÑĨ
ĠÐ¿Ð¾ÑĢ Ð¾Ð´
ĠÐ¿Ð¾ÑĢ Ð¾Ð³
ĠÐ¿Ð¾ÑĢ ÑĥÐ³
ĠÐ¿Ð¾ÑĢ Ð°Ð¶ÐµÐ½
ĠÐ¿Ð¾ÑĢ Ð¾Ð³Ð°
Ð¾Ñħ ÑĢÐ°Ð½
Ð¢Ð°Ðº Ð¾Ð³Ð¾
ĠÑĢÐ°Ñģ ÐºÐ°ÑıÐ½
ĠÐ±ÑĥÐ´ ÑĥÑĩÐ¸
ĠÐ²Ð¸Ð´ Ð°ÑĤÑĮ
ĠÐ²Ð¸Ð´ ÑıÑĤ
ĠÐ²ÐµÑĢ Ñĭ
ĠÐ²ÐµÑĢ Ð½Ð¾Ð³Ð¾
ĠÐ²ÐµÑĢ Ð½ÑĥÑĤÑĮ
ĠÐĹ Ð²
Ð¸ÑĤÐµÐ»ÑĮ Ð½Ð°Ñı
Ð¥ Ð»ÐµÐ±
Ð¥ Ð¾ÑĤÐµÐ»
ÐĺÐ· Ð²
Ð»Ð¸Ð² Ð°
ĠÐ´ÑĢÑĥÐ³ ÑĥÑİ
ĠÑĢÐ¾Ð´ Ð½ÑĥÑİ
ĠÐł Ð°Ñģ
Ð°Ñİ ÑĩÐ¸
ĠÑģÑĤÑĢÐ° ÑģÑĤÑĮÑİ
ĠÑģÐ²ÐµÑĤ Ð»ÑĭÐ¹
ĠÐ¼Ð¸ÑĢ Ð½ÑĭÐ¹
ĠÐ¼Ð¸ÑĢ Ð½ÑĭÐµ
ĠÐ½ÐµÐ¼ Ð½Ð¾Ð³Ð¾
ĠÐ½ÐµÐ¼ Ð°Ð»Ð¾
Ð¸Ñģ Ð¿
ĠÐ²Ð¾ ÐµÐ²Ð°ÑĤÑĮ
ÑĪÐµ Ñİ
ÑĳÑĤ Ðµ
ĠÐ¼Ð¾Ð³ Ð»Ð¾
ÐµÐ»Ð¾Ð² ÐºÐ¾
ĠÑģÐ»Ð¾Ð² Ð°Ñħ
Ðĸ Ð¸ÑĤÑĮ
Ð»ÐµÐ½ Ð½Ð¾
ĠÐ¿Ð¾ÑĤ Ð¾Ð¼Ñĥ
ĠÐ»ÑİÐ´ ÑĮÐ¼Ð¸
ĠÐ¿Ð¾Ð² Ð¾Ð´
ÑıÑī ÐµÐ¼
ĠÐ¿ÑĢÐ°Ð² Ñĥ
ÑıÐ½ ÑĥÑĤÑĮ
ĠÐ·Ð½ Ð°Ð½ÑĮÑı
ÐļÑĢ ÑĥÐ¶
ÐļÑĢ ÐµÐ¿
ÐļÑĢ Ð¾Ð²Ð°Ð²
ÐµÑģÑĤÐ² ÑĥÐµÑĤ
ÐŀÐ± ÑĢÑĥÑĪ
ĠÐ¼ÑĥÐ¶ Ðµ
ĠÐ¼ÑĥÐ¶ Ð¸ÑĨ
ĠÐ»ÐµÑĤ Ð½Ð¸Ð¹
Ð¡Ð» Ð¾Ð²Ð°
ĠÐ±Ð»Ð°Ð³ Ð¾Ñĩ
ĠÐ¾Ð³ Ð½Ð¸
ĠÐ¾Ð³ Ð»Ñı
ĠÐ¾Ð³ Ð½ÑĮ
ÑĬ ÑıÑĤ
ĠÐ±ÐµÑģ Ñĩ
ĠÐ¾Ñģ Ð¾Ð·
ĠÐ¼Ð¾ÑĢ ÐµÐ¹
ÑĢÐ¸ Ð°ÑĢÑħ
ĠÑĨÐ°ÑĢ Ð¸ÑĤ
ĠÐ·Ð°Ð± ÑĭÐ»Ð°
ĠÑģÐ»Ð°Ð² Ð½ÑĭÐ¹
ĠÑģÐ»Ð°Ð² Ð½Ð¾Ð³Ð¾
ĠÐ¼Ð¸Ð» Ð¾Ð³Ð¾
Ð¡Ð¿ Ð¸ÑĤ
ĠÐºÐ¾Ð» ÐµÐ±
ĠÐºÑĢÐ°Ñģ Ð½Ð¾Ðµ
ĠÐ¿Ð¾Ð³ ÑĢÑĥÐ·
ÐŁÐ¾Ðº ÑĢÑĭÑĤ
ĠÐ¿ÐµÑģ Ð½ÐµÐ¹
ÐĿÐ°Ð´ ÑĳÐ¶
ĠÑģÐ¾ ÐµÐ´Ð¸Ð½
ĠÐ¿Ð¾Ñģ Ð¼Ð¾ÑĤÑĢ
ĠÐ½ÐµÐ² ÑĢÐµÐ´
Ð°Ð½ÑĮÑı Ð¼Ð¸
ĠÐ²ÐµÑĩ Ð½ÑĭÑħ
ĠÑģÐ½ ÐµÐ´ÑĮ
ÐŃ Ð¢
ÐŃ Ð´ÐµÐ¼
ÐŃ ÑĤÑĥ
ÐµÐ½Ð½Ð¾ ÑģÑĤÑĮ
ÐµÐ½Ð½Ð¾ ÑģÑĤÐ¸
ĠÐ´ÐµÐ² Ð¸Ñĩ
ĠÐ½Ð¾Ð² Ð¾Ð³Ð¾
ĠÐ½Ð¾Ð² ÑĭÐ¼
ĠÐ·Ð°Ð¼ Ðº
ĠÐ·Ð°Ð¼ Ð¾Ðº
ĠÐ·Ð°Ð¼ ÑĭÑģÐµÐ»
ĠÑģÐ¾Ð² Ð¾ÐºÑĥÐ¿
ĠÐ½Ð°Ð² Ð¾Ð´
ĠÐ³Ð»Ð°Ð· Ð°Ð¼
ĠÐ¿Ð¾ÑģÑĤ Ð¾Ð¹
ĠÐ¿Ð¾ÑģÑĤ ÐµÐ»ÑĮ
ĠÐ¿Ð¾ÑģÑĤ ÐµÐ¿ÐµÐ½Ð½Ð¾
ĠÐºÐ¾ÑĢ Ð¾Ð²
ĠÐ½Ð°Ð¿ ÑĢÐ¾ÑĤÐ¸Ð²
ĠÑĩÐµÑĢ Ð½Ð°Ñı
ĠÐ´Ð¾Ð±ÑĢ ÑĭÑħ
ĠÐ¿Ð¾Ñĩ Ð²Ðµ
ĠÐ½ÐµÐ± Ð¾Ð»ÑĮ
ĠÑĥÐ· ÑĢÐµÐ²
ĠÑĦ Ð»
ĠÐºÐ°ÑĢ Ð»Ð°
ĠÐ²ÐµÐ´ ÑĥÑĤ
ĠÑĤÐ¾Ð¼ Ð½ÑĭÐ¹
ĠÑĤÐ¸Ñħ Ð¾Ð¹
ĠÑĤÐ¾Ð» Ðº
ĠÐ¶ÐµÐ» Ð°Ð½Ð½ÑĭÐ¹
ĠÐĵÐ¾ÑģÐ¿Ð¾Ð´ Ð¸
ĠÐ»ÐµÐ³ ÐºÐ¸Ð¹
ĠÐ£ ÑĢÐ¸Ð¸Ð»
ĠÐ³ÑĢÐ¾Ð· Ð°
ĠÐ³ÑĢÐ¾Ð· Ð¾Ð¹
ĠÐ³ÑĢÐ¾Ð· Ð¾Ñİ
ĠÑģÑĤÑĢÐ°ÑĪ ÐµÐ½
ĠÐ³Ð»ÑĥÐ± ÑĮ
ĠÐ¿Ð¾Ð½ ÑıÐ»Ð°
ĠÑĩÑĥÐ´ Ð½Ð¾
ĠÑī Ð°Ð´
ĠÑī ÐµÐ»Ð¸
ÐĴÐ¾ Ð¾Ð±ÑĢÐ°Ð¶
ĠÐ´ÐµÐ» Ð¾Ð¼
ĠÐ´ÐµÐ» Ð°Ñħ
ĠÐ±Ð¾ ÐµÐ²Ð¾Ð¹
ÐĴÐ· Ð²
ĠÐ¿Ð¾Ð· Ð°Ð´Ð¸
Ð°ÑĤÐµÐ»ÑĮ Ð½ÑĭÐ¹
ÐŁÐ¾Ð» ÑİÐ±
ĠÑĤÐ² Ð°ÑĢÐ¸
ÑĢÑĭ Ð·
ĠÐ²ÑģÑı ÐºÐ¾Ð³Ð¾
ĠÐ½Ð¸Ðº ÐµÐ¼
Ð¾Ð¼Ð½ Ð¸ÑĤÑĮ
ĠÐ²Ð°ÑĪ Ð°
ĠÐ²Ð°ÑĪ Ð¸Ð¼
ĠÐ·Ð°ÑĤ ÐµÐ¹
ĠÐ·Ð°ÑĤ Ð¾Ð¿
ĠÐ¾Ðº ÑĢÑĥÐ³
ĠÐ²ÑģÐµÐ¼ Ð¾Ð³ÑĥÑī
ÐłÐ°Ñģ Ðº
ĠÐ¾ÑĢ ÐµÑĪÐºÐ¸
ĠÐµÐ´ Ð¸Ð½
Ð¡ÑĤÐ°ÑĢ ÑĭÐ¹
Ð¡ÑĤÐ°ÑĢ ÑĥÑĪÐºÐ°
Ð½ÑĥÑĤ Ñĭ
Ð½ÑĥÑĤ ÑģÑı
ĠÐ´Ð¾ÑģÑĤ Ð¾Ð¸Ð½
ĠÐ±Ð¾ÑĢ Ð¾Ð´Ñĥ
ĠÐ·Ð°ÑĢ Ð¸
ĠÐ¼ÐµÑģÑĤ Ðµ
ÐľÐ¾Ð» ÑĩÐ¸
ĠÐ¼Ð½ Ð¸Ð»Ð¾ÑģÑĮ
ĠÐ¸Ð·Ð± Ðµ
ĠÐ¸Ð·Ð± Ð°Ð²
ĠÐ·Ð°Ñģ Ð¿Ð¾ÑĢ
ÐŁÐµÑĢ ÐµÐ¿
ĠÑħÐ¾ÑĤ Ð¸Ð¼
ÐĵÐ¾ÑĢ ÑĮ
Ð¾Ð²Ð°ÑĢ Ð¸Ð²Ð°ÑĤÑĮ
ĠÑĢÐµÐ± ÑĢÐ°
ĠÑĢÐµÐ± ÐµÐ½Ð¾Ðº
ĠÐ¾ÑĤÐ²ÐµÑĤ Ð¸Ð»Ð°
ĠÑİ Ð½Ð¾
ĠÑİ Ð½ÑĭÑħ
ĠÑİ Ð½Ð¾ÑĪ
ĠÑĢÐ°ÑģÐ¿ Ð°Ñħ
ĠÐ¿ÑĢÐ¸Ð· Ð²
ĠÐ²ÑĢÐ°Ð³ Ð¸
ĠÑģÐµÐ´ ÑĭÐµ
ĠÐ±ÐµÐ³ Ñĥ
ĠÑıÐ² Ð¸Ð»ÑģÑı
ĠÑıÐ² Ð¸Ð»Ð¸ÑģÑĮ
ĠÑģÐºÐ°Ð· ÐºÐ¸
ÑĥÑģÐº Ð°Ð»
ĠÐ´ÑĢÑĥÐ¶ Ð±Ñĭ
ĠÑģÐ»Ð°Ð´ ÐºÐ¸Ð¹
ĠÑĢÐ°Ð·Ð´ Ð°Ð»ÑģÑı
ĠÑĢÐ°Ð·Ð´ ÐµÐ»Ñı
ĠÐ²ÑĭÑĪ Ð»Ð¾
ĠÑĢÐµÑĪ Ð¸Ð»Ð¸
ĠÑĤÐ°Ð¹ Ð½Ð¾
ĠÑĤÐ°Ð¹ Ð½Ñĥ
ĠÐ¿ÑĢÐ¸Ð½ ÑıÐ²
ĠÐ¿Ð¾ÑģÐ»ÐµÐ´ Ð½Ð¸Ð¼
ĠÐ¿Ð¾ÑģÐ»ÐµÐ´ Ð½ÑıÑı
ĠÑģÐ¾Ð· Ð´Ð°
ĠÑģÐ¾Ð· Ð½Ð°Ð½ÑĮÐµ
ĠÐ¿ÐµÑĩÐ°Ð»ÑĮ Ð½Ð¾Ð¹
ĠÐ´ÑĥÑħ Ð¾Ð¼
ÐĿÐµÐ² Ð¾Ð»ÑĮ
ĠÑĤÐ¾Ñģ ÐºÐµ
ĠÐ¾Ñħ Ð¾ÑĤÐ°
ĠÑģÐµÑĢ ÑĭÐ¹
ĠÑģÐ¸Ð´ ÐµÐ»
ÑģÑĤÐ²ÐµÐ½ Ð½ÑĭÐ¼
ĠÐ·Ð¾Ð² Ñĥ
ĠÐ¿ÑĢÐ¾Ðº Ð»Ð¸Ð½
Ð½Ð¾Ñģ Ð¸ÑĤÑĮ
ĠÐ»Ð°Ñģ Ðº
ĠÐ»Ð°Ñģ ÐºÐ¸
Ð¢Ð²Ð¾ Ð¸Ñħ
Ð£Ð¼ Ð¾Ð»Ðº
ĠÐ²Ð¾ÑģÐ¿ Ð¾Ð¼Ð¸Ð½
ĠÐ±ÑĭÑģÑĤÑĢ ÐµÐ¹
ĠÐºÐ¾ Ð¸Ñħ
ÐµÑģÐº Ð¾Ð³Ð¾
ĠÐ²ÐµÐ»Ð¸ ÐºÐ¸Ð¼
ĠÐºÐ°Ð¼ Ð¾ÑĢ
ĠÐºÐ°Ð¼ Ð½Ð¸
ÐŁÐ» Ð°ÑĤ
ĠÑģÐ¾Ðº ÑĢÐ¾Ð²
ĠÐ¸Ñģ ÑĨÐµÐ»
ĠÐ¾ÑģÑĤÐ°Ð² ÑĮ
ÐļÐ¾ÑĢ Ð¼
ĠÑħÐ¾Ð´ ÑıÑĤ
ÑģÑĤÐ²Ñĥ ÐµÑĪÑĮ
ĠÑĥÐ³ÑĢ Ð¾Ð¶
ĠÑĢÑĥÑĩ ÑĮÑı
ĠÐ·Ð°Ð½ ÑıÑĤ
ĠÐ¿ÑĢÐµÐ² Ð·
Ð½Ð¸Ñĩ ÐµÐº
ĠÑĤÑĢÐ°Ð² Ðµ
ĠÐ´Ð¾Ð± Ð»ÐµÑģÑĤ
ĠÐ¼Ð³ Ð»Ð°
ĠÑĪÐµÐ» Ð¾Ð¼
ĠÐ´ÐµÑĢÐ¶ Ð¸ÑĤ
ĠÑģÐ»ÑĥÑĪ Ð°Ð»
ĠÑģÐ»ÑĥÑĪ Ð°ÐµÑĤ
ĠÐ·Ð»Ð¾Ð± Ñĭ
ĠÐ±Ð¸ÑĤ Ð²Ñĥ
ĠÐ´ÑĢÐµÐ² Ð½ÐµÐ¹
ĠÐ²Ð¸ÑĤÑıÐ· Ñı
ĠÐ²ÑģÑĤÑĢÐµÑĩ Ð°ÐµÑĤ
ĠÐ¼Ð»Ð°Ð´ Ð¾Ð¹
ĠÐºÐ¾Ð¿ Ðµ
ĠÑĤÑĥÐ¼ Ð°Ð½Ðµ
ĠÐ´Ð°Ð² Ð¸
ĠÐ³Ð¾ÑģÑĤ Ð¸Ð½Ð¾Ð¹
ĠÐ¾ÑĤÐ¿ ÑĢÑĭ
ĠÐ³ÑĢÑĥÑģÑĤ Ð¸
ĠÐ¿Ð¾Ð·Ð´ Ð½ÐµÐ¹
ÐŁÐ¾Ñģ ÑĢÐµÐ´
ÐŁÐ¾Ñģ Ð¼Ð¾ÑĤÑĢ
ĠÐ½ÑĥÐ¶ Ð½Ñĭ
ÐĳÑĥÐ´ ÐµÑĪÑĮ
ÐĽÑİÐ´ Ð¼Ð¸Ð»
ĠÐ´Ð¾Ð¶Ð´ ÐµÐ¼
ĠÑģÑĤÐµÐ¿ ÑĮ
ĠÑģÑĤÐµÐ¿ ÐµÐ¹
ĠÐ²Ð°Ð¶ Ð½ÑĭÐ¹
ĠÐ½Ð°Ð¹ Ð´ÐµÑĤ
ĠÑĥÐºÑĢ Ð°Ð´ÐºÐ¾Ð¹
ĠÐ¾Ð±ÑĢÐ°ÑĤ Ð¸Ð»ÑģÑı
ĠÐ²ÐºÑĥÑģ Ð¸ÑĤÑĮ
ÐĹÐ» Ð¾Ð²ÐµÑī
ÐĹÐ» Ð¾ÑģÑĩÐ°ÑģÑĤ
ĠÑģÑĤÑĢÐµÐ» Ð¾Ð¹
ĠÑĩÐµÑĤ Ð²ÐµÑĢÑĤ
ĠÐ²ÐµÑī ÐµÐ¹
ÐŁÐ¾ÑģÐ»ÐµÐ´ ÑĭÑĪ
ÐĴÐµÑģ ÐµÐ»Ð¾
Ð°Ñī Ð¸Ð¹
ĠÐ²Ð½Ð¸Ð¼ Ð°Ð»
ĠÐ´Ð»Ð¸Ð½ Ð½ÑĭÐµ
ĠÐ½Ð°ÑģÑĤ Ð¾Ð»ÑĮÐºÐ¾
ĠÐºÐ½Ð¸ Ð³Ð¸
ĠÐĸ ÐµÐ½Ñĭ
ĠÐŁÐµÑĤ ÑĢÐ°
ĠÑĨÐµÐ» ÑĭÐµ
ĠÐ¼Ð¾Ð³Ð¸Ð» Ðµ
ÐŁÑĢÐ¾ÑĤÐ¸Ð² Ñĥ
ĠÑĨÐµÐ¿ ÑıÑħ
ĠÐ¿ÑĭÑĪ Ð½ÑĭÐ¹
ĠÐ³Ð¾Ð½ ÑĨÐ°
ĠÑĢÐ°Ð·Ð² ÑĢÐ°ÑĤ
ĠÐ±Ð°ÑĢÐ¸Ð½ Ð¾Ð¼
ĠÑĩÐµÑģÑĤ Ð½Ð¾
ĠÑĩÐµÑģÑĤ Ð½ÑĭÐ¹
ĠÐºÑĥÐ¿ ÐµÑĨ
ÐŁÑĢÐ¾Ñģ Ð½ÑĥÐ»ÑģÑı
Ð¸Ð½ÑĥÐ» ÑģÑı
ÐĴÑĭÑģ Ð¾ÐºÐ¾
ÐĴÑĭÑģ Ð¾ÐºÐ¸Ð¹
ĠÑģÐºÐ¾ÑĢÐ± ÑĮ
ĠÑħÑĥÐ´ Ð¾Ð¹
ÐĸÐµÐ» ÐµÐ·
ĠÐ½ÐµÑĢ Ð°Ð·
ĠÐ´Ð¸Ðº Ð¾
ĠÐ¿ÑĢÐ¸Ð» ÐµÐ¶
ĠÐ³Ð»Ð°Ñģ Ð¸ÑĤ
ĠÐ±Ð¾ÑĢÑĮÐ± Ð°
ĠÐ½ÐµÐ¸Ð· Ð±ÐµÐ¶
ĠÐ¿ÑĢÐ¾Ð· ÑĢÐ°Ñĩ
Ð¢Ð²Ð¾ÑĢ ÑĨÐ°
Ð¼Ð°ÑĤ ÑĥÑĪÐºÐ°
ĠÐ²ÐµÑĢÑĪ Ð¸Ð½Ðµ
Ð½ÑĭÑĪ ÐºÐ¾
ÐĺÑģÐ¿ ÑĥÐ³
ĠÐ¾ÑĤÑĢÐ°Ð´ Ð°
ĠÑħÐ² Ð°ÑģÑĤ
Ð°Ð²ÑĪÐ¸Ð¹ ÑģÑı
ĠÐĶÐµÐ¼ Ð¾Ð½
ĠÐ±Ð¾Ð»ÑĮÑĪ Ð¾Ð¼
ĠÐ¿ÐµÑģÐµÐ½ ÐºÑĥ
ĠÐ¼ÑĥÐ·Ñĭ ÐºÑĥ
ĠÑĤÐµÐ¿ Ð»Ð¾
ĠÐ¿Ð¾Ð»Ð¾Ð² ÐµÑĨ
ĠÐ¿Ð¾ÑĤÐµÑĢ ÑıÐ²
ĠÑģÑĥÑĢÐ¾Ð² Ð¾
Ð¡Ð¾Ð± Ð»Ð°Ð·
ĠÑģÐºÑĥÑĩ Ð½Ð¾
ÐŀÑĤÐºÑĢ Ð¾Ð¹
ĠÐºÑĢÐ°ÑĤ ÐºÐ¸Ð¹
ÐļÑĢÐ¸Ñĩ Ð°ÑĤ
ĠÐ±ÐµÐ¶ Ð°Ð»Ð°
ĠÐ³ÑĢÑıÐ· ÑĮ
ĠÐ¸Ð·Ð¼ ÑĥÑĩ
ĠÐ¿ÐµÐ² ÐµÑĨ
ĠÑģÐ¿ÑĢÐ°Ð² ÐµÐ´Ð»Ð¸Ð²
ĠÐĵÐµÐµÐ½ Ð½Ñĭ
ĠÑģÐ»Ð°Ð´Ð¾ÑģÑĤ ÑĢÐ°ÑģÑĤ
ĠÐºÑĢÐ°ÑģÐ°Ð² Ð¸ÑĨÐ°
ĠÐ²Ð°Ñħ Ð»Ð°Ñĩ
ĠÐ¸ÑģÑĤÐ¸Ð½ Ð½ÑĭÐ¹
ÐĴÐµÐ»Ð¸Ðº Ð¾Ð³Ð¾
ĠÐ¿Ñģ Ð¾Ð²
ÑĤÐ¾Ñĩ ÑĮ
ĠÐ¡Ð²ÑıÑĤ Ð¾Ð¹
ĠÐ¾Ð±Ð¸ÑĤ Ð°ÑĤÑĮ
ĠÑīÐµÐ´ ÑĢÐ¾
ĠÑĢÑĥÐ±ÐµÐ¶ ÐµÐ¹
ÐĹÐ¾Ð² ÐµÑĤ
ĠÐ¼Ð¾Ð»ÑĮ Ð±Ñĭ
ĠÐ½ÐµÐ¾Ð± ÑĬÑıÑĤ
ÐŁÑĢÐ¾Ñħ Ð¾Ð´Ð¸ÑĤ
ÐĽÐµÐ³ ÐºÐ¾
ĠÐŁÑĢÐ¸ÑĢ Ð¾Ð´Ñĭ
ĠÑıÐ·Ñĭ ÐºÐ¾Ð¼
ĠÐ¿Ð¾ÐºÑĢÑĭÑĤ Ñĭ
ĠÐłÐ¾ÑģÑģ Ð¸Ñı
ĠÐ²ÑģÐ¿Ð¾Ð¼Ð½ Ð¸Ð»
Ð¢Ð¾Ð»Ð¿ Ð°
ĠÑģÑĥÑī ÐµÑģÑĤÐ²Ð°
ĠÐ±Ð°ÑĤ ÑİÑĪÐºÐ°
ĠÐ¿ÑĢÐµ Ð¾Ð±ÑĢÐ°Ð·
ĠÑĩÑĳÑĢ Ð½ÑĭÐ¹
ĠÐŁÐ¾Ð» ÑĤÐ°Ð²
ĠÑģÑĭÐ½Ð¾Ð² ÐµÐ¹
ĠÑģÐ°Ð± Ð°Ð½ÑĤÑĥÐ¹
ĠÑģÑĢÐ°Ð²Ð½ ÐµÐ½ÑĮÐµ
ĠÐ¢Ð°ÑĤÑĮÑı Ð½Ñĭ
ĠÐ¢Ð°ÑĤÑĮÑı Ð½Ðµ
ÐŁÐ¾ÑģÐ»ÑĥÑĪ Ð°Ð¹
ĠÐºÑĥÐ¼ Ð¸ÑĢ
ÐĵÐµÑĢ Ð¾Ð¹
ĠÐĿÐµÐ² Ñĭ
ĠÐ±Ð¾ÑıÐ· Ð½Ð¸
ĠÐ²Ð¾ÑģÑħ Ð²Ð°Ð»
ÐĴÐ¿ÐµÑĢÐµÐ´ Ð¸
Ð±Ð°ÑĤ ÑİÑĪÐºÐ°
ĠÐ»Ð¾Ð± Ð·
ÐĳÑĥÑĢ Ð¼Ð¸ÑģÑĤÑĢ
ÐµÐ»ÑĮÑī Ð¸ÐºÐ¸
ĠÐ²Ð¾ÑĤÑĩ Ð¸Ð½Ð°
ÐĶÑĢÑĥÐ· ÑĮÑı
ĠÐ¿ÐµÑħ Ð¾ÑĤÐ°
ĠÐ´ÑĭÑħ Ð°Ð½ÑĮÐµ
ÐĺÐ´ Ð¸ÑĤÐµ
ÐļÐ°ÑĢ ÑĤ
ĠÐ¿Ð»ÐµÐ¼ ÐµÐ½Ð°
ĠÐłÐ°Ð· Ð²Ðµ
Ð¡Ð²Ð¾Ð± Ð¾Ð´Ñĥ
ÐŀÐ³ÑĢÐ¾Ð¼ Ð½ÑĭÐ¹
ĠÐ¼Ð¸Ð½ÑĥÐ² ÑĪÐ¸Ñħ
ĠÐºÑĥÑī Ð¸
ÐŁÐ¾ÑģÐ¿ ÐµÑĪÐ½Ð¾
ÐŁÑĢÐ¾Ð½ Ð¸Ðº
ĠÑģÐ¼ÑıÑĤ ÐµÐ½ÑĮÐµ
ĠÐľÐ°ÑĤ ÑĢÐµÐ½
ĠÑĥÐ´ÐµÑĢÐ¶ Ð°ÑĤÑĮ
ĠÐ¿Ð¾ÑģÑĤÐ°Ð² Ð¸Ð»Ð¸
ĠÐ¼Ð¸Ð½ Ð¾Ð²Ð°Ð»
ÐĴÑĭÑħ Ð¾Ð´Ð¸ÑĤ
ĠÐĴÑģÐµÐ²ÑĭÑĪ Ð½Ð¸Ð¹
ĠÐ¾Ñī ÑĥÑĤ
Ð§Ð°Ñģ Ñĭ
ÐļÐ¾ÑĢÐ°Ð± ÐµÐ»ÑĮÑīÐ¸ÐºÐ¸
Ð¡Ð¿Ð¾ÐºÐ¾Ð¹ Ð½Ð¾
ĠÑģÐ°Ð» Ð°Ð·ÐºÐ¸
ĠÐºÐ¾Ð¼Ð½ Ð°ÑĤÐµ
Ð³Ð¸Ð¿ ÐµÑĤ
ĠÐ³ÑĢÑĭÐ· ÐµÑĤ
ĠÐ²Ð¾Ð¾Ð±ÑĢÐ°Ð¶ ÐµÐ½ÑĮÐµ
ĠÐĽÐµÐ½ ÑģÐºÐ¾Ð³Ð¾
ÐĴÐµÑĩ ÐµÑĢ
ĠÐĲÐ² ÑĢÐ°
ĠÐŀÐ½ÐµÐ³ Ð¸Ð½Ð°
ĠÐ¥Ð¾ÑĢ Ð¾ÑĪÐ¾
ĠÐ¿Ð¸ÑģÑĤ Ð¾Ð»ÐµÑĤ
ĠÐ»Ð¾Ð½ Ð¾
ÐĶÐ¾Ð· Ð²Ð¾Ð»
ĠÐ´ÑĢÐ°Ð³ Ð¾ÑĨ
ĠÐ¿Ð¾ÑģÑĭÐ»Ð° ÐµÑĤ
ĠÐ±ÑĥÐ½ÑĤÐ¾Ð²Ñī Ð¸ÐºÐ¾Ð²
ĠÐĿÐ°Ðº Ð¾Ð½ÐµÑĨ
ĠÐ°Ð»ÑĮ Ð±Ð¾Ð¼
ĠÐĵÐ¸ÑĢ Ð¸Ð½Ð°
ĠÐĺÐ»ÑĮ Ð¸Ñĩ
ÐŀÐ¶ ÐµÑģÑĤÐ¾Ñĩ
ĠÐŁÑĢÐ°Ñī ÑĥÑĢ
ÐĿÐ¸Ð³ Ð´Ðµ
ÐŁÐŀ ÐŃÐ¢
ĠÐ½ÐµÐ¾Ð¶ Ð¸Ð´
ĠÐ¾Ð±Ð¾Ñİ Ð´
! ),
Ġ e
Ġ ÑĥÐ´Ð°
Ðµ Ð¸Ñģ
Ðµ ÐµÑĤÑģÑı
Ð° Ð¸
Ñģ Ð¾Ð»
Ñģ Ð¾ÑĤ
Ñģ ÐºÐ°
ÑĢ Ð¸Ð»
ÑĢ ÐµÐ»Ð¸
Ð½ ÐµÐ»Ð°
Ð» Ð°Ð¼
Ð» ÐµÑģ
Ñĥ ÐºÐµ
Ñĥ ÐºÐ¾Ñİ
Ñĭ Ð½ÐµÐ¹
ÑĮ ÐºÐ°
Ñı ÑĢ
ĠÑģ Ð¸ÑĤ
ĠÑģ Ð½Ð¸
ĠÑģ ÑĥÑĤ
ĠÑģ Ð»Ð°
ĠÑģ ÑĭÑĤ
ĠÑģ Ð°Ð½Ð¸
ĠÑģ ÐµÐ½ÑĮÑİ
ĠÐ¿ Ð¾Ð±ÑĢ
ĠÐ¿ ÐµÐ½ÑĮÐµ
Ðº Ð¾ÑĤÐ¾ÑĢ
ĠÐ² Ð»
Ð² Ð°Ð»Ð¸
Ð² ÐµÐ»Ð¸
Ð´ Ñı
ĠÐ½ ÐµÐ¶Ð´
ĠÐ½ Ð°Ð»Ð¸Ð²
Ñĩ Ð¸Ð½Ð°
Ñĩ Ð°Ð»Ð°ÑģÑĮ
Ñĩ ÐµÑĢÐ¿
Ð¼ Ð¾ÑĩÑĮ
Ð¼ Ð¸Ð»Ð¾
ÐµÐ½ Ð¸Ð»
ÐµÐ½ ÐµÐº
ĠÑĤ Ð¾Ð¶
ĠÑĤ Ð¾Ñĩ
ĠÑĤ ÑĥÐ¿
ĠÑĤ ÑĥÐ·
ĠÐ¾ ÐºÐ¾Ð²Ñĭ
ĠÐ¾ ÑĦÐ¸ÑĨ
Ð¾Ð¹ Ð´Ñĥ
ÐµÑĤ Ð¾Ð¼
Ð°Ð» Ñĭ
Ð°Ð» ÐºÐ¸
Ð°Ð» Ð¸Ð»ÑģÑı
Ð¾Ð» Ñı
Ð¾Ð» Ð¾Ð³
Ð¾Ð» Ð½Ð°
ĠÐ´ Ð½Ðµ
ĠÐ´ Ð¾ÑģÐ¿
ĠÐ´ Ð²Ð¾Ð¹
ĠÐ´ Ð°Ð½Ð°
ĠÐ´ Ð¾ÑģÐº
ĠÐ´ Ð¾ÑĩÐºÐ°
ĠÐ´ ÐµÐ¼Ð¾Ð½
Ð¾Ð² ÐµÑĢ
Ð¾Ð² Ð°ÑĤÑĮÑģÑı
Ð¾Ð² Ð¾Ð»ÑĮÐ½Ð¾
Ð¾Ð² ÐµÐ´ÑĮ
ĠÐ± Ð´
ĠÐ± Ð°Ð³
ĠÐ± Ð¾ÐºÐ°
ĠÐ¼ ÑģÑĤ
ĠÐ¼ Ð°Ðº
ĠÐ¼ Ð¾Ð·
ĠÐ¼ ÑĳÑĢÑĤ
ÐµÑĢ Ð¾
ÐµÑĢ Ñģ
ÐµÑĢ Ñı
ÐµÑĢ Ð±
ÐµÑĢ ÐºÐ¸
ĠÐº ÐµÐ´
ĠÐº Ð¸ÑĢ
ĠÐº ÑĥÑĩ
ĠÐº Ð¸ÑģÑĤ
ĠÐº Ð°ÑĪ
ĠÐº ÑģÑĤÐ°ÑĤÐ¸
Ð¾ÑĢ Ð¾Ð¹
Ð¾ÑĢ Ð°Ð·ÑĥÐ¼
ÐµÐ» ÑģÑı
ÐµÐ» ÑĭÑħ
ÐµÐ» ÑĭÐµ
Ð¸ÑĤ ÐºÐ¸
Ð¾Ð´ Ð½ÑĭÐ¹
ÐĿ ÐµÐ½
ÐĿ Ð°ÑĤ
ÐĿ Ð¾Ð¶
ÐĿ ÐµÐ³
ĠÐ· ÐµÐ²
ĠÐ· Ð°Ñı
ĠÐ· Ð¾Ð»Ð¾Ð²
Ðĺ Ð½ÑĭÑħ
ĠÑĢ Ð°Ð¼
ĠÑĢ Ð¾Ð³Ð°
ĠÑĢ Ð¾Ð¿ÑĤ
ĠÐ³ Ð½ÐµÐ·
ĠÐ³ ÑĥÐ´Ð¸ÑĤ
Ð°ÑĤ Ð¾Ð¼
ĠÐ¿ÑĢ Ð°Ñģ
ĠÐ¿ÑĢ Ð°Ð´
ĠÐ¿ÑĢ Ð¾ÑģÑĮ
ÐŁ Ð»ÐµÐ½
ÐŁ Ð»Ð°ÑĩÐµÑĤ
ÐĴ Ð¾Ð²
ÐĴ ÐµÐº
ÐĴ Ð°ÑĪ
ÐĴ Ð¾Ð»Ð½
ÐĴ ÑĭÐ±
ÐĴ Ð¾Ð´Ð°
ÐĴ ÑģÑĤÑĢÐµÑĩ
ÐĴ ÐµÐ»ÑĮÐ¼Ð¾Ð¶
Ð¾Ð³ Ð»Ð°Ñģ
Ð¾Ð³ Ð¾Ð²ÐµÐ¹
Ð¡ Ð³
Ð¡ Ð¸ÑĢ
Ð¡ ÑĩÐ¸ÑĤ
Ð± Ð°ÑĢ
Ð± Ð´Ð¸
Ð¿ Ð¸Ñĩ
Ð¾ÑĤ ÐºÐ¸
Ð¾ÑĤ Ð¾Ñĩ
Ð³ Ð°Ð¼Ð¸
Ð³ Ð»Ð¾
ĠÐ» Ð°Ð·
ĠÐ» Ð¾Ðº
ĠÐ» ÐµÐ»Ðµ
ĠÐ» Ð°Ð¼Ð¿
Ð°Ð² Ð¾Ð¹
Ð°Ð½ ÐºÑĥ
Ð°ÑĢ Ñĭ
ÑĤÐ¾ Ðµ
ÐµÐ¹ ÑģÑı
ÐµÐ¹ ÑĪÐ¸Ñħ
ĠÐ½Ðµ ÑģÐ»
ĠÐ½Ðµ Ð¸ÑģÑĤ
ĠÐ½Ðµ Ð¾ÑĤÐ²
Ñī ÐµÐ¼
Ñī Ð¸Ð¼
Ñī Ð°Ñı
ĠÑĩ Ð°Ñı
ĠÑĩ ÑĮÑı
ÐµÑģ Ð»Ð°
Ðŀ ÑĢÑĥÐ¶
Ðŀ ÑģÐ»ÑĥÑĪ
Ð¸Ð½ ÑģÐºÐ¾Ðµ
Ð¾Ð½ Ð°Ñĩ
Ðļ Ð½ÑıÐ·
Ðļ Ð½Ð¸Ð¶
ĠÑģÑĤ ÐµÐ»
ĠÑģÑĤ Ð¾Ð³Ñĥ
ĠÐ½Ð° ÑħÐ¾Ð´Ð¸ÑĤ
ĠÐ½Ð° ÑĥÐºÐ°
Ð¢ Ñİ
Ð¢ ÐµÐ¿
Ð¢ ÐµÑħ
Ð¢ Ð¾Ð²Ð°ÑĢ
ÑĥÐ´ Ð°Ð»
ÑĥÐ´ Ð¸Ð²
Ð¾Ðº Ñĥ
Ð¾Ðº ÐµÑĤ
Ð¸Ð² Ð°ÑıÑģÑĮ
ÑĥÑĤ ÐºÐ¾
ÑĥÑĤ ÑĭÐ»
Ñĳ Ð¹
ĠÐµ Ñİ
ĠÐµ Ð»Ð¸
ÐĶ Ð¾Ð³
ÐĶ ÑĭÐ¼
ÐĶ Ð¾ÑĩÑĮ
ÐĶ ÑĢÑĥÐ¶
ÐĶ Ð²ÐµÑĢÑĮ
ĠÑĥ ÑĢÐ¾Ð´
ĠÑĥ Ð»Ð¾Ð¶
ĠÑĥ ÑĢÐ¾Ñĩ
ĠÑĥ Ð½Ð¸Ð¶
ĠÑĥ ÑıÐ·Ð²
Ð¾Ð¶ Ð¸Ð¹
Ð¶ Ð°Ð»Ð°
Ð¾ÑģÑĤ Ð¾Ð¹
Ð¾ÑģÑĤ Ð½ÑĭÐ¹
Ð¾ÑģÑĤ Ð½Ð¾Ð¹
Ð¾Ñĩ Ð½ÑĭÑħ
ÐºÐ° Ð½Ñĭ
ĠÑı Ð½
ĠÑı Ð¼Ñĥ
ÐµÑĩ ÐµÑĤ
ÑĥÐ¶ Ð´Ð°
ĠÑģÐ² Ð¸Ð½
ĠÑģÐ² Ð°Ð´ÑĮÐ±
ĠÑģÐ² ÑĭÑĪÐµ
ĠÐ¾ÑĤ ÐµÑĩ
ĠÐ¾ÑĤ ÑĪÐµÐ»ÑĮ
ÐŁÑĢ ÐµÐ²
ÐŁÑĢ ÐµÐ·
ÐŁÑĢ Ð¾Ñĩ
ÐŁÑĢ Ð¸Ñĩ
ÐŁÑĢ ÐµÐ¼ÑĥÐ´ÑĢ
ĠÐºÑĢ Ð°Ð¼
ĠÑģÐ» ÑĭÑħÐ°Ð»
ĠÑģÐ» ÐµÐ³ÐºÐ°
ĠÑħ Ð°Ð»
ĠÑħ ÑĥÐ»
ĠÑħ Ð°Ð½Ð´
Ðľ Ð¾Ð½
Ðľ Ð°Ð»Ð¾
Ðľ Ð¾ÑģÐº
Ðľ ÐµÑĢÑĤÐ²
Ð¾Ð»ÑĮ Ðµ
Ð½Ðµ Ñħ
Ðĳ ÑĢÐ°Ð½
Ðĳ Ð¾Ð»ÐµÐ·
ÐµÐ¶ ÑĮ
Ð£ ÑģÑĤÐ°Ð»
Ð£ Ð³Ð¾Ð´
ĠÐ²Ñģ ÐµÑģÐ¸Ð»ÑĮ
ÐĲ Ð´
ĠÐ¾Ð± Ð¾Ð´
ĠÐ¾Ð± Ð»Ð¸
ĠÐ¾Ð± Ð¶
ĠÐ¾Ð± Ð¾ÑĢÐ¾Ð½
ĠÐ¾Ð± Ð»Ð¸Ðº
ĠÐ¾Ð± Ð¾Ð´ÑĢ
ĠÐ¾Ð± Ð¾ÑĢÐ¾ÑĤ
Ð¾Ð¿ Ð¾Ð»
Ð¾Ð¿ Ð¾Ð´Ð¾Ð±
ÑģÑĤÐ² Ð¸Ñı
ÐµÐ»ÑĮ Ð½ÑĭÐ¼
ĠÐ³ÑĢ Ð°Ð½Ð¸
ĠÐ³ÑĢ Ð¸Ð²Ð¾Ð¹
ĠÐ³ÑĢ ÑıÐ½ÑĥÐ»
ĠÐ³ÑĢ ÑıÐ½ÐµÑĤ
ÑĥÐ¼ ÑĦ
ĠÐ¿Ð¾Ð´ ÑĢ
ĠÐ¿Ð¾Ð´ ÑģÑĤÑĥÐ¿
ĠÐ¿Ð¾Ð´ Ð½ÐµÑģ
ĠÐ¿Ð¾Ð´ Ð²Ð¾Ð´
ĠÐ¿Ð¾Ð´ Ð¾Ð·ÑĢ
ĠÐ¿Ð¾Ð´ Ð¾ÑĪÐ»Ð°
ĠÐ¿Ð¾Ð´ Ð¶Ð¸Ð´
ÑĥÑĩ Ð¸Ð¼
ĠÐ²Ñĭ ÑģÐº
ĠÐ²Ñĭ ÑĢÐ¾Ñģ
ĠÑĪ ÑĥÐ±
ĠÑĪ Ð°Ð»Ð°ÑĪ
ĠÐ¡ Ð»Ð°Ð²
ĠÐ¡ ÐºÐ¾ÑĢ
ĠÐ¡ Ð»Ð¾Ð²
ĠÐ¸Ð· ÑĢÐµÐ´
ĠÐĿ Ð°Ð´
ĠÑģÐº ÑĥÐ´
ĠÑģÐº ÑĥÐ¿
ĠÑģÐº ÑĢÑĭ
ĠÑģÐº ÑĢÐµÐ¶
Ð¸ÑĪ Ñĥ
ĠÑĢÐ°Ð· Ð´Ñĥ
ĠÑĢÐ°Ð· Ð»Ñĥ
ĠÐ¿Ð¾Ð» Ðº
ĠÐ¿Ð¾Ð» ÑĥÐ¼
ĠÐ¿Ð¾Ð» Ð½ÑĭÐµ
ĠÐ¿Ð¾Ð» Ð½Ð¾Ð¼
ĠÐ¿Ð¾Ð» ÑıÐ¼
ĠÐ¿Ð¾Ð» ÑıÑħ
Ð¯ Ð¼ÑīÐ¸Ðº
Ðł ÑıÐ´
Ðł Ð¾Ð¶Ð´
ÐļÐ°Ðº Ð¸Ð¼
ĠÑĤÑĢ Ð°ÑĤ
Ð°Ð¿ Ð¸ÑĤ
ĠÐ¢ Ð¾ÑĤ
ĠÐ¢ ÐµÑĢÐ¿
ÐĽ Ð¾Ð¶
ÐĽ Ð°Ð¼Ð¿
ÐŀÑĤ Ð²ÐµÑĢÐ³
ĠÐ³Ð¾ÑĢ Ð°
ĠÐ³Ð¾ÑĢ Ð°Ð¼Ð¸
ĠÑģÐ¼ ÐµÐ»Ð¾
ĠÑģÐ¿ Ð¸ÑĤÑģÑı
ĠÑģÐ¿ ÑĥÑģÐº
ĠÑģÐ¿ Ð°ÑģÑĤÐ¸
ĠÑģÐ¿ Ð»Ð¾ÑĪÑĮ
ĠÑį Ð¼Ð¿Ð¸ÑĢÐµÐ¹
ĠÐŁ Ð¾ÑģÐ»
ĠÐ»Ð¸ ÑĨÑĥ
ĠÐ»Ð¸ Ð±Ð¾
Ð»Ð¾ ÑħÐ¾
ÑĥÑİ ÑīÐ¸Ð¹
ĠÐ²Ð· Ð»ÐµÑĤ
ĠÐ²Ð· ÑıÐ»Ð°
ĠÐ²Ð· Ð°Ð¸Ð¼
ÐĴÑģ Ð»ÐµÐ´
ĠÐ¿ÐµÑĢ Ð²Ð¾Ð¹
ĠÐ¿Ð» Ð°Ð½ÐµÑĤ
ĠÐ²Ð¾Ð· Ñĥ
ĠÐ²Ð¾Ð· Ð±
ĠÐ²Ð¾Ð· Ð½Ðµ
ĠÐ²Ð¾Ð· ÑĢÐ°ÑģÑĤ
ĠÐ¼Ð¾Ð» Ð¸ÑĤÑģÑı
ĠÐ¾Ð´ ÐµÑģÐ½ÑĥÑİ
ĠÐ° Ð´Ð°Ð¼
ĠÐĲ Ñħ
ĠÐĲ Ð±Ð´Ð¸
ÑĭÐ² Ð°Ð»Ð¸
ĠÐŀ ÐºÐ¸
ÑģÐ» Ð¾Ð²
ÑģÐ» Ð°Ð±
Ð¾ÑĪ ÐºÐ°
Ð¾ÑĪ ÑĳÐ»
ĠÐ±ÑĢ Ð°Ð²
ĠÐ±ÑĢ Ð¾Ð²Ð¸
ĠÐĶ Ð¾
ĠÐĶ Ð¸Ð²
ĠÐĶ Ð»Ñı
ĠÐ½Ð°Ð´ ÐµÐ»
ĠÐ½Ð°Ð´ Ð¿Ð¸ÑģÑĮ
ĠÐĵ Ð¾Ð»Ð¾Ñģ
Ð¡ÑĤ Ð¾Ð½
Ð¡ÑĤ ÑĢÐ°Ð½
ĠÐ¿Ð¾Ðº Ð°ÑĤ
ĠÐ¿Ð¾Ðº Ð¾Ñİ
ĠÑģÐ²Ð¾ Ñı
ĠÐľ Ð°Ð·ÐµÐ¿Ð°
ĠÐľ Ð¾Ð¶ÐµÑĤ
ÑĳÐ½ Ð½Ð¾
ÑĳÐ½ Ð½ÑĥÑİ
ÑĭÐ» Ð°Ð»
ÑĭÐ» Ð¾ÑģÑĮ
ÐŁÐ¾Ð´ ÑĬ
Ð½Ð¾Ð² ÑĭÐ¹
Ð½Ð¾Ð² ÐµÐ½ÑĮÐµ
ĠÐ½Ð¸ ÑĨ
ĠÐ½Ð¸ ÑģÐ¿
ĠÑģÑĤÐ°ÑĢ ÑĨÐ°
ĠÑģÑĤÐ°ÑĢ ÑĥÑİ
ĠÑģÑĤÐ°ÑĢ ÑĩÐµ
ĠÐ¿Ð¾ÑĢ ÑĥÑĩ
ĠÐ½Ð°Ñģ ÐµÐ»
ĠÐ²ÑĢ Ð°ÑĤÐ°
ĠÐ²ÑĢ Ð°Ð·ÑĥÐ¼
ĠÑĢÐ°Ñģ ÑģÑĤÐ°Ð²
Ð²ÐµÑĢ Ð·
ÐµÐ½Ñı Ð»Ð¸
ÐµÐ½Ñı ÑģÑĮ
ĠÐ²Ð¸Ð´ Ñı
ĠÐ²Ð¸Ð´ Ð½Ð°
ĠÐ²Ð¸Ð´ Ð¸Ð¼
ĠÐ¿ÑĢÐµÐ´ Ð»Ð¾Ð¶
ĠÐ²ÐµÑĢ Ð¸Ð»
ĠÐ²ÐµÑĢ Ð½ÑĭÐ¼
ĠÐ²ÐµÑĢ Ð½Ð¾Ðµ
ĠÐ²ÐµÑĢ ÑĮÑĤÐµ
ĠÐĹ Ð°Ð²
ĠÐ²Ð¾Ð» ÐµÐ¹
ĠÐ²Ð¾Ð» Ð½Ð¾Ð¹
Ð¸Ð³ Ð¸
Ð¥ Ð¾ÑĤ
Ð¥ Ð¾Ð·Ñı
Ð¥ Ð¾Ð»Ð¾Ð´
Ð¥ ÑĢÐ¸ÑģÑĤ
ĠÑģÐ°Ð¼ Ð¸Ð¼
ĠÑģÐ°Ð¼ Ð¾Ð±ÑĢ
Ð»Ð¸Ð² ÑĭÑħ
ĠÐ´ÑĢÑĥÐ³ Ð¾Ðµ
ĠÑĢÐ¾Ð´ Ð¸Ð½Ð°
ĠÑĢÐ¾Ð´ Ð¸Ð¼ÑĭÐ¹
ĠÑĥÐ¼ ÑĢÐ¸
ĠÑĥÐ¼ ÑĢÑĥ
ĠÐł Ð¸Ð¼
ĠÑģÐ²ÐµÑĤ Ð»Ð¸
ĠÐ¼Ð¸ÑĢ Ð¾Ð²
ĠÐ½ÐµÐ¼ Ð½Ð¾Ð¶ÐºÐ¾
ĠÐ¿Ð¾Ð¼ Ð¸Ð½
ĠÐ¿Ð¾Ð¼ ÐµÑĪ
ĠÐ¾Ð¿ ÐµÑĢÑĪÐ¸ÑģÑĮ
ÐµÑĤÑĮ Ð¼Ð¸
Ð¸Ñģ Ð°
ĠÐ·Ð² ÑĥÐºÐ¾Ð²
Ð¡Ðº ÑĥÑĩÐ½Ð¾
ĠÐ·ÐµÐ¼ Ð»ÑĳÐ¹
ĠÑĥÑĤ ÑĢÐ°Ñĩ
Ð»ÐµÐ½ Ð¸Ð¹
Ð»ÐµÐ½ Ð½ÑĭÐ¼
Ð»ÐµÐ½ Ð¸Ðµ
ĠÐ¿Ð¾ÑĤ Ð¾Ð½
ĠÐ¿Ð¾Ð² Ð°ÑĢ
ĠÐĺ Ð¼
ĠÐĺ Ð»Ð¸
ÑıÐ½ Ð½ÑĭÐ¹
ÐļÑĢ ÐµÑģÑĤ
Ð¾ÑģÑĤÐ¸ Ð¶
ĠÐ¼ÑĥÐ¶ ÐµÐ¹
ĠÐ¼ÑĥÐ¶ ÐµÑģÑĤÐ²Ð¾
ĠÐ»ÐµÑĤ ÐµÐ»
ÑıÐ· Ð°Ð½
ĠÐ±Ð»Ð°Ð³ Ð¾Ð¹
ĠÐ±Ð»Ð°Ð³ Ð¾ÑģÐºÐ»Ð¾Ð½
ĠÐ¾Ð³ Ð»ÑĥÑĪ
ÑĭÐ½ Ñİ
ĠÐ±ÐµÐ´ Ð½Ð¾Ð³Ð¾
ĠÑĤÐ²Ð¾ ÐµÐ¼Ñĥ
ĠÐ¶Ð¸Ð² Ñĭ
ĠÐ¶Ð¸Ð² Ð°Ñı
ÑĢÐ¸ Ð¸Ð¼
ĠÑĨÐ°ÑĢ Ð¸ÑĨÐµÐ¹
ĠÑģÐ¾Ð± Ð¸ÑĢ
ĠÐ·Ð°Ð± ÑĥÐ´ÑĮ
ÑĢÑı Ð½ÑĥÐ»
ĠÐ·Ð» Ð¸ÑĤÑģÑı
ĠÐ¼Ð¸Ð» Ð¾
ĠÐ¼Ð¸Ð» ÑĥÑİ
ĠÐ¼Ð¸Ð» Ð¾ÑģÑĤÑĮÑİ
Ð¡Ð¿ Ð°ÑĤÑĮ
ĠÐ½Ð°ÑĢ ÑĥÑĪ
ĠÐºÐ¾Ð» ÐµÐ½
ĠÐºÐ¾Ð» Ð¾Ð´
ĠÐºÐ¾Ð» ÐµÐ½Ð°
ĠÐºÑĢÐ°Ñģ Ð¾ÑĤÐ°
ĠÐºÑĢÐ°Ñģ Ð¾ÑĤÑĥ
ĠÐĽ ÑİÐ±
ĠÐĽ ÑĥÐ½Ð°
ĠÐ¿Ð¾Ð³ Ð°Ð½ÑĭÑħ
ĠÐ¼Ð¾Ð¶ ÐµÐ¼
ĠÐ¿ÐµÑģ Ð¾Ðº
ÐĿÐ°Ð´ ÐµÐ¶Ð´Ñĭ
ĠÐ¿ÑĢÐ¾ ÐµÐ·Ð¶
ĠÐ¿Ð¾Ñģ ÐµÑĤ
ĠÐ¿Ð¾Ñģ ÐµÑī
ĠÐ½ÐµÐ² Ð¾Ð»ÑĮ
ĠÐ²Ð¾Ð´ ÐºÐ¸
ĠÐ¼Ð¾Ð»Ð¾Ð´ ÑĨÐ°
ĠÐ¼Ð¾Ð»Ð¾Ð´ ÑĭÐ¼
ĠÐ·Ð°Ð¿ Ð¾Ð²ÐµÐ´
ĠÐ´Ð¾Ð¼ Ð¾Ð²
ĠÐŁÑĢ Ð°ÑĢÐ¾Ð´Ð¸ÑĤÐµÐ»ÐµÐ¹
ĠÐŁÑĢ ÐµÐ¸Ñģ
ĠÑĥÐ³ Ð¾ÑĤÐ¾Ð²
ĠÑģÐ½ Ð¸ÑĤÑģÑı
ĠÐ¿ÐµÑĩ ÑĮ
ĠÐ¿ÐµÑĩ ÐºÐ¸
ĠÐ´Ð¾ÑĢ Ð¾Ð³Ð¾Ñİ
ĠÐ¿ÑĢÐ¾ÑģÑĤ Ð¾ÑĢÐµ
ĠÐ»ÑĮ ÐµÑĤÑģÑı
ĠÐ²ÑĭÑģ Ð¾ÐºÐ¸Ð¹
ĠÐ²ÑĭÑģ Ð¾ÑĤÐµ
ĠÐ·Ð°Ð¼ ÑĥÐ¶
ĠÐ¿ÑĥÑģÑĤ ÑĭÐ¼
ĠÐ¿ÑĥÑģÑĤ ÑĭÐ½Ñı
ĠÐ½Ð°Ð² ÐµÑĢ
ĠÐ½Ð°Ð² ÐµÑī
ĠÐ½Ð°Ð² ÐµÐºÐ¸
ĠÐ³Ð¾Ð²Ð¾ÑĢ Ð¸Ð»Ð¸
ĠÐ¯ ÐºÐ¸Ð¼
ÑĢÐ¾Ñģ Ð¸Ð»
ĠÑĥÐ¿ ÑĢÐµÐº
ĠÐ¿Ð¾ÑģÑĤ Ð¸ÑĩÑĮ
ĠÐºÐ¾ÑĢ Ñĩ
ĠÐºÐ¾ÑĢ ÑĪ
ĠÐ±ÐµÑĢ ÐµÐ¶Ð½Ð¾
ĠÐ¿ÑĢÐ¸Ð² ÐµÐ´
ĠÑĩÐµÑĢ Ð½ÑĭÐ¹
ĠÑĩÐµÑĢ Ð½Ð¾Ð¹
Ð¨ ÐµÐ»
Ð¨ ÐµÐ¿
Ð¨ Ð°Ð³
Ð¾Ñī Ð½ÑĭÐ¹
ĠÐ´Ð¾Ð±ÑĢ Ñĥ
ĠÐ´Ð¾Ð±ÑĢ Ð°Ñı
ĠÐĳÐ¾Ð¶ Ð¸Ñı
ĠÐĳÐ¾Ð¶ ÐµÑģÑĤÐ²Ñĥ
ĠÑĩÐ°Ñģ Ñĥ
ĠÑĩÐ°Ñģ Ð¾Ð²
Ð½ÐµÐ² Ð½ÑĭÐ¹
ĠÐ²ÐµÑģ Ð½Ñĭ
ĠÐ²ÐµÑģ ÐµÐ»ÐµÐ¹
ĠÐ¿Ð¾Ð± Ð»ÐµÐ´
ĠÐ¿Ð¾Ñĩ Ð¸ÑĤ
ÐµÑı Ð½Ñĭ
Ð¸Ð»ÑĮ Ð½ÑĭÐ¹
ĠÐĲÐ´ ÑģÐºÐ¸Ñħ
ĠÐ½ÐµÐ¿ Ð¾Ð³
ĠÑģÑĤÐ¾ Ñİ
ÐĳÐ» ÐµÐ´
ÐĳÐ» ÐµÑģ
ĠÑģÑĭ ÑĢÐ¾Ð¹
Ð³ÑĢ ÐµÑĪ
ĠÑĥÐ· Ð½Ð°Ð²
ĠÐºÐ¾ÑĤÐ¾ÑĢ Ð°Ñı
ĠÑģÐºÐ¾ÑĢ Ð»ÑĥÐ¿
ĠÐ¸ÑģÐº ÑĢ
ĠÐ¸ÑģÐº Ð°Ð·
ĠÐºÐ°ÑĢ Ñĥ
ĠÐºÐ°ÑĢ Ñĭ
ĠÐ´ÐµÑĢÐµÐ² Ð°
ĠÐ´ÐµÑĢÐµÐ² Ð½Ð¸
ĠÐ´ÐµÑĢÐµÐ² ÐµÐ½ÑĮ
ĠÐ´ÐµÑĢÐµÐ² ÐµÐ½ÑģÐºÐ¸Ð¹
Ð¸Ð¿ ÐµÐ»
ÑĪÐ¸Ñħ ÑģÑı
ĠÐ¿ÐµÑĢÐ² ÑĭÐµ
ĠÐĵÐ¾ÑģÐ¿Ð¾Ð´ Ð½Ð¸
ĠÐĵÐ¾ÑģÐ¿Ð¾Ð´ ÐµÐ½ÑĮ
ĠÐ´Ð² Ð¸Ð³
ĠÐ»ÐµÐ³ ÐºÐ¾Ð¼
ĠÐ½Ð¾Ð³ Ð¾Ð¹
ÐµÑĢÐ¿ ÐµÑĤÑĮ
ĠÐ£ ÐºÑĢÐ°Ð¹
ĠÐ³ÑĢÐ¾Ð· Ð¸Ð»
ĠÑģÑĤÑĢÐ°ÑĪ Ð½Ð°
ĠÑģÑĤÑĢÐ°ÑĪ Ð½ÑĭÐµ
ĠÐ¿Ð¾Ð½ ÑıÐ»
ĠÑĩÑĥÐ´ Ð½ÑĭÐµ
ĠÑĩÑĥÐ´ ÐµÑģÐ°
ĠÐ½ÐµÑģ Ð¼
ĠÐ½ÐµÑģ ÐµÑĤ
ĠÐ½ÐµÑģ ÑĢÐ°Ð²Ð½
ĠÐ´Ð¾ÑĢÐ¾Ð³ Ð¸Ñħ
Ð¢Ð°Ð¼ Ð°ÑĢÐ°
ĠÑģÑĢ Ð¾ÐºÐ°
ĠÐºÐ°Ð¶Ð´ Ð¾Ð¼Ñĥ
ĠÐ´Ð²Ð¾ÑĢ Ñı
ĠÑĥÑģ Ð¼ÐµÑħ
ĠÐ½Ð¸Ñĩ ÑĤÐ¾Ð¶
ĠÐ±Ð¾Ð¹ ÑĨÐ°
ÐŁÐ¾ÑĤ ÐµÑĢ
ÐŁÐ¾ÑĤ ÑĥÐ¿
ÐµÐ¶Ð´ Ð¾Ð¹
ÐĵÑĢ Ð¸Ð³Ð¾ÑĢ
ĠÐ¾Ð´Ð¸Ð½ Ð¾ÐºÐ¸Ð¹
ÐŁÑĢÐ¸ ÑİÑĤ
ĠÐ¾Ðº Ð¾Ð½
ĠÐºÐ» Ð°Ð½Ñı
ĠÐ´Ð¸Ð² Ð½ÑĭÐµ
ĠÐ´Ð¸Ð² Ð¸ÑĤÑģÑı
ĠÐ¼Ð°Ð» ÐµÐ½ÑĮ
Ð½ÑĥÐ»Ð° ÑģÑı
ĠÐ½ÐµÐ±ÐµÑģ Ð°Ñħ
ĠÑģÐ»ÐµÐ´ Ñĭ
ĠÑģÐ»ÐµÐ´ Ð°Ð¼
ĠÑģÐ»ÐµÐ´ ÑĥÐµÑĤ
ÐĴÐ´ Ð¾Ð»ÑĮ
ĠÐ´Ð¾ÑģÑĤ Ð¸ÑĩÑĮ
ĠÐ·Ð°ÑĢ ÐµÐ¹
ÐŀÐ¿ ÑĥÑģÑĤ
ĠÑģÑĤÐ¾Ð» ÐµÑĤ
ĠÑħÐ¾Ñĩ ÐµÑĤÑģÑı
ÐľÐ¾Ð» Ð²
ÐĳÐµÑģ ÐµÐ´
Ð°ÑİÑī ÐµÐ³Ð¾
ĠÐ²Ð·Ð´ Ð¾ÑĢ
ĠÑģÐ»ÑĭÑĪ Ñĥ
ĠÑģÐ»ÑĭÑĪ ÐµÐ½
ĠÐ¸Ð·Ð± Ñĥ
ĠÐ¸Ð·Ð± ÐµÐ³
ĠÐ²Ð¾Ñģ ÑħÐ¾Ð´
ĠÐ±ÑĥÑĢ ÑĮ
Ð¾Ð¹Ð´ ÐµÑĪÑĮ
ÐŁÐµÑĢ ÐµÐ½
ÑĭÑĤÑĮ ÑģÑı
ĠÐ³Ð¾Ð»Ð¾Ñģ Ñĥ
ĠÐ³Ð¾Ð»Ð¾Ñģ Ð¾Ð²
ÐĵÐ¾ÑĢ Ð¾Ð¹
ÐĵÐ¾ÑĢ ÑıÑĩ
ĠÐ³ÑĢÐ¾Ð¼ Ð¾Ð¼
ĠÐ±ÐµÑĢÐµÐ³ Ð°Ð¼
ĠÐ¾ÑĤÐ²ÐµÑĤ Ð°
ĠÑİ Ð½ÑĭÐ¹
ĠÐĴÑģ ÐµÐ»ÐµÐ½Ð½Ð¾Ð¹
ĠÑĢÐ°ÑģÐ¿ ÑĥÑī
ĠÐ¿ÑĢÐµÐ¶ Ð½ÐµÐ¹
ĠÐ¿ÑĢÐµÐ¶ Ð½Ð¸Ñħ
ĠÑģÐµÐ´ Ð»Ð¾
ĠÐ±ÐµÐ³ Ð»ÐµÑĨ
ĠÐ¿ÑĢÐ¸Ðº Ð°Ñģ
ĠÑıÐ² Ð»Ñı
ĠÐºÑĢÐµÑģÑĤÑĮÑı Ð½Ðµ
ĠÑĢÐ°ÑģÑģ ÑĥÐ´
ĠÑĢÐ°ÑģÑģ ÑĥÐ¶Ð´
ĠÑħÑĢ Ð¸ÑģÑĤ
ĠÐ´ÑĢÑĥÐ¶ Ð¸Ð½Ñĭ
ÑĪÐµÐ¹ ÑģÑı
ĠÑĢÑĥÑģ ÑģÐºÐ¾Ð³Ð¾
ÐļÐ¾ÑĤÐ¾ÑĢ Ð¾Ð³Ð¾
ĠÐºÐ°Ð· Ð°Ð»ÑģÑı
ĠÐ¾Ð±ÑĬ ÐµÐ¼Ð»ÐµÑĤ
ĠÐ¾Ð±ÑĬ ÐµÑħÐ°Ð»Ð¸
ĠÑĤÐ°Ð¹ Ð½Ð¾Ð¹
ĠÑĤÐ°Ð¹ ÐºÐ¾Ð¼
ĠÐ´Ð¾Ð»Ð³ Ð¾Ð¹
ĠÐ´Ð¾Ð»Ð³ Ð¾Ð²
Ð¡Ð²Ð¾ Ñĳ
ĠÑĩÐ°ÑģÑĤ Ð¸
Ð»Ð¸Ð½ Ð½Ð¾
ĠÐ±Ð¾Ð» ÐµÐ·
Ð¡ÑĤÐ¾ ÑıÐ»Ð¸
ĠÐ³ÑĢÐµÑħ Ð¾Ð²
ĠÑĪÐ°Ð³ Ð°Ð»
ĠÐ±ÐµÑģÐ¿ ÐµÑĩ
ĠÐ¿ÐµÑĩÐ°Ð»ÑĮ Ð½ÑĭÑħ
Ð¼Ñĭ ÐºÐ°
ĠÐ²ÐµÐ½ ÑĨÐ°
ĠÐ²ÐµÐ½ ÑĨÐ¾Ð¼
ĠÑģÑĩÐ°ÑģÑĤÐ»Ð¸Ð² Ð¾Ð¹
ĠÑģÐ¾Ð·Ð´ Ð°ÑĤÑĮ
ĠÑĤÐ¾Ñģ ÐºÐ¾Ñİ
ĠÐĿÐµÐ± Ð¾Ð¼
ĠÑģÐ¸Ð´ ÐµÐ»Ð°
ĠÐ¿Ð°Ð´ Ð°Ñı
ĠÐ¿Ð°Ð´ ÐµÐ½ÑĮÑı
ĠÐ³ÐµÑĢ Ð¾
ĠÐ³ÐµÑĢ Ð¾Ñİ
ĠÐ¶Ð°Ð» ÐºÐ¾
ĠÐ·Ð°ÑģÑĤ Ð°Ð»
ÐŀÑģ Ð°Ð½
ĠÑĢÐ°ÑģÑĤ ÑĳÑĤ
ĠÐ·Ð¾Ð² ÑĥÑĤ
ĠÐ¿ÑĢÐ¸Ð¼ Ð¸ÑĢ
ĠÑĢÑĥÐ± Ð¸ÑĤ
ĠÐ²Ð¾ÑģÐ¿ Ð°ÑĢ
ĠÐ±ÑĭÑģÑĤÑĢ ÑĭÐ¹
ĠÑģÐ¿Ð¾ÑĢ Ð¸ÑĤÑĮ
ĠÑģÐ¿Ð¾ÑĢ Ð¸Ð»Ð¸
ĠÐºÑĢÐµÑģÑĤ Ð°
ĠÐºÐ¾Ñģ Ð¼Ð°ÑĤ
ĠÐ²ÑģÐ¿ Ð¾Ð¼
ÐĿÐ°Ñģ Ðº
ĠÑĢÑĭÐ± ÐºÑĥ
ĠÑĤÑĥÑĩ ÐµÐ¹
ĠÐ¶Ð´ Ð°Ð»Ð¸
ĠÐ¼ÑĭÑģÐ» ÐµÐ¹
ĠÑħÐ¾Ð´ Ð¸ÑĤÑĮ
ĠÑĢÐ°Ð±Ð¾ÑĤ Ð¾Ð¹
ĠÐ¼ÑĢÐ°Ñĩ Ð½Ð¾Ð¹
ÐĿÐµÐ±ÐµÑģ Ð½ÑĭÐµ
ĠÑĩÐµÑĢÑĤ Ð¸
ĠÑĤÑĢÐ°Ð² Ñĭ
ĠÑģÐ¸Ð»ÑĮ Ð½Ð°
ĠÐ¿ÑĢÐ¸ÑĪ Ð»Ð¸
ĠÐ¿ÑĢÐ¸ÑĪ Ð»Ð¾
ĠÐ´ÐµÑĢÐ¶ Ð°Ð»
ĠÑģÐ¾Ð»Ð´Ð°ÑĤ Ð°
ĠÐ´ÐµÐ´ Ð¾Ð²
ÐĵÐ¾ÑģÐ¿Ð¾Ð´ Ñĥ
ĠÑģÑĤÑĢÐ°Ð´ Ð°Ð½ÑĮÑı
ĠÑģÑĤÑĢÐ°Ð´ Ð°Ð½Ð¸Ð¹
ĠÐ±Ð»ÐµÐ´ ÐµÐ½
ĠÐ±Ð»ÐµÐ´ Ð½Ð°
ĠÐ´ÑĢÐµÐ² Ð½Ð¸Ð¹
ÑĥÑīÐµÑģÑĤÐ² Ð¾Ð¼
ĠÐ²ÑģÑĤÑĢÐµÑĩ Ðµ
ĠÐ¼Ð»Ð°Ð´ Ð¾ÑģÑĤÐ¸
ĠÐ´Ð°Ð² Ð°Ð»
ĠÑĢÐ¾Ðº Ð¾Ð²ÑĭÐµ
ĠÑģÐ»Ð°Ð± ÐµÐ¹
ĠÐ³ÑĢÑĥÑģÑĤ ÑĮ
ĠÐ±Ð»Ð°Ð³Ð¾Ð´ Ð°ÑĤÑĮ
ĠÐ±Ð»Ð°Ð¶ÐµÐ½ ÑģÑĤÐ²Ð°
ĠÐ´ÐµÑĢÐ· Ð½Ð¾Ð²
ĠÐ±Ð»Ð¸Ð· Ð¾Ðº
ĠÑĪÑĥÑĤ ÐºÑĥ
ĠÐ²Ð¾Ð»ÑĮ Ð½Ñĭ
ĠÐ½Ð¾Ñģ Ð¸Ð»
ĠÐ½ÑĥÐ¶ Ð½Ð°
ÑĩÐ¸Ðº Ð¾Ð¼
ĠÐ¸Ð³ÑĢ Ñĭ
ĠÐ»ÑĥÐ³ Ð¾Ð²
ĠÐ»Ð¸ÑĪ ÐµÐ½Ñĭ
ÐĽÑİÐ´ ÐµÐ¹
ĠÐĲÐ½Ð³ÐµÐ» Ð°Ð¼Ð¸
ĠÐ·Ð´ ÐµÑĪ
ĠÑĥÐ² ÐµÐ½Ñĩ
ĠÑĪÐµÐ¿ ÑĩÑĥÑĤ
ĠÐ³Ð¾ÑĢÐ¾Ð´ Ðµ
ĠÑıÑģ Ð½ÑĭÐ¹
ĠÐ¾Ð±ÑĢÐ°ÑĤ Ð½Ð¾
ĠÐ²ÐºÑĥÑģ Ð¸Ð»
ĠÑĥÐ´Ð°Ð» Ð¾Ð¹
ĠÐ²Ð°Ð» Ð¸ÑĤÑģÑı
ĠÐ¿ÑĢÑıÐ¼ Ð¾Ð¹
ĠÐ¼ÑĥÑĩ ÐµÐ½ÑĮÑı
ÐĴÐ¸Ð´ Ð¸ÑĪÑĮ
ĠÑĩÐµÑĤ ÑĭÑĢ
ĠÐ¾Ð±Ð»Ð°Ðº Ð¾Ð²
ĠÐ²ÑĤÐ¾ÑĢ ÑĭÐ¼
ÐĴÐµÑģ Ð½Ð°
ĠÐ¡ÑĤ Ð°ÑĢ
ĠÐ²Ð½Ð¸Ð¼ Ð°Ð»Ð°
ĠÑĥÑģÐ¿ ÐµÐ»
ĠÐ±ÑĢÐ¾Ñģ Ð¸Ð»
ĠÐºÐ°ÑĤ Ð¸ÑĤÑģÑı
ĠÐºÐ°ÑĤ Ð¾ÑĢÐ¶
ĠÑĢÐ¾Ð· Ñĭ
ĠÐ¾ÑĤÑĩ Ð¸Ð·Ð½Ñĭ
ĠÐ¾ÐºÑĢÑĥÐ¶ Ð¸Ð²
ĠÑĤÐ²Ð¾ÑĢ ÐµÐ½ÑĮÑı
ĠÐ¿ÑĢÐ¾Ñħ Ð¾Ð´Ð¸ÑĤ
ÐŁÐ¾ÑģÐ» Ðµ
ĠÐ»Ð°Ð´ Ð½Ð¾
Ð£Ð± Ð¾Ð³
ĠÐ¸Ð·Ð¼ÐµÐ½ Ð¸Ð»
ĠÐ½Ð°ÑĩÐ°Ð» Ðµ
ĠÑģÐ²Ð¾Ð±Ð¾Ð´ Ð½Ð¾Ð¹
ĠÑĪÐ°ÑĤ ÑĢÑĭ
ĠÐŁÐµÑĤ ÑĢÐ¾Ð²
ĠÐ·Ð½Ð°ÐºÐ¾Ð¼ ÑĭÑħ
ĠÑģÐ¾Ñĩ ÑĤ
ĠÐ¼ÑĥÐ´ÑĢ ÐµÑĨ
ĠÐ¿ÑĢÐ¸ÑĤ Ð¾Ð¼
ÐŁÐ¾Ñĩ ÑĤÐ¸
ĠÑģÑĤÐ¸Ñħ Ð¸
ĠÑĨÐµÐ¿ ÑĮ
ĠÑģÑĥÐ¿ÑĢÑĥÐ³ Ð°
ÐĳÐ»Ð°Ð¶ÐµÐ½ ÑģÑĤÐ²Ð°
Ð¤ Ð¸Ð»Ð¸Ð¿Ð¿
ĠÐ¶ÐµÑģÑĤ Ð¾ÐºÐ¾Ð¹
Ð°ÑıÐ½ ÑĮÐµ
ĠÐ¿Ð¾Ð¹ Ð´Ñĥ
ĠÐ¿Ð¾Ð¹ Ð´ÐµÑĤ
ĠÐ¼ÐµÐ»ÑĮ Ð½Ð¸ÑĨÑĥ
Ð¡Ð¸Ð´ ÐµÐ»
Ð¡Ð¸Ð´ ÐµÐ»Ð¸
ĠÑĤÐ¾ÑĢÐ¶ÐµÑģÑĤÐ² Ðµ
ĠÑĤÐ¾ÑĢÐ¶ÐµÑģÑĤÐ² Ð¾Ð¼
ĠÐ²Ð½Ñĥ Ñĩ
ĠÐ²Ð½Ñĥ ÐºÐ¸
ÐĿÐµÐ¿ ÑĢÐ°Ð²
ÐĴÑĢÐ°Ð³ Ð°
ÐŀÑĤÐº ÑĥÐ´Ð¾Ð²Ð°
ĠÐ¿ÑĢÐ¾ÐºÐ»ÑıÑĤ ÑĭÐ¹
ĠÐ¾ÑģÐº Ð²ÐµÑĢÐ½
ĠÑģÑĤÑĢÐ¾Ð³ Ð¸Ð¹
ĠÐ²Ð·Ð³Ð»Ñı Ð½ÑĥÑĤÑĮ
ĠÐ±Ð¾ÑĢÑĮÐ± Ñĭ
ĠÑĤÐµÑĢÐ¿ ÐµÐ»
ĠÑħÐ²Ð°Ð» Ñĭ
Ð£Ð· Ð½Ð°Ð¹
ĠÑĢÐ°Ð·Ð³ ÑĢÐ¾Ð¼
ĠÑĤÐµÐ¼Ð½Ð¾ ÑĤÐµ
Ð¡Ð¾Ð·Ð´ Ð°Ð½Ð¸Ð¹
ĠÐ²Ð¾Ð·Ð¼ ÑĥÑī
ĠÐ³ÑĥÑģÑĤ ÑĭÐµ
ĠÐ¾ÑĤÑĢÐ°Ð´ Ð¾Ð¹
ĠÐ»ÐµÐ¶ Ð°Ð»Ð¸
ÐĹÐ² ÐµÐ·Ð´
ĠÐ¾Ð±Ð¸Ð´ Ð½Ð¾
ÐłÐ°Ð± Ð¾Ñĩ
ĠÐŁÑĢÐµÑģÑĤÐ¾Ð» Ð°
ĠÑĤÑĢÐµÐ¿ÐµÑĤ Ð¾Ð¼
ĠÐ½Ð°Ð± ÑĢ
ĠÑħÐ¾Ð»Ð¼ Ð¾Ð²
ĠÐ¿Ð»Ð°Ñĩ Ñĥ
ÐµÑĤÐµÑĢ Ð±ÑĥÑĢÐ³
Ð½ÑıÐ³ Ð¸Ð½Ðµ
ÐŀÑĤÐºÑĢ ÑĭÑĤ
ĠÑģÐ¿Ð¾ÑģÐ¾Ð± ÐµÐ½
ĠÐºÐ¸Ð¿ Ð¸ÑĤ
ÐĿÐ°Ñĩ Ð°Ð»
ĠÐ¿ÑĢÐ¸ÑıÑĤ ÐµÐ»ÑĮ
ÐĴÐ·Ð´ ÑĭÐ¼
ĠÐ¾ÑĢÑĥÐ¶ ÑĮÐµÐ¼
ÑĩÐµÑģ ÐºÐ¸Ñħ
Ð¿Ð¾Ð´ Ð½ÐµÐ¹
ĠÐŀÐ»ÑĮ Ð³Ð¸
ĠÐ½Ð°Ð´ÐµÐ¶ Ð´Ð°
Ð¡ÐºÐ°Ð· Ð°Ð»Ð°
ĠÐ¾Ð±ÑĬÑıÑĤ ÑĮÑı
ĠÐ³Ð¾ÑģÑĥÐ´ Ð°ÑĢÑĮ
ĠÐĵÐµÐµÐ½ Ð½Ñĥ
ĠÐ¾Ð¿ÑĥÑģÑĤ Ð¸Ð»ÑģÑı
ĠÐ³Ð»ÑĥÐ±Ð¾Ðº Ð¾Ð¼
ĠÑĥÑģÑĤÐ°Ð» ÑĭÐ¹
ĠÐ²Ð°Ñħ Ð»Ð°ÑĨ
ĠÐ¿Ð¾Ð´ÑĢÑĥÐ³ Ð¸
ĠÐ¢Ð²Ð¾ Ð¸
ÐĴÐµÐ»Ð¸Ðº Ð¾Ð»ÐµÐ¿
ĠÐ±Ð¾Ð»Ð¾ÑĤ Ð°
ĠÐļÐ¸ÐµÐ² Ðµ
ĠÐ²Ð¾Ð·Ð²ÑĢÐ°Ñī Ð°ÐµÑĤÑģÑı
ĠÑĢÐ°Ð·Ð´ÐµÐ» Ð¸ÑĤÑĮ
ĠÐ²Ð¸Ð½ ÑĤÐ¾Ð²
ĠÐ²Ð½Ð¸Ð· Ñĥ
ĠÑĤÑĳÐ¼ Ð½ÑĭÑħ
ĠÐ»ÑĥÐºÐ°Ð² ÑĭÐ¹
ĠÐ±Ð»ÐµÑģ ÐºÐ¾Ð¼
ĠÐ¿ÑĢÐ¾Ð´Ð¾Ð»Ð¶ Ð°ÐµÑĤ
ĠÐ¿ÑĥÑĩ Ð¸Ð½Ñĥ
ĠÑĤÐµÐº Ð»Ð¸
ĠÐ¼Ð¾Ð»ÑĮ Ð±
ÐĶÐ¾Ð± ÑĭÑĩÑĥ
Ð²ÐµÑĢÑħ Ñĥ
ÐŀÐ±ÑĬ ÑıÑĤ
ĠÐŁÑĢÐ¸ÑĢ Ð¾Ð´Ð°
ĠÐ³ÑĥÐ±ÐµÑĢ Ð½Ð°ÑĤÐ¾ÑĢ
ĠÑģÑĥÑħ Ð¾Ð¹
ĠÐ¿Ð»Ð° ÑĩÐµÑĤ
ĠÐ¿ÑĢÐµÑģÑĤÐ¾Ð» Ðµ
ĠÐ±Ð¾Ð³Ð¾Ð¼ Ð¾Ð»
ĠÐ¿ÑĢÐ¾ÑģÑĤÑĢÐ°Ð½ ÑģÑĤÐ²Ðµ
ĠÐķÑĢÐ¼Ð¸Ð» Ñĥ
ĠÑģÑĥÑī ÐµÑģÑĤÐ²Ð¾
ĠÐ²Ð¾Ð»Ð¾Ñģ Ñĭ
ÐŀÐ±ÑĪÐ¸ÑĢ Ð½ÑĭÐ¹
ĠÐ¾Ð³ÑĢÐ¾Ð¼ Ð½ÑĭÐ¹
ĠÐĳÐ¾Ð¶ÑĮ ÐµÐ³Ð¾
ĠÑģÐ°Ð¿ Ð¾Ð¶
ĠÐ´ÐµÐ½ ÐµÐ³
ĠÐ¼Ð¾Ð´ Ð½ÑĭÑħ
ÐĴÑģÑĤ Ð°Ð½ÑĮ
ÐĹÐ°ÑĢ ÐµÑĨÐºÐ¸Ð¹
Ð£Ð»ÑĭÐ± ÐºÐ°
ĠÐ¾Ð±Ð¾ Ð¸Ñħ
ĠÐ¿Ð»Ð°ÑĤ Ð¾Ðº
ĠÐĴÑģÐµÐ¼ Ð¾Ð³ÑĥÑī
ĠÐĴÑģÐµÐ¼ Ð¾Ð³ÑĥÑīÐ¸Ð¹
ĠÐ³Ð»Ñı Ð¶Ñĥ
Ð§ÐµÑĤ ÑĭÑĢÐµ
ĠÐ²ÐºÑĥÑĪ Ð°ÑĤÑĮ
ĠÐ¿Ð»Ð¾Ñī Ð°Ð´ÑĮ
ĠÐ´Ð¾Ð· Ð²Ð¾Ð»
Ð°Ð²ÑĪÐ¸Ñħ ÑģÑı
ĠÐµÑħ Ð°ÑĤÑĮ
ÐĶÐµÑĤ ÐµÐ¹
ÐŁÑĢÐ¾Ð¿ Ð°Ð»Ð¸
ÐĳÐµÐ» ÐºÐ°
ĠÐ²Ð¾Ð·ÑĮÐ¼ ÐµÑĤ
ĠÐ¯ÐºÐ¾Ð² Ð°
ĠÑħÐ²Ð¾ÑģÑĤ Ð¾Ð¼
Ð¡Ñĭ Ð½Ð¾Ð²
Ð¡ÑĥÑĢÐ¾Ð² Ð¾
ĠÐ½Ð°ÑģÑĤÑĥÐ¿ Ð¸Ð»
ĠÑĥÐ²ÐµÑĢ ÐµÐ½
Ð£Ð³ÑĢ Ð¾Ð·
ĠÐĴÐ»Ð°Ð´ Ð¸Ð¼Ð¸ÑĢ
ĠÐĴÐ¾Ð¶Ð´ Ñİ
ĠÐ±ÐµÑģÐºÐ¾Ð½ ÐµÑĩ
ĠÐ¿ÐµÑħ Ð¾ÑĤÐµ
ÐļÐ½ÑıÐ¶ Ð½Ð°
ÐłÐµÐ± ÑıÑĤÐ°
Ð¡Ð¿ÑĢÐ¾Ñģ Ð¸Ð»
ĠÑĤÐ²Ð°ÑĢ ÑıÐ¼Ð¸
ĠÐ´Ð¾ÐºÐ°Ð· Ð°ÑĤÑĮ
ĠÑģÑĥÐ» Ð¸ÑĤ
ĠÐ»ÐµÐ² ÑĭÐ¹
ĠÑģÐºÑĢÑĭÐ» ÑģÑı
ĠÑĤÑĢÐµÐ± ÑĥÐµÑĤ
ÐĳÐµÐ·Ð¼Ð¾Ð»Ð² Ð½Ð¾
ĠÐ¾ÑģÑĤÐ°Ð»ÑĮ Ð½Ð¾Ðµ
ĠÐ¾ÑģÑĤÐ¾ÑĢÐ¾Ð¶ Ð½Ð¾
ĠÑĤÐµÐ½ ÐµÐ¹
ĠÑĩÐ¸ÑģÐ» Ðµ
ÐļÑĢÑĭÐ» Ð°ÑĤ
ĠÐĴÑģÐµÐ²ÑĭÑĪ Ð½ÐµÐ³Ð¾
ĠÑĤÐ¾ÑģÐºÑĥ ÐµÑĤ
ĠÐ¾ÐºÐ¾ÑĪ ÐºÐ¾
ĠÐ·Ð°Ð· Ð²
Ð¡Ð¾Ð¿ ÐµÑĢ
ĠÐ¶ÐµÐ¼Ñĩ ÑĥÐ³
ĠÐ³Ð½ ÐµÐ·Ð´
Ð¢ÑĢÐµÐ² Ð¾Ð¶
ĠÑĢÐ°Ð·Ð» ÑĥÐºÐ¸
ĠÐ´Ð¾Ð±ÑĢÐ¾Ð´ ÐµÑĤÐµÐ»ÑĮ
ĠÑĢÐ¾ÑģÐºÐ¾ ÑĪÐ¸
ĠÐ¼Ð¾Ð½Ð°ÑģÑĤ ÑĭÑĢÑĮ
ĠÐ½Ð¾ÑĪ Ñĥ
ĠÐºÐ»Ð¾Ð½ Ð¸ÑĤ
ĠÑĢÐµÑģ Ð½Ð¸ÑĨÑĭ
Ð¢Ð°ÑĤÑĮÑı Ð½Ñĥ
ĠÐ±ÑĭÑĤ Ð¸Ñı
ĠÐ·Ð°Ñī Ð¸ÑĤ
ĠÑģÑĥÑĢ Ð¾Ð²Ð¾Ð¹
ĠÐ³ÑĢÐ° ÑĦ
ÐĲÐ»ÐµÐº Ð¾
ĠÐĴÐ¿ ÐµÑĢÐµÐ´
ĠÐ±Ð»ÑİÐ´ Ñı
ÑģÐ°Ð½Ð´ ÑĢÐ¾Ð²
ĠÐ¾ÑĤÑĭÑģÐº Ð°ÑĤÑĮ
ĠÐĴÐ°Ð½ÑĮ ÐºÐ°
ĠÐ²Ð¾Ð·Ð³Ð»Ð°Ñģ Ð¸Ð»
ĠÐĶÐ¾Ð½ Ñĥ
ÐĶÑĥ ÑĢÐ°Ñĩ
ĠÐĿÐµÑĢ ÑĩÐ¸Ð½
ĠÑįÐ¿ Ð¸Ð³
ĠÐĳÑĥÑı Ð½Ð°
ĠÐºÐ»Ð°Ð´Ð± Ð¸ÑīÐµ
ĠÐ´Ð½ÐµÐ² Ð½Ð¾Ð¹
ĠÐ½ÐµÑģÑĤ ÐµÑĢÐ¿
ĠÐ¶Ð°Ð¶ Ð´Ð°
ĠÐ¶Ð¸Ð»ÑĮ Ñĳ
ĠÑĥÑĢÐ¾Ð¶ Ð°Ð¹
ÐŁÑĢÐ¸ÐµÑħ Ð°Ð»
ĠÐ¿Ð¾Ð´ÐºÑĢ ÐµÐ¿
ĠÐºÑĢÐ°ÑģÐ½ Ð¾ÑĢÐµÑĩ
ĠÐ¼ÑĢÐ°Ð¼ Ð¾ÑĢ
ĠÐ»Ð¾ÑĢ Ð½ÐµÑĤ
ÐĶÐµÐ¼ ÑĮÑıÐ½
ĠÑģÐ»Ð° ÑīÐµ
ĠÐ¸Ð·ÑĢÐµÐ´ ÐºÐ°
ĠÐ°Ð´Ð°Ð¼ Ð°Ð½ÑĤ
ĠÐŁÑĢÐµÐ¸Ñģ Ð¿Ð¾Ð´Ð½ÐµÐ¹
ÐĵÑĢÐ¸Ð³Ð¾ÑĢ Ð¸Ð¹
i e
i l
o n
« ÐĻ
Ð «ÐĻ
Ð¾ ÐµÑĤ
Ð° ÑĳÑĤ
ÑĤ ÐµÐ¹
ÑĤ Ð°Ð»Ð¸
ÑĤ ÑĢÐ¸
Ð¸ Ð¾Ð½Ñĭ
Ñģ Ñĭ
Ñģ ÑĥÐ¶Ð´
ÑĢ Ðº
ÑĢ Ð°Ð±
ÑĢ Ð¸Ð³
ÑĢ ÐµÐ½Ð°
ÑĢ ÐµÑĩÑĮ
ÑĢ ÐµÐ¶Ð´
Ð½ Ð°Ð½Ð¸Ñı
Ð» ÐµÑĢ
Ð» Ð°Ð»Ð¸
Ð» Ð¾Ñİ
Ð» Ð°Ð¼Ð¸
Ð» ÐµÐ»Ð¸
Ð» ÐµÑģÐº
Ñĥ ÑģÐ¿
Ñı ÑıÑģÑĮ
ĠÑģ Ð¸Ð¼
ĠÑģ ÑĢÐ°Ð²
ĠÑģ ÐµÑĢÑĮ
ĠÑģ ÑĥÐ´Ð°
ĠÑģ Ð¾ÑĤÑĢ
ĠÐ¿ Ð½Ð¸
ĠÐ¿ ÐµÑģÑĤ
ĠÐ¿ ÐµÐ¿
ĠÐ¿ ÐµÐ»ÐµÐ½
ĠÐ² Ð»Ð¸
ĠÐ² ÐµÐ»Ð°
ĠÐ² ÐµÑģÑĤÐ¸
Ð² Ð¾ÑĤ
Ð² Ð¾ÑģÑĤ
Ð² ÐµÑī
Ð² Ð¸Ð½Ð°
Ð´ ÐµÑĪÑĮ
Ð´ Ð¸Ñģ
ĠÐ½ Ð¾Ð·Ð´
Ñĩ Ð°Ð»
Ñĩ Ð°Ð²
Ñĩ ÐµÐ³
Ð¼ Ð¾Ð¼
Ð¼ Ð¾Ð³
Ð¼ Ð°ÑĢ
Ð¼ Ð°Ñĩ
Ð¼ ÑĭÐº
Ñħ Ð²
ÐµÐ½ Ð¾Ñİ
ÐµÐ½ Ð½Ð¾Ñİ
ÐµÐ½ ÑģÑĤÐ²Ð¾
ĠÑĤ Ðº
ĠÑĤ ÑĥÐ»
ÐµÑĤ Ð½ÑĭÐ¹
Ð°Ð» Ð¸Ð»
ĠÐ´ Ð°Ð»Ð°
ĠÐ´ Ð°ÑİÑĤ
ĠÐ´ ÑİÐ¶
ĠÐ¸ Ð³
ĠÐ¸ Ð½ÑĭÐ¼
ĠÐ¸ ÑīÐ°
Ð¾Ð² Ð°Ð½
Ð¾Ð² Ð°Ð½ÑĮÐµ
ĠÐ± Ð¸Ð»
ĠÐ± ÑĥÐ¼
ĠÐ± ÐµÐ»Ð°
ĠÐ± ÐµÑģÑĤÐ¾Ð»
ĠÐ± ÑĮÑİÑĤ
ĠÐ¼ Ñī
ĠÐ¼ ÑĥÑħ
ĠÐ¼ ÑĥÐºÑĥ
ĠÐ¼ ÑĥÐºÐ¾Ð¹
ÐµÑĢ Ð¸ÑĤÑĮ
ÐµÑĢ Ð°ÑĢÑħ
Ð¾ÑĢ ÑıÐ´
Ð¾ÑĢ Ð¾Ð²Ð°
ÐµÐ» Ð°Ð²
Ð¸ÑĤ Ð°Ð½
Ð¸ÑĤ ÐµÑĢÐ°
Ð¾Ð´ Ð¸ÑĤÐµ
Ð¾Ð¼ ÑĭÑħ
Ð¸Ð» ÑĭÐ¹
ÐĿ ÐµÑĩ
Ðĺ Ð´ÐµÐ¼
ÐµÐ¼ Ð½Ð¾Ð¹
ÐµÐ¼ ÑĭÐµ
ĠÑĢ Ð°Ðº
ĠÑĢ Ð¾Ð½
ĠÑĢ Ð¸Ñģ
ĠÑĢ ÑĥÐ¼ÑıÐ½
ĠÐ³ Ð½ÐµÑĤ
ĠÐ³ Ð½ÑĳÑĤ
Ð°ÑĤ Ð¼Ð¸ÑĢ
ĠÐ¿ÑĢ ÐµÑĢ
ĠÐ¿ÑĢ ÑıÑĤ
ĠÐ¿ÑĢ ÐµÐ½ÐµÐ±ÑĢ
ĠÐ¿ÑĢ ÐµÐ»ÑĮÑģÑĤ
ÐŁ Ð°ÑħÐ¾Ð¼
ÐĴ Ð»Ð¸
ÐĴ ÑĭÐ²
ÐĴ ÑĢÐ°Ñī
ÐĴ ÑģÑĤÐ°Ð»
ÐĴ ÐµÐ´ÐµÑĤ
ÐĴ Ð½ÑĥÑĪ
Ð¾Ð³ Ð°Ð¼Ð¸
Ð¡ Ñħ
Ð¡ ÐµÑĢ
Ð¡ Ð¾Ñĩ
Ð¡ Ð°Ð±
Ð¡ ÑĥÐ¿
Ð¡ Ð°Ð¼Ð¸
Ð¡ ÑĥÑħ
Ð¡ ÐµÑĢÐ³
Ð¡ ÐµÐ¼ÑĮ
Ð¡ Ð¾Ð¼Ðº
Ð¿ Ð°
Ð¿ Ð¾ÑģÑĤ
Ð¿ Ð¸ÑĤÐµÑĢ
ÑĨ Ð¸Ð¹
Ð¾ÑĤ Ð¸
ĠÐ» Ð¾Ð´
ĠÐ» Ð°Ð¹
ĠÐ» Ð°ÑģÑĤ
ÐµÐ´ Ð°ÐµÑĤ
Ð°Ð½ Ð´Ð°
Ð°Ð½ ÑĤÑĭ
ĠÐ½Ðµ ÑģÐ¿
ĠÐ½Ðµ ÑģÑĤÑĢÐ¾Ð¹
Ñī Ð¸
ĠÑĩ ÑĮÐ¸
ĠÑĩ ÐµÐ»Ðµ
ĠÑĩ ÐµÐ»Ð¾Ð¼
Ð°Ð´ Ð°ÐµÑĤ
ÐµÑģ Ð½ÑĭÐ¹
ÐµÑģ Ð¿ÐµÑĢ
Ð°Ð· Ð°ÑĤÑĮ
Ð¸Ð½ Ð´
Ð¾Ð½ Ð¾Ðº
Ðļ Ð»
Ðļ Ð°Ñģ
ĠÑģÑĤ Ð°ÑĤÑĮÑı
ĠÑģÑĤ ÐµÑģÐ½
ĠÐ½Ð° Ð¸Ð²
Ð¾Ð± Ð½ÑĭÐ¹
Ð¢ ÑĢÐ°Ð²
Ð¢ ÐĲÐ¯
Ð¾Ðº Ð¾Ð²
Ð¾Ðº Ð¾ÑĢ
Ð¾Ðº ÑĥÑĢ
Ð¸Ð² Ð¾Ð³Ð¾
Ð¸Ð² ÑĪÐ¸Ð¼
ĠÐ¶ Ð¸ÑĤ
ÑĥÑĤ Ð¸
ÐµÐ² Ð¾Ð¶
ÐµÐ² ÑĪÐ¸ÑģÑĮ
Ð¾Ð· ÑĮ
Ñĳ Ð²
Ð¸Ð¼ Ð¾Ðµ
ÐµÑģÑĤ Ð¸ÑĤÑĮ
ÐĶ Ð¾Ð¿
ÐĶ Ð¾ÑģÐ¿
ÐĶ Ð½ÐµÐ¼
ÐĶ ÐµÐ¼Ð¾Ð½
Ð»Ð¸ ÐºÐ¾Ð²
ĠÑĥ ÑĢ
ĠÑĥ ÐµÑħÐ°Ð»
ÐµÐ· ÑĥÑĤ
Ð¾ÑģÑĤ Ð°Ð²
Ð¾ÑģÑĤ Ð½ÑĭÑħ
Ð¾Ñĩ Ð½Ð¸Ðº
Ð¾Ñĩ ÐºÐ°Ð¼
ÐµÐ³ Ð°Ð»
ÐµÐ³ Ð°ÐµÑĤ
ĠÑı Ð¹
ÐµÑĩ Ð°
ÐµÑĩ Ð¸
ÑĥÐ¶ Ð¶
ĠÑģÐ² Ð¸ÑĤ
ĠÐ¾ÑĤ Ð»Ð¸Ð²
ĠÐ¾ÑĤ ÑĢÐµÐº
ÐŁÑĢ Ð¸Ð»
Ð§ ÑĮÑĳ
ÐµÐº ÑĥÑĤ
Ð°Ñı Ð½ÑĮÐµÐ¼
ĠÑħ Ð°ÑĢ
ĠÑħ Ð¸Ñī
ĠÑħ Ð¸Ð¶
Ð»Ñı ÑģÑĮ
Ð»Ñı ÑıÑģÑĮ
Ðľ Ð°Ñħ
Ðľ ÐµÑģÑı
Ðĳ ÑĮÐµÑĤÑģÑı
ÐĹ Ð°Ð¹
ÐĹ ÑĥÐ±
ÐĹ Ð²ÐµÑĢ
Ð°Ð¶ ÑĮ
ÐĿÐµ Ð¸Ñģ
ĠÐ²Ñģ ÐµÐ»ÐµÐ½
ĠÐ²Ñģ Ð»ÑĥÑħ
ÐĲ Ð½
ÐµÐ¿ ÑĢÐ¸Ð¸Ð¼
ĠÐ¾Ð± Ðµ
ĠÐ¾Ð± Ð¾Ð½
ĠÐ¾Ð± Ð¸Ð¶
ĠÐ¾Ð± ÑīÐ¸Ð¹
ĠÐ¾Ð± Ð½ÑıÐ»Ð°
ĠÐ¾Ð± ÐµÑĤÐ¾Ð²
Ð¸Ðº Ð¾
Ð°Ð¹ Ð½Ðµ
Ð¾Ð¿ Ð¸Ð»
ÑģÑĤÐ² Ð¸Ð¸
ÑģÑĤÐ² ÐµÐ½Ð½ÑĭÑħ
Ðĵ Ð¾Ð»
Ðĵ Ð°ÑĢ
Ðĵ ÑĢÐ°Ð´
Ðĵ Ð¾Ð»Ð¾Ñģ
Ðĵ Ð°Ð²ÑĢ
Ðĵ Ð»ÑıÐ¶Ñĥ
ÐµÐ»ÑĮ ÑĨÐ°
ĠÐ³ÑĢ ÐµÐ·Ñĭ
ÑĥÐ¼ Ð¾Ð»
ÑĥÐ¼ ÐµÐ½ÑĤ
ĠÐ¿Ð¾Ð´ Ð°Ð»
ĠÐ¿Ð¾Ð´ Ð³
ĠÐ¿Ð¾Ð´ ÑĢÑĥÐ¶
ĠÐ¿Ð¾Ð´ ÑĢÐ°Ð¶
ĠÐ¿Ð¾Ð´ ÑĮÑıÑĩ
ÑĥÑĩ ÐµÐ¼
ÑĥÑĩ Ð°ÑĤÑĮ
ĠÐ²Ñĭ Ð½
ĠÑĪ Ðº
ĠÑĪ ÐµÑģÑĤÑĮ
ĠÑĪ Ð»ÑİÑĤ
ĠÐ¡ Ð¾Ð²
ĠÐ¡ Ð²Ð¾Ð¹
ĠÐ¡ ÑĥÐ´ÑĮÐ±
ĠÐ¸Ð· Ð¾Ð±
ĠÐ¸Ð· ÑĢÑĳÐº
ĠÐĿ Ð°Ñĩ
ĠÑģÐº Ð°Ð¼
ĠÑģÐº ÑĥÐºÐ¸
Ð¸ÑĪ Ðµ
Ð¸ÑĪ Ð¸Ð½Ð°
ĠÐ¿Ð¾Ð» ÑĥÑĩ
ĠÐ¿Ð¾Ð» Ð½Ð¾Ðµ
ĠÐ¿Ð¾Ð» ÑĥÐº
ĠÐ¿Ð¾Ð» ÐµÐ²Ð¾Ð¹
Ð½Ñı Ðº
Ð½Ñı Ñħ
Ðł ÐµÐº
Ðł ÑĥÐº
Ðł Ð²Ð°Ð½
ÐļÐ°Ðº Ð¸Ñħ
ÑĭÑħ Ð°ÑĤÑĮ
ÑĭÑħ Ð°Ð»Ð¸
ĠÐĴ Ð°ÑĢ
ĠÐĴ Ð°Ð²Ð¸Ð»
ĠÐĴ Ð»Ð°ÑģÑĤ
ĠÐĴ Ð»Ð°ÑģÑĤÐ¸
Ð¸Ð»Ð¸ ÑīÐ°
Ð°Ð¿ ÐµÐ·
Ð´Ðµ ÑĨ
Ð´Ðµ ÑģÑıÑĤ
Ð¸Ñĩ Ñĥ
ĠÐ¢ ÐµÐ¼
ĠÐ¢ Ð¾Ð³Ð¾
ĠÐ¢ Ð¾Ð¼Ñĥ
ĠÐ¢ ÐµÐ¿ÐµÑĢÑĮ
ĠÐ¢ ÑĢÐ¸
ĠÐ·Ð° ÑĥÑĤ
ÐĽ Ñĥ
ÐĽ ÑĥÐºÐ°
ÐĽ Ð°Ð´Ð½Ð¾
ÐŀÑĤ ÑĢÑıÐ´
ĠÐ³Ð¾ÑĢ Ð»Ð¾
ĠÐ³Ð¾ÑĢ Ð¾Ñħ
ĠÐ³Ð¾ÑĢ Ð°Ð·Ð´Ð¾
ĠÑģÐ¼ ÐµÐ¶
ĠÑģÐ¼ Ð¾ÑĤÑĢÐ¸
ĠÑģÐ¿ ÑıÑĤ
ĠÑģÐ¿ Ð¸Ð½Ðµ
ĠÑģÐ¿ ÑĢÑĭÐ³
ĠÑģÐ¿ Ð°ÑģÑĤÐ¸ÑģÑĮ
ĠÑģÐ¿ Ð¾Ð»Ð½Ð°
ĠÐŁ Ð°Ð»
ÐµÑħ Ð°ÑĤÑĮ
ÐµÑħ Ð°Ð»Ð°
ÐµÑħ Ð¾Ð½ÑĮÐºÐ¾
ĠÐ»Ð¸ Ñģ
ĠÐ±ÐµÐ· Ð¾Ð±ÑĢÐ°Ð·
ĠÐ±ÐµÐ· ÑĥÐ¿ÑĢ
ĠÐ±ÐµÐ· Ð¾Ð¿Ð°Ñģ
ĠÐ±ÐµÐ· Ð³ÑĢÐµÑĪ
!Â» ,
ĠÑĨ ÑĭÐ³
ĠÑĤÐ°Ðº Ð¾Ð²Ð°
ÑĥÑİ ÑģÑĮ
ÑĥÑİ ÑīÐ¸Ñħ
ĠÐ²Ð· Ð´Ñĥ
ÐĴÑģ ÐµÐ»ÐµÐ½
ÐĴÑģ ÑĶ
ÐĴÑģ ÐµÐ»ÐµÐ½Ð½Ð¾Ð¹
ÑĥÑģÑĤ Ð¸ÑĤÑĮ
ĠÐ¿ÐµÑĢ Ð¾
ĠÐ¿ÐµÑĢ ÐµÐ³
ĠÐ¿Ð» Ñİ
ĠÐ¿Ð» Ð¸ÑĤ
ĠÐ¿Ð» Ð°Ð²
Ð½ÐµÐ¹ ÑĪÐµÐ¹
Ð½ÐµÐ¹ ÑĪÑĥÑİ
Ð½ÐµÐ¹ ÑĪÐµÐµ
ĠÐ¼Ð¾Ð» Ð¸ÑĤÑĮÑģÑı
ĠÐ¾Ð´ ÐµÐ¶
ĠÐ¾Ð´ Ð½Ð¸Ñħ
ĠÐ° Ð½
ĠÐ° Ðº
ĠÐĲ Ð¼
ĠÑģÑĤÑĢ ÐµÐ»Ð°
ĠÐ¿ÑĢÐ¸ ÑģÐº
ĠÐ±Ð» ÑĥÐ´
ĠÐ±Ð» ÑĥÐ¶Ð´
ĠÐ±Ð» ÐµÑīÐµÑĤ
ĠÐ±Ð» Ð°Ð¶ÐµÐ½Ð½ÑĭÐ¹
ĠÐ¼Ð¾ Ñħ
ĠÐ¼Ð¾ ÐµÑİ
ĠÐ±ÑĢ Ð¾Ð²ÑĮ
ĠÐ±ÑĢ Ð°Ð½ÑĮ
ĠÐ±ÑĢ ÑĭÐ·
Ð¸ÑģÑĤ Ð°Ñı
Ð¸ÑģÑĤ ÑĥÑİ
ĠÐĶ Ñĥ
ĠÐĵ ÑĢÐ°Ð½
Ð¡ÑĤ Ð°Ð»Ð¸
ĠÐ¿Ð¾Ðº ÑĢÑĭÐ²
ĠÐľ Ð¾ÑĢ
ÐŁÐ¾Ð´ ÑĢÑĥÐ³
ÐŁÐ¾Ð´ ÑħÐ¾Ð´Ð¸ÑĤ
ĠÐļ Ð¾Ð¼Ñĥ
Ð¾Ð±ÑĢ ÐµÑĤ
ĠÐ½Ð°ÑĪ ÐµÐ»
Ð²Ð° Ð½Ñĭ
ĠÐ½Ð¸ ÑīÐ¸Ðµ
ĠÑģÑĤÐ°ÑĢ Ð¸Ð½Ñĥ
ĠÑģÑĤÐ°ÑĢ Ð¾ÑģÑĤÐ¸
ĠÑģÑĤÐ°ÑĢ Ð¾ÑģÑĤÑĮ
ĠÑģÑĤÐ°ÑĢ ÑĥÑĪÐºÐ°
ĠÐ¿Ð¾ÑĢ Ð¾Ñģ
Ð¾Ñħ Ð°
Ð¢Ð°Ðº Ð¸Ð¼
ĠÐ²ÑĢ ÑıÐ´
ĠÐ²ÑĢ Ð¾Ð·ÑĮ
ÑĥÑī ÐµÐµ
ĠÑĢÐ°Ñģ ÑģÑĤÑĥÐ¿
ÐµÐ½Ñı Ð¼
ĠÐ´Ð¾Ð» Ð¸
ÑĦ Ñĭ
ÑĦ ÑĢÐ°Ð½ÑĨÑĥÐ·
ĠÐ²Ð¸Ð´ Ñĭ
ĠÐ²Ð¸Ð´ ÐµÐ½
ĠÐ²Ð¸Ð´ Ð½Ñĭ
ĠÐ¿ÑĢÐµÐ´ Ð²Ð¸Ð´
ĠÐ¿ÑĢÐµÐ´ Ð½Ð°Ð·
ÐµÐ»Ð° ÐµÑĪÑĮ
ÐµÐ½ÑĮÑı Ð¼Ð¸
ĠÐ²Ð¾Ð» Ðº
ĠÐ²Ð¾Ð» Ð½Ð¾Ð²
Ð¸ÑĤÐµÐ»ÑĮ Ð½ÐµÐ¹
Ð¸ÑĤÐµÐ»ÑĮ Ð½Ð¾Ð³Ð¾
Ð¸ÑĤÐµÐ»ÑĮ Ð½Ð¾ÑģÑĤÑĮ
Ð¥ Ð²Ð°ÑĤ
ĠÑģÐ°Ð¼ Ð¸Ñħ
ĠÑģÐ°Ð¼ ÑĭÐ¼
ĠÑĢÐ¾Ð´ Ð¸Ð»ÑģÑı
ĠÑĥÐ¼ Ð½Ð¾Ð¶
ĠÐł Ð¾Ð´
ĠÑģÐ²ÐµÑĤ Ð¸Ð»Ð°
ĠÑģÐ²ÐµÑĤ Ð¸Ð»Ð¾
ĠÐķ Ð´
ĠÐķ Ð²Ðµ
ĠÐ¼Ð¸ÑĢ Ð¸
ĠÐ¼Ð¸ÑĢ Ñĭ
ĠÐ¼Ð¸ÑĢ Ð½Ð¾
ĠÐ¼Ð¸ÑĢ Ð½Ð¾Ð¹
ĠÐ¼Ð¸ÑĢ Ð¾Ð·Ð´
ĠÐ½ÐµÐ¼ Ð½Ð¾Ð³
ĠÐ¾Ð¿ Ð¾ÑĢ
ĠÐ¾Ð¿ ÑĥÑĤ
ĠÐ½Ð¾Ñĩ Ð½ÑĭÑħ
Ð¸Ñģ Ð°ÑĤÑĮ
ĠÐ·Ð² ÐµÐ½
ĠÐ·Ð² ÐµÐ½Ð¸ÑĤ
Ð¡Ðº Ð¸ÑĤ
ĠÑģÐ¸Ð» Ð°Ð¼
ĠÐ·ÐµÐ¼ Ð½ÑĭÐµ
ĠÐ¸Ð¼ ÐµÐµÑĤ
ĠÐ¸Ð¼ Ð¿ÐµÑĢ
Ð¾Ð·Ð´ Ð°Ð»
ÑģÐ¿ Ð¾ÑĢ
ĠÑģÐ»Ð¾Ð² Ðµ
ĠÑĥÑĤ ÑĳÑģ
Ð»ÐµÐ½ Ð¾
ĠÐ²Ð´ Ð¾Ð²Ð°
ĠÐ¿Ð¾Ð² ÐµÑĢÑĮ
ĠÐ¿Ð¾Ð² Ð¸Ñģ
ĠÐ¿Ð¾Ð² ÑģÑİÐ´Ñĥ
ĠÐĺ Ñħ
ĠÐĺ Ð´Ð¸
ÐµÐ»Ð¾ ÑģÑı
ĠÐ¿ÑĢÐ°Ð² Ð¸ÑĤÑĮ
ÐŀÐ± Ñī
ÐŀÐ± Ð¾Ð·
ĠÐ¼ÑĥÐ¶ Ñĥ
ĠÐ»ÐµÑĤ ÐµÐ»Ð°
ĠÐ±Ð»Ð°Ð³ Ð¾ÑģÑĤÑĮ
ĠÐ¾Ð³ Ð¾ÑĢÐ¾Ð´
ÑĥÑģ ÐºÐ°
ÑĥÑģ ÐºÐ°ÐµÑĤ
ĠÐ±ÐµÐ´ Ð½ÑĭÐµ
ĠÑĤÐ²Ð¾ ÐµÐ¼
ĠÐ¶Ð¸Ð² ÐµÐ¹
ĠÐ±ÐµÑģ ÑĨ
ĠÐ¾Ñģ Ð°Ð½
ĠÐ¾Ñģ ÐµÐ½Ð¸
ĠÐ¼Ð¾ÑĢ ÑģÐºÐ¾Ð¹
ĠÑĨÐ°ÑĢ ÐµÐ¼
ĠÑĨÐ°ÑĢ ÑģÑĤÐ²
ĠÑĨÐ°ÑĢ ÑģÐºÐ¸Ð¹
ĠÑĨÐ°ÑĢ ÑģÑĤÐ²Ð°
ĠÑĨÐ°ÑĢ ÐµÐ²Ð¸Ñĩ
ĠÑģÐ¾Ð± Ð°ÐºÐ°
ĠÐ·Ð°Ð± ÑĭÐ²
ĠÐ±Ð¾Ð»ÑĮ ÑĪÐ¸Ð¼
ĠÐ§ ÐµÐ¼
ĠÐ§ ÑĤÐ¾Ð±
ĠÑĥÐ´ Ð²Ð¾
Ð¡Ð¿ ÑĥÑģÑĤ
ĠÐ½Ð°ÑĢ ÑĳÐº
ĠÐºÑĢÐ°Ñģ Ð°
ĠÐĽ Ð°Ð²
ĠÐĽ ÐµÐ²
ĠÐ¿Ð¾Ð³ Ð¾Ð½
ĠÐ¿Ð¾Ð³ Ð»ÑıÐ´ÐµÐ»
Ð¾ÑĤÑĮ ÑģÑı
ĠÐ¿ÐµÑģ Ð½Ðµ
ĠÑģÐ¾ Ð¾Ð±ÑĢÐ°Ð·
ĠÐ¿ÑĢÐ¾ ÑıÐ²
ĠÐ¿Ð¾Ñģ Ð¼
ĠÐ¿Ð¾Ñģ ÑĢÐ°Ð¼
ĠÐ½ÐµÐ² Ð¾Ð´
ĠÐ½ÐµÐ² Ð¾Ð·Ð²
ÑĪÐ¸Ð¹ ÑģÑı
ĠÐ´ÑĥÐ¼ Ð°
ĠÐ´ÑĥÐ¼ Ð°Ð¹
ĠÐ´ÑĥÐ¼ Ð°ÐµÑĪÑĮ
ĠÐ²Ð¾Ð´ Ð¾Ð¿
ĠÐ²Ð¾Ð´ ÐºÑĥ
ĠÐ½ÐµÐ´ Ð°Ð²
ĠÐ½ÐµÐ´ Ð¾Ð±ÑĢ
ĠÐ½ÐµÐ´ Ð¾Ð»Ð³Ð¾
Ð¡Ð¼ ÑĥÑī
ĠÐŁÑĢ Ð°Ð¼Ð°ÑĤÐµÑĢÑĮ
ĠÑģÐ½ ÐµÑģÑĤÐ¸
ĠÐ¿Ð¾Ð¿ ÑĭÑĤ
ÐŃ ÑĤÐ¸
ĠÐ¿ÑĢÐ¾ÑģÑĤ ÑĭÐµ
ĠÐ¿ÑĢÐ¾ÑģÑĤ ÑĳÑĢÑĤ
ĠÐ»ÑĮ ÑģÑĤ
ĠÐ»ÑĮ ÐµÑĤ
ĠÐ»ÑĮ Ð´Ð¾Ð¼
ĠÑĢÐ°Ð´ Ð¾ÑģÑĤÑĮÑİ
ĠÐ½Ð°Ð² Ð¾Ð´Ð¸ÑĤ
ĠÐ½Ð°Ð² ÐµÑĢÑħÑĥ
ĠÐ³Ð¾Ð²Ð¾ÑĢ Ñİ
ĠÑĥÐ¿ Ð°Ð»Ð°
ĠÐ¿Ð¾ÑģÑĤ ÑĢ
Ð²Ð°Ð» Ð°ÑģÑĮ
Ð²Ð°Ð» Ð¾ÑģÑĮ
ĠÐ½Ð°Ð¿ ÑĢÑıÐ³
ĠÐ¿ÑĢÐ¸Ð² ÑģÑĤÐ°Ð»
ĠÑĩÐµÑĢ Ð½
ĠÑĩÐµÑĢ Ð½Ð¾
ĠÑħÐ¾Ð» Ð¼Ðµ
ĠÐ¾Ð±ÑĢ ÑıÐ´
Ð¨ Ð°ÑĤ
ĠÑģÑĩÐ°ÑģÑĤ ÑĮÐµÐ¼
ĠÐ²Ð·Ð¾ÑĢ Ñĥ
ĠÑĩÐ°Ñģ Ð¾Ð¼
ĠÑĩÐ°Ñģ Ð¾Ð²Ð¾Ð¹
ĠÐ¿Ð¾Ð± ÐµÐ¶Ð°Ð»Ð°
ĠÐ¿Ð¾Ñĩ ÐµÑĤ
ĠÐ½ÐµÐ± ÑĭÐ²Ð°Ð»
ĠÐ½ÐµÐ¿ ÑĢÐ¸ÑıÑĤ
ĠÑĢÐ°Ð± Ð¾ÑĤÑĭ
ÐŁÑĢÐµÐ´ ÑģÑĤ
ÐŁÑĢÐµÐ´ Ð¿
ÐŁÑĢÐµÐ´ ÑģÑĤÐ°Ð²
ĠÑģÑĤÑĢÐ°Ð½ Ðµ
ĠÑģÑĤÑĢÐ°Ð½ Ð½Ð¸ÐºÐ¾Ð²
ĠÑģÑĤÑĢÐ°Ð½ Ð½Ð¸ÐºÐ°Ð¼
ĠÑģÑĭ Ð³ÑĢ
ĠÑģÑĭ ÑģÐºÐ°ÑĤÑĮ
ĠÐ¿Ð°ÑĢ Ð°
ĠÐĹÐµÐ¼ ÑĦÐ¸ÑĢÐ°
ĠÑĥÐ· Ð¾ÑĢ
ĠÑĥÐ· ÑĢÐµÑĤÑĮ
ĠÑĦ ÑĢÐ°Ð½
ĠÑĦ Ð¸Ð¼Ð¸
ĠÑĦ Ð»Ð°Ð³
ĠÐ¸ÑģÐº ÑĢÑĭ
ĠÐ¸ÑģÐº Ð»ÑİÑĩ
ĠÐ¸ÑģÐº Ð¾Ð½Ð¸
ĠÐ´ÐµÑĢÐµÐ² Ð½Ñı
ĠÐ´ÐµÑĢÐµÐ² ÑıÐ½
ĠÐ²ÐµÐ´ ÐµÑĢ
ĠÑĥÐ± Ð¾ÑĢ
ĠÐ³Ð»ÑıÐ´ Ð¸ÑĪÑĮ
ĠÐ¶ÐµÐ» Ð°Ð½ÑĮÑı
ĠÐ¶ÐµÐ» Ð°Ð½Ð¸Ð¹
ĠÐ¿ÐµÑĢÐ² Ð¾Ð³Ð¾
ĠÐ¿ÐµÑĢÐ² ÑĥÑİ
ĠÑģÐ»ÐµÐ· Ð°
ĠÑģÐ»ÐµÐ· Ð¾Ð¹
ĠÐ½Ð¾Ð³ Ð°Ñħ
ĠÐ½Ð°Ñĩ Ð°ÑĤÑĮ
ĠÐ£ Ð²Ñĭ
ĠÐ´ÐµÑĤ ÑģÑĤÐ²Ð¾
ĠÐ¸ÑģÐ¿ Ð¾Ð´
ĠÐ³ÑĢÐ¾Ð· Ð¸ÑĤ
ĠÑģÑĤÑĢÐ°ÑĪ Ð½Ð°Ñı
ĠÑģÑĤÑĢÐ°ÑĪ Ð½Ð¾Ð³Ð¾
ÑĥÐ½ Ð´
ĠÐ·Ð¾Ð»Ð¾ÑĤ Ð°
ĠÐ·Ð¾Ð»Ð¾ÑĤ ÑĭÐ¼
ĠÐ·Ð¾Ð»Ð¾ÑĤ ÑĥÑİ
ĠÐ³Ð»ÑĥÐ± Ð¸Ð½
ĠÐ¿Ð¾Ð½ ÑıÐ»Ð¸
ĠÐ¥ Ð¾ÑĤÑĮ
ÑĢÐµÐ½ Ð¸Ðµ
ÑĢÐµÐ½ Ð½ÐµÐ¹
ÑĢÐµÐ½ Ð½Ð¸Ð¹
ÐĿÐµÑĤ ÐµÑĢÐ¿ÐµÐ»
ĠÐ´ÐµÐ» Ñĥ
ĠÐ´ÐµÐ» Ð°ÐµÑĤ
ĠÐºÑĢÑĥÐ³ Ð¸
ĠÐºÑĢÑĥÐ³ Ð»ÑĭÐ¹
ĠÐ±Ð¾ Ð¸ÑĤÑģÑı
ĠÐºÑĢÐ¾Ð² Ð°ÑĤÐ¸
ĠÑģÐµÐ¼ ÑĮÐµ
ĠÐºÐ°Ð¶Ð´ Ð¾Ð¼
ĠÐºÐ°Ð¶Ð´ Ð¾Ðµ
Ð°ÑĤÐµÐ»ÑĮ Ð½Ð¾Ð¹
Ð°ÑĤÐµÐ»ÑĮ Ð½ÑĭÑħ
ÐŁÐ¾Ð» Ñı
ÐŁÐ¾Ð» Ð·
ÐŁÐ¾Ð» ÐµÑĤÐµÐ»
Ð¦ ÐµÐ¿
Ð¾Ð½ÑĮ ÐºÐ¸Ð¹
ÐĴÐ¾Ð· Ð»ÑİÐ±
ĠÐ´Ð²Ð¾ÑĢ ÐµÑĨ
ĠÑĥÑģÑĤ Ð°Ð¼
ĠÑĥÑģ Ð¸Ð»ÑĮÑı
ĠÐ±Ð¾Ð¹ ÑģÑı
ĠÐ±Ð¾Ð¹ ÑĨÑĥ
ĠÑģÑĤÐ°Ð½ ÐµÑĪÑĮ
ĠÐ·Ð°ÑĤ Ð¸Ñħ
ÐĵÑĢ ÑĥÑģÑĤ
ĠÐ¾Ðº Ð¾Ð¿
ĠÐ³Ð¾ÑĢÐ´ ÑĭÐ¼
ĠÐ´Ð¸Ð² Ð½Ð¾Ð¹
ĠÐ¼Ð°Ð» ÑĭÐ¼Ð¸
ĠÐ½ÐµÐ±ÐµÑģ Ð°Ð¼
ĠÐ¾ÑĢ ÐµÐ»
ĠÐµÐ´ Ñĭ
ĠÐµÐ´ Ð¸Ð½Ð¾Ð¹
ĠÑģÐ»ÐµÐ´ Ð¾Ð²
ĠÑģÐ»ÐµÐ´ Ð¾Ð¼
ĠÑģÑĢÐµÐ´ Ð¾ÑĤÐ¾Ñĩ
ĠÐ±ÐµÐ» ÑĭÑħ
Ð½ÑĥÑĤ ÑĭÑħ
ĠÐ´Ð¾ÑģÑĤ Ð°ÑĤÐ¾ÑĩÐ½Ð¾
ĠÐ±Ð¾ÑĢ Ð¾Ð´Ñĭ
ĠÐ¿ÑĥÑĤ ÑĳÐ¼
ĠÑģÑĤÐ¾Ð» Ð¸ÑĨÑĭ
ĠÐ¼Ð½ Ð¸ÑĤÑģÑı
ĠÐ²Ð·Ð´ ÑĭÐ¼
ÑİÑī Ð¸Ð¼
ÑİÑī Ð°Ñı
ĠÐ²Ð¾Ñģ ÐµÐ¼ÑĮ
ĠÐĿÐµ ÑĥÐ¶ÑĤÐ¾
ĠÐ±ÐµÑĢÐµÐ³ Ð°Ñħ
ĠÐ½ÐµÐ¶ Ð½ÑĭÐµ
ĠÐ½Ð°Ð³ ÑĢÑĥÐ¶
ĠÑİ Ð¶
ĠÐ¼ÐµÐ´ Ð²ÐµÐ´ÑĮ
ĠÐĴÑģ ÐµÑģÐ»Ð°Ð²
ĠÐ¿ÑĢÐ¸Ð· Ð½Ð°
ĠÐ¿ÑĢÐµÐ¶ Ð½Ð¸Ðµ
ĠÑģÑĥÐ´ÑĮÐ± Ð¾Ñİ
ĠÐ²Ð¾Ð¿ Ð»ÑĮ
ĠÑģÐµÐ´ ÑĮÐ¼
ĠÑģÐµÐ´ Ð»Ð¾Ð¼
ĠÐ±ÑĢÐ°ÑĤ Ð¸Ñı
ĠÐ±ÐµÐ³ Ðµ
ĠÐ±ÐµÐ³ Ð¾Ð¼
ĠÐ¿ÑĢÐ¸Ðº Ð¾Ñģ
ĠÐ¿ÑĢÐ¸Ðº Ð°Ð·Ð°Ð»
ĠÑĢÐ°ÑģÑģ ÐµÑıÐ½
ĠÑĢÐµÐº ÑĢÑĥÑĤ
ĠÑĢÑıÐ´ ÐºÐ¾Ð¼
ĠÑıÑĢ Ð¾ÑģÑĤÐ¸
ĠÑĢÑĥÑģ ÑģÐºÐ¾Ðµ
ÐļÐ¾ÑĤÐ¾ÑĢ Ð¾Ð¹
ĠÑģÐ»Ð°Ð´ ÐºÐ¾Ð¹
ĠÑĢÐµÑĪ Ð¸ÑĤ
ĠÑĢÐµÑĪ ÐµÐ½Ð¾
ÐŁÐ¾Ð² ÐµÑĢÑĮÑĤÐµ
ĠÐ²ÐµÑĩÐµÑĢ Ñĥ
Ð»ÐµÐº Ð»Ð°
ĠÑĤÐ° Ð¸Ð½ÑģÑĤÐ²ÐµÐ½
Ð¾Ñı Ð»Ð°
ĠÐ´Ð°Ð»ÑĮ Ð½ÐµÐ¹
ĠÐ´Ð°Ð»ÑĮ Ð½Ð¸Ð¹
ĠÐ±ÐµÐ·Ð´ Ð½Ð¾Ð¹
ĠÐ±ÐµÐ·Ð´ ÐµÐ¹ÑģÑĤÐ²
ĠÐ´Ð¾Ð»Ð³ Ñĥ
Ð°ÐµÐ¼ ÑģÑı
ĠÐ²Ð¾Ð·Ð´ÑĥÑħ Ñĥ
ĠÐ¼ÐµÑĢ Ñĥ
Ð¼ÐµÑģÑĤ Ð½Ð¾
Ð¼ÐµÑģÑĤ Ð¸ÑĤÑĮ
ĠÐ¸ÑģÑĤ Ð¾Ð¼
ÐĿÐ°Ð¿ ÑĢÐ°Ñģ
ĠÐ¿Ð¾ÑģÐ»ÐµÐ´ Ð½Ð¸Ðµ
ĠÑĩÐ¸ÑģÑĤ ÑĭÐ¼
Ð¢ÑĢ ÑĥÐ±
ĠÐĴÑĢÐ°Ð³ Ñĥ
ĠÐĴÑĢÐ°Ð³ Ð¾Ð¼
ĠÐ¿ÐµÑĩÐ°Ð»ÑĮ Ð½Ð°Ñı
ÐŁÐ¾Ð¼ Ð°Ð»ÑĩÐ¸Ð²
ÐĿÐµÐ² Ð¸Ð´
ÐĿÐµÐ² ÑĭÐ½Ð¾Ñģ
ĠÑģÑĩÐ°ÑģÑĤÐ»Ð¸Ð² Ñĭ
ĠÐ¾Ñħ Ð¾ÑĤÑĭ
ĠÐ±Ð¾Ð»ÑĮÑĪÐµ Ðµ
ĠÐ¿Ð°Ð´ Ð°ÐµÑĤ
ĠÐ¶Ð°Ð» ÐµÑĤÑĮ
ĠÑĤÐ¾Ð»Ð¿ Ñĥ
ĠÑĤÐ¾Ð»Ð¿ Ñĭ
ĠÐ¶Ð°ÑĢ ÐºÐ¾
ĠÐ¿ÑĢÐ¾Ð² Ð¾Ð¶
ĠÐ¿ÑĢÐ¾Ð² Ð¸Ð´
ĠÑĢÐ¾Ñģ Ð¾Ð¹
ĠÑĢÐ¾Ñģ ÑģÑĭÐ¿
ĠÐ³ÑĥÐ± Ð¸ÑĤ
ĠÐ¿ÑĢÐ¾Ðº Ð»Ñı
ĠÐ´Ð¾Ñģ Ð°Ð´
ĠÐ´Ð¾Ñģ ÐµÐ»Ðµ
ĠÐ´Ð¾Ñģ Ð°Ð´Ñĭ
ĠÐ¿ÑĢÐ¸Ð´ ÑĥÐ¼
ĠÐ»Ð°Ñģ ÐºÐ°
Ð¢Ð²Ð¾ Ðµ
Ð¢Ð²Ð¾ Ð¸Ð¼
ĠÐ¾ÑĤÐºÑĢ ÑĭÑĤÐ¾
ÑĢÐ°ÑĪ Ð½Ð¾
ĠÐ±ÑĭÑģÑĤÑĢ ÑĭÐµ
ĠÐ·Ð¸Ð¼ Ñĭ
ĠÐ¿Ð¾Ð¼ÐµÑī Ð¸ÐºÐ¸
ĠÐºÑĢÐµÑģÑĤ Ñĭ
ĠÑģÐ»ÑĥÐ¶ Ð¸ÑĤ
ĠÑĪÐ¸ÑĢ Ð¾ÐºÐ¾Ð¹
ÐļÑĢÐµÑģÑĤÑĮÑı Ð½Ð¸Ð½
ĠÐºÐ°Ð¼ Ð½ÐµÐ¹
ÐŁÐ» ÑĭÐ²
ĠÐ³Ð»Ð°Ð² Ðµ
ĠÐ³Ð»Ð°Ð² Ð¾Ñİ
Ð²Ð¾Ð´ ÑıÑĤ
ĠÐ¿ÑĢÐ¾ÑĪ Ð»Ð¾
ĠÐ¼ÑĭÑģÐ» ÑĮÑİ
ĠÑģÑĤÐ°ÑĢÐ¸Ðº Ñĥ
ĠÑģÑĤÐ°ÑĢÐ¸Ðº Ð°Ð¼Ð¸
Ð¾Ð»Ð² Ð¸Ð²
ÐĶÐ¾Ð» Ð¸Ð½Ð°
ÐĵÐ»ÑıÐ´ ÐµÐ»
ĠÑĢÐµÐ±ÑıÑĤ Ð°Ð¼Ð¸
ĠÐ½Ð¸Ð· ÐºÐ¾
ĠÑĢÑĥÑĩ ÑĮÑĳ
ĠÑĢÐ°Ð·ÑĥÐ¼ Ñĥ
ĠÑĢÐ°Ð·ÑĥÐ¼ Ð¾Ð¼
ĠÐ½ÐµÐ¿ÑĢ ÐµÑĢÑĭÐ²
ĠÐ´Ð°Ð» Ðµ
ĠÐ´Ð°Ð» Ñĳ
Ð°Ð½Ð¸Ñı Ð¼
ĠÑĩÐµÑĢÑĤ Ð¾Ð³
ĠÐ¿Ð¾Ñħ Ð°Ð¶
Ð»Ð°ÑģÑĮ Ðµ
ĠÐ·Ð°Ð³ Ð°Ð´
ÐĴÐ¿ ÑĢÐ¾ÑĩÐµÐ¼
ĠÑĥÑģÐ» Ð°Ð¶Ð´
ĠÑģÐ¾Ð»Ð´Ð°ÑĤ Ñĭ
ĠÑĤÐ¾Ð¿ Ð¾ÑĤ
Ð½Ð¸ÑĨ Ð°Ñħ
ĠÐºÑĢÐ¸Ðº Ð½ÑĥÐ»
ĠÐ¿Ð»Ð°Ð¼ Ñı
ĠÐ·Ð»Ð¾Ð± Ñĥ
ĠÐ·Ð»Ð¾Ð± Ð½ÑĭÐ¹
ĠÐ½ÐµÐ½ Ð°ÑģÑĤ
ĠÐ´ÑĢÐµÐ² Ð¾
ĠÐ¼Ð»Ð°Ð´ Ð¾ÑģÑĤÑĮ
ĠÐºÐ¾Ð¿ ÑĮÑĳ
ÐĹÐµÐ¼ Ð»Ð¸
ÐĹÐµÐ¼ Ð»Ñİ
ĠÑĢÐ°ÑģÑģÐºÐ°Ð· ÑĭÐ²Ð°ÑĤÑĮ
ĠÑĢÐ°Ð½ Ð½ÐµÐ¹
ĠÐ½Ð¾Ð¶ ÐµÐ½ÑĮÐºÐ¸
ĠÐ´Ð°Ð² Ð°Ð¹
ĠÐºÐ¾Ð¼ Ð°Ð½Ð´Ð¸ÑĢ
ĠÐ³Ð¾ÑģÑĤ Ñı
ĠÑģÑĤÐµÐ½ Ð°Ñħ
Ð»Ð¸Ðº Ð½ÑĥÐ»
ĠÐ¿Ð¾Ð·Ð´ ÑĢÐ°Ð²
ĠÐ¿Ð¾Ð·Ð´ Ð½Ð¸Ð¹
ĠÐ¼Ð¸Ð³ Ð¾Ð¼
ĠÐ±Ð»Ð¸Ð· ÐºÐ°
ĠÑģÑĭÐ½ Ð¾Ðº
ÑĩÐ°ÑĤ ÑĭÐ¹
ĠÑĤÐµÐ» Ð¾Ð¼
ĠÑĤÐµÐ» ÐµÑģ
ÐŁÐ¾ÑģÑĤ Ð°Ð²
ĠÑĪÑĥÑĤ ÐºÐ¸
ĠÐ¿Ð¸ÑĢ Ñĭ
ĠÐ²Ð¾Ð»ÑĮ Ð½ÑĭÐ¹
ĠÐ½Ð¾Ñģ Ñĥ
ĠÐ½Ð¾Ñģ Ð¸ÑĤ
ĠÐ½ÑĥÐ¶ ÐµÐ½
ĠÐ½ÑĥÐ¶ Ð´Ð°
Ð¢Ð¾ÑĤ ÑĩÐ°Ñģ
ÐķÐ´ Ð¸Ð½ÑģÑĤÐ²ÐµÐ½
ÐĽÑİÐ´ Ð¸
ĠÐ¿ÑĢÐ¾Ð¸Ð· Ð²Ð¾Ð»
ĠÐ´ÑĢÑĥÐ·ÑĮÑı Ð¼Ð¸
ĠÐ¼ÑĥÐ· Ð°
ĠÐ¼Ð¾Ñī Ð½ÑĭÑħ
ĠÑĥÐºÑĢ ÑĭÐ²
ĠÐ¾Ð±ÑĢÐ°ÑĤ ÑıÑģÑĮ
Ð¯Ð² Ð¸Ð»Ð¸ÑģÑĮ
ÑĢÐ¾Ð´ Ð¾ÑĢ
ÐŁÑĢÐ¾ÑģÑĤ Ð¾
ĠÐ½ÐµÐ· Ð°Ð¼
ĠÐ¼ÑĢÐ°Ðº Ð°
ĠÑģÑĤÑĢÐµÐ» Ð¾Ðº
ĠÐ»ÑĥÑĩÑĪÐµ Ðµ
ĠÑģÑĥÐ¼ Ð°Ñģ
ĠÑĩÐµÑĤ Ñĥ
ĠÑģÐ¿Ð°Ñģ ÐµÐ½ÑĮÐµ
ĠÐ¼ÐµÑĩÑĤ Ð¾Ð¹
ĠÐ¼ÐµÑĩÑĤ Ð°Ð½ÑĮÑı
ĠÐ²ÐµÑī Ð¸Ð¹
ĠÐ²ÑĤÐ¾ÑĢ Ð³
ÐĿÐµÐ¼ ÐµÑĨ
ÐĿÐµÐ¼ ÐµÐ´Ð»Ñı
ÐŁÑĢÐ¸ÑĪ Ð»Ð¸
ĠÑĥÐ´Ð°ÑĢ Ð¸Ð»
ĠÑĤÐ¾ÑĢÐ¶ ÐµÑģÑĤÐ²Ð¾
ĠÐ²Ð½Ð¸Ð¼ Ð°ÐµÑĤ
ĠÐ²Ð½Ð¸Ð¼ Ð°Ð½ÑĮÐµ
ĠÑģÐ»ÑĥÑĩ Ð°Ð»Ð¾ÑģÑĮ
ĠÐĿÐ° Ð¸Ð½Ð°
ĠÐ²ÐµÐ»Ð¸Ñĩ Ð°Ð¹
ĠÐ²Ð»Ð°Ð´ ÐµÐ½ÑĮÑı
ÐĴÐ»Ð°Ð´ ÑĭÑĩ
ĠÑģÑĤÐ°Ð»Ð¾ ÑģÑı
ĠÑģÐ¿ÐµÑĪ Ð°
ĠÑģÐ¾Ð»Ð½ ÐµÑĩ
ĠÐ¾ÑĤÑĩ ÐµÐ³Ð¾
ĠÐłÐ°Ð¹ ÑģÐºÐ¸Ð¹
ĠÐ¾ÐºÑĢÑĥÐ¶ ÐµÐ½Ð°
ĠÐ±Ð°ÑĪ ÐµÐ½
ÐĴÐ¾Ð» Ð½Ñĥ
ĠÐĸ Ð¸Ð·
ĠÐ¼ÐµÑĢÑĤÐ² Ð°Ñı
ÐŁÐ¾ÑģÐ» ÑĭÑĪ
ÐľÐ¾Ð³ ÑĥÑī
ÐĹÐ°Ð¿ Ð»Ð°ÑĤ
Ð£Ð¿ Ð°Ð»Ð°
ĠÐ¿Ð¾Ð´Ð¾Ð± Ð½ÑĭÐ¹
ĠÐ³Ð»ÑĥÐ¿ ÑĭÐµ
ĠÐºÑĢÐµÑģÑĤÑĮÑıÐ½Ð¸ Ð½Ð¾Ð¼
ĠÐ²Ð¾ÑĢÐ¾ÑĤ Ð¸Ð»ÑģÑı
ĠÐ±Ð°Ð» Ð¾Ð²
ĠÐ±Ð°Ð» ÐºÐ¾Ð½
ĠÐ¿ÑĢÐ¸Ñĩ ÑĥÐ´
ĠÑĪÐ°ÑĤ ÑĢÐ°
ĠÐŁÐµÑĤ ÐµÑĢ
ĠÑĨÐµÐ» ÐºÐ¾Ð²
ĠÐ¼Ð¾Ð³Ð¸Ð» Ñĥ
ĠÐ¼Ð¾Ð³Ð¸Ð» Ð¾Ð¹
ĠÐ¼ÑĥÐ´ÑĢ Ð¾ÑģÑĤÐ¸
Ð¸Ð½ÑģÑĤÐ² ÐµÐ½Ð½Ð¾
Ð§ÑĥÐ´ Ð¾
ĠÐ²Ð¾Ð»Ð½ ÐµÐ½ÑĮÑı
ĠÐ½ÑĭÐ½Ðµ ÑĪ
ĠÐ¿ÑĢÐ°Ñħ Ð°
Ð¡Ð¼ÐµÑĢÑĤ ÐµÐ»ÑĮ
ĠÐ½ÐµÐ³ Ð¾Ð¹
Ð¡Ð²ÐµÑĢ ÐºÐ°
ÑĢÑĭÐ» Ð°ÑģÑĮ
ĠÐºÐ¾Ð² ÑĢÐ¾Ð¼
ĠÑĤÑĢÑĥÐ± Ñĭ
ĠÐ²Ð·Ð´Ð¾Ñħ Ð¾Ð¼
ĠÐ²ÑģÑĤ Ð°ÐµÑĤ
ĠÐºÑĥÑģÑĤ Ð¾Ð²
ĠÑģÐ²ÐµÐ¶ ÐµÐ¹
ĠÐ²ÑĭÐ´ ÑĥÐ¼Ð°Ð»
ĠÐ¼Ð¾ÑĢÐ¾Ð· Ñĭ
ĠÑĢÐ°Ð´Ð¾ÑģÑĤ Ð½ÑĭÐ¹
ĠÐ¶ÐµÐ½Ñī Ð¸Ð½Ñĥ
ĠÐ¿ÑĢÐµÐ» ÐµÑģÑĤÑĮ
ĠÐ¿ÑĢÐµÐ» ÐµÑģÑĤÐ¸
ĠÐ¿ÑĢÐµÐ» ÐµÑģÑĤÑĮÑİ
ĠÐ±ÐµÐ·ÑĥÐ¼ Ð½Ð¾
ĠÑģÑĤÑĢÐ¾Ð³ Ð¾Ð¹
ĠÐ²Ð·Ð³Ð»Ñı Ð½Ð¸
ĠÐ½ÐµÑĢ Ð°Ð·Ð´
ĠÐ½ÐµÑĢ Ð°Ð·ÑĥÐ¼
ĠÐºÐ¾ÑģÑĤ ÐµÐ¹
ĠÑĢÐ°Ð·Ð³Ð¾Ð²Ð¾ÑĢ Ñĭ
ĠÑģÐ¼ÐµÑħ Ñĥ
Ð»Ð¾Ð¶ Ð¸Ð»
ĠÑħÑĢÐ°Ð½ Ð¸ÑĤÐµÐ»ÑĮ
Ð£Ð· Ð½Ð°ÑĤÑĮ
Ð£Ð· Ð½Ð°Ð»Ð°
ĠÐ¸Ð·ÑĥÐ¼ Ð»ÐµÐ½ÑĮÐµ
ĠÑĢÐ°Ð·Ð³ Ð°Ð´
ĠÐºÐ¾Ð½Ñĩ Ð¸Ð»Ð¾ÑģÑĮ
ĠÑĤÐ²ÐµÑĢÐ´ ÑĮ
ĠÑģÐ¾Ð±ÑĢ Ð°Ð»ÑģÑı
ĠÐ¿ÑĢÐ¾Ð· Ð²
ĠÐ»Ð¾ÑĪÐ°Ð´ Ð¸
ĠÑĤÑĢÐ¾Ð½ ÑĥÑĤ
ĠÑģÐµÑĢÐµÐ± ÑĢÐ¾Ð¼
Ð¼Ð°ÑĤ ÑĢ
ĠÑĤÐµÑģ Ð½
ĠÐ»Ð¾Ð² Ð¸ÑĤ
ĠÑģÑĤÑĥÐ¿ ÐµÐ½Ð¸
ÐŀÑĤÐ²ÐµÑĤ ÑģÑĤÐ²Ð¾Ð²Ð°Ð»
ĠÐ²Ð¾Ð·Ð¼ Ð¾Ð³
ĠÑģÑĤÑĢÐ¾Ð¹ Ð½ÑĭÐ¹
ĠÐ³Ð¾Ð»ÑĥÐ± ÐºÐ°
ĠÐ¸ÑģÐ¿ÑĥÐ³ Ñĥ
ĠÐ²ÑģÑĤÑĢÐµÑĤ Ð¸ÑĪÑĮ
ĠÑģÐ¾Ð¼Ð½ ÐµÐ½ÑĮÐµ
ĠÐ¼Ð¸Ð½ÑĥÑĤ Ñĭ
ĠÑĢÐ¾Ð± ÐºÐ¾
ĠÐ¿ÑĢÐ¾Ð³ Ð½ÐµÐ²
ĠÐ¿ÑĢÐµÑģ Ð¼ÑĭÐºÐ°
ĠÐ±Ð»ÐµÑģÑĤ ÑıÑīÐ¸Ð¹
ĠÑĥÐ¼Ð¸ÑĢ Ð°ÐµÑĤ
ÑĢÐ¾Ðº Ð¸
ĠÑģÑĤÑĭÐ´ Ð¾Ð¼
ĠÐ¾Ð±Ð¸Ð´ Ñĥ
ĠÐĶÐµÐ¼ ÑĥÑĪÐºÑĥ
ĠÐŁÑĢÐµÑģÑĤÐ¾Ð» Ñĥ
ĠÐ¸ÑģÐ¿ÑĭÑĤ Ð°ÑĤÑĮ
ĠÐ·Ð°ÑģÐ» ÑĭÑĪ
ĠÑģÐ¾Ð¿ ÑĢÐ¾Ð²Ð¾Ð¶Ð´
ĠÑģÐ¸Ñı Ð»
ĠÑģÐ¸Ñı Ð½ÑĮÐµ
ĠÐ¿ÐµÐ½ Ð¾Ð¹
ĠÐ¼ÐµÑģÑı ÑĨÐ°
ĠÐ¼ÑıÑĤÐµÐ¶ Ð½Ð¾Ð¹
ÐĴÐ¾Ñģ ÐµÐ¼ÑĮ
ĠÐ¾Ð±Ñī ÑĥÑİ
ĠÐľÐ¾ÑģÐº Ð²Ðµ
Ð¡Ð¾Ð² ÐµÑģÑĤÑĮ
Ð¡Ð¾Ð² ÑģÐµÐ¼
ĠÑħÐ¸ÑĤÑĢ Ð¾ÑģÑĤÐ¸
ĠÑģÐ¾Ð³Ð»Ð°Ñģ ÐµÐ½
ĠÐ·Ð²ÐµÑĢ Ð¸
ĠÑģÐ´ÐµÐ» Ð°Ð»
ĠÐ¿Ð°Ñħ Ð°ÑĢÑĮ
ÑĩÐµÑģ ÐºÐ¸Ð¹
ÐĿÐ¸Ñĩ ÑĤÐ¾
Ð¡Ð¸Ñı Ð½ÑĮÐµ
ÐŀÐº ÑĥÑĤ
ÐĶÐµÑĢÐµÐ² ÑĮÑı
ĠÐ³ÑĢÑıÐ· Ð¸
ĠÐ°Ð½Ð³ ÐµÐ»ÑĮ
ĠÐ¾Ð±ÑĬÑıÑĤ Ð¸ÑıÑħ
ĠÑĩÑĥÐ¶Ð´ ÑĭÐ¹
ÐĳÐ¾Ð»ÑĮ ÑĪ
ĠÑģÐ¿ÑĢÐ°Ð² ÐµÐ´
ĠÐ¿ÑĥÑģÑĤÑĭÐ½ Ð½ÑĭÐ¹
ĠÐ¿ÑĥÑģÑĤÑĭÐ½ Ð½ÑĭÑħ
ĠÐ£Ð¶ ÐµÐ»Ð¸
ĠÑĤÐ¾Ð²Ð°ÑĢÐ¸Ñī ÐµÐ¹
ĠÐ¿Ð¸ÑģÑĮ Ð¼Ð¾
ĠÐ¼Ð°Ð»ÑĮ ÑĩÐ¸ÐºÐ°
Ð¡ÑĩÐ°ÑģÑĤ Ð»Ð¸Ð²ÑĭÐ¹
ÐŁÑĢÐ¸Ð´ ÐµÑĤ
ĠÐ³Ð»ÑĥÐ±Ð¾Ðº Ð¸Ñħ
ĠÐ¿ÑĢÐ¾ÑģÐ»Ð°Ð² Ð»ÑıÑĤÑĮ
ĠÐ¿Ð¾Ð´ÑĢÑĥÐ³ Ð°
ĠÐľÐ¾ Ð¸
ĠÐºÐ¾Ð»ÐµÑģ Ð½Ð¸ÑĨ
ĠÐ·Ð°Ð²ÑĤ ÑĢÐ°Ðº
ĠÐ¼Ñĩ Ð°Ð»ÑģÑı
ĠÐ³ÐµÑĤ Ð¼Ð°Ð½Ð°
ĠÐµÑģÑĤ ÐµÑģÑĤÐ²Ð¾
ĠÐ±ÐµÐ·Ð¼ÐµÑĢ Ð½Ð¾Ð¹
ĠÐ¿ÑĢÐ¸Ð³ Ð¾Ð¶
ĠÐ¿ÑĢÐµÐ´ÐµÐ» Ð°Ñħ
ĠÐ¸ÑģÐºÑĥÑģ ÑģÑĤÐ²Ð°
ĠÐ¼Ð³Ð½Ð¾Ð² ÐµÐ½ÑĮÑı
ĠÑĤÑĳÐ¼ Ð½ÑĭÐ¹
ĠÐ¿ÑĢÐµÐ· ÑĢÐµÐ²
ĠÑģÐ²ÐµÐº ÑĢÐ¾Ð²ÑĮ
ĠÐ¿Ð¾Ð»ÐµÑĤ ÐµÐ»
ĠÐ¿Ð¾Ð»Ð¾Ñģ Ðµ
ĠÐĴÑĢÐ°ÑĤ Ð°
ĠÐ²ÐµÑĢÑħ Ð¾Ð²
Ð¡ÐºÐ¾ÑĢ ÐµÐ¹
ĠÐ´Ð¾ÑģÑĤÐ¾Ð¹ Ð½ÑĭÐ¹
ĠÑħÐ»Ð¾Ð¿ Ð¾ÑĤ
Ð¾ÑıÐ½ ÑĮÐµ
ĠÐ²Ð¾Ð¶Ð´ ÑĮ
ĠÑĢÐ¾Ð¼ Ð°Ð½
ĠÐ»Ð¸ÑĢ Ð¾Ð¹
ĠÑĥÐ»Ð¸ ÑĨÐµ
ĠÑģÑĤÑĢÐ¾ ÐµÐ¼
ĠÐ¼Ð¾Ð»ÑĮ Ð±Ð¾Ð¹
ĠÐ³Ð¸Ð¼ Ð½
Ð§Ð¸ÑĤ Ð°Ð»
ĠÑģÑĤÐ°ÑĢÐ¸Ð½ ÑĥÑĪÐºÐ°
ÑĩÐ¸ÑģÐ» Ð¸Ð¼ÑĭÑħ
Ð¡Ð»ÑĭÑĪ Ñĥ
ĠÐ±Ð»Ð°Ð³Ð¾ÑģÐ»Ð¾Ð² Ð¸Ð»
ĠÐ·Ð°Ð±Ð°Ð² Ñĭ
ĠÐ·Ð°Ð¼ÐµÑĤ Ð¸Ð»
ĠÐ¿Ð»Ð° Ñħ
ĠÐ¼Ð°Ñħ Ð¾ÑĢ
ÐĶÐ°Ð² Ð°Ð¹
ĠÐ¿Ð¾Ñī Ð°Ð´
ĠÐŀÐ´ Ð½Ð°ÐºÐ¾
ĠÐ¿Ð¾Ð³ÑĥÐ± Ð¸ÑĤ
ĠÐ¿ÑĢÐ¾ÑģÑĤÑĢÐ°Ð½ ÑģÑĤÐ²Ð¾
ĠÑĥÐ¿Ð¾ ÐµÐ½Ð½ÑĭÐ¹
ĠÐŃÐ´ÐµÐ¼ Ð°
ĠÐ²ÑģÐ¿Ð¾Ð¼Ð½ Ð¸Ð»Ð°
ĠÐĵÑĢÐ¸ÑĪ Ð°
Ð½Ð¾Ðº ÑĢÐ¾Ð²
ĠÑģÐ¸Ð½ ÐµÐ³Ð¾
ĠÐ±Ð°ÑĤ ÑİÑĪÐºÐ¸
ĠÑĩÐ¸Ñģ Ð»Ð¾
ĠÑĩÑĳÑĢ Ð½ÑĭÑħ
ÐĹÐ½Ð° Ñİ
ÐĵÐ»Ð°Ð· Ð°Ð¼Ð¸
Ð¡Ð¼Ð¾ÑĤÑĢ Ð¸ÑĤ
ĠÐĳÐ¾Ð¶ÑĮ Ð¸Ð¼
ĠÑģÐ°Ð¿ Ð¾Ð³
Ð²Ð¾Ð»ÑĮ ÑĤÐµ
Ð¼ÐµÑı Ð»Ð¸ÑģÑı
ÐĿÐ°Ðº Ð»Ð¾Ð½
ÐľÐ»Ð°Ð´ Ð¾Ð¹
ĠÐ¸Ð·Ð²ÐµÑģÑĤ Ð½Ð¾
ÐłÑĥÑģ ÑģÐºÐ¸Ð¹
Ð¡Ð»ÐµÐ· Ð°Ð¼Ð¸
ĠÐ½Ð°Ð³ÑĢÐ°Ð´ Ð°
ĠÑģÑĦÐµÑĢ Ñĭ
ĠÐ¿Ð¸Ñī Ð¸
ĠÐºÑĥÐ¼ Ð°
ÐĿÐµÐ± Ð¾ÑģÑĮ
ĠÐ³Ð°ÑĢÐ¼ Ð¾Ð½ÑĮ
ÐĴÐº ÑĢÑĥÐ³
ĠÑĨÐµÐ»ÑĮ Ñİ
ĠÐ·Ð°Ð±Ð² ÐµÐ½ÑĮÐµ
ĠÐ½Ð°ÑĩÐ¸Ð½ Ð°ÐµÑĤ
ĠÑģÐ¾Ð·ÐµÑĢÑĨ Ð°Ð»
ĠÐ½ÐµÐ» ÑİÐ´
ĠÑĢÑĥÐ¼Ñı Ð½ÐµÑĨ
ĠÐ¿ÑĢÐµÐ± ÑĭÐ²Ð°ÑĤÑĮ
ĠÐ»ÐµÑģÑĤ Ð½Ð¸ÑĨÑĥ
ĠÑĩÐµÑĢÐµÐ´ Ð¾Ð¹
ĠÑĥÑĩÐ°ÑģÑĤ ÑĮ
ĠÐ²ÑģÐº Ð¾ÑĩÐ¸Ð»
ĠÑĪÐµÐ² ÐµÐ»ÑĮ
ĠÐĴÐ¾Ð» Ð³Ðµ
ĠÑĥÐ³Ð¾Ð» Ð¾Ðº
ĠÑģÑĤÐ°Ð½Ð¾Ð² Ð¸ÑĤÑģÑı
ĠÐ¿ÑĢÐ¸Ð½ÐµÑģ Ð»Ð°
ĠÐ´Ð¾Ð½ ÐµÑģ
ĠÐ´Ð¾Ð½ ÑĭÐ½Ðµ
ĠÐ´Ð¸ÐºÐ¸ Ñħ
ĠÐ¿ÑĢÐ¾Ð¹Ð´ Ñı
ĠÑģÑĤÐµÐ· Ð¸
ĠÐĴÐ¾Ð¶Ð´ ÑĮ
ĠÐ¤ÐµÐ´ Ð¾ÑĤ
ĠÐ²Ð»Ð°Ð¶ Ð½ÑĭÐ¹
ĠÐ´ÑıÐ´ Ñı
ĠÐ¼ÑĥÐ´ ÑĢÐ¾
ĠÐ¼ÑĥÐ´ ÑĢÐµÐ½Ð¾
ÐŁÑĢÐ¸Ðº Ð°Ð·
ĠÐ±ÐµÐ·Ð¼Ð¾Ð»Ð² Ð½ÑĭÐ¹
ĠÐ¾ÑĢÐ´ ÐµÐ½
ĠÑĤÑİÑĢÑĮÐ¼ Ðµ
ĠÐ¡ÐµÑĢÐ°ÑĦÐ¸Ð¼ Ð¾Ð²
ĠÑģÑĩ ÐµÑģÑĤÑĮ
ĠÐ¸Ð³ÑĢÐ° ÐµÑĤ
ÐľÐµÐ´ Ð²ÐµÐ´
ĠÐ¾Ð´Ð¾Ð» ÐµÑĤÑĮ
ĠÐ¿Ð¾Ð³ÑĢÑĥÐ¶ ÐµÐ½
ĠÐ¿Ð¾ÑģÑĢÐµÐ´ Ð¸
ÐĴÐ·Ð³Ð»Ñı Ð½Ð¸
ĠÐºÑĢÑĭÐ»ÑĮ ÑĨÐ°
ĠÐ²ÐµÑĢÑĤ Ð¸ÑĤÑģÑı
Ð¡ÐµÐ´ Ð¾Ð¹
ÐľÐµÐ»ÑĮ Ðº
ĠÐ¢ÑĢÐ¾Ð½ Ð°
ĠÐ½ÐµÐ²ÐµÑģÑĤ Ð°
ĠÐ¡Ð¿Ð°Ñģ Ð¸ÑĤÐµÐ»ÑĮ
ĠÐ²Ð½ÑĥÑĤ ÑĢÐ¸
ÐĿÐ°Ñħ Ð¾Ð´
ĠÐ½ÐµÐ¸Ñģ ÑĩÐµÑĤ
ÐŀÐºÑĢ ÑĥÐ¶
ĠÐ¶ÐµÐ¼Ñĩ ÑĥÐ¶
ĠÐ¾Ð±ÑıÐ· Ð°Ð½
ÐłÐ¾Ñģ ÐºÐ¾ÑĪ
ÑĥÑİÑī Ð¸Ð¼
Ð¡Ð¼Ðµ ÑİÑĤÑģÑı
ĠÐ¾Ð±ÑĢÐµÑĩ ÐµÐ½Ñĭ
Ð¡Ð²ÐµÐº ÑĢÐ¾Ð²ÑĮ
ĠÐ¿ÑĢÐ¾Ð²Ð¾Ð· Ð³Ð»Ð°Ñģ
ĠÐ¿Ð¾Ð¼ÐµÑīÐ¸Ñĩ ÑĮÑı
ĠÑĢÐ°Ð·Ð±Ð¾Ð¹ Ð½Ð¸ÐºÐ¸
ĠÐ²Ñĩ ÐµÑĢÐ°ÑĪ
Ð¢Ð¾Ñģ ÐºÑĥ
ÐĳÐµÐ³ ÑĥÑĤ
ĠÐ³ÑĢÐ¸Ð± Ñĭ
ĠÑĢÐ¾ÑģÐºÐ¾ ÑĪÑĮ
ĠÐ·Ð¼ ÐµÐ¹
ÐµÐ¼Ð½ Ð¾Ð³Ñĥ
ÐĴÑĭÑĪ Ð»Ð¸
ÐļÐ°Ð¶Ð´ ÑĭÐ¹
Ð£ÑĪ ÐµÐ»
Ð£ÑģÐ¿ ÐµÑħ
ĠÐ³ÑĢÑı Ð½ÑĥÐ»Ð°
ĠÑĪÐ¸Ð½ ÐµÐ»ÑĮ
ĠÐĶÐ°ÑĢ ÑĮÑı
ĠÐļÐ°ÑĢ Ð»
ĠÐ²ÐµÑĤÑĢÐµÐ½ Ð¾Ð¹
ĠÐ²ÐµÐ´ÑĮÐ¼ Ð°
ÐĴÐ¾Ð·Ð² ÑĭÑĪ
ĠÐ²Ð·Ð´ÑĢÐ¾Ð³ Ð½ÑĥÐ»Ð°
ÐĿÐ°ÑĩÐ°Ð»ÑĮ Ð½Ð¸Ðº
Ð¨Ð¸ÑĢÐ¾Ðº Ð°Ñı
ĠÑģÐºÐ°Ñĩ ÑĥÑĤ
ĠÐ¼Ð°ÑģÑĤ ÐµÑĢ
ĠÐ¶ÐµÑĢ ÐµÐ±
ÐŁÑĢÐ¸ÑĤ Ð¸Ñħ
ÐķÑĢ Ð¼Ð¸Ð»
ĠÐŁÑĢÐ° Ð¾ÑĤÐµÑĨ
ĠÐ±ÑĢÐ¾Ð½ ÐµÐ¹
ÐĺÐ·Ð²ÐµÑģÑĤ Ð½Ð¾
ĠÐ·Ð°Ð²Ð»Ð°Ð´ ÐµÑĤÑĮ
ĠÐ²ÑĭÑĢÐ² Ð°Ð»ÑģÑı
ĠÐ¿Ð°ÑģÐ¼ÑĥÑĢ Ð½ÑĭÐ¹
ÐĴÑģÑĤÐ°Ð² Ð°Ð¹
ĠÑĥÐ½Ð¸Ñĩ ÑĤÐ¾Ð¶
ÐŁÑĢÐµÑģ Ð»ÐµÐ´
ĠÐĿÐ¸Ñĩ ÐµÐ³Ð¾
ĠÐ¼ÑĭÑģ Ð»ÑıÑħ
Ð¥ÑĢ ÑĥÑģÑĤ
ĠÐ·Ð°Ð±Ð» ÑĥÐ¶Ð´
ÐĿÐµÑģÐ¼ÐµÑĤ Ð½ÑĭÑħ
ĠÐ³Ð°Ñģ Ð½ÐµÑĤ
ÐĴÑĢÐ°Ð¶Ð´ ÐµÐ±
ĠÐºÑĢÐ¾ÑħÐ¾ÑĤ Ð½ÑĭÐ¹
ĠÐŁÑĥÑĪÐº Ð¸Ð½
Ð¡ÑĤÐ¸Ñħ Ð¸
ĠÐľÐ¸ÑĤ ÑĢÐ¾Ð´Ð¾ÑĢ
ĠÐ½ÐµÐ¿Ð¾Ð´ Ð²Ð¸Ð¶
ÐŁÐµÑĢÐµÐºÑĢÐµÑģÑĤ Ð¸Ð»ÑģÑı
ĠÐĵÐµÐµÐ½Ð½ ÑģÐºÐ¸Ñħ
ĠÑħÐ»ÑıÐ± Ð¸
ĠÐ²Ð¾ÑģÐº Ð»Ð¸ÑĨ
ĠÐ²Ð»ÐµÑĩ ÑĳÑĤ
ĠÐ¼Ð¾Ðº ÑĢ
ĠÑĢÐµÑĤ Ð¸Ð²ÑĭÐ¹
ĠÐ³Ð°Ð· ÐµÑĤ
ÐŁÐ°ÑģÑĤ ÑĥÑħ
Ð¢Ð¾ÑĢÐ¶ ÐµÑģÑĤÐ²
ÐĳÐ°Ñİ ÑĪÐºÐ¸
ĠÐ²Ð´Ð²Ð¾ ÑĳÐ¼
ĠÐºÐ°ÑĢÐ° ÑĥÐ»
ĠÐ´Ð²Ð¾ Ð¸Ñħ
Ð£Ðº ÑĢÐ°ÑĪ
ĠÑĪÑĤÑĥ ÐºÐ°
ĠÐŁÐ¾Ñĩ ÐµÐ¼Ñĥ
ĠÐļÐ°Ð²ÐºÐ°Ð· Ð°
ĠÐ·Ð°ÑģÐ¿Ð¾ÑĢ Ð¸Ð»Ð¸
ĠÐ½ÐµÑĢÐ°Ð· Ð»ÑĥÑĩ
ĠÐºÐ¸ÑĢ Ð¿Ð¸Ñĩ
ĠÐ³Ð½ÐµÐ· Ð´Ð°
ĠÐ¿ÑĢÐ°Ð´ ÐµÐ´
ĠÑģÐºÑĢÐµÐ¶ ÐµÑĤ
ĠÐĲÐ±Ð´Ð¸ Ð¸Ð»
ĠÑģÐ°Ð¼Ð¾Ð±ÑĢ Ð°Ð½Ð½Ð°Ñı
ĠÑħÑĢÐ¸ÑģÑĤ Ð¸Ð°Ð½
ĠÑįÐ¿Ð¸Ð³ ÑĢÐ°Ð¼
ĠÐĵÑĢÐ°Ð½ Ð´Ð¸Ñģ
ÑĦÑĢÐ°Ð½ÑĨÑĥÐ· ÑģÐºÐ¸
ĠÐ½ÐµÐ²Ð¾Ð·Ð² ÑĢÐ°ÑĤ
ĠÑĢÑĥÑĩÑĮÑĳ Ð²
? !
? )
b e
o r
r e
Ð ¬
Ð¾ ÐµÐ´
Ð¾ ÑīÐµ
Ðµ ÑĦ
ÑĤ Ð¾Ñģ
ÑĤ ÐºÐ¾
ÑĤ ÑĢÐ°
ÑĤ Ð¸ÑĪ
ÑĤ ÑıÐ½ÑĥÑĤ
ÑĢ ÐµÑĩ
ÑĢ Ð¾Ð¿
ÑĢ Ð°Ð»Ð°
Ð½ ÐµÐ¶
Ð½ ÑĮÑı
Ð½ Ð¸ÑĤÐµ
Ð½ Ð°Ð½ÑĮÐµÐ¼
Ð½ ÐµÐ½ÑĮÐºÐ¾
Ð» ÐµÐ»
Ð» ÑģÑı
Ð» ÑĭÐ»
Ð» ÐµÑĤÑģÑı
Ð» ÑĳÑĤ
Ð» Ð¸Ð»Ð°ÑģÑĮ
Ð» ÑĭÐ»Ð°
Ð» ÐµÐ¶Ð¸ÑĤ
Ð» ÑĳÐ½Ð½ÑĭÐµ
Ñĥ ÐµÑĤÑģÑı
Ñĥ ÑıÐ½
Ñĥ ÐºÐ¾Ð¼
Ñĥ ÐºÐ°Ñħ
Ñĭ ÑģÑĤ
Ñĭ ÐºÐ¸
Ñĭ Ð»Ð¸ÑģÑĮ
ÑĮ Ð¸Ñħ
Ñı Ð»Ð¾
Ñı ÑİÑģÑĮ
ĠÑģ Ð·
ĠÑģ ÑĥÐ±
ĠÑģ ÐµÑĤÑĮ
ĠÑģ Ð½Ð¸Ð·
ĠÑģ Ð°Ð½ÐºÐ¸
ĠÑģ Ð¾ÑĪÐ»Ð¸ÑģÑĮ
ĠÐ¿ Ñĩ
ĠÐ¿ ÑĥÐ»Ð¸
Ðº Ð¾ÑģÑĤÑĮ
Ðº Ð¾Ð±Ñĭ
ĠÐ² Ð¸Ð½Ñĭ
ĠÐ² Ð»Ð°Ñģ
ĠÐ² Ð¾Ð¶Ð¶
Ð² Ð°Ñı
Ð´ Ð¾ÑĢ
Ð´ Ð°Ð²
Ð´ ÐµÐ½ÑĮ
ĠÐ½ ÑĥÑĤ
ĠÐ½ ÐµÐ·Ð´
ĠÐ½ ÐµÐ»Ð¾Ð²ÐºÐ¾
Ð¼ Ð¾Ðº
Ð¼ ÐµÐ·Ð´
Ð¼ Ð½Ð°Ð´ÑĨÐ°ÑĤÑĮ
ÑĪ ÐºÑĥ
ÑĪ Ð¸Ð½Ð°
ÑĪ ÐµÐ»Ð¾Ð¼
ÐµÐ½ ÑĭÑħ
ÐµÐ½ Ð°Ð²Ð¸Ð´
Ñİ Ñĩ
ĠÑĤ Ð°ÑĢ
ĠÑĤ Ð¾ÑĪ
ĠÑĤ ÐµÐ½ÑĮÑİ
ĠÑĤ Ð¾ÑĩÐºÑĥ
ĠÐ¾ ÐºÐ¾Ð²
ĠÐ¾ ÑģÐ»ÑĥÑĪ
Ð¾Ð¹ ÑĤ
ÐµÑĤ ÑĭÐ¹
Ð°Ð» Ð»
Ð°Ð» ÑĥÐ¹
Ð¾Ð» Ð¸
Ð¾Ð» Ð¾Ð»
Ð¾Ð» Ð¾Ðº
Ð¾Ð» Ð½Ñı
Ð¾Ð» ÑĳÑĤ
Ð¾Ð» Ð´Ñĥ
Ð¾Ð» Ð¶Ð°Ð»
ĠÐ´ Ð°Ð½
ĠÐ´ Ð½Ð°
ĠÐ´ ÐµÐ±
ĠÐ´ ÐµÑı
ĠÐ´ ÐµÑĤÑĮÐ¼Ð¸
ĠÐ¸ Ð½Ð°Ñı
ĠÐ¸ Ð½ÐµÐ¹
ĠÐ¸ Ð´Ñĥ
Ð¾Ð² Ð¸Ð´
Ð¾Ð² Ð°Ð½ÑĮÑı
Ð¾Ð² Ð°Ð½Ð½ÑĭÐ¹
Ð¾Ð² ÑĭÐ¼Ð¸
Ð¾Ð² Ð¸ÑĨÐ°
ĠÐ± Ð°Ñģ
ĠÐ± ÑĥÑĪ
ĠÐ± Ð°Ð½Ðµ
ĠÐ± ÐµÐ»ÑĮÐµ
ĠÐ± Ð°Ð»ÑĮÐ·
ĠÐ± ÑĥÑĤÑĭÐ»
ĠÐ¼ Ð°Ð´
ĠÐ¼ Ð¾Ð´Ñĭ
ĠÐ¼ Ð¾ÑĩÐ¸
ĠÐ¼ Ð°Ð·ÑĥÑĢ
ÐµÑĢ ÑĳÐ³
ĠÐº Ð°Ð»
ĠÐº Ð¸Ð½
ĠÐº Ð¸Ð²
ĠÐº ÑĥÑĤ
ĠÐº ÑĥÐ±
ĠÐº ÑĥÑģ
ĠÐº ÑĥÐ²
ĠÐº Ð½ÑıÐ³Ð¸Ð½Ñı
Ð¾ÑĢ ÑĤ
Ð¾ÑĢ Ð¼
Ð¾ÑĢ ÐµÐ¹
Ð¾ÑĢ ÑĤÑĭ
Ð¾ÑĢ Ð¸Ð²ÑĪÐ¸
ÐµÐ» Ñĭ
ÐµÐ» Ð¾Ð¹
ÐµÐ» Ð°ÐµÑĤ
Ð¸ÑĤ Ð²Ð¾ÑĢ
Ð¾Ð´ Ñı
Ð¾Ð´ ÐµÑı
Ð¾Ð¼ ÐµÑĢ
Ð¸Ð» Ñı
Ð¸Ð» ÑĥÑĩ
ÐĿ ÐµÐ¶
ÐĿ ÐµÑĢÐµÐ´ÐºÐ¾
ÐĿ Ð¸ÑģÐ¿
ĠÐ· Ð½Ð¾
ĠÐ· Ð¼ÐµÑı
ÐµÐ¼ Ð½ÑĭÐµ
ĠÑĢ Ñı
ĠÑĢ Ð°Ñı
ĠÑĢ Ð²Ð°Ð½
ĠÑĢ ÑıÐ±
ĠÐ³ Ð²Ð¾Ð·Ð´
ĠÐ³ Ð¸Ð³Ð°Ð½ÑĤ
Ð°ÑĤ ÐµÐ¼
Ð°ÑĤ Ð°ÑĢ
Ð°ÑĤ Ð°Ñı
Ð°ÑĤ ÑĭÐ¼
Ð°ÑĤ ÐµÐ»Ð¸
Ð°ÑĤ ÐµÐ»ÐµÐ¹
ĠÐ¿ÑĢ Ð¾ÑĩÐ½Ð¾
ĠÐ¿ÑĢ Ð¾Ð·Ñı
ĠÐ¿ÑĢ Ð¾Ð¶Ð¸ÑĤÑĮ
ĠÐ¿ÑĢ ÑıÑĩ
ĠÐ¿ÑĢ ÐµÐ»ÑĮÑī
ĠÐ¿ÑĢ ÐµÐ¼ÑĥÐ´ÑĢ
ÐŁ Ð°Ñħ
ÐŁ ÑĭÑĪ
ÐŁ ÑıÑĤÑĮ
ÐŁ ÑĥÑĪÐºÐ¸
ÐŁ ÐµÑģÑĤÑĢ
ÐŁ ÑĥÐ»Ð¸
ÐĴ ÐµÑĤ
ÐĴ Ð¾ÑĢ
ÐĴ ÐµÑĢÑĤ
ÐĴ ÑģÑĤÑĢ
ÐĴ ÐµÑī
ÐĴ Ð¾ÑĢÐ¾Ð½
ÐĴ Ð½ÐµÐ·Ð°Ð¿
ÐĴ Ð¾ÑĪÐµÐ»
ÐĴ Ð±Ð»Ð¸Ð·Ð¸
ÐĴ Ð½Ð¸Ð·Ñĥ
Ð· Ð¾ÑĢ
Ð· Ð°Ðº
Ð· ÐµÐ²
Ð°Ðº Ð°Ð»
Ð°Ðº ÐµÐ¹
Ð¾Ð³ Ð´Ð°Ð¹
Ð¡ Ð¾Ñİ
Ð¡ Ð²Ð°Ð»
Ð¡ Ð°ÑĪÑĥ
Ð¡ Ð°ÑĪÐµÐ½ÑĮÐºÐ°
Ð± Ð»Ð¾Ð½
Ð¿ Ð¾Ð¼
Ð¿ ÐµÑĢÐ²
Ð¾ÑĤ Ð¸Ð½
Ð¾ÑĤ ÑĢÑı
Ð³ Ð»Ð°
ĠÐ» ÐµÐ»
ĠÐ» Ð°ÑĤ
ĠÐ» Ð¸Ð²
ĠÐ» ÐµÐ±
ĠÐ» ÐµÐ½ÑĮ
ĠÐ» ÐµÐ»Ð¸
ĠÐ» ÐµÑĩÑĮ
ĠÐ» Ð¸ÑħÐ¾Ð¹
ÐµÐ´ Ñı
ÐµÐ´ Ð¸Ð½Ðµ
Ð°Ð² Ñĭ
Ð°Ð² Ð½Ð°
Ð°Ð² Ð½Ðµ
Ð°Ð² Ð¸Ð»Ð¾
Ð°Ð½ ÐµÐ¼
Ð°ÑĢ Ð½Ð¾
Ð°ÑĢ ÑĥÐ¶
Ð°ÑĢ Ð°Ñħ
ĠÐ½Ðµ Ñħ
ĠÐ½Ðµ ÑĥÑĤ
ĠÐ½Ðµ ÑĥÐ´Ð°
ĠÐ½Ðµ ÑģÐ»Ð¸
Ð½Ð¸ Ñİ
Ð½Ð¸ Ð½Ñĭ
Ð½Ð¸ ÐµÐ¼
Ð½Ð¸ ÐºÐ°Ñħ
ĠÑĩ Ð°Ñħ
ĠÑĩ Ð¸ÑīÐµ
Ð°Ð´ Ð¸Ð¼
Ð°Ð´ ÐµÐ±
Ð°Ð´ Ð½Ð¾Ð¹
Ð°Ð´ ÑĢÐ°ÑĤ
Ð°Ð´ ÑĨÐ°ÑĤÐ¸
ÐµÑģ Ð»
ÐµÑģ Ñĭ
Ðŀ ÑĢÑĥÐ´
Ð¸Ð½ Ð¾Ðº
Ðļ Ð»Ñİ
Ðļ Ð»ÑĥÐ±
ĠÑģÑĤ Ð°Ñı
ĠÑģÑĤ ÑĥÑĩÐ¸ÑĤ
ĠÐ½Ð° ÐµÐ·Ð´
ĠÐ½Ð° ÑĥÐºÐ¸
ĠÐ½Ð° ÑĥÑĩÐ¸Ð»
ĠÐ½Ð° Ð¸Ð»ÑĥÑĩ
Ð¢ Ñĥ
Ð¢ ÐµÑĢ
Ð¢ Ð°Ð½
Ð¢ ÐµÑģ
Ð¢ ÑĥÐ¼
Ð¢ ÑĥÐ»Ð°
ÑĥÐ´ Ð¸Ð»Ð¸
Ð¸Ð² Ð°Ð»Ð°
Ð¸Ð² Ð¾Ðµ
Ð¸Ð² Ð°Ð»ÑģÑı
ĠÐ¶ Ð°Ð±
ĠÐ¶ Ð´Ñĥ
Ð½Ð° ÑģÑĤ
ÐµÐ² Ð¾Ð¼
ÐµÐ² ÑĭÑħ
ÐµÐ² ÑĪÐ¸Ñħ
ÐµÐ² ÑĪÐ¸Ðµ
ÐµÐ² Ð¾Ð»Ðµ
Ð¸Ð¼ ÐµÐ½
Ð¸Ð¼ Ð¾ÑģÑĤÑĮ
ÐµÑģÑĤ Ð°
ÐµÑģÑĤ Ð¾Ð¹
ÐµÑģÑĤ Ð½ÑĭÐ¹
ÐĶ Ð°Ð¼
ÐĶ Ð¸ÑĤÑı
Ð»Ð¸ Ð¶Ðµ
ĠÑĥ ÑĢÐ°Ð³
ĠÑĥ Ð½ÐµÑģ
Ð¾Ð¶ Ð¸Ñħ
Ð¾Ð¶ Ð¸Ðµ
Ð¾ÑģÑĤ Ð½ÑĭÐ¼
Ð¾Ñĩ Ð¸Ð²
Ð¾Ñĩ ÐºÐ¾
Ð¾Ñĩ Ð½ÑĭÐ¼
Ð¾Ñĩ ÐµÐ½Ð½ÑĭÐ¹
Ð¾Ñĩ ÐºÐ¾Ð¼
ÐµÐ³ Ð»Ð°
ÐµÐ½ÑĮ ÐºÐ¸Ðµ
ĠÑı ÐºÐ¾Ð±Ñĭ
ĠÑı Ð±Ð»Ð¾Ð½
ÑĥÐ³ Ð°Ð´
ÑĥÐ³ ÑĢÐ¸Ð²
ĠÑģÐ² Ð¾Ð´Ð¸ÑĤ
ĠÑģÐ² ÐµÑĢÐ³
ĠÐ¾ÑĤ Ð·
ĠÐ¾ÑĤ Ð¾ÑģÐ»
ĠÐ¾ÑĤ Ð»ÐµÑĤÐµÐ»
ĠÐ±Ñĭ ÑĤÐ¸
ÐŁÑĢ ÑĭÐ³
ÐŁÑĢ Ð¾Ð·Ð²
ÐŁÑĢ Ð°Ð¼Ð°ÑĤÐµÑĢÑĮ
Ð»Ð° Ñħ
ĠÐºÑĢ ÐµÑī
ĠÐºÑĢ ÑıÐ¶
ĠÐºÑĢ Ð°ÑĪÐµ
Ð§ Ð¸Ð½
Ð§ ÐµÑģÑĤ
Ð§ Ð°ÑģÑĤ
Ð§ ÑĮÑİ
Ð§ ÐµÑĤÐ°
Ð§ ÑĢÐµÐ·
ÑĥÑĪ ÐµÑĩÐºÑĥ
ĠÑģÐ» ÑĥÐ³Ð¸
ÐµÐº Ð»Ð¸
ÐµÐº Ð°Ñı
ÐµÐº Ð°ÐµÑĤ
Ð°Ñı Ð»Ðµ
ĠÑħ Ð°Ð½Ð°
ĠÑħ Ð¸ÑĤÑĢÐ¾
Ð»Ñı Ð½ÑĥÐ»
Ð»Ñı ÑİÑīÐ¸Ð¹
Ðľ Ð°ÑĢ
Ðľ Ð°ÑĪ
Ðľ ÐµÑģÑģ
Ðĳ ÑĢÐ°ÑĤ
Ðĳ ÐµÑĢÐµÐ³
ÐµÐ¶ Ð¸ÑīÐµ
Ð¸ÑĢ Ð°Ð½
Ð¸ÑĢ Ð°Ð¹
Ð¸ÑĢ Ð°ÑıÑģÑĮ
ÐĹ Ð°Ñı
ÐĹ Ð¸Ð¼Ð°
Ð°Ð¶ ÐµÑĪÑĮ
Ð¸Ð´ ÑĨÐ°ÑĤÑĮ
Ð£ Ñħ
Ð£ ÑħÐ¾Ð´
Ð£ Ð»Ð¾Ð²
Ð£ ÑģÑĤÑĢÐ¾
ĠÐ²Ñģ ÐµÑĩÐ°ÑģÐ½Ð¾
ÐµÐ¿ Ð°
ĠÐ¾Ð± ÑħÐ¾Ð´
Ð°Ð¹ ÑĢÐ¾Ð½
Ð¾Ð¿ Ð¸Ñģ
ÑģÑĤÐ² Ð¾ÑĢ
Ðĵ Ð½ÐµÐ²
Ðĵ Ð²Ð°ÑĢ
ÐµÐ»ÑĮ ÐµÐ¼
ÐµÐ»ÑĮ ÑİÑĪÐºÐ°
ĠÐ³ÑĢ Ð¸Ð²
ĠÐ³ÑĢ ÑıÐ´
ĠÐ¿Ð¾Ð´ ÐºÐ¾Ð²
ĠÐ¿Ð¾Ð´ Ð°ÑĤÐ¸
ĠÐ¿Ð¾Ð´ Ð»ÐµÑĨ
ÑĥÑĩ Ñĥ
ÑĥÑĩ Ð½ÑĭÐ¹
ÑĥÑĩ Ð°ÑģÑĤ
ĠÐ¿Ð¾ ÑĥÑĩ
ĠÐ²Ñĭ ÑģÑĤÑĥÐ¿
ĠÐ²Ñĭ ÑĢÐ°Ð·
Ð´Ð° ÑģÑĤ
ĠÑĪ Ð°Ð»
ĠÑĪ ÑĳÐ»
ĠÑĪ ÑĤÐ¾ÑĦ
ĠÐºÐ°Ðº Ð¾Ð¼
ĠÐºÐ°Ðº Ð¸Ñħ
ĠÐºÐ°Ðº Ð¾Ñİ
ĠÐºÐ°Ðº ÑĥÑİ
ĠÐ¡ Ð¸Ð½
ĠÐ¡ ÐµÐ²ÐµÑĢ
ĠÐ¡ Ð¸Ð±Ð¸ÑĢ
ĠÐ¸Ð· Ð½ÐµÐ¼
ĠÐ¸Ð· Ð²Ð¾Ð·
ĠÐ¸Ð· Ð²ÐµÐ´
ĠÐĿ Ð°Ñģ
ĠÐĿ ÐµÐ³Ð¾
ĠÐĿ ÐµÐ¼Ñĥ
ĠÑģÐº ÑĥÐºÐ°
ÑĥÐ¿ Ð°Ð¹
Ð¾Ñİ ÑģÑĮ
ĠÑĢÐ°Ð· Ð´ÐµÑĤ
ĠÐ¿Ð¾Ð» Ð¿
ĠÐ¿Ð¾Ð» ÐµÐ·
ĠÐ¿Ð¾Ð» ÑĥÑĪ
ĠÐ¿Ð¾Ð» ÐºÑĥ
ĠÐ¿Ð¾Ð» Ð½ÑĭÐ¼
ĠÐ¿Ð¾Ð» Ð¾ÑģÐ°
Ð½Ñı Ð»Ð¸
Ð½Ñı ÐºÐ°
Ðł ÑĥÐ³
Ðł ÑĥÑĩ
Ðł ÑĥÑħ
Ðł ÑĭÐ´
Ðł Ð¾ÑģÑģ
Ðł ÑĥÐ¼Ñı
Ðł ÐµÐºÐ°
Ðł ÐµÐ¶ÐµÑĤ
Ð°Ð»Ð° Ñĩ
ÐļÐ°Ðº Ð¾Ð³Ð¾
ĠÑĤÑĢ Ð¾
ĠÑĤÑĢ ÐµÑģ
ĠÐĴ ÑģÑı
ĠÐĴ Ð»Ð°ÑģÑĮ
Ð¸Ð»Ð¸ ÑģÑĤ
Âł Âł
Ð¸Ñĩ ÐºÐ¸
Ð¸Ñĩ Ð°Ð»Ð°
ĠÐ¢ Ð¾
ĠÐ¢ ÑĢÐ¾
ĠÐ¢ Ð°Ð½Ñİ
Ð¸Ð· Ð½Ð°
Ð¸Ð· Ð½Ðµ
ĠÐ·Ð° ÑĩÐ¸Ð½
ÐĽ ÐµÐ¶
ÐĽ ÐµÐ¶Ð°Ð»
ÐŀÑĤ ÑĨÑĭ
ÐŀÑĤ Ð½ÑİÐ´ÑĮ
ĠÐ³Ð¾ÑĢ ÐµÐ»
ĠÐ³Ð¾ÑĢ Ð°Ñħ
ĠÐ³Ð¾ÑĢ ÑĪÐµ
ĠÐ³Ð¾ÑĢ Ð½Ð¸ÑĨÐµ
ĠÑģÐ¼ ÐµÐ½Ñĥ
Ð²Ð¾ Ð¸Ð²
Ð²Ð¾ Ð¸ÑĤÑĮ
Ð²Ð¾ ÐµÐ¼Ñĥ
ĠÑģÐ¿ ÐµÑģÑĮ
ĠÑį Ðº
ĠÑį Ð»ÐµÐ³
ĠÑį ÐºÐ¸Ð¿
ĠÐŁ ÐµÑĢ
ĠÐŁ Ð¾Ð³
ĠÐŁ Ð¾ÑĤ
ĠÐŁ Ð°Ð½
ĠÐŁ ÑĢÐ°Ð²
ĠÐŁ ÑĢÐ¸
ĠÐŁ ÐµÑĢÐµÐ´
ĠÐŁ ÐµÑĢÐ²
ĠÑĨ ÐµÐ½
ĠÑĨ ÐµÐ½Ñĥ
ĠÑĨ ÐµÐ½Ð¾Ð¹
ĠÑĤÐ°Ðº Ð¾Ð¼
ĠÑĤÐ°Ðº Ð¾Ñİ
ĠÐ²Ð· Ð±
ĠÐ²Ð· ÑĢÑĭÐ²
ĠÐ²Ð· Ð°Ð¼ÐµÐ½
ĠÐ¿ÐµÑĢ Ñģ
ĠÐ¿ÐµÑĢ ÐµÑĢ
ĠÐ¿ÐµÑĢ ÐµÐ¹
ĠÐ¿Ð» Ð°Ð½
ĠÐ¿Ð» Ð°Ð²Ð½Ð¾
ĠÐ²Ð¾Ð· Ð³Ð»Ð°ÑĪ
Ð½ÐµÐ¹ ÑĪÐ¸Ñħ
ÑĥÑĢ Ð¾Ð¶Ð°Ð¹
ĠÐ¼Ð¾Ð» ÑĩÐ¸
ĠÐ¾Ð´ ÐµÐ²
ĠÐ¾Ð´ Ð¾Ð±ÑĢ
ĠÐ¾Ð´ ÐµÑĤÐ°
ĠÐ° Ð²
ĠÐĳ Ð¾ÑıÐ½
ĠÐĳ Ð°Ð¹ÑĢÐ¾Ð½
ĠÐĲ ÑĦÐ°Ð½
ĠÑģÑĤÑĢ Ð°Ð¶Ð¸
ÑĭÐ² Ð°Ñİ
ÑĭÐ² Ð°Ð»ÑģÑı
Ð¾ÑģÐ» ÑĥÑĪ
ĠÐ±Ð» ÐµÑī
ĠÐŀ Ð»
ĠÐŀ Ð²
ĠÐŀ Ñħ
ÑģÐ» ÐµÐ´
Ð¸Ñı Ð²
Ð¾ÑĪ ÐµÐ´
ÑĭÑĪ ÐºÐ¸
ĠÐ±ÑĢ Ð°Ð½Ð½ÑĭÐ¹
ĠÐ±ÑĢ Ð°ÑĤÑĮÐµÐ²
ĠÐ±ÑĢ ÐµÐ¼ÐµÐ½ÐµÐ¼
Ð¸ÑģÑĤ Ð°
Ð¸ÑģÑĤ Ñĭ
Ð¸ÑģÑĤ ÑĭÐ¼
ĠÐĶ ÑĢÑĥÐ³
ĠÐĶ Ð°Ð²Ð½Ð¾
ĠÐ»ÑİÐ± Ð¸Ð»Ð¸
ĠÐ»ÑİÐ± ÑĥÑİ
ĠÐ»ÑİÐ± Ð¸Ð¼Ð¾Ð¹
ĠÐ½Ð°Ð´ Ðµ
ĠÐ½Ð°Ð´ Ð¼ÐµÐ½
ĠÐ½Ð°Ð´ Ð¾Ð»Ð³Ð¾
ĠÐĵ Ð»ÑıÐ´
ĠÐĵ Ð»ÐµÐ±
ĠÐĵ ÐµÑģÐ¿ÐµÑĢ
Ð¡ÑĤ Ð¾Ð¹
Ð¡ÑĤ ÐµÐ¿
Ð¡ÑĤ Ð°Ð»Ð°
Ð¡ÑĤ ÑĢÐµÐ»
ĠÐ¿Ð¾Ðº Ð°ÑĢ
ĠÐ¿Ð¾Ðº ÑĥÐ¿
ĠÑģÐ²Ð¾ Ð¸Ð¼Ð¸
ĠÐľ Ð½Ð¾Ð³Ð¾
ĠÐľ Ð°ÑĪÐ°
ÑĭÐ» ÑģÑı
ÐŁÐ¾Ð´ Ð°Ð²
ÐŁÐ¾Ð´ ÑĤÑıÐ½ÑĥÑĤ
ĠÐļ Ð°ÑĤÑĮ
ĠÐļ Ð°ÑıÐ»Ðµ
ĠÐ½Ð°ÑĪ Ð»Ð°
ĠÐ½Ð°ÑĪ ÑĳÐ»
ÑĢÐ°Ð² Ñĥ
ÑĢÐ°Ð² Ð¸ÑĤÑĮÑģÑı
ĠÑģÑĤÐ°ÑĢ Ð¾Ð¼Ñĥ
ĠÑģÑĤÐ°ÑĢ Ð°Ð»ÑģÑı
ĠÐ¿Ð¾ÑĢ Ð¾Ð¶
Ð¢Ð°Ðº Ð¾Ð²
ĠÐ½Ð°Ñģ ÐµÐº
ĠÐ²ÑĢ ÑĥÑĩÐ¸Ð»
ÑĥÑī Ñĥ
ÑĥÑī ÐµÐ³Ð¾
ĠÑĢÐ°Ñģ ÑĨÐ²ÐµÑĤ
ĠÐ±ÑĥÐ´ Ð¸ÑĤ
ÑĭÑĤ Ð°Ñı
ÐºÑĢ Ð°Ñģ
ĠÐ´Ð¾Ð» Ñĭ
ĠÐ´Ð¾Ð» Ð¾Ð¹
ĠÐ´Ð¾Ð» Ð¸Ð½
ÑĦ Ð¾ÑĢ
ĠÐ²Ð¸Ð´ ÐµÐ»Ð¸
ĠÐ²Ð¸Ð´ ÐµÐ½ÑĮÐµ
ĠÐ²Ð¸Ð´ ÐµÐ»Ð°
ĠÐ¿ÑĢÐµÐ´ Ð°Ð²
ĠÐ¿ÑĢÐµÐ´ Ð°Ð½
ĠÐ¿ÑĢÐµÐ´ ÑģÑĤÐ°Ð»
ĠÐ³Ð¾Ð» Ð¾Ð´Ñĥ
ĠÐ²ÐµÑĢ Ð¾Ð¹
ĠÐ²ÐµÑĢ Ð¸ÑĤ
ĠÐ²ÐµÑĢ ÐµÐ²
ĠÐ²ÐµÑĢ Ð½ÑĭÑħ
ĠÐ²ÐµÑĢ Ð½Ð°Ñı
ĠÐ²ÐµÑĢ Ð½ÑĥÑĤÑĮÑģÑı
ĠÐĹ Ð¼Ð¸
ĠÐĹ Ð°ÑĤÐµÐ¼
Ð¸ÑĤÐµÐ»ÑĮ Ð½ÑĥÑİ
ÐŁÐ¾ ÐµÑĤ
ÐŁÐ¾ Ñį
ÐŁÐ¾ ÑĥÑĤÑĢÑĥ
Ð¥ Ð°
Ð¥ Ð¾Ð´Ð¸ÑĤ
Ð¥ Ð»Ð¾Ð¿
ĠÑģÐ°Ð¼ ÑĭÑħ
ĠÐ²ÑģÐµ Ñİ
Ð»Ð¸Ð² ÑĥÑİ
Ð»Ð¸Ð² Ð¾ÑģÑĤÑĮ
ÑıÐ´ ÑĮ
ÑıÐ´ ÐµÑĤ
ĠÐºÐ¾Ð½ ÑĨÐ¾Ð¼
ĠÐºÐ¾Ð½ ÑĨÐ¾Ð²
ĠÐ´ÑĢÑĥÐ³ Ð¾Ð¼Ñĥ
ĠÑĢÐ¾Ð´ Ð½ÑĭÐ¼
ĠÑĢÐ¾Ð´ Ð¸ÑĤÐµÐ»ÑĮ
ĠÑĢÐ¾Ð´ Ð¸ÑĤÐµÐ»Ñı
ĠÑĥÐ¼ ÑĢÐµÑĤ
ĠÐ´ÑĥÑĪ Ð¸ÑģÑĤÑĭÑħ
ĠÑģÐµÑĢÐ´ ÐµÑĩÐ½Ð¾
ĠÑģÐµÑĢÐ´ Ð¸ÑĤÑĭÐ¹
ĠÐ½ÐµÐ¼ ÐµÐ´Ð»Ñı
ĠÐ¿Ð¾Ð¼ Ð¸Ð»
ĠÐ¿Ð¾Ð¼ Ð½Ð¸
ĠÐ¿Ð¾Ð¼ ÑĩÐ°Ð»ÑģÑı
ĠÐ¿Ð¾Ð¼ Ð½Ð¸ÑĪÑĮ
ĠÐ¾Ð¿ ÑĥÑī
ĠÐ½Ð¾Ñĩ Ð½Ð°Ñı
ĠÐ½Ð¾Ñĩ Ð½Ð¾Ð¼
Ð¸Ñģ Ð¸ÑĤ
ĠÐ·Ð² ÑĥÐºÐ°
ĠÐ²Ð¾ ÐµÐ¼
ĠÐ¼Ð¾Ð³ Ð¸Ð»Ð°
ĠÐ¼Ð¾Ð³ Ð¸Ð»ÑĮ
ĠÐ·ÐµÐ¼ Ð½ÑĭÑħ
ĠÑĥÑĤ ÑĢÑĥ
ĠÑĥÑĤ ÑĢÐ¾Ð±
Ðĸ ÐµÐ½
Ð»ÐµÐ½ Ð½Ð¾Ð³Ð¾
ĠÐ¿Ð¾ÑĤ ÐµÑĪ
ĠÐ»ÑİÐ´ ÑģÐºÐ¸Ð¼
ĠÐ»ÑİÐ´ ÑģÐºÑĥÑİ
ĠÐ¿Ð¾Ð² Ð¸Ð´
ĠÐĺ Ð²Ð°Ð½
ĠÐĺ ÑĤÐ°Ð»Ð¸
ÑıÑī ÐµÐ¼Ñĥ
ĠÐ·Ð½ Ð°Ð¼ÐµÐ½
ÐļÑĢ ÑĥÑĤ
ÑĢÐ°ÑĤ Ð°
ÐŀÐ± Ð¸Ð´
ÐŀÐ± Ð»Ð¸Ñĩ
ÐŀÐ± ÑĢÐ¾Ðº
ÑĩÐ¸ ÑĨÐ°
ĠÐ¼ÑĥÐ¶ Ð¸ÐºÐ°
ĠÐ¼ÑĥÐ¶ ÑĩÐ¸Ð½
Ð¡Ð» ÐµÐ¿
Ð¡Ð» ÑĭÑħÐ°Ð»
Ð¡Ð» ÑĭÑħÐ°Ð»Ð¸
ÑıÐ· Ð½
ĠÐ±Ð»Ð°Ð³ Ð¾Ð¼
ĠÑĤÐµÐ¼ Ð½Ð°
ĠÑĤÐµÐ¼ Ð½ÑĭÑħ
ÑĬ ÑıÑģ
ĠÐ±ÐµÐ´ Ð½ÑĥÑİ
ĠÐ±ÐµÐ´ Ð½ÑıÐ¶
ĠÐ¶Ð¸Ð² Ð¾Ð³Ð¾
ĠÐ¶Ð¸Ð² ÑĭÐ¼
ĠÐ±ÐµÑģ ÐµÐ´Ñĥ
Ð½Ð¸Ð¼ Ð°ÑĤÑĮ
ĠÐ¿Ð¾ÑģÐ» ÑĥÐ¶
ĠÐ¿Ð¾ÑģÐ» ÑĭÑĪ
ĠÑĨÐ°ÑĢ ÐµÐ¹
ĠÑĨÐ°ÑĢ Ð¸ÑĨÑĥ
ĠÑģÐ¾Ð± ÑĭÑĤ
ĠÑģÐ¾Ð± Ð»ÑİÐ´
ĠÐ·Ð°Ð± Ð¾ÑĤÐ°
ĠÐ·Ð°Ð± ÑĭÐ²Ð°Ð»
ĠÑģÐ»Ð°Ð² Ð½ÑĭÑħ
ĠÐ±Ð¾Ð»ÑĮ ÑĪÐ¸Ðµ
ÐŀÐ´ ÑĥÑĪÐµÐ²
ĠÐ§ ÐµÐ»Ð¾Ð²ÐµÑĩ
ĠÐ²Ð¿ ÐµÑĩÐ°ÑĤ
ÑĥÐ» ÑıÑĤÑĮ
ĠÐ·Ð» ÑĭÑħ
ĠÐ¼Ð¸Ð» Ð»Ð¸
ĠÑĥÐ´ Ð°Ð»ÑĮ
ĠÐ½Ð°ÑĢ Ð°Ð²Ð½Ðµ
ĠÐºÐ¾Ð» Ñĩ
ĠÐºÐ¾Ð» ÑĳÑģ
ĠÐºÑĢÐ°Ñģ Ðµ
ĠÐºÑĢÐ°Ñģ Ð¾Ð¹
ĠÐºÑĢÐ°Ñģ Ð¸Ð²
ĠÐ¿Ð¾Ð³ ÑĢ
ĠÐ¿Ð¾Ð³ Ð»Ð°Ð´
ÐŁÐ¾Ðº Ð¾
ĠÐ´Ð° ÑĳÑĤ
ĠÐ±Ð¾Ð³ Ð°Ð¼
ĠÐ»ÐµÑģ Ð¾Ð¼
ĠÐ»ÐµÑģ Ð¾Ðº
ĠÐ»ÐµÑģ Ð½ÑĭÑħ
ĠÐ¿ÐµÑģ Ð½Ð¾Ð¿
ÐĿÐ°Ð´ Ð¾Ð»Ð³Ð¾
ĠÐ¿Ð¾Ñģ Ð¼ÐµÐ»
ĠÐ½ÐµÐ² ÐµÑĢ
ĠÐ½ÐµÐ² Ð¾Ð»Ðµ
ĠÐ´ÑĥÐ¼ Ð¾Ñİ
ĠÐ½ÐµÐ´ ÑĢÐ°
ĠÐ½ÐµÐ´ Ð°Ð»ÐµÐº
ĠÐ½ÐµÐ´ ÐµÐ»Ñİ
ĠÐ½ÐµÐ´ Ð¾ÑĥÐ¼
Ð¡Ð¼ Ð¾ÑĤÑĢÐ¸
ĠÐ·Ð°Ð¿ ÑĢÐµÑī
ĠÐ·Ð°Ðº Ð°ÑĤÐ°
ĠÐ·Ð°Ð² Ð¾Ð´Ð¸ÑĤ
ĠÑĥÐ³ Ð¾Ð´Ð½Ð¾
ĠÐ¿Ð¾Ð¿ Ð¾Ð²
ĠÐ¿Ð¾Ð¿ Ð¾Ð»Ð°Ð¼
ĠÐ´Ð¾ÑĢ Ð¾Ð³Ð¾
ĠÐ¿ÑĢÐ¾ÑģÑĤ ÑĥÐ¿
ĠÐ¿ÑĢÐ¾ÑģÑĤ Ð¾ÑĤÑĭ
ĠÐ¿ÑĢÐ¾ÑģÑĤ ÑĳÑĢ
ĠÐ»ÑĮ ÑİÑĤ
ĠÐ´ÐµÐ² Ð¸ÑĨ
ĠÐ´ÐµÐ² Ð¸ÑĨÐ°
ĠÑĢÐ°Ð´ Ð°
ĠÐ²ÑĭÑģ ÑĪÐ¸Ð¹
ĠÐ²ÑĭÑģ Ð¾ÑĤÑĥ
ĠÐ·Ð°Ð¼ Ð¾ÑĢ
ĠÐ·Ð°Ð¼ Ð°Ð½
ĠÐ·Ð°Ð¼ Ð°Ñħ
ĠÑģÐ¾Ð² ÐµÑģÑĤÑĮ
ĠÐ¿ÑĥÑģÑĤ Ð¾
ĠÐ¿ÑĥÑģÑĤ ÑĭÑħ
ĠÐ³Ð¾Ð²Ð¾ÑĢ Ð¸
ĠÐ³Ð¾Ð²Ð¾ÑĢ Ð¸Ð»Ð°
ĠÐ³Ð¾Ð²Ð¾ÑĢ Ð¸ÑĪÑĮ
ÐµÑģÑĤÑĮ ÐµÐ¼
ĠÐ³Ð»Ð°Ð· Ñĥ
Ð²Ñĭ Ðº
ĠÑĥÐ¿ Ð¾ÑĢ
ĠÑĥÐ¿ Ð¾Ð´Ð¾Ð±
ĠÐ¿Ð¾ÑģÑĤ ÑĭÐ»
ĠÐ¿Ð¾ÑģÑĤ Ð¾ÑıÐ½
ĠÐ¿Ð¾ÑģÑĤ Ð¾ÑıÐ»
ĠÐºÐ¾ÑĢ Ð¾Ð±
ĠÐºÐ¾ÑĢ Ð¼Ð¸Ð»
ĠÐºÐ¾ÑĢ ÑĭÑĤÐ¾
ĠÐ½Ð°Ð¿ Ð¾
ĠÐ½Ð°Ð¿ ÐµÑĢÐµÐ´
ĠÐ½Ð°Ð¿ Ð¾ÑģÐ»ÐµÐ´
ĠÐ¿ÑĢÐ¸Ð² Ð»ÐµÑĩÑĮ
ĠÐ»ÑĥÑĩ Ð°Ñħ
ĠÑĩÐµÑĢ Ð½ÑĭÑħ
ĠÑĩÐµÑĢ Ð½ÐµÐµÑĤ
ĠÑħÐ¾Ð» Ð¾Ð´Ð°
ĠÐ²Ð¾ÑĤ ÑĩÐ¸Ð½Ñĭ
ĠÐ´Ð¾Ð±ÑĢ Ð¾Ð¹
ĠÐ´Ð¾Ð±ÑĢ Ð¾Ð¼
ĠÐ´Ð¾Ð±ÑĢ ÑĥÑİ
ĠÐ²Ð·Ð¾ÑĢ Ð°
ĠÐĳÐ¾Ð¶ Ð¸Ðµ
ĠÑģÐ¼ÐµÑĢÑĤ Ð½ÑĭÐ¼
ĠÐ¼ÐµÑĩ Ð°
ĠÐ¼ÐµÑĩ ÐµÐ¹
ĠÐ¿Ð¾Ð± Ð¾ÑĢ
Ð¸Ñī Ñĥ
Ð¸Ñī ÐµÐ¼
Ð¸Ð»ÑĮ ÐµÐ¼
ĠÑĤÑĢÑĥÐ´ Ðµ
ĠÑĤÑĢÑĥÐ´ Ð°Ð¼
ĠÑĤÑĢÑĥÐ´ Ð½Ð¾Ð¹
ĠÑĤÑĢÑĥÐ´ Ð°Ñħ
ĠÑĤÑĢÑĥÐ´ Ð½ÑĭÐµ
ĠÑĢÐ°Ð± Ð¾Ñĩ
ĠÑģÑĤÑĢÐ°Ð½ Ð½Ð¾Ðµ
ĠÑģÐ¾Ð½ Ð½ÑĭÐ¹
ĠÑģÐ¾Ð½ Ð½ÑĭÐµ
ĠÑģÑĤÐ¾ ÑıÑĤÑĮ
ĠÑģÑĤÐ¾ Ð¸ÑĪÑĮ
ĠÑģÑĤÐ¾ ÑıÐ»Ð¸
ĠÑģÑĭ Ñī
ĠÐ¿Ð°ÑĢ ÑĥÐ±
ĠÐ¿Ð°ÑĢ Ð½Ñı
ÑĥÐ¹ ÑģÑı
ĠÐºÐ¾ÑĤÐ¾ÑĢ Ð¾Ð¼Ñĥ
ĠÑĦ Ð¸Ð½
ĠÑģÐºÐ¾ÑĢ Ñĩ
ĠÐ´ÐµÑĢÐµÐ² ÑĮÐµÐ²
ĠÐ²ÐµÐ´ Ð¾Ð¼
ĠÐ²ÐµÐ´ ÑĳÑĤ
ĠÑĤÐ¾Ð¼ Ð¸Ð»
ĠÑĤÐ¸Ñħ Ð°Ñı
ĠÑĤÐ¸Ñħ Ð¾Ðµ
ÑĩÐµ Ñİ
ĠÑĥÐ± ÐµÐ´
ĠÑĥÐ± ÑĢÐ°Ð½
ĠÑĥÐ± ÐµÐ¶Ð´
ĠÑĥÐ± ÑĮÐµÑĤ
ĠÐ¶ÐµÐ» Ð°Ð½ÑĮÐµ
ĠÐ¶ÐµÐ» Ð°Ð½Ð½Ð°Ñı
ĠÐĵÐ¾ÑģÐ¿Ð¾Ð´ Ð¾Ð¼
ĠÐ´Ð² ÑĥÐ¼Ñı
ĠÐ»ÐµÐ³ Ð¾Ðº
ĠÐ½Ð¾Ð³ Ñĥ
ĠÐ½Ð°Ñĩ Ð½ÐµÑĤ
ĠÐ£ Ð¿
ĠÐ³ÑĢÐ¾Ð· Ð½ÑĭÐµ
ĠÐ³ÑĢÐ¾Ð· Ð½Ð°Ñı
ĠÑĪÑĥÐ¼ Ð½Ð¾Ð¹
ĠÑĪÑĥÐ¼ Ð½ÑĭÐµ
ĠÑģÑĤÑĢÐ°ÑĪ Ð½Ñĭ
ĠÑģÑĤÑĢÐ°ÑĪ Ð¸ÑĤ
ĠÐ³Ð»ÑĥÐ± Ð¶Ðµ
ĠÐ³Ð»ÑĥÐ± Ð¾ÑĩÐ°Ð¹
ĠÐ¿Ð¾Ð½ ÐµÐ¼Ð½Ð¾Ð³Ñĥ
ĠÐ¿Ð¾Ð½ ÐµÐ²Ð¾Ð»Ðµ
ÐĽÑİÐ± Ð¸ÑĤ
ÐĽÑİÐ± Ð¸Ð»
ÐĽÑİÐ± Ð¸Ð¼
ĠÑĩÑĥÐ´ Ð°Ðº
ĠÑĩÑĥÐ´ Ð½ÑĭÐ¹
ĠÐ¥ Ð°ÑĢ
ĠÐ¥ Ð°Ð½Ð°
ÑĢÐµÐ¼ ÐµÐ½Ð½ÑĭÐ¹
ĠÑī ÐµÐ»
ĠÑī ÐµÐ³
ĠÑī Ð¸Ð¿
ÑĢÐµÐ½ Ð½ÑĭÑħ
ĠÐ´ÐµÐ» Ð°Ð»
ĠÐ´ÐµÐ» Ð¸Ð»
ĠÐ´ÐµÐ» Ð¸ÑĤÑĮ
ĠÐ±Ð¾ ÑıÐ»ÑģÑı
ÐĴÐ· ÑıÐ»
ĠÑģÐµÐ¼ Ð¸
ĠÑģÐµÐ¼ ÑĮÐµÐ¹
ĠÐ¿Ð¾Ð· Ð½Ð°Ð²
ĠÐ¿Ð¾Ð· Ð½Ð°Ð½ÑĮÑı
ĠÐ¾Ñĩ ÐµÑĢÐµÐ´
ÐŁÐ¾Ð» Ð½Ð¾
Ð¦ ÑĭÐ³
Ð¦ Ð°ÑĢÑİ
ĠÑĨÐ²ÐµÑĤ Ðµ
ĠÑĨÐ²ÐµÑĤ Ð°Ð¼Ð¸
ÑĢÑĭ Ð»Ð¸ÑģÑĮ
ĠÐ²ÑģÑı ÐºÐ¾Ð¼Ñĥ
ÐĴÐ¾Ð· Ð»Ðµ
ÐĴÐ¾Ð· Ð²ÑĭÑģ
ĠÐ´Ð²Ð¾ÑĢ Ð¾Ð²ÑĭÐ¹
Ð°Ð±Ñĭ Ð»Ð¸
ĠÑĥÑģÑĤ Ð¾ÑıÑĤÑĮ
ĠÐ±Ð¾Ð¹ ÐºÐ°Ñı
Ð¾Ð¼Ð½ Ð¸ÑĤÐµ
ĠÐ²Ð°ÑĪ ÐµÐ¼Ñĥ
ĠÐ·Ð°ÑĤ Ð¾
ĠÐ·Ð°ÑĤ Ð²Ð¾ÑĢ
ÐĵÑĢ ÐµÑĪ
ÐĵÑĢ ÑĥÐ´ÑĮ
ĠÐ³Ð¾ÑĢÐ´ Ð¾Ð¹
ĠÐ³Ð¾ÑĢÐ´ ÑĭÐµ
ĠÐ³Ð¾ÑĢÐ´ Ð¾ÑģÑĤÐ¸
ĠÐ´Ð¸Ð² Ð½Ð¾Ðµ
ĠÐ¼Ð°Ð» Ð¾Ð¼
ĠÐ¼Ð°Ð» ÑĭÑħ
ÐłÐ°Ñģ ÑģÑĤ
ÐłÐ°Ñģ ÑģÐº
ĠÐ´Ð¾Ð»Ð¶ Ð½ÑĭÐ¹
ĠÐ½ÐµÐ±ÐµÑģ Ð½ÑĭÐ¹
ĠÐ½ÐµÐ±ÐµÑģ Ð°Ð¼Ð¸
ĠÐ¾ÑĢ ÐµÑħ
ĠÐµÐ´ ÑĥÑĤ
ĠÐµÐ´ Ð¸Ð½ÑģÑĤÐ²ÐµÐ½
ĠÐµÐ´ Ð¸Ð½ÑģÑĤÐ²ÐµÐ½Ð½ÑĭÐ¹
ĠÑģÐ»ÐµÐ´ Ñı
ĠÐ±ÐµÐ» Ð¾Ð¼
ĠÐ±ÐµÐ» Ð¾Ð³Ð¾
ĠÐ±ÐµÐ» ÑĭÐ¹
ĠÐ±ÐµÐ» ÑĭÐµ
ĠÐ¾ÑĤÐ² Ð°Ð³
ĠÐ¼Ð¾Ð»Ñĩ Ñĥ
ĠÐ¼Ð¾Ð»Ñĩ Ð°Ð»Ð¸
ĠÐĲÐ½Ð³ ÐµÐ»Ð°
Ð½ÑĥÑĤ ÑĢÐ¸
ĠÐ±Ð¾ÑĢ Ð¾Ð´Ð¾Ð¹
ĠÐ·Ð°ÑĢ Ð¾Ñģ
ĠÐ·Ð°ÑĢ Ð°Ð·
ĠÐ·Ð°ÑĢ ÐµÑİ
ĠÐ·Ð°ÑĢ Ð°Ð½Ðµ
ĠÐ¼ÐµÑģÑĤ Ñĥ
ĠÑģÑĤÐ¾Ð» Ð°
ĠÑģÑĤÐ¾ÑĢÐ¾Ð½ Ð°
ĠÑģÑĤÐ¾ÑĢÐ¾Ð½ Ð¾Ð¹
ÐľÐ¾Ð» Ð¾Ð´
ÐĳÐµÑģ ÐµÐ´Ñĭ
Ð°ÑİÑī ÑĥÑİ
ĠÐ²Ð·Ð´ ÑĥÐ¼
ĠÐ²Ð·Ð´ ÑĥÐ¼Ð°Ð»
ÑİÑī ÐµÐ³Ð¾
ĠÑģÐ»ÑĭÑĪ Ð°ÑĤÑĮ
ĠÑģÐ»ÑĭÑĪ Ð°Ð»Ð°
ĠÑģÐ»ÑĭÑĪ Ð¸ÑĤÑģÑı
ĠÐ¸Ð·Ð± Ñĭ
ĠÐ¸Ð·Ð± ÑĢÐ°Ð²
ĠÐ¸Ð·Ð± ÑĭÑĤ
Ð¸Ð¶ Ðµ
ĠÐ±ÑĥÑĢ Ð½ÑĭÑħ
Ð¾Ð¹Ð´ Ð¸
Ð¾Ð¹Ð´ ÑĥÑĤ
Ð¾Ð¹Ð´ ÑıÑģÑĮ
ĠÐ·Ð°Ñģ Ð¼Ðµ
ÐŁÐµÑĢ ÐµÐ¼
ÐŁÐµÑĢ ÐµÑģ
ĠÑĤÑıÐ¶ ÐºÐ¾Ð¹
ĠÑĤÑıÐ¶ ÐºÐ¸Ðµ
ÐĵÐ¾ÑĢ Ðµ
ÐĵÐ¾ÑĢ Ñĭ
ÐĵÐ¾ÑĢ Ð¾Ð´
ÐĵÐ¾ÑĢ Ð°Ð·Ð´Ð¾
ĠÐ½Ð°Ð³ Ð¾ÑĤÑĥ
ĠÑİ Ð½Ð¾Ð¹
ĠÑİ Ð½Ð¾ÑģÑĤÑĮ
ĠÐ¼ÐµÐ´ Ð°Ð»ÑĮ
ĠÑĢÐ°ÑģÐ¿ Ð°Ð»
ĠÑĢÐ°ÑģÐ¿ ÑĥÑĤ
ĠÑĢÐ°ÑģÐ¿ ÑĢÐ¾ÑģÑĤ
ĠÐ¿ÑĢÐ¸Ð· Ð½Ð°Ð½ÑĮÑı
ĠÐ¾ÑĤÐ´ Ð¾Ñħ
ĠÐ²ÑĢÐ°Ð³ Ð¾Ð¼
ĠÐ½Ð°ÑĢÐ¾Ð´ Ð¾Ð¼
ĠÑģÐµÐ´ Ð°Ñı
ĠÐ±ÐµÐ³ Ð¸
ĠÑıÐ² Ð»ÑıÐ»ÑģÑı
ĠÑģÐºÐ°Ð· Ð°Ð½Ð¾
ĠÐŀÑĤ ÑĨÑĥ
ĠÐŀÑĤ Ð½ÑĭÐ½Ðµ
ĠÐ´ÑĢÑĥÐ¶ Ð¾Ðº
ĠÐ½Ð°Ð· Ð»Ð¾
ĠÐ½Ð°Ð· Ð²Ð°Ð½
ĠÐ½Ð°Ð· Ð²Ð°ÑĤÑĮ
ĠÑĢÑĥÑģ ÑģÐºÐ°Ñı
ĠÑĢÑĥÑģ ÑģÐºÐ¸Ð¼
ĠÑģÐ½ÐµÐ³ Ð¾Ð²Ð¾Ð¹
Ð²Ð¾Ð» Ð½Ð¾Ð²
ĠÑĢÐµÑĩ ÑĮÑİ
ĠÑĢÐµÑĩ ÐµÐ½ÑĮÐºÐ°
ĠÑģÐ»Ð°Ð´ ÐºÐ¸Ð¼
ĠÑĢÐ°Ð·Ð´ Ð°Ð²Ð°Ð»ÑģÑı
Ð¡Ð°Ð¼ Ð¾Ð´ÐµÑĢÐ¶
Ð³Ð¾ÑĢ Ð¾Ð´
ÐµÐ»Ñı ÐµÑĤ
ĠÐ·Ð°Ð´ ÑĢÐ¾Ð¶
ĠÑĢÐµÑĪ ÐµÑĤ
ĠÑĢÐµÑĪ ÐµÐ½ÑĮÐµ
ĠÐ¿ÑĢÐ¾Ñģ Ð½ÑĥÐ»ÑģÑı
ÐŁÐ¾Ð² ÑĤÐ¾ÑĢ
ĠÐ¾Ð±ÑĬ ÑıÑģ
ĠÐ¾Ð±ÑĬ ÑıÑģÐ½
ĠÐ²Ð¾ÑĢ Ð¾Ñĩ
ĠÑĤÐ°Ð¹ Ð½ÑĭÑħ
ÑĩÐ¸Ð² Ð¾Ð¹
ĠÐ¿ÑĢÐ¸Ð½ Ð°Ð´Ð»ÐµÐ¶
ĠÐ±ÐµÐ·Ð´ Ð½Ð°
ĠÐ±ÐµÐ·Ð´ Ð½Ð¾Ñİ
ĠÐ´Ð¾Ð»Ð³ Ð¸Ñħ
Ð°ÐµÐ¼ ÑĭÑħ
Ð°ÐµÐ¼ ÑĭÐµ
ĠÑģÐ°Ð´ Ñĭ
ĠÑģÐ°Ð´ Ð¸ÑĤÑģÑı
ĠÐ²Ð¾Ð·Ð´ÑĥÑħ Ð°
ĠÐ²Ð¾Ð·Ð´ÑĥÑħ Ð¾Ð¼
Ð¡Ð²Ð¾ Ðµ
ĠÐ¸ÑģÑĤ ÑıÐ·
ĠÐ¿Ð¾ÑģÐ»ÐµÐ´ Ð½Ð¸Ñħ
Ð¡ÑĤÐ¾ ÑıÐ»Ð°
ĠÑĩÐ¸ÑģÑĤ Ð¾Ðµ
Ð¢ÑĢ Ð¸Ð´ÑĨÐ°ÑĤÑĮ
ĠÐ³ÑĢÐµÑħ Ñĥ
ĠÑĪÐ°Ð³ Ð¸
ĠÐ¿ÐµÑĩÐ°Ð»ÑĮ ÑģÑı
ÐŁÐ¾Ð¼ Ð½Ð¸ÑĪÑĮ
ÐµÑģÑĤÐ¾Ð» ÑİÐ±
ĠÐ±Ð¾Ð³Ð°ÑĤ Ñĭ
ĠÐ±Ð¾Ð³Ð°ÑĤ ÑĭÐ¹
ĠÐ³Ð½ÐµÐ² Ðµ
ĠÑģÑĩÐ°ÑģÑĤÐ»Ð¸Ð² ÑĭÐ¹
ĠÑģÑĩÐ°ÑģÑĤÐ»Ð¸Ð² ÑĭÑħ
ĠÑģÐ¾Ð·Ð´ Ð°Ð½ÑĮÐµ
ĠÐ¾Ñħ Ð»Ð°Ð´
ĠÑĥÐ¶Ð°Ñģ Ð½Ð¾
ĠÑģÐµÑĢ ÑĭÐµ
ĠÑģÑĥÐ´ Ð¸Ð»
ĠÐ¿Ð°Ð´ ÐµÐ½ÑĮÐµ
ĠÐ¿Ð°Ð´ Ð°ÑİÑĤ
ĠÐ²Ð¾ÑģÑĤ Ð¾ÑĩÐ½Ð¾Ð¹
ĠÐ¶Ð°Ð» Ð¾ÑģÑĤÐ¸
ĠÐ³ÑĢÐ¾Ð± Ð¾Ð²Ð¾Ð¹
ĠÐ·Ð°ÑģÑĤ Ð¾Ð½
ÐŀÑģ ÑĥÑīÐµÑģÑĤÐ²
Ð»Ð°Ñĩ Ñĥ
ĠÑĢÐ°ÑģÑĤ ÐµÑĤ
ÑĥÐ´ÑĢ ÐµÐ¹
ĠÐ¿ÑĢÐ¾Ðº Ð°Ð·
ÐĹÐ°ÑĤ Ð¼
ĠÐ´Ð¾Ñģ ÑĥÐ³
ĠÑĢÑĥÐ± Ð°Ñħ
ĠÑĢÑĥÐ± Ð»ÐµÐ¹
ÐŁÐ¾Ð¿ Ð¾ÑĤÑĩ
ÐĿÐµÑģ Ð½Ð¾Ñģ
ĠÐ³Ð¾Ð´ Ð¾Ð²
ÐĴÐµÐ» ÐµÐ»
ÐĴÐµÐ» Ð¸ÑĤ
ĠÐ»Ð°Ñģ ÐºÐ¾Ð¹
ĠÐ»Ð°Ñģ ÐºÐ°ÐµÑĤ
ĠÐ¾ÑĤÐºÑĢ Ð¾Ð²
ĠÐ¾ÑĤÐºÑĢ ÑĭÐ»Ð°
Ð£Ð¼ ÑĢÑĥ
ÑĢÐ°ÑĪ Ð¸Ð²Ð°ÑĤÑĮ
ĠÐ²Ð¾ÑģÐ¿ Ð¸ÑĤ
ĠÐ¾Ð· Ð°Ð±
ĠÐ´Ð°ÑĢ Ð¾Ð²
ĠÐ¿ÑĢÐ¾Ñĩ Ð¸Ð¼
ĠÐ±ÑĭÑģÑĤÑĢ Ð¾ÑĤÐ¾Ð¹
Ð²ÐµÐ´ Ð¾Ð¼
ĠÐ·Ð¸Ð¼ Ð¾Ñİ
ĠÑģÐ¿Ð¾ÑĢ Ñĥ
ĠÑģÐ¿Ð¾ÑĢ ÑıÑĤ
ĠÐ¼Ð°ÑĤ ÑĥÑĪÐºÐ¸
ĠÐºÑĢÐµÑģÑĤ Ð¸ÑĤÑģÑı
ĠÑģÐ»ÑĥÐ¶ Ð°
ĠÐļÐ°Ðº Ð¾Ð¹
ĠÐºÐ¾Ñģ Ñĥ
ĠÑĤÑĢÐ¸ ÑĥÐ¼ÑĦ
ÑĮÐ± Ð¾Ð¹
ĠÐ¿ÑĢÐµÐºÑĢÐ°Ñģ ÐµÐ½
ĠÐ¿ÑĢÐµÐºÑĢÐ°Ñģ Ð½Ð°Ñı
ĠÐ³Ð»Ð°Ð² Ð¾Ð¹
ĠÐ¸Ñģ Ñģ
Ð½ÑĥÐ»Ð¸ ÑģÑı
Ð°ÐµÑĪÑĮ ÑģÑı
ĠÐ¾ÑģÑĤÐ°Ð² Ð¸Ð»Ð¸
ĠÐ¾ÑģÑĤÐ°Ð² Ð»ÑıÐµÑĤ
ÐļÐ¾ÑĢ Ð¾ÑĤ
ÐĹÐ°Ð± Ð²
ĠÑĢÐ°Ð±Ð¾ÑĤ Ðµ
ĠÑĢÐ°Ð±Ð¾ÑĤ Ð°ÐµÑĤ
ĠÑĢÐ°Ð±Ð¾ÑĤ Ð°Ñİ
ĠÑģÐ± ÑĢÐ¾ÑĪ
ĠÑģÐ± ÑĭÐ»Ð¾ÑģÑĮ
ÐĺÐ¼ ÐµÐ»
ĠÐ¿ÑĢÐ¾Ð¿ Ð°Ð´
ĠÐ½Ð¸Ð· Ð²ÐµÑĢÐ¶
ÑĢÑĭÐ² Ð°ÐµÑĤÑģÑı
ĠÐ´Ð°Ð» ÑĳÐº
ĠÐ´Ð°Ð» ÐµÑĩÐµ
ĠÐ¼ÑĢÐ°Ñĩ Ð½Ð¾
ĠÐ¼ÑĢÐ°Ñĩ Ð½ÑĭÑħ
ÐĿÐµÐ´ Ð°Ð²Ð½Ð¾
ÐĿÐµÐ±ÐµÑģ Ð½Ð¾Ð¹
ĠÐ¿ÑĢÐµÐ² ÑĢÐ°ÑĤ
ĠÐ¿ÑĢÐµÐ² ÑĢÐ°Ñī
ĠÑģÐ¸Ð»ÑĮ Ð½ÑĭÐ¹
ÐĸÐ¸Ð² Ð¾Ð¹
ĠÑģÐ½Ð¾Ð² Ð¸Ð´
ĠÐ±Ð°Ð± Ñĥ
Ð½Ð¾Ñĩ ÐµÐº
ĠÐºÑĢÐ¸Ñĩ Ð°Ð»
ĠÐºÑĢÐ¸Ñĩ Ð°ÑĤÑĮ
ĠÑģÐ»ÑĥÑĪ Ð°Ð»Ð°
ĠÐ¿Ð»Ð°Ð¼ ÐµÐ½
ĠÐ·Ð»Ð¾Ð± Ðµ
ĠÐ¿Ð°Ð» Ð°ÑĤÑĭ
ÐĵÐ¾ÑģÐ¿Ð¾Ð´ Ð¸
ÐĵÐ¾ÑģÐ¿Ð¾Ð´ Ð½ÐµÐ¹
ĠÑģÑĤÑĢÐ°Ð´ Ð°ÑĤÑĮ
ĠÐ±Ð»ÐµÐ´ Ð½Ð¾
ĠÑģÐ¾Ð³ ÑĢÐµÑĪ
ĠÐ¼Ð»Ð°Ð´ Ð¾Ð³Ð¾
ĠÐºÑĢÐµÐ¿ ÑĩÐµ
ĠÑĢÐ°ÑģÑģÐºÐ°Ð· Ð°ÑĤÑĮ
ĠÑĢÐ°Ð½ Ð³
ĠÑĢÐ°Ð½ ÐµÐµ
ĠÑĩÐ¸ÑĤ Ð°Ð»Ð°
Ð£Ñģ Ð¼ÐµÑħ
ÐĽÐµÑĤ ÑıÑĤ
ĠÑģÐ¾ÑĤÐ²Ð¾ÑĢ ÐµÐ½Ñĭ
ĠÑĤÑĥÐ¼ Ð°Ð½Ð½Ð¾Ð¹
ĠÑĢÐ¾Ðº Ð¾Ð²Ð°Ñı
ĠÐ¾ÑĤÐ¿ ÑĥÑģÐº
ĠÑģÐ»Ð°Ð± Ð¾
ĠÐ³ÑĢÑĥÑģÑĤ ÑĮÑİ
Ð¾ÑĢÐ¾Ð¶ Ð½ÐµÐ¹
ĠÐ±Ð»Ð°Ð¶ÐµÐ½ ÑģÑĤÐ²Ð¾Ð¼
ĠÐ´ÐµÑĢÐ· ÐºÐ¸Ð¹
ĠÑģÐ¾ÑģÐµÐ´ ÐµÐ¹
ĠÐ±Ð¾Ð¶ ÐµÑģÑĤÐ²Ð¾
ĠÐ±Ð¾Ð¶ ÐµÑģÑĤÐ²Ð°
ĠÐ¿ÑĢÐ¾Ð´ Ð¾Ð»Ð¶Ð°Ð»
ÐŁÐ¾Ñģ ÑĭÐ¿
ÐŁÐ¾ÑģÑĤ ÑĭÐ´
ÐŁÐ¾ÑģÑĤ Ð°Ð²Ð¸Ð»
ĠÑĥÐº Ð°Ð·Ð°Ð»
ĠÐ¿Ð¸ÑĢ Ð°Ñħ
ĠÐ²Ð¾Ð»ÑĮ Ð½ÑĭÐµ
ĠÐ¾Ð¶ ÐµÑģÑĤÐ¾Ñĩ
ĠÐ¸Ð³ÑĢ Ð°Ð»
ĠÐ¸Ð³ÑĢ Ð°Ð»Ð°
ĠÐ»Ð¸ÑĪ Ð°ÑģÑĮ
ĠÐ»Ð¸ÑĪ Ð½ÐµÐ³Ð¾
ÐĳÑĥÐ´ Ñĥ
ĠÐ¿ÑĢÐ¾Ð¸Ð· Ð²
ĠÐ¿ÑĢÐ¾Ð¸Ð· Ð²ÐµÐ´
ĠÐ¿ÑĢÐ¾Ð¸Ð· Ð½ÐµÑģ
ĠÐĲÐ½Ð³ÐµÐ» Ð°Ð¼
ĠÐ´Ð¾Ð¶Ð´ Ñı
ĠÐ¿ÑĢÐ¾ÑĤÐ¸Ð² Ð½Ð¸Ðº
ĠÑĥÐ² Ð»ÐµÐº
ĠÐ¼Ð¾Ñī Ð½ÑĭÐ¹
ĠÐ´ÑĢÐµÐ¼ Ð°Ð»
ĠÐ´ÑĢÐµÐ¼ ÑĥÑĩÐ¸Ðµ
ĠÐ²Ð°Ð¶ Ð½Ð¾Ð¹
ĠÑħÐ»ÐµÐ± Ð°
ÐŁÑĢÐ¾ÑģÑĤ ÑĢÐ°Ð½
ĠÐ¿Ð¾ÑįÑĤ Ð¾Ð¼
ĠÑĥÐ´Ð°Ð» ÑĭÐµ
ĠÐ²Ð°Ð» Ð¾Ð¼
ĠÐ½ÐµÐ· ÑĭÐ±Ð»ÐµÐ¼
ĠÐ½ÐµÑĩ Ð°ÑıÐ½
ĠÐ½ÐµÑĩ ÐµÑģÑĤÐ¸Ð²
ĠÐ²ÐµÐ»Ð¸Ðº ÑĥÑİ
ĠÑĩÐµÑĤ Ð²ÐµÑĢ
ÐŁÑĢÐ¸Ð² ÑĭÐº
ĠÐ¾Ð±Ð»Ð°Ðº Ð¾
ĠÐ¾Ð±Ð»Ð°Ðº Ð¾Ð¼
ĠÐ¾Ð±Ð»Ð°Ðº Ð°Ð¼
ĠÐ·ÐµÐ¼Ð»Ðµ Ñİ
ĠÐ¼ÐµÑĩÑĤ Ð°Ñħ
ĠÐ¿ÑĭÐ» ÑĮÑİ
ĠÐ²ÑĤÐ¾ÑĢ Ð°Ñı
ĠÐºÐ½ÑıÐ· ÐµÐ¹
ĠÐºÐ½ÑıÐ· ÑĮÑı
ÐĿÐµÐ¼ Ð½Ð¾Ð³
ÐŁÐ¾ÑģÐ»ÐµÐ´ Ð½Ð¸Ð¼
Ð°Ñī Ð¸ÑĤ
Ð°Ñī ÐµÐ¹
ĠÐ´ÑĥÐ± ÑĢÐ¾Ð²
ĠÐ²ÑĭÐ¿ Ð¸Ð»Ð¸
ĠÑĢÑĥÐº Ð¾Ð¿
ÑĪÐ¸ÑĢ ÑĮ
ĠÐ·Ð°Ð» Ðµ
ĠÐ¶Ð¸Ð» Ð°Ð¼
ĠÑĥÑģÐ¿ ÐµÐ»Ð°
ÑĢÐ°ÑģÑĤ ÐµÑĤ
ĠÑĪÐ°Ð¿ ÐºÐ°
ĠÑĪÐ°Ð¿ ÐºÐ¾Ð¹
ĠÐ»Ð¸ÑģÑĤ Ñĭ
ĠÐ±ÑĢÐ¾Ñģ Ð¸Ð»Ð¸ÑģÑĮ
ĠÐ²ÐµÐ»Ð¸Ñĩ ÑĮÐµÐ¼
ĠÐ²Ð»Ð°Ð´ ÐµÑĤÑĮ
ĠÑģÐºÐ°Ð¶ ÐµÐ¼
ĠÐ¼ÑĥÐ¶Ð¸Ðº Ð°Ð¼
ĠÐ²ÑģÑĤÑĢ ÐµÐ²Ð¾Ð¶
ÐŁÐ¾Ð· Ð¾ÑĢ
ÐŁÐ¾Ð· Ð½Ð°Ð½ÑĮÑı
ĠÐ¾ÐºÑĢÑĥÐ¶ ÐµÐ½
ĠÐ±Ð°ÑĪ ÐºÑĥ
ĠÐºÐ½Ð¸ Ð³Ð°
ĠÐ³Ð¸Ð± ÐµÐ»Ð¸
ĠÐ³Ð¸Ð± Ð½ÑĥÑĤÑĮ
ĠÐ·Ð²Ð¾Ð½ ÐºÐ¸Ð¹
ĠÐ¼ÐµÑĢÑĤÐ² ÑĭÐ¹
ÐĿÐ°Ð² ÐµÐº
ĠÐ»Ð°Ð´ Ð¾Ð½Ð¸
ÐľÐ¾Ð³ ÑĥÑĩÐ¸Ð¹
ĠÐ±Ð°Ð» Ñĭ
ÐľÐ¾ Ñĳ
ĠÐ¿Ð»ÐµÐ½ Ñĥ
ĠÐ·Ð½Ð°ÐºÐ¾Ð¼ ÑĭÐµ
ĠÑģÐ¾Ñĩ ÑĤÑı
ĠÐ´ÑĭÑĪ Ð°ÑĤÑĮ
ĠÐ¸Ð½ ÑģÑĤÑĢ
ĠÑģÑĤÐ¸Ñħ Ð¾Ð²
Ð§ÑĥÐ´ Ð½ÑĭÐ¹
Ð§ÑĥÐ´ Ð¾Ð²Ð¸Ñī
ĠÐ»ÑİÐ±Ð¾Ð² Ð½Ð¸Ðº
ĠÐ´ÑĢÐ¾Ð¶ ÑĮ
ĠÐ²Ð¾Ð»Ð½ Ð°Ð¼
ĠÐ¿Ð¾Ð³Ð¸Ð± ÐµÐ»ÑĮ
ĠÐ¿Ð¾Ð³Ð¸Ð± Ð½ÐµÑĤ
ĠÐ¿ÑıÑĤ Ð½Ð°
ĠÐ¿ÑĭÑĪ Ð½ÑĭÐµ
ÐĶÐ¾Ð² Ð¾Ð»ÑĮ
ĠÐ³ÑĢÐµÑĪ Ð½Ð¸ÐºÐ¾Ð²
ĠÑģÑĤÑĢÐ°ÑģÑĤ Ð½Ð¾Ð¹
ĠÐ½ÐµÐ³ Ðµ
ĠÑĩÐµÑģÑĤ ÑĮÑİ
ĠÐ¶ÐµÑģÑĤ Ð¾ÐºÐ¾
ĠÐ¶ÐµÑģÑĤ Ð¾ÐºÐ¸Ð¹
ÐĶÐ¾ÑĢ Ð¾Ð³
ÐĶÐ¾ÑĢ Ð¾Ð³Ñĥ
ÐłÐ¾Ð´ Ð½ÑĭÐµ
Ð¸ÑĩÐµÑģ ÐºÐ¾Ð¹
Ð¸ÑĩÐµÑģ ÐºÐ¸Ð¼
ĠÐ¼ÐµÐ»ÑĮ Ðº
ĠÐ¼ÐµÐ»ÑĮ ÐºÐ°ÑİÑĤ
ĠÐ²ÑģÑĤ Ð°Ð»Ð¸
ĠÐ´Ð°Ð¼ Ñĭ
ÐĿÐµÐ¿ Ð¾Ð´
ÐĴÑĢÐ°Ð³ Ð¸
ÑģÑıÑĤ ÑģÑı
ÑīÐ¸Ð¹ ÑģÑı
Ð£Ð´ Ð°Ð»
Ð£Ð´ Ð¸Ð²
ĠÐ¸Ð·Ð³ Ð½Ð°Ð½
ĠÐ¿Ð»Ð°Ðº Ð°Ð»
ĠÐ¿Ð»Ð°Ðº Ð°Ð»Ð¸
ĠÐ³Ð»ÑĥÑħ Ð¾
ĠÑħÐ»Ð°Ð´ Ð½ÑĭÐ¹
ĠÑħÐ»Ð°Ð´ Ð½Ð¾ÐºÑĢÐ¾Ð²
ĠÑģÐºÐ°Ð» Ñĭ
ĠÑģÐºÐ°Ð» Ð°Ñħ
ĠÑģÑĤÑĢÐ¾Ð³ Ð¸Ðµ
ÐŁÐ¾Ð´Ð¾Ð± Ð½Ð¾Ðµ
ĠÐ¿ÑĢÐ¸Ð» ÐµÑĤ
ĠÐ°ÑĢ Ð¼
ĠÐ±Ð¾ÑĢÑĮÐ± Ñĥ
ÐĳÐµÑģÑģ ÑĩÑĳÑĤ
ĠÐ·Ð²ÐµÐ·Ð´ Ð¾Ð¹
ĠÑĤÐ²ÐµÑĢÐ´ Ð¾
ĠÑģÐ¾Ð±ÑĢ Ð°Ð»Ð¸ÑģÑĮ
ĠÐ´ÑĥÑĢ Ð½ÑĭÑħ
Ð¢Ð²Ð¾ÑĢ ÐµÑĨ
ĠÐ¿Ð¾Ð»Ð½Ð¾ ÑĩÐ¸
ÑıÑīÐ¸Ñħ ÑģÑı
ĠÑģÐµÑĢÐµÐ± ÑĢÐ°
Ð¡Ð¾Ð·Ð´ Ð°ÑĤÐµÐ»Ñı
Ð½ÑıÐ² ÑĪÐ¸ÑģÑĮ
ĠÐ³Ð¾Ð»ÑĥÐ± Ð¾Ð¹
ĠÐ²ÐµÑĢÑĪ Ð¸Ð½Ð°Ð¼Ð¸
ĠÐ±Ð»Ð°Ð³Ð¾ÑĢÐ¾Ð´ Ð½ÑĭÐ¹
ĠÐ²ÑĭÑģÐ¾Ðº Ð¾Ð¼
ĠÐ²ÑĭÑģÐ¾Ðº Ð¸Ð¼
ĠÐ²ÑģÑĤÑĢÐµÑĤ Ð¸Ð»
ÐĺÑģÐ¿ ÑĭÑĤ
ĠÑĢÐ¾Ð± ÐºÐ¾Ð¹
ĠÐ³ÑĥÑģÑĤ ÑĭÑħ
ÐŁÑĢÐ¾Ð² Ð¾Ð·
ĠÐ²ÑĭÐ± Ð¾ÑĢ
ÑĭÐ· Ð½ÑĥÐ»Ð°
Ð²ÐµÑĩ Ð½ÑĭÐ¹
ĠÐ»ÐµÐ¶ Ð¸ÑĪÑĮ
ÐĹÐ² ÑĥÐº
ĠÐ¿ÑĢÐ°Ð²ÐµÐ´ Ð½ÑĭÐ¹
ĠÐ¿ÐµÑģÐµÐ½ ÐºÐ¸
ĠÐ¿ÐµÑģÐµÐ½ ÐºÐ°
ĠÐ¿Ð¸Ñģ Ð°ÑĤÑĮ
ĠÐ¼ÑıÑĤÐµÐ¶ Ð½ÑĭÐ¹
ÐĴÐ¾Ñģ ÑģÑĤÐ°Ð²
ĠÑģÐ²ÐµÑĢÑĪ Ð¸Ð»Ð¾ÑģÑĮ
ĠÐ¿Ð¾ÑĤÐµÑĢ ÑıÐ»
ĠÑħÐ¾Ð»Ð¼ Ð¾Ð¼
ĠÑħÐ¾Ð»Ð¼ Ð°Ð¼
ĠÐ¿Ð¾ÑĩÑĤ Ð¸Ð»
ĠÐ¿Ð»Ð°Ñĩ ÑĮ
ĠÐºÐ»Ð°Ð´ ÐµÑĤ
ĠÐ¿ÑĢÐµÐ·ÑĢ ÐµÐ»
ĠÐ¿ÑĢÐµÐ·ÑĢ ÐµÐ½ÑĮÐµ
ĠÐºÑĢÑĥÑĤ Ð¾Ð¹
ĠÐ¡Ð²Ð¾ ÐµÐ³Ð¾
ĠÑģÐ¿Ð¾ÑģÐ¾Ð± Ð½Ñĭ
ĠÐ°Ð´ ÑģÐºÐ¸Ñħ
ĠÐ½Ð¸Ð² Ð°
ĠÐ´Ð²ÐµÑĢ ÐµÐ¹
ĠÐ·Ð²ÑĳÐ·Ð´ Ð½ÑĭÐ¹
ĠÐ½ÐµÐ´Ð²Ð¸Ð¶ Ð½ÑĭÐ¹
ÐĴÐ·Ð´ ÑĢÐ¾Ð³
ĠÑģÐ´ÐµÐ» Ð°ÑĤÑĮ
ÐļÐ¾Ð½ Ñı
ÐĶÐµÑĢÐµÐ² Ð½Ñı
ĠÑģÐ²Ð¾Ð´ Ð¾Ð¼
Ð£Ð² ÐµÐ½Ñĩ
Ð£Ð²Ð¸Ð´ ÐµÐ»
ĠÐŀÐ»ÑĮ Ð³Ð°
ĠÐŀÐ»ÑĮ Ð³Ðµ
ĠÐ½Ð°Ð´ÐµÐ¶ Ð´Ðµ
ĠÑģÐµÑĢÐ´ÐµÑĩ Ð½ÑĭÑħ
Ð¡ÐºÐ°Ð· Ð°Ð²
ĠÐºÐ°Ð± Ð°Ðº
ÐĳÐ¾Ð»ÑĮ ÑĪÐµ
ĠÐ¿Ð¾Ð´ÑĭÐ¼ ÐµÑĤ
ĠÐ¿Ð¾Ð´ÑĭÐ¼ Ð°ÐµÑĤ
ĠÐ¡Ð¿ ÐµÑĢÐ²Ð°
Ð¡Ð»ÑĥÑĩ Ð°Ð»Ð¾ÑģÑĮ
ĠÑģÐ»Ð°Ð´Ð¾ÑģÑĤ Ð½ÑĭÐ¹
ĠÐ²ÑģÑĤÑĥÐ¿ Ð¸ÑĤÑĮ
ĠÐ²ÑģÑĤÑĥÐ¿ Ð°ÐµÑĤ
ĠÐ´Ð¾Ð³ Ð¾Ð²Ð¾ÑĢ
ĠÐ¼ÐµÐ½ÑĮ ÑĪÐµÐ¹
Ð¾Ð´ÑĥÑĪ Ð½Ð¾
ÐŁÐµÑĩ Ð°Ð»ÑĮÐ½Ð¾Ð¹
ĠÐ¶Ð°Ð¶Ð´ Ð¾Ð¹
ÐŁÑĢÐ¾ÑĪ Ð»Ð¸
ĠÐºÑĢÑĥÐ¶ Ð¸ÑĤÑģÑı
ÐĳÐµÐ´ Ð°
ĠÐ³ÑĢÐ°Ð´ Ð¾Ð¼
ĠÐ¿Ð¾Ð´ÑĥÐ¼ Ð°Ð¹
ĠÐ½Ð°ÑĢÑıÐ´ Ñĥ
ĠÐºÑĢÐ°ÑģÐ°Ð² Ð¸ÑĨ
ĠÐ¾Ð±ÑĢÐµÑĤ Ñı
ĠÐ¾Ð±ÑĢÐµÑĤ ÑĳÑĤ
ĠÐ²Ð»Ð°ÑģÑĤ ÐµÐ½
ĠÐ²Ð»Ð°ÑģÑĤ ÐµÐ»Ð¸Ð½
ĠÐ¿ÑĮÑı Ð½ÑĭÐ¹
ĠÐ´Ð¾Ð¿ ÑĢÐ¾Ñģ
ĠÐ±ÑĥÐ¹ Ð½ÑĭÐµ
ÐĺÑģÐº Ð°ÑĤÑĮ
ĠÐ¿Ð¾Ð´ÑĢÑĥÐ³ Ñĥ
ĠÐľÐ¾ Ð¸Ñģ
ĠÐľÐ¸ÑħÐ° Ð¸Ð»Ð°
ĠÐ½Ð°ÑģÐ»Ð°Ð¶Ð´ ÐµÐ½Ð¸Ð¹
ĠÐ²Ð´Ð¾ÑħÐ½Ð¾Ð² ÐµÐ½Ð½ÑĭÐ¹
ĠÐ²Ð´Ð¾ÑħÐ½Ð¾Ð² ÐµÐ½ÑĮÑı
ĠÐ¾ÑģÐ² Ð¾Ð±Ð¾Ð´
ÐĴÐµÐ»Ð¸Ðº Ð¾Ðµ
ĠÐ¿Ñģ Ñĭ
Ð¾Ð»Ñĩ Ð°Ð»
ĠÐºÐ¾Ð²Ð°ÑĢ Ð½ÑĭÐ¹
Ð¡Ð¾Ð» Ð½ÑĭÑĪÐºÐ¾
ĠÑģÐ²ÑıÑī ÐµÐ½Ð½ÑĭÐ¹
ĠÐ¼Ð¾Ð»Ð¸ÑĤ Ð²Ñĭ
ĠÐ¼Ð³Ð½Ð¾Ð² ÐµÐ½Ð½Ð¾
ĠÐ³ÑĥÐ»Ñı Ð»
ĠÐ¿ÑĢÐ¾ÑĢ Ð¾Ñĩ
ÐĶÐ¾Ð±ÑĢ ÑĭÐ¹
ÐĶÐµÑĢÐ¶ Ð°Ð²Ð½ÑĭÐ¹
ĠÐ±ÐµÑģÐµÐ´ Ðµ
ĠÐ±ÐµÑģÐµÐ´ Ñĭ
ĠÐ·Ð»Ð°ÑĤ Ð¾Ð¹
ĠÑĥÐ·Ð½Ð° ÐµÑĪÑĮ
ÐŁÐµÑģ Ð½Ð¸
ÐŁÐµÑģ Ð½Ñı
ÐŁÐµÑģ Ð½ÑĮ
ĠÐ¿Ð¾Ð´ÑĬ ÐµÐ¼
ĠÑĤÑĢÐ¾Ð¿ Ð¾Ð¹
ĠÐ¿ÐµÑĢÐµÐ¼ ÐµÐ½
ĠÐ¿ÐµÑĢÐµÐ¿ Ð»
ĠÑģÑĤÐ°ÑĢÑĥÑħ Ð¸
Ð¡Ð²ÑıÑĤ Ð¾Ð¹
ĠÑģÐ¾Ð²ÐµÑĢÑĪÐµÐ½ ÑģÑĤÐ²
ĠÑĤÐµÐº ÑĥÑĤ
ĠÐ³Ð¸Ð¼ Ð½Ñĭ
ĠÑģÐ¼Ð¾Ð» ÐµÐ½ÑģÐºÐ¸Ð¹
ĠÐ±ÑĢÐµÐ³ Ðµ
ĠÑģÑĤÐ°ÑĢÐ¸Ð½ Ð½Ð¾Ð¹
ĠÐ·Ð°Ð²Ð¸ÑģÑĤ ÑĮÑİ
ĠÐ±Ð»Ð¸ÑģÑĤ Ð°Ñı
ĠÐºÑĥÐ´ ÑĢÑı
ĠÑĢÑĭ Ð´Ð°ÐµÑĤ
ÐĴÐ¾ÑģÑĤ Ð¾ÑĢÐ¶
ĠÑģÐ²ÑıÐ· ÑĮ
ÐŁÑĢÐ¸Ð½ ÐµÑģ
ĠÐ¿Ð¾Ð³ÑĥÐ± Ð¸ÑĤÑĮ
ÐĶÐ² ÑĥÑħ
ĠÑıÐ¼ ÑīÐ¸ÐºÐ°
ĠÐ³ÑĢÐ°Ð¼ Ð¾ÑĤ
ĠÑĪÑĤ ÑĥÐºÐ¸
ĠÐºÐ¾ÑĢÐ¼ Ð¸ÑĤ
ĠÐĳÐ¾Ð¶ÑĮ Ð¸Ñħ
Ð¦Ð²ÐµÑĤ Ñĭ
ĠÑģÐ¾Ð»Ð½ÑĭÑĪ ÐºÐ°
ĠÑħÐ¾Ð·ÑıÐ¹ ÐºÐ°
ĠÐ¿Ð°Ð»ÑĮ Ð¼
ĠÐ¿Ð°Ð»ÑĮ ÑĨÑĭ
Ð¼Ð¸ÑģÑĤ ÑĢÐ°
ĠÑĤÑīÐµÑĤ Ð½Ð¾
ĠÑģÐ²Ð¸Ð´ ÐµÑĤÐµÐ»ÑĮ
ÐŁÑĢÐ°Ð² Ð´
ÐľÐ»Ð°Ð´ ÐµÐ½
ĠÐ²ÑĢÐ°Ð¶Ð´ Ñĥ
Ð¡Ð»ÐµÐ· Ð°
Ð¡Ð»ÐµÐ· Ñĭ
ĠÐºÐ¾ÑĢÐ°Ð± Ð»Ð¸
ĠÐ³Ð¾ÑĢÑıÑĩ Ð¾
ĠÐ¿Ð¸ÑĤÑĮ Ñĳ
ĠÐ¿Ð°ÑģÑĤ Ð±
ĠÐ¿Ð°ÑģÑĤ ÑĥÑħ
ĠÐ³Ð»Ñı Ð½ÑĥÐ»
ĠÐ¿ÑĢÐµÐ³ ÑĢÐµÑĪ
ÐĴÐ½Ð¸Ð¼ Ð°Ñı
Ð¡Ð¾Ñģ Ð½Ñĭ
ĠÑģÑĤÐ¾Ð¿ Ð°Ð¼
ĠÐ¾ÑĤÑĤ ÑĥÐ´Ð¾Ð²Ð°
ÐĵÐ»ÑĥÐ± Ð¾ÐºÐ¾
ĠÐ±ÐµÐ·Ð· Ð²
ĠÐ¾Ð´Ð¸Ð½Ð¾Ñĩ ÐµÑģÑĤÐ²Ðµ
ĠÑĥÐ±Ð¾Ð³ Ð°Ñı
ĠÑĤÐµÑĢÐ· Ð°ÐµÑĤ
ĠÐ³Ð¾ÑģÑĥÐ´Ð°ÑĢ ÑĭÐ½Ñı
ĠÑģÐ¾ÑĤ Ð½Ð¸
Ð¡ÑĥÐ´ Ð½Ð¾
ĠÑĩÐ¸Ð½Ð¾Ð² Ð½Ð¸ÐºÑĥ
ĠÑĥÑĩÐ°ÑģÑĤ ÑĮÑı
ĠÑĥÑģÑĤÑĢÐµÐ¼ Ð¸Ð²
ÐĹÐ°ÑģÑĤ ÑĥÐ¿
ĠÐ²ÑĭÐ² ÐµÐ»
ÐĴÐ¾Ð»ÑĪÐµÐ± Ð½ÑĭÐ¹
ĠÐ¿Ð¾Ð»ÑĮÐ· Ñĥ
ĠÐ´Ð¸ÐºÐ¸ Ð¼
ĠÑĢÐµÐ´ ÐºÐ¾
ĠÐ¿ÑĢÐ¾Ð²Ð¾ÑĢ Ð½Ð¾
ÐŁÐ¾Ð´ÑĥÐ¼ Ð°Ð¹
ĠÐ²ÑĢÐµÐ´ Ð°
ĠÐ¾Ð³Ð½ ÐµÐ½Ð½Ð¾Ð¹
ÐĳÐµÐ·Ð¼ÐµÑĢ Ð½Ð¾
ĠÐ±Ð»Ð¸Ð¶ Ð°Ð¹
Ð£ÑĤÑĢÐ°ÑĤ Ð¸Ð²
Ð£ÑĤÑĢÐ°ÑĤ Ð¸Ð»Ð¸
ĠÑģÑħÐ²Ð°ÑĤ ÐºÐµ
ĠÐ´ÑıÐ´ ÑĮÐºÐ°
ĠÐºÐ»Ð¸ ÑĢ
ĠÑĩÐµÐ»Ð¾Ð²ÐµÑĩ ÐµÑģÐºÐ¸Ð¹
ĠÐºÑĢÑĭÐ»Ð° Ñħ
ÐĵÑĢÐµÐ¼ Ð¸ÑĤ
ĠÐ¿Ð¾Ð»Ð°Ð³ Ð°Ð»
ĠÑĢÐ¾Ð´Ð¸Ð¼ Ð¾Ð³Ð¾
ĠÐ¸ÑģÐºÑĥÐ¿ Ð¸ÑĤÑĮ
ĠÐ¿ÑĢÐµÐ»ÐµÑģÑĤ Ð½Ð¾Ð¹
ĠÑĤÑİÑĢÑĮÐ¼ Ñĭ
ĠÑģÑĩ ÑĳÐ»
Ð¢Ð¸Ñħ Ð¾
ÐŁÑĢÐ¾Ð³ ÑĥÐ»ÐºÐ¸
ĠÑĤÑĢÐµÑĤÑĮ Ð¸
ĠÐĲÐ» ÑĤÑĭÐ½
ĠÐ¿Ð¾Ð²ÐµÐ´ Ð°Ð»
ĠÐ¾ÑģÑĤÐ°Ð»ÑĮ Ð½Ð¾Ð¼
ÐłÐ°ÑģÑģÐºÐ°Ð· Ñĭ
ĠÐ²Ð·Ð´ÑĭÑħ Ð°Ñı
ĠÐ²Ð·Ð´ÑĭÑħ Ð°ÐµÑĤ
ĠÐ½ÐµÐ½Ð°Ð²Ð¸Ð´ ÐµÑĤÑĮ
ĠÑĢÐ°Ð²Ð½Ð¾Ð´ÑĥÑĪ Ð½Ð¾
ĠÐ¿ÐµÑĤ ÑĥÑħ
ĠÐ²ÑĤ Ð°Ð¹Ð½Ðµ
ĠÐ¶Ð°Ð´ Ð½ÑĭÐ¹
ĠÐ³ÑĢÐ°Ð¶Ð´ Ð°Ð½
ĠÐ²Ð·Ð¼Ð°Ñħ Ð¾Ð¼
ĠÐ½ÐµÑģÐ¼ÐµÑĤ Ð½ÑĭÑħ
ĠÐ¾ÑĤÐ²Ð°Ð¶ Ð½Ð¾
ÐĿÐ°Ð¿ÑĢÐ°Ð² Ð¾
ĠÐ½Ð°Ð¹Ð´ ÐµÑĪÑĮ
ĠÑĤÑĢÐµÐ²Ð¾Ð³ Ðµ
ÐĶÑĢÐ¾Ð¶ Ð¸ÑĤ
ĠÐ¾Ñī ÑĥÑī
ÐĿÐµÐ¸ÑģÑĤ Ð¾Ð²
ĠÐ³ÑĢÐµÐ± ÐµÐ½ÑĮ
ĠÐ¿Ð¾Ð´Ð´ ÐµÑĢÐ¶
Ð¡Ð¼Ðµ ÐµÑĤÑģÑı
ĠÑģÐ½Ð¾Ð¿ Ñĭ
Ð¡Ð²ÐµÐº Ð¾ÑĢ
ÐŀÑģÐ¾Ð± ÐµÐ½Ð½Ð¾
ĠÐ¿ÑĢÐ¾Ð²Ð¾Ð· Ð³Ð»Ð°ÑĪ
ÐĳÐ»Ð°Ð³Ð¾ ÑĥÑħ
ĠÐ¿Ð¾ÑģÐ¿ÐµÑĪ Ð¸Ð»
ĠÑģÐ°Ð½ ÑıÑħ
ĠÐ²Ñĩ ÐµÑĢÐ°
ĠÐ´ÑĮÑı Ð²Ð¾Ð»ÑĮ
Ð±Ð¾Ð¶ ÐµÑģÐºÐ¸
ĠÑĩÐ°ÑĪ Ð¸
ÐŀÑĢ Ð»Ð¸Ðº
Ð¢ÐµÐ» ÐµÐ³Ð°
ÐĶÑĥÐ¼ Ð°ÐµÑĤ
ÐĳÐµÑĢ ÐµÑĤ
ĠÐ¿Ð¾Ñį Ð·Ð¸Ð¸
ĠÑģÐºÐ¾Ð»ÑĮÐ· Ð¸ÑĤ
ÐŀÑĤÐ¼ Ñī
ĠÐ±ÐµÐ·ÑĢÐ°ÑģÑģÑĥÐ´ Ð½Ð¾
ĠÐ¿ÑĢÐµÐ´Ð¾ÑģÑĤ Ð°Ð²
Ð¥Ð¾Ð» Ð¼Ñĭ
ĠÐ¼Ð¸Ð»Ð¾ÑģÑĤ Ð¸Ð²
ĠÐ±Ð°ÑĢÑī Ð¸Ð½Ñĥ
Ð¨ÑĥÑĤ Ð¸Ð»Ð¸
ĠÐ¼Ð¾Ð»ÑĩÐ°Ð» Ð¸Ð²Ð¾
ÐŁÑĢÐ¸Ð²ÑĭÑĩ ÐºÐ°
ĠÐ¼Ð¾Ð½Ð°ÑģÑĤ ÑĭÑĢ
ĠÑģÐ¾Ð¶Ð°Ð» ÐµÐ½ÑĮÑı
ĠÐŁÐ¾ÑģÐ»ÐµÐ´ÑĭÑĪ Ð°
ĠÑģÐ°ÑĢ Ð°Ð¹
ĠÐºÐ»Ð¸Ðº Ð°ÑĤÑĮ
ÐŁÑĢÐ¸Ñħ Ð¾Ð´Ð¸ÑĤ
ÐĹÐ½Ð°ÐºÐ¾Ð¼ ÑĭÐ¹
ĠÐ¾Ð±ÑĪÐ¸ÑĢ Ð½ÑĭÐ¹
ĠÐĴÐ¾ÑģÑĤ Ð¾Ðº
ĠÐĴÐ¾ÑģÑĤ Ð¾ÐºÐ°
ĠÐ¿Ð»ÑĥÑĤ Ð¾Ð²
ĠÐ¼Ð¾Ð³ÑĥÑī ÐµÑģÑĤÐ²Ð¾
ĠÐºÐ¾Ð»Ð´Ñĥ Ð½Ð°
ÐĵÑĢÐµÑħ Ð¾Ð²
ĠÑĤÐ°Ñī Ð°ÑĤ
ĠÐºÐ°ÑĤÐ¾ÑĢÐ³ Ð°
ĠÐ²Ð¸Ð· Ð³
ĠÐºÐ»Ñİ ÑĩÐ¸
Ð¡Ð°Ð² ÑĢÐ°Ñģ
ÐµÐ´Ð½ÐµÐ² Ð½Ð¾
ÐĲÐ² Ð¾ÑģÑĮ
ĠÐ¿Ð¾Ð´Ð½ÑıÐ² ÑĪÐ¸ÑģÑĮ
ĠÐ¿Ð¾Ð»Ð½Ð¾Ñĩ ÑĮ
ĠÐŁÑĢÐ° Ð¾ÑĤ
ĠÐ±ÐµÐ·Ð¾ÑĤ ÑĢÐ°Ð´
ĠÐ²Ð°ÑħÐ»Ð°Ðº Ð¸
ĠÐ¾Ð±Ð»ÐµÐ³Ñĩ Ð¸ÑĤÑĮ
ĠÐ¿Ð°ÑĤ ÑĢÐ¸Ð°ÑĢÑħ
ĠÐ¸Ñī ÑĥÑĤ
ĠÐ±ÑĥÐ± ÐµÐ½
ÐĴÐ¾Ð½ Ð·
ĠÐ»ÐµÐ¿ ÐµÑĤ
ÐĲÐ¼ Ð²ÑĢÐ¾Ð·
ĠÐ¿Ð¾Ð´Ð½Ñı Ð»Ð¸ÑģÑĮ
ĠÐľÐ¸ÑĢ Ð¾Ð·Ð´
ĠÐļÐ½ÑıÐ· ÑĮÑı
ÐĺÐ·Ð¼ ÑĥÑĩ
ĠÐ¾ÑģÑĥÑīÐµÑģÑĤÐ² Ð¸ÑĤÑĮ
ĠÐ½ÐµÐ²Ð¾Ð· Ð¼Ð¾Ð¶Ð½Ð¾
ÐĽÑİÐ±Ð¾Ð² ÑĮÑİ
ĠÐ¾ÑĩÑĥÑĤ Ð¸Ð»ÑģÑı
ĠÐºÐ»Ð°Ð½ ÑıÐ»ÑģÑı
ĠÐĴÑģÐµÐ² Ð¾Ð»Ð¾Ð´
ĠÐ¾ÐºÑĢÐ¾Ð²Ð°Ð² Ð»ÐµÐ½Ð½ÑĭÐ¹
ĠÐ²Ð¾ÑģÑģÐµÐ´ Ð°Ð»
ÑĤÐ¸Ð» Ð»ÐµÑĢ
ĠÑģÑĥÐ¿ ÑĢÑĥÐ¶
ĠÐºÑĥÐº ÑĥÑĪÐºÐ°
ĠÐ·Ð¼Ðµ Ð¸
ĠÑĢÐ²ÐµÑĤ ÑģÑı
ĠÐ¿ÑĢÐ¾Ð±ÑĢ ÑĭÐ·Ð½ÑĥÐ»Ð°
ÐĴÑĢÐµÐ¼ Ñı
ÐĴÐµÑĢÑĪ Ð¸Ð½Ñĭ
ÐĶÐ²Ð¸Ð¶ ÐµÐ½ÑĮÑı
ÐŁÑĢÐ¾ÑĤ ÑıÐ¶
ÐŀÑĤÑĤ ÑĥÐ´Ð°
ĠÐŁÐ¾Ð±ÐµÐ´ Ð¸ÑĤÐµÐ»ÑĮ
ĠÐ±ÐµÐ·Ð½Ð°Ð´ ÐµÐ¶
ĠÐ²Ð·ÑıÐ»Ð¸ ÑģÑı
ĠÐ¿Ð¾ÐºÐ¸Ð½Ñĥ Ð»Ð¸
ĠÐ¿Ð¾Ð¿ÑĢÐ¾Ð± ÑĥÐ¹
ÐŁÐ¾Ð»Ð¾Ð¶ Ð¸Ð¼
ĠÑħÐ¾ÑĢÐ¾Ð² Ð¾Ð´
ĠÐŃÑĤ Ð¾ÑĤ
ĠÐ±ÐµÐ·Ð´Ð¾Ð½ Ð½Ð¾Ð¹
ÐĳÐ»Ð°Ð³Ð¾Ð´ Ð°ÑĢÑİ
ĠÐ¾ÑĤÐ¿ÑĢÐ°Ð² Ð¸Ð»ÑģÑı
ĠÑģÐ¾ÑģÑĤÑĢÐ°Ð´ Ð°Ð½ÑĮÐµ
ĠÐ¿ÑĢÐµÐ³ÑĢÐ°Ð´ Ñĭ
ĠÑģÐ°ÑĢÐ° ÑĦÐ°Ð½
Ð´ÐµÐ¹ ÑĨÑĭ
ĠÑĤÑıÐ½ ÐµÑĤÑģÑı
ĠÐ¸Ð´Ðµ Ð°Ð»
ĠÐºÑĥÐ» Ð°Ðº
ĠÐ¿ÑĢÐ¸Ð¹ ÑĤÐ¸
ÐĴÑĩ ÐµÑĢÐ°
ÐĶÑĥÑĢ Ð°Ðº
ĠÐ¿Ð¾ÑĨÐµÐ» ÑĥÐ¹
ĠÐ¢ÑĢÑĥÐ± ÐµÑĨ
ÐĸÐµÑģÑĤ Ð¾Ðº
ĠÐ±Ð¾ÑıÑĢ Ð¸Ð½Ñĥ
ĠÐ´Ð¾ÑĩÐµÑĢ ÐµÐ¹
ĠÑĩÐµÑĪÑĥ Ðµ
ĠÑģÐ¸Ð³ Ð½Ð°Ð»
ĠÐºÐ²Ð°ÑĢ ÑĤÐ¸ÑĢ
ĠÑĢÐµÐ¼ Ð½Ð¸
ÐĶÐµÑģÑı ÑĤ
ĠÐĵÐ»Ð°Ð² Ð°
ĠÐļÑĥÐ· ÑĮÐ¼
ĠÐ±Ð»Ð°Ð³Ð¾Ñĩ ÐµÑģÑĤ
ĠÑĦÐ» Ð°Ð½Ð³
ĠÑİÐ½Ð¾ÑĪ Ð°
ĠÐľÐ°ÑĤÑĢÐµÐ½ ÑĥÑĪÐºÐ°
ĠÐĲÐ²ÑĢÐ° Ð°Ð¼
ĠÐ¾ÑĦÐ¸ÑĨ ÐµÑĢ
ÐļÐ½ÑıÐ· Ñİ
ÐļÐ½Ð¸Ð¶ ÐºÐ¸
ĠÑĥÑĢÐ¾Ñĩ Ð½ÑĭÐ¹
ĠÐ²Ð¾Ð·Ð½Ðµ ÑģÑıÑģÑĮ
ĠÐ¿ÑĥÑģÑĤÑĭÐ½Ñı Ñħ
ÐŀÐ¿ÑĥÑģÑĤ Ð¾ÑĪ
ĠÐ±ÐµÑģÑĤÐ¾Ð» ÐºÐ¾Ð²
ĠÐ½Ð°Ð¸Ð² ÑĭÑģ
ÐľÐµÑģÑı ÑĨ
ĠÐ¿Ð¾Ð´ÑĮÑıÑĩ Ð¸Ðµ
ĠÐ¿Ð¾Ð»ÑĥÐº ÑĢÑĥÐ³
ĠÐĶÑĥ Ð½Ð°Ñı
ĠÐ¿ÑĢÐµÐ´Ð½Ð°Ð· Ð½Ð°Ñĩ
ĠÑĦÐ¸Ð¼Ð¸ Ð°Ð¼
ĠÐ¼Ð°Ð´ ÑĢÐ¸Ð³
ĠÐ·Ð½Ð¾ ÐµÐ¼
ÐĵÐ²Ð°ÑĢ Ð´ÐµÐ¹ÑĨÑĭ
ĠÐĲÑĦÐ°Ð½ Ð°ÑģÑĮ
ĠÐ½Ð°Ð¿Ð¾ÑģÐ»ÐµÐ´ Ð¾Ðº
ĠÐĲÐ»ÑĤÑĭÐ½ Ð½Ð¸ÐºÐ¾Ð²
? ),
l le
t a
t t
u r
Ġ a
Ġ c
Ð¾ Ð¾Ð±ÑĢÐ°Ð·
Ð¾ Ð¸Ð½ÑģÑĤÐ²
Ð¾ ÑĦÐµÑĢ
ÑĤ Ð°Ð¼Ð¸
Ð¸ Ð¾Ð´
Ð¸ Ð¸Ð»
Ð¸ Ð°Ð½Ñĭ
Ð¸ Ð¾Ð½Ð°
Ñģ Ð¾
Ñģ Ð²Ð¾ÐµÐ¼Ñĥ
ÑĢ Ñİ
ÑĢ Ð¸ÑĪÑĮ
ÑĢ Ð°ÑĤÑĮÑģÑı
ÑĢ Ð°Ð¶ÐµÐ½
Ð½ Ð¸Ð»Ð¸
Ð½ Ð°Ð¼ÐµÐ½
Ð½ Ð¸ÑĤÐµÑģÑĮ
Ð½ ÑĥÐ·Ð´
Ð» ÑĥÐ´
Ð» ÐµÐ¿
Ð» Ð¸Ð»ÑģÑı
Ð» ÑĭÐ½ÐµÑĤ
Ñĭ ÑģÐºÐ¸
Ñĭ ÑģÑĤÑĢ
Ñĭ ÑģÑĤÑĢÐ¾
ÑĮ ÐµÐ³Ð¾
ÑĮ ÑĤÐµÑģÑĮ
Ñı Ð½Ñı
Ñı ÐºÐ¾Ð²
Ñı ÑİÑĤÑģÑı
Ñı Ð½Ð¸Ðµ
ĠÑģ Ð¾Ð¼
ĠÑģ Ð°ÑĤ
ĠÑģ Ð½Ð¾
ĠÑģ ÑĥÑĩ
ĠÑģ Ð¾ÑģÐ»
ĠÑģ ÑħÐ¾Ð´Ð¸ÑĤ
ĠÑģ Ð¸Ð½Ñı
ĠÑģ ÑĥÐ¶Ñĥ
ĠÑģ ÑĨÐµÐ½
ĠÑģ ÐºÐ¸Ð¿
ĠÐ¿ Ð¸
ĠÐ¿ Ð°Ð½
ĠÐ¿ Ñĳ
ĠÐ¿ ÑĥÑĪ
ĠÐ¿ Ð°Ð³
ĠÐ¿ Ð¸Ð»Ð¸
ĠÐ¿ Ð¸Ð»Ð°
ĠÐ¿ Ð¾Ð²Ð¾ÑĢ
ĠÐ¿ ÑĥÐ½
ĠÐ¿ Ð¸ÑīÐµ
ĠÐ¿ Ð»Ð°ÑģÑĤ
ĠÐ¿ Ð»Ð¾Ñħ
ĠÐ¿ Ð»Ð¾ÑħÐ¾
ĠÐ¿ ÐµÑĤÐµÑĢÐ±ÑĥÑĢÐ³
Ðº Ð¾Ð³Ð´Ð°
Ðº ÑĥÐ´Ð°
ĠÐ² Ð¾Ñİ
ĠÐ² Ð°Ð»ÑĮ
ĠÐ² Ð¸Ð»Ð¸ÑģÑĮ
ĠÐ² Ð¸Ð½Ðµ
ĠÐ² ÑĢÐ°Ñĩ
ĠÐ² Ð²ÐµÑĢÐ³
ĠÐ² Ð½ÐµÑģ
ĠÐ² Ð½ÑıÐ»
ĠÐ² ÑıÑīÐµÐ¹
ĠÐ² Ð½ÐµÐ·Ð°Ð¿
ĠÐ² ÑĮÐµÑĤÑģÑı
ĠÐ² ÑĪÐ¸ÑĢÑĮ
Ð² Ð°ÐµÑĤ
Ð² Ð°Ð½Ð½ÑĭÐ¹
Ð² Ð¸Ð½ÑĥÐ²
Ð² Ð³ÐµÐ½Ð¸Ð¹
Ð´ Ð¾
Ð´ Ð¾Ð½
Ð´ ÑĥÑĪ
Ð´ ÑĨÑĭ
Ð´ Ð°Ð»ÐµÐºÐµ
ĠÐ½ Ð°Ð¶
ĠÐ½ ÑİÑħ
Ñĩ ÐµÐ³Ð¾
Ñĩ Ð¸Ð½Ðµ
Ñĩ Ð°Ð»Ð¸ÑģÑĮ
Ñĩ ÑĥÐ³Ð¸
Ñĩ ÑĥÐ²ÑģÑĤÐ²
Ð¼ Ð¾Ð»
Ð¼ ÑĥÐ¶
Ñħ Ð»ÐµÐ±
Ñħ Ð»Ð¸Ð¿
ÑģÑĤ Ð¸Ð½
ÑģÑĤ ÑĢÐ°
ÑĪ ÐµÑĤ
ÑĪ ÐµÐ´
ÐµÐ½ Ð¸Ñĩ
ÐµÐ½ ÐµÑĨ
ÐµÐ½ ÐµÐ½ÑĮÐµ
ĠÑĤ Ñĳ
ĠÑĤ Ð°Ñı
ĠÑĤ Ð¾ÑģÐº
ĠÑĤ ÑĮÐ¼Ñĥ
ĠÐ¾ Ð½Ñĭ
ĠÐ¾ Ð½Ðµ
ĠÐ¾ ÑĨÐµÐ½
ĠÐ¾ ÑĨÐµÐ¿
Ð°Ð» Ð¾Ð²
Ð°Ð» Ð°Ð¼
Ð°Ð» ÐµÑĨ
Ð¾Ð» Ñĭ
ĠÐ´ Ð¾ÑĤ
ĠÐ´ ÑĭÐ±
ĠÐ´ Ð¸ÐºÐ¾Ð²
ĠÐ¸ Ð½Ð¾Ð³Ð¾
ĠÐ¸ ÑīÑĥ
Ð¾Ð² Ðµ
Ð¾Ð² ÑĮÑİ
Ð¾Ð² Ð»ÐµÑĤÐ²Ð¾ÑĢ
ĠÐ± Ð¾Ð´
ĠÐ± ÑĮÑİÑĤÑģÑı
ĠÐ¼ Ð¾ÑĤ
ĠÐ¼ Ð°ÑĢ
ĠÐ¼ Ð°Ð³
ĠÐ¼ Ð¸ÑĪ
ĠÐ¼ ÐµÑħ
ĠÐ¼ Ð¾ÑĪ
ĠÐ¼ Ð°Ñĩ
ĠÐ¼ ÑĥÐºÐ°
ĠÐ¼ ÑıÐºÐ¸
ĠÐ¼ ÑĩÐ°ÑĤÑģÑı
ÐµÑĢ ÑģÑĤ
ÐµÑĢ ÐµÑĤÑģÑı
ÐµÑĢ Ð²Ð¾Ð¹
ÐµÑĢ Ð»Ð°ÑģÑĮ
ĠÐº Ð¾Ð¹
ĠÐº Ð¸ÑĪ
ĠÐº Ð¸Ñĩ
ĠÐº ÑĥÑīÐµ
ĠÐº Ð°ÑĦ
ĠÐº Ð¸Ð½ÑĥÐ»Ð¸ÑģÑĮ
ĠÐº ÑĥÐºÐ¾Ð²
ĠÐº Ð¾ÐºÐµÑĤ
ĠÐº ÑĥÐ´ÑĢÐµÐ¹
Ð¾ÑĢ Ð´
Ð¾ÑĢ Ñī
Ð¾ÑĢ ÑĮÑı
Ð¾ÑĢ ÑĥÑģ
Ð¾ÑĢ Ð²Ð°Ð½
Ð¾ÑĢ Ð¾ÑģÑģ
ÐµÐ» Ð°ÑĤÑĮ
ÐµÐ» Ð¸Ñĩ
ÐµÐ» ÐµÐ½Ð½ÑĭÐ¹
Ð¸ÑĤ ÐµÐ»ÐµÐ¼
Ð¾Ð´ Ð°ÑĤÐµÐ»ÑĮ
Ð¾Ð´ ÑĩÐ¸Ð¹
Ð¾Ð´ Ð»Ð¸Ð½Ð½Ð¾
Ð¸Ð» Ñĭ
ÐĿ ÑıÐ½Ñı
ĠÐ· Ð¸Ñı
ĠÐ· ÑıÑĤÑĮ
ĠÐ· ÐµÐ½Ð¸
ĠÐ· Ð¼Ð¸
Ðĺ Ð½Ð°Ñı
ÐµÐ¼ Ð°
ĠÑĢ ÐµÐ±Ñı
ĠÑĢ Ð¾Ð¸
ĠÑĢ Ð¾ÐµÐ¼
ĠÑĢ Ð¾ÑīÐµ
ĠÐ³ ÑĥÐ´
ĠÐ³ ÑĥÐ¼
ĠÐ³ ÑĥÑģÑĮ
Ð°ÑĤ Ð¾Ð³Ð¾
Ð°ÑĤ ÑĭÐµ
ĠÐ¿ÑĢ ÑĥÐ´
ĠÐ¿ÑĢ ÐµÐº
ĠÐ¿ÑĢ Ð¾ÑģÐº
ĠÐ¿ÑĢ ÑĭÐ¶
ÐŁ ÑĤ
ÐŁ ÐµÐ¹
ÐŁ ÑĥÑĤÑĮ
ÐŁ Ð¾ÑİÑĤ
ÐĴ Ð¸
ÐĴ Ð°Ñħ
ÐĴ Ð¸Ñģ
ÐĴ Ð¾ÑģÐº
ÐĴ Ð¾ÑģÐ»ÐµÐ´
ÐĴ Ð»Ð°Ñĩ
ÐĴ Ð»ÑİÐ±
ÐĴ ÐµÐ½Ñĩ
Ð· Ð°Ð¿
Ð°Ðº Ð°ÑĢ
Ð°Ðº Ð°ÑĤÑĮ
Ð°Ðº Ð°Ð½Ð°
Ð¾Ð³ Ð»ÑıÐ´
Ð¡ Ð½Ð¾
Ð¡ Ð¾ÑĤ
Ð¡ Ð°Ð¿
Ð¡ Ð¸Ðµ
Ð¡ ÑĬ
Ð¡ ÑĭÑĢ
Ð¡ Ð³Ð¾ÑĢ
Ð¡ ÑĭÐ¿
Ð± Ðµ
Ð± ÑĢÐ°Ð½
Ð¿ Ð¸Ð»
Ð¿ ÑĥÑĢ
ÑĨ Ð²
ÑĨ ÐµÐ»Ð¾Ð²
ÑĨ Ð°Ð½ÑĮÐµ
ÑĨ Ð¸ÐµÐ¹
Ð¾ÑĤ Ð°Ð»
Ð¾ÑĤ Ð°Ð¼
Ð¾ÑĤ ÑıÑĤ
Ð¾ÑĤ Ð°Ñı
Ð³ Ð»Ð¸
Ð³ ÑĢÐ¾Ð¼
Ð³ Ð»ÑĥÐ±
Ð³ Ð½Ð°ÑĤ
ĠÐ» Ð¸ÑĤ
ĠÐ» Ð¸ÑĤÑĮ
ĠÐ» Ð°Ð±
ĠÐ» ÐµÑĪ
ĠÐ» Ð°ÑĤÑĭ
ĠÐ» Ð¾Ð½Ðµ
ĠÐ» Ð°Ð·ÑĥÑĢ
ÐµÐ´ ÐµÐ½ÑĮÐµ
Ð°Ð² Ð°Ñı
Ð°Ð² ÑĪÐ¸Ð¼
Ð°Ð½ Ð¾Ð³Ð¾
Ð°Ð½ Ð½Ð¸Ðº
Ð°Ð½ Ð½Ð¾Ð¼Ñĥ
Ð°Ð½ ÐµÐµ
Ð°ÑĢ Ðµ
Ð°ÑĢ ÑĥÑĪ
Ð°ÑĢ ÑıÐ¼
ĠÐ½Ðµ ÑģÐºÐ°Ð·
Ñī Ð¸Ð½Ð°
Ð½Ð¸ Ñı
Ð½Ð¸ Ð²Ð¾Ð¹
ĠÑĩ ÑĥÐ¼
ĠÑĩ Ð»ÐµÐ½
ĠÑĩ Ð»ÐµÐ½Ñĭ
ĠÑĩ ÐµÑģÑĤÐ¾Ð»ÑİÐ±
Ð°Ð´ Ð½ÑĭÑħ
Ð°Ð´ Ð°Ð¼Ð¸
Ð°Ð´ ÑĨÐ°ÑĤÑĭÐ¹
ÐµÑģ Ñĥ
ÐµÑģ Ð¾Ð¼
ÐµÑģ Ð¸Ð²
ÐµÑģ ÐºÐ¸Ðµ
ÐµÑģ ÐºÐ¸Ð¼
Ðŀ Ð²
Ðŀ ÑĪÐ¸Ð±
Ð¸Ð½ ÐµÐ¹
Ð¸Ð½ Ð½Ð¾ÑģÑĤÑĮ
Ð¸Ð½ ÑĥÑĪÐºÑĥ
Ð¾Ð½ Ð½Ð°Ñı
Ðļ Ð¾Ð³
Ðļ Ð°Ð¼
Ðļ Ð¾Ð½ÑĮ
ĠÑģÑĤ Ð¾Ð³
ĠÑģÑĤ ÑĥÐ´
ĠÑģÑĤ Ð°Ð½Ð°
ĠÑģÑĤ ÑıÐ¶
ĠÑģÑĤ Ð¾Ð³Ð°
ĠÑģÑĤ Ð°ÐºÐ°Ð½
ĠÐ½Ð° Ð¾Ð±
ĠÐ½Ð° ÑģÑĤÐ°Ð²
ĠÐ½Ð° Ð¾ÑĤÑĢ
Ð¾Ð± Ð¸ÑĤ
Ð¾Ð± ÑĥÐ´
Ð¾Ð± Ð½Ð¾Ð²
Ð¾Ð± ÑīÐµ
Ð¢ Ð¾Ð½
Ð¢ ÑĥÐ¶
Ð¢ Ð¾ÑĩÑĮ
Ð¢ Ð¾ÑĩÐ½Ð¾
Ð¢ Ð²ÐµÑĢÐ´
Ð¢ ÑĢÐ°Ñħ
Ð¢ Ð¾Ð±Ð¾Ð¹
Ð¢ Ð¾ÑĢÐ¾Ð¿
Ð¢ ÐµÑģÐ½
Ð¢ Ð¾Ð±Ð¾Ñİ
Ð¢ Ð«ÐĻ
ÑĥÐ´ Ð¸ÑĤÑĮ
ÑĥÐ´ ÐµÑı
Ð¸Ð² Ð°Ð»Ð¸ÑģÑĮ
Ð¸Ð² Ð°ÑİÑĤÑģÑı
ĠÐ¶ Ð¸Ð»Ð°
ĠÐ¶ Ð´Ð¸
ĠÐ¶ Ð¶ÐµÑĤ
Ð½Ð° ÑĦ
ÑĥÑĤ Ð¾ÑĢ
ÑĥÑĤ Ð¸Ð²
ÑĥÑĤ Ð¾Ð²Ð°
ÑĥÑĤ ÑģÐºÐµ
ÐµÐ² Ð½Ñĥ
ÐµÐ² Ð°ÑİÑĤ
Ð¾Ð· Ð½
Ð¸Ð¼ Ð¾Ñİ
ÐµÑģÑĤ Ð¸ÑĤ
ÐµÑģÑĤ Ð°Ð½Ð½Ð¾
ÐĶ Ð½Ð¸
ÐĶ Ð²Ð¾Ð¹
ÐĶ Ð¾Ð¶Ð´
ÐĶ ÑĢÐµÐ²
ÐĶ Ð°ÑĪÑĮ
ĠÑĥ ÑĪÐµÐ¹
ĠÑĥ Ð»ÐµÐ³
ĠÑĥ ÑĨÐµÐ»
Ð¾Ð¶ ÐµÑĪÑĮ
ÐµÐ· ÐµÑĤ
Ð¶ ÐµÑĩÑĮ
Ð¶ ÑĥÐ¹
Ð¾ÑģÑĤ Ð¸Ð²
Ð¾ÑģÑĤ ÑĢÐ°ÑģÑĤ
ÑıÑĤ Ð¾Ð¹
ÐµÐ½ÑĮ ÐºÐ¾Ð¹
ĠÑı Ð³
ÐµÑĩ ÐºÐµ
ÑĥÐ³ ÑĥÐ±
ĠÑģÐ² Ð°Ð»
ĠÑģÐ² Ð°Ð´ÐµÐ±
ĠÐ¾ÑĤ Ð¾Ð¼
ĠÐ¾ÑĤ ÑĨÑĭ
ĠÐ¾ÑĤ ÑĢÐµÑĪ
ĠÐ¾ÑĤ Ð»ÑĥÑĩ
ĠÐ¾ÑĤ Ð±Ð»
Ð½Ñĥ Ñı
ĠÐ±Ñĭ Ðº
Ð¸Ñħ Ð¾Ð½ÑĮ
ÐŁÑĢ Ð¾Ð²Ð°Ð»
ÐŁÑĢ ÐµÐ»ÑĮÑī
Â« âĢĶ
Ð»Ð° ÑģÑı
ĠÐºÑĢ Ð¸ÐºÐ¸
ÑĥÑĪ Ð¸Ð»
ÑĥÑĪ ÐµÐ½ÑĮÐµ
ÑĥÑĪ ÐºÐ¾Ð²
ĠÑģÐ» Ð¾Ð½
ĠÑģÐ» ÑĥÑħÐ°
ĠÑģÐ» Ð¾Ð¶Ð¸ÑĤÑĮ
Ð°Ñı Ð½Ð¾Ð²
ĠÑħ Ð¾ÑĢÐ¾Ð½
ĠÑħ Ð°ÑĤÐ°
ĠÑħ Ð¼ÑĥÑĢ
ĠÑħ ÐµÑĢÑĥÐ²Ð¸Ð¼
ĠÑħ ÑĢÐ¸Ð¿
ĠÑħ Ð¼ÐµÐ»ÑĮ
Ð»Ñı Ð»Ð°ÑģÑĮ
Ðľ ÑĥÐ·
Ðľ Ð¸Ð³
Ðľ Ð¸Ð½Ð¸
Ð¾Ð»ÑĮ Ð½ÑĥÑİ
Ðĳ Ð°Ð»
Ðĳ Ð°Ð³
Ðĳ ÑĥÐ¼
Ðĳ ÑĥÐ¹
Ðĳ ÐµÐ¶Ð°Ð»
Ðĳ ÑĭÐ»Ð¸
ÐµÐ¶ ÐºÐ¸
ÐµÐ¶ Ð¸ÑīÐ°
Ð¸ÑĢ Ð°Ð»Ð¸
Ð¸ÑĢ Ð°Ð»Ð°
Ð¸ÑĢ Ð°ÑİÑĤ
Ð¸ÑĢ Ð°Ð½Ð°
Ð¸ÑĢ Ð°Ð¹ÑģÑı
ÐĹ Ð»Ð¾
ÐĹ Ð¼ÐµÑı
Ð°Ð¶ ÑĥÑĤÑģÑı
ÐĿÐµ Ñħ
ÐĿÐµ ÑĥÑĢÐ¾Ð¶Ð°Ð¹
Ð£ Ð²ÐµÑĢ
Ð£ ÐµÐ·Ð´Ð°
ĠÐ²Ñģ ÑħÐ¾Ð´
ĠÐ²Ñģ ÑħÐ»Ð¸Ð¿
ÐĲ ÑĢÑħÐ°Ð½Ð³
ĠÐ¾Ð± ÐµÑĤ
ĠÐ¾Ð± Ð°Ð³
ĠÐ¾Ð± ÑģÑĤÑĥÐ¿
ĠÐ¾Ð± Ð»ÐµÐº
ĠÐ¾Ð± ÐµÐ´Ñĥ
ĠÐ¾Ð± Ð½Ð¸Ð¼Ð°ÐµÑĤ
ĠÐ¾Ð± Ð»Ð°ÑģÑĤÐ¸
ĠÐ¾Ð± Ð»Ð°ÑģÑĤÑĮ
Ð¸Ðº ÑĢÐ°ÑĤ
Ð¸Ðº ÑĢÐ°ÑĤÐ½Ð¾
Ð°Ð¹ ÑģÐºÐ¸Ð¹
Ð¾Ð¿ ÑĢ
Ð¾Ð¿ Ð¾Ð¼
Ð¾Ð¿ ÑĥÐ·
Ð¾Ð¿ ÑĢÐ¸ÑıÑĤ
Ð¸Ð¹ ÑģÐºÐ¸Ð¼
ÑģÑĤÐ² Ð¾Ð²Ð°Ð»Ð°
Ðĵ Ð»Ð°Ð³
Ðĵ Ð¸Ð³Ð°Ð½ÑĤ
Ð°Ð»Ð¸ ÑģÑĤ
Ð°Ð»Ð¸ ÑĪÑĮ
ÐµÐ»ÑĮ Ð¸
ÐµÐ»ÑĮ Ñĩ
ÐµÐ»ÑĮ Ð½ÑĭÑħ
ÐµÐ»ÑĮ Ð·ÐµÐ²
ÑĢÐ° Ð½Ñĭ
ÐµÑĪ Ð½ÑĭÐ¹
ÐµÑĪ Ð½Ð¾Ð¹
ĠÐ³ÑĢ Ð¾Ñħ
ÑĥÐ¼ Ð°Ð½
ÑĥÐ¼ Ð°Ð»ÑģÑı
ÑĥÐ¼ ÑıÑģÑĮ
ĠÐ¿Ð¾Ð´ Ð¸
ĠÐ¿Ð¾Ð´ Ðº
ĠÐ¿Ð¾Ð´ Ð°ÑĤÑĮ
ĠÐ¿Ð¾Ð´ ÑģÑĤÑĢ
ĠÐ¿Ð¾Ð´ Ð²Ð°Ð»
ĠÐ¿Ð¾Ð´ ÑĥÑĪÐºÐ¸
ĠÐ¿Ð¾Ð´ ÑĩÐ°Ñģ
ĠÐ¿Ð¾Ð´ Ð²ÐµÑĢÐ³
ĠÐ¿Ð¾Ð´ ÐºÐ¾ÑĪ
ĠÐ¿Ð¾Ð´ ÑģÐ»ÑĥÑĪ
ĠÐ¿Ð¾Ð´ Ð½Ð¾Ð¶
ĠÐ¿Ð¾Ð´ ÐµÐ»Ð¾Ð¼
ĠÐ¿Ð¾Ð´ Ð¾ÑĪÐµÐ»
ÑĥÑĩ ÐµÐ³Ð¾
ĠÐ¿Ð¾ ÑıÑĤ
ĠÐ¿Ð¾ Ð¸ÑģÐºÐ¸
ĠÐ¿Ð¾ ÐµÐ¼Ð½ÑĭÐµ
ĠÐ²Ñĭ Ð¶
ĠÐ²Ñĭ ÑģÐ¿
ĠÐ²Ñĭ Ð½Ð¾Ñģ
ĠÑĪ ÐµÑģÑĤÐ¸
ĠÑĪ Ð²ÑĭÑĢ
ĠÑĪ Ð¾ÑĦÐµÑĢ
ĠÐºÐ°Ðº Ð¾Ð²
ĠÐ¡ Ð¼
ĠÐ¡ ÐµÐ²
ĠÐ¡ Ð¸Ð´
ĠÐ¡ Ð¾Ð±ÑĢ
ĠÐ¡ ÐµÐ±Ñı
ĠÐ¡ Ð°ÑĪÐµ
ĠÐ¸Ð· Ð½Ñĥ
ĠÐ¸Ð· Ð»Ð¸Ð²
ĠÐ¸Ð· Ð²ÐµÑĢÐ³
ĠÐ¸Ð· Ð¾Ð±ÑĢÐ°Ð·
ĠÐ¸Ð· ÑĢÐµÐº
ÑĥÐ± Ð¸ÑĤÑĮ
ÑĮÑı Ð½Ð°
ĠÐĿ ÐµÐ½
ĠÐĿ Ð°Ð¼
ĠÐĿ Ð°ÑģÑĤ
ĠÑģÐº ÑĥÐ»
ĠÑģÐº Ð¾ÑĤÐ¾Ð²
ĠÑģÐº ÑĥÐºÑĥ
ĠÑģÐº ÑĢÐµÐ¿
ÑĥÐ¿ Ð°Ð»
ĠÑĢÐ°Ð· Ð»Ð°Ð´
ĠÑĢÐ°Ð· Ð»Ð¸Ð²
ĠÑĢÐ°Ð· Ð¼ÐµÑĤ
ĠÑĢÐ°Ð· Ð³Ð¾ÑĢ
ĠÐ¿Ð¾Ð» ÐºÐ¾Ð¼
Ð½Ñı ÐµÑĤ
Ð¯ Ð´
Ð¯ ÑĢÐ¾ÑģÐ»Ð°Ð²
Ðł ÐµÑĤ
Ðł ÑĥÐ¶
Ðł ÐµÑĩÑĮ
Ðł Ð¾Ð²Ð½Ð¾
Ðł ÐµÐºÐ¸
Ðł Ð¾Ð¿ÑĤ
Ðł ÑĥÐºÐ¾Ñİ
ÐºÑĥ ÐµÑĤ
ÐļÐ°Ðº Ð¾Ð²
ÑĭÑħ Ð°ÐµÑĤ
ĠÑĤÑĢ ÑĥÐ¶
ĠÑĤÑĢ ÑĥÑģ
ĠÑĤÑĢ ÐµÑģÐº
ĠÑĤÑĢ ÑıÑģ
ĠÑĤÑĢ ÐµÐ·Ð²
ĠÐĴ Ð´
ĠÐĴ Ð¾Ð·Ð´
ĠÐĴ ÐµÑĩÐ½ÑĭÐ¹
ĠÐĴ ÐµÐ»ÑĮÐ·ÐµÐ²
Ð¸Ð»Ð¸ ÑĨÐ°
Ðķ Ð»ÑĮ
Ðķ Ð´ÐµÑĤ
Ðķ Ð³Ð¸Ð¿ÐµÑĤ
Ðķ Ð²Ð³ÐµÐ½Ð¸Ð¹
Ð¸Ñĩ ÐµÐ¹
Ð¸Ñĩ Ð½ÑĭÐ¹
ĠÐ¢ Ð°ÑĢ
ĠÐ¢ ÑĥÑĤ
ĠÐ¢ Ð¾Ð³Ð´Ð°
ĠÐ¢ Ð¾Ð»ÑĮÐºÐ¾
ĠÐ¢ Ð¾ÑĢÐ¾Ð¿
ĠÐ·Ð° ÑĩÐ°ÑĤ
ÐĽ ÐµÐ¶Ð°Ð»Ð¸
ÐĽ Ð°Ð·ÑĥÑĢ
ÐŀÑĤ Ð²Ð¾ÑĢ
ĠÐ³Ð¾ÑĢ ÐµÐ¼
ĠÐ³Ð¾ÑĢ Ð°Ð¼
ĠÑģÐ¿ Ð°Ð»Ð°
ĠÑģÐ¿ Ð»Ñİ
ĠÑģÐ¿ ÑĢÐ°ÑĪ
ĠÑģÐ¿ ÑıÑīÐµÐ³Ð¾
ĠÐŁ Ð¸ÑĤÐµÑĢÐ°
ĠÐŁ ÑĥÑĤÐ¸Ð²
ÐµÑħ Ð¾Ð¹
ÑĥÑħ Ñĥ
ÑĥÑħ Ð¾Ð¹
Ð»Ð¾ Ðµ
ĠÐ±ÐµÐ· Ð²
ĠÐ±ÐµÐ· ÑĭÐ¼
ĠÐ±ÐµÐ· ÑĢÐ¾Ð´
ĠÐ±ÐµÐ· Ð³Ð»Ð°Ñģ
ÐµÑĨ ÐµÐ»Ð¾
ĠÐ²Ð· ÑĬ
ĠÐ²Ð· Ð³Ð¾ÑĢ
ĠÐ²Ð· ÑıÐ»ÑģÑı
ÑĥÑģÑĤ Ð¸ÑĤ
ĠÐ¿ÐµÑĢ ÐµÐº
ĠÐ¿ÐµÑĢ ÐµÑĪ
ĠÐ¿ÐµÑĢ ÐµÑħ
ĠÐ¿ÐµÑĢ Ð²Ð¾ÑĢ
ĠÐ¿ÐµÑĢ ÐµÑģÐº
ĠÐ¿ÐµÑĢ ÑĩÐ°ÑĤ
ĠÐ¿Ð» ÑİÑī
ĠÐ²Ð¾Ð· Ð»Ðµ
ĠÐ²Ð¾Ð· ÑĢÐ°Ð¶
ĠÐ³Ð» ÑĥÑĪ
Ð½ÐµÐ¹ ÑĪÐ¸Ðµ
Ð½ÐµÐ¹ ÑĪÐµÐ³Ð¾
ÑĥÑĢ Ð¾
ÑĥÑĢ ÐºÐ°
ĠÐ¼Ð¾Ð» Ñİ
ĠÐ¼Ð¾Ð» Ð¾Ð¶Ðµ
ĠÐ¼Ð¾Ð» Ð¾ÐºÐ¾Ð¼
ĠÐ° ÑĤÐ°Ðº
ĠÐ° Ð½Ð°ÑĦ
ĠÐĳ ÐµÐ»
ĠÐĳ ÑĭÐ»
ĠÐĳ ÑĥÐ´ÑĮ
ĠÐĳ ÑĭÑĤÑĮ
ĠÐĳ ÐµÑĢÐµÐ³
ĠÑģÑĤÑĢ Ð¾Ñİ
ĠÑģÑĤÑĢ Ð¸Ð¶
ĠÑģÑĤÑĢ Ð°Ð¶Ðµ
ĠÑģÑĤÑĢ Ð¾Ð¿ÑĤ
ÑĭÐ² Ð°ÑĤÑĮÑģÑı
ĠÐ¿ÑĢÐ¸ ÑģÐ¿
ĠÐ¿ÑĢÐ¸ ÐµÐ´ÐµÑĤ
ĠÐ±Ð» Ñİ
ĠÐ±Ð» Ð¸Ð½Ð´
ĠÐŀ ÑģÑĤ
ĠÐŀ Ð¿
ÐµÐ»Ð¸ ÑģÑı
Ð¸Ñı Ð»
ÑĭÑĪ ÐºÐ°
.. .
ĠÐ±ÑĢ Ð°ÑĤÑĮ
ĠÐ±ÑĢ ÐµÐ»Ð¸
ĠÐ±ÑĢ ÑĥÑģ
ĠÐ±ÑĢ Ð°Ð½Ð½Ð¾Ð¹
ĠÐ±ÑĢ Ð¾Ð²ÐµÐ¹
ĠÐ±ÑĢ Ð¾Ð½Ðµ
ÐµÑĢÐ´ Ð¸ÑĤÑģÑı
Ð¸ÑģÑĤ Ð¾Ð¼
ĠÐĶ Ð¾ÑĢ
ĠÐĶ ÐµÐ»ÑĮ
ĠÐĶ ÐµÑĢÐ¶
ĠÐĶ Ð¾Ð»Ð¶
ĠÐĶ ÐµÑĢÐµÐ²
ĠÐĶ ÑĭÑĢÑı
ĠÐ»ÑİÐ± Ð¸Ð¼ÑĭÐ¹
ĠÐ»ÑİÐ± Ð¸Ð¼ÑĭÑħ
ĠÐ»ÑİÐ± Ð¾Ð¿ÑĭÑĤ
ĠÐ½Ð°Ð´ ÑĳÐ¶
ĠÐ½Ð°Ð´ Ð»ÐµÐ¶
ĠÐĵ Ð»Ð°Ð·
Ð¡ÑĤ ÐµÐº
Ð¡ÑĤ Ð¾Ð»ÑĮÐºÐ¾
Ð¡ÑĤ ÑĢÐ¾
Ð¡ÑĤ ÑĭÐ´
Ð¡ÑĤ Ð°Ð½Ñĥ
Ð¡ÑĤ ÑĥÑĩÐ¸ÑĤ
ĠÐ¿Ð¾Ðº Ð¸Ð½ÐµÑĤ
ĠÐ¿Ð¾Ðº Ð¸Ð½ÑĥÑĤÑĮ
ĠÑģÐ²Ð¾ ÐµÐ²
ĠÐľ Ð°Ð»
ĠÐľ Ð¸Ð»
ĠÐľ Ð°ÑĢÐ¸
ÑģÑĤÑĢ Ñĥ
Ð°ÑĪ ÐºÐ°
ÐŁÐ¾Ð´ ÑĭÐ¼
ÐŁÐ¾Ð´ ÑħÐ¾Ð´
ĠÐ´ÑĢ Ð°Ð·
ĠÐļ Ð°Ð¶Ð´
ĠÐļ Ð½ÑıÐ·ÑĮ
ĠÐļ ÑĥÐ´ÐµÑı
ÑĢÐ°Ð² Ð¸ÑĤÑģÑı
ĠÐ½Ð¸ Ð¶
ĠÐ½Ð¸ ÑīÐ¸Ð¹
ĠÑģÑĤÐ°ÑĢ Ð¸Ð½Ð°
ĠÑģÑĤÐ°ÑĢ ÑĨÑĥ
ĠÐ¿Ð¾ÑĢ Ð°Ð´
ĠÐ¿Ð¾ÑĢ Ð¾Ð¶Ð´
ĠÐ¿Ð¾ÑĢ Ð°Ð±Ð¾ÑĤ
ĠÐ½Ð°Ñģ Ð»Ð°Ð´
ĠÐ½Ð°Ñģ Ð»Ð°Ð¶
ĠÐ½Ð°Ñģ Ð¸Ð»ÑĮÐµ
ĠÑĢÐ°Ñģ ÐºÐ°
ĠÑĢÐ°Ñģ ÑģÑĤÑĢÐ¾
ÑĭÑĤ Ñĭ
ÐµÐ½Ñı Ð»
ÐµÐ½Ñı Ñħ
ÑĦ Ð°
ĠÐ²Ð¸Ð´ Ð°Ð»Ð¸
ĠÐ²Ð¸Ð´ ÐµÐ½ÑĮÑı
ĠÐ²Ð¸Ð´ ÑĭÐ²Ð°Ð»
ĠÐ¿ÑĢÐµÐ´ ÑĥÐ¿
ĠÐ¿ÑĢÐµÐ´ Ð°Ð»Ð¸ÑģÑĮ
ĠÐ¿ÑĢÐµÐ´ Ð°ÑĤÐµÐ»ÑĮ
Ð»Ñİ ÑģÑĤÐ¸
ÐµÐ»Ð° ÑģÑı
ĠÐ±ÑĭÐ» ÑĮ
ĠÐ±ÑĭÐ» Ð¾Ð¹
ĠÐ²ÐµÑĢ Ñĥ
ĠÐ²ÐµÑĢ Ñı
ĠÐ²ÐµÑĢ Ð½Ñĭ
ĠÐ²ÐµÑĢ Ð¸ÑĤÑĮ
ĠÐ²ÐµÑĢ Ð¾Ð»Ð¾Ð¼
ĠÐĹ Ðµ
ĠÐĹ Ð½Ð°
ĠÐĹ Ð½Ð¾Ð±
ĠÐ²Ð¾Ð» ÐµÐ½
ĠÐ²Ð¾Ð» Ð½Ð°
ĠÐ²Ð¾Ð» Ð¾Ñĩ
ĠÐ²Ð¾Ð» ÐºÐ¾Ð¼
ĠÐ²Ð¾Ð» Ð¾ÑģÐ°
Ð¸ÑĤÐµÐ»ÑĮ Ð½Ð°
ÐŁÐ¾ Ñī
Ð¥ Ð¾Ð´
Ð¥ ÑĥÐ´
Ð¥ Ð¾ÑĩÑĥ
Ð¥ Ð¼ÐµÐ»ÑĮ
Ð¥ Ð¾ÑĩÐµÑĪÑĮ
ÑīÐµ Ñİ
ĠÑģÐ°Ð¼ Ð¾Ð²
ĠÑģÐ°Ð¼ Ð¾Ð´ÐµÑĢÐ¶
ÐĺÐ· Ð»Ð¸ÑĪ
Ð»Ð¸Ð² ÐµÐ¹
Ð»Ð¸Ð² ÑĭÐ¼
Ð¢Ñĭ ÑģÑı
ĠÐ½ÐµÑĤ ÐµÑĢÐ¿
ĠÐºÐ¾Ð½ ÐµÐ¼
ĠÐºÐ¾Ð½ ÑİÑĪ
ĠÑĢÐ¾Ð´ Ð½Ð¾Ð³Ð¾
ĠÑĢÐ¾Ð´ Ð¸ÑĤÑģÑı
ĠÑĢÐ¾Ð´ Ð½Ð¾Ð¼
ĠÑĢÐ¾Ð´ Ð¸Ð½Ðµ
ĠÑĥÐ¼ Ñĥ
ĠÑĥÐ¼ Ð½ÑĭÐµ
ĠÑĥÐ¼ ÐµÐ½ÑĮÑĪ
ĠÐł Ð°Ð·Ð´
ĠÐł Ð°ÑĤÐ¼Ð¸ÑĢ
ĠÑģÐ²ÐµÑĤ Ð»Ð°
ĠÑģÐ²ÐµÑĤ Ð»ÑĭÑħ
ĠÐ´ÑĥÑĪ Ð½Ð¾
ĠÐķ Ð´Ð¸
ĠÑģÐµÑĢÐ´ ÑĨÐ°Ñħ
ĠÑģÐµÑĢÐ´ Ð¸ÑĤÐ¾
ĠÐ½ÐµÐ¼ ÑĭÐ¼
ĠÐ¿Ð¾Ð¼ Ð½Ð¸ÑĤ
ĠÐ¿Ð¾Ð¼ Ð¸Ð»ÑĥÐ¹
ĠÐ¾Ð¿ Ð¾ÑıÑģ
ĠÐ½Ð¾Ñĩ Ð½ÑĭÐµ
ĠÐ½Ð¾Ñĩ Ð½ÑĥÑİ
Ð¸Ñģ ÑĥÑģ
Ð¸Ñģ ÑĭÐ²Ð°ÑĤÑĮ
ĠÐ·Ð² Ð°Ð»Ð¸
ĠÐ·Ð² Ð°Ð»Ð°
ĠÐ·Ð² ÑıÐº
ĠÐ·Ð² ÑĥÐºÐ¾Ð¼
ĠÐ²Ð¾ ÑĨÐ°ÑĢ
ĠÐ²Ð¾ Ð¾Ð±ÑīÐµ
ÑĳÑĤ Ð°
ÐµÐ½Ð¸ ÑĨÐ°
Ð¡Ðº Ð°Ð¶Ñĥ
ĠÐ¸Ð¼ ÐµÑı
ÑħÐ¾Ð´ Ð¸Ð¼
ÑĢÐµÐ´ ÐµÐ»ÑĮ
Ðĸ ÑĥÑĢ
Ðĸ Ð¸Ð·Ð½
Ðĸ ÐµÐ¼Ñĩ
ĠÐ½Ð°Ð¼ ÐµÑĢ
ĠÐ¿Ð¾Ð² Ñģ
ĠÐ¿Ð¾Ð² ÐµÑģ
ĠÐ¿Ð¾Ð² ÐµÑģÑĤÐ²
ĠÐ¿Ð¾Ð² ÑĳÐ»
ĠÐ¿Ð¾Ð² Ð¸Ð½Ð¾Ð²
ĠÐ¿Ð¾Ð² ÐµÑĢÐ³
ĠÐĺ Ñģ
ĠÐĺ Ð¾Ð½
ĠÐĺ ÑģÐ¿
ĠÐĺ ÑĢÐº
ĠÐĺ Ð¸ÑģÑĥÑģ
Ð²Ð¸ Ð¸
ĠÐ¿ÑĢÐ°Ð² Ð¸ÑĤ
ÑıÐ½ Ð½Ð¾Ð¹
ÐļÑĢ Ð¾Ð¼
ÐµÑģÑĤÐ² ÐµÐ½
ÐµÑģÑĤÐ² ÑĥÑı
ÐŀÐ± Ð¶
ÐŀÐ± Ð¸ÑĤÐµÐ»ÑĮ
ÐŀÐ± ÑĢÐ°Ð·
ÐŀÐ± ÑıÐ·Ð°Ð½
ÑĩÐ¸ Ð½Ð¸Ð²
ĠÐ¼ÑĥÐ¶ ÐµÑģÑĤÐ²Ð¾Ð¼
ĠÐ¼ÑĥÐ¶ Ð¸ÑĩÐ¾Ðº
ĠÐ»ÐµÑĤ Ð°Ñı
Ð¡Ð» Ð¾Ð¼
Ð¡Ð» Ð°Ð²
Ð¡Ð» Ð¾Ð²Ð¾Ð¼
ĠÐ±Ð»Ð°Ð³ Ð¾Ð²Ð¾Ð»
ĠÐ±Ð»Ð°Ð³ Ð¾Ð³Ð¾Ð²
ĠÐ±Ð»Ð°Ð³ Ð¾Ð³Ð¾Ð²ÐµÐ¹
ĠÐ¾Ð³ Ð¾ÑĢ
ĠÐ¾Ð³ Ð½ÐµÐ²
ĠÐ¾Ð³ ÑĢÐ°Ð¶Ð´
ÑĭÐ½ ÑĮ
ĠÑĤÐµÐ¼ Ð½ÐµÐ¹
ÑĥÑģ ÑĭÐµ
ĠÐ±ÐµÐ´ Ð¾Ð¹
ĠÐ±ÐµÐ´ ÑģÑĤÐ²Ð¸Ð¹
ĠÐ¶Ð¸Ð² Ð¸
ĠÐ¶Ð¸Ð² Ñĥ
ĠÐ±ÐµÑģ ÑĩÐ¸ÑģÐ»
ĠÐ¾Ñģ ÐµÐ½ÑĮ
ĠÐ¼Ð¾ÑĢ ÑģÐºÐ¸Ñħ
ĠÐ¼Ð¾ÑĢ ÑıÑħ
ĠÑĨÐ°ÑĢ ÑģÐºÐ¾Ð¹
ĠÑĨÐ°ÑĢ Ð¸ÑĨÐµ
ĠÐ·Ð°Ð± Ð¾ÑĢ
ĠÐ·Ð°Ð± Ð¾ÑĤÐ¾Ð¹
ÐŀÐ´ Ð¾Ð»
ÐŀÐ´ Ð½Ñĥ
ĠÐ§ ÑĥÑĤÑĮ
ÑĢÑı ÑĩÑĮ
ĠÐ²Ð¿ Ð°Ð´
ĠÑĥÐ´ Ð¾ÑģÑĤ
ĠÑĥÐ´ Ð°Ð»Ð¾ÑģÑĮ
ĠÑĥÐ´ ÑĢÑĥÑĩ
ĠÑĥÐ´ Ð¾Ð²Ð»ÐµÑĤÐ²Ð¾ÑĢ
Ð¡Ð¿ Ð»
ĠÐ½Ð°ÑĢ Ð°ÑģÐ¿
ĠÐºÐ¾Ð» Ð¿
ĠÐºÐ¾Ð» ÑĭÐ±
ĠÐºÐ¾Ð» ÐµÐ½Ð¾
ĠÐºÑĢÐ°Ñģ Ð½ÑĭÐ¹
ĠÐºÑĢÐ°Ñģ Ð½ÑĭÑħ
ĠÐºÑĢÐ°Ñģ Ð¾ÑĤÐµ
ĠÐºÑĢÐ°Ñģ Ð¸Ð²Ð°
ĠÐ¿Ð¾Ð³ Ð¾Ð²Ð¾ÑĢ
ĠÐ¿Ð¾Ð³ Ð»Ð¾Ñī
Ð¾Ð²ÑĮ Ð¸
ÐŁÐ¾Ðº Ð¾Ð»ÐµÐ±
ĠÐ´Ð° Ð½Ñĭ
ĠÐ±Ð¾Ð³ Ð°Ð¼Ð¸
Ð»Ðµ Ðµ
Ð»Ðµ ÐµÑĤ
ĠÐ»ÐµÑģ Ð°Ñħ
ĠÐ»ÐµÑģ Ð½Ð°Ñı
ĠÐĿÐµÐ±ÐµÑģ Ð½Ð¾Ð³Ð¾
ĠÑģÐ¾ ÑĥÑĩÐ°ÑģÑĤ
ĠÐ¿ÑĢÐ¾ ÑıÑģÐ½
ĠÐ¿Ð¾Ñģ Ð°Ð´
ĠÐ¿Ð¾Ñģ ÑĭÐ»
ĠÐ¿Ð¾Ñģ Ð²ÑıÑĤ
ĠÐ½ÐµÐ² ÐµÐ¶
ĠÐ²Ð¾Ð´ Ð¾Ñİ
ĠÐ²Ð¾Ð´ Ð¸ÑĤÑģÑı
ĠÐ²Ð¾Ð´ Ð¸ÑĤÐµÐ»ÑĮ
ĠÐ½ÐµÐ´ Ð¾Ñģ
ĠÐ½ÐµÐ´ ÐµÐ»Ð¸
ĠÐ½ÐµÐ´ ÑĢÐµÐ¼
Ð¡Ð¼ ÑıÑĤ
Ð¡Ð¼ ÑıÐ³Ñĩ
Ð¡Ð¼ Ð¸Ð»ÑĥÐ¹
ĠÐ·Ð°Ð¿ ÐµÑĢÑĤ
ĠÐ·Ð°Ð¿ Ð»Ð°ÑĤ
ĠÐ·Ð°Ð¿ ÐµÑĩÐ°ÑĤ
ĠÐ´Ð¾Ð¼ Ðµ
ĠÐ²ÐµÑĩ Ð½Ð¾ÑģÑĤÑĮ
ĠÐ·Ð°Ðº Ð»Ð¸Ð½
ĠÐ·Ð°Ðº ÑĢÑĭÑĤ
ĠÐ·Ð°Ðº Ð¸Ð¿ÐµÐ»Ð°
ĠÐŁÑĢ Ð¾ÑĤÐ¸Ð²
ĠÐŁÑĢ ÐµÐºÑĢÐ°Ñģ
ĠÐ±Ð°ÑĢ Ñħ
ĠÐ±Ð°ÑĢ ÑģÐºÐ¸Ð¹
ĠÑģÐ½ ÐµÑģ
ĠÐ¿Ð¾Ð¿ ÑĢÐ¾Ñģ
ĠÐ¿Ð¾Ð¿ Ð°ÑģÑĤÑĮ
ĠÐ»ÑĮ Ð´Ð°
ĠÐ´ÐµÐ² Ðµ
ĠÐ´ÐµÐ² Ñĥ
ĠÐ´ÐµÐ² Ð¾Ð¹
ĠÐ´ÐµÐ² ÐºÐ°
ĠÐ´ÐµÐ² ÑģÑĤÐ²ÐµÐ½
ĠÐ´ÐµÐ² Ð¾ÑĩÐºÐ°
ĠÐ´ÐµÐ² Ð¸ÑĨÑĥ
ĠÑĢÐ°Ð´ ÑĥÐ¶
ĠÐ²ÑĭÑģ ÑĪÐµÐ¹
ĠÐ²ÑĭÑģ ÑĪÐ¸Ð¼
ĠÐ²ÑĭÑģ Ð¾ÐºÐ°
ĠÐ½Ð¾Ð² Ð¾ÑģÑĤÑĮ
ĠÐ·Ð°Ð¼ ÐºÐµ
ĠÐ·Ð°Ð¼ ÐµÑĢÐ·
ĠÐ¿ÑĥÑģÑĤ Ð°Ñı
ĠÐ¿ÑĥÑģÑĤ Ð¸Ð»ÑģÑı
Ð»ÐµÑĤ Ð°ÐµÑĤ
ĠÐ³Ð¾Ð²Ð¾ÑĢ Ñı
ÐłÐ°Ð· Ð±Ð¾Ð¹
ÐłÐ°Ð· ÑĭÐ³ÑĢ
ÐłÐ°Ð· ÑĥÑĤÐ¾Ð²Ð°
ĠÐ³Ð»Ð°Ð· ÐºÐ¸
ĠÐ²ÑĢÐµÐ¼ ÐµÐ½Ð½Ð¾
ĠÐ¯ ÑĢÐ¾ÑģÐ»Ð°Ð²
Ð°Ð½ÑĮ ÑģÑı
ÐµÑĩÑĮ ÐµÐ¼
ÑĢÐ¾Ñģ Ð°Ðº
ĠÑĥÐ¿ Ð°Ð²
ĠÑĥÐ¿ Ð°Ð»Ð¸
ĠÐ¿Ð¾ÑģÑĤ Ñĭ
ĠÐ¿Ð¾ÑģÑĤ ÑĢÐ¾
ĠÐ¿Ð¾ÑģÑĤ ÑĭÐ´
ĠÐ¿Ð¾ÑģÑĤ ÐµÐ»Ðµ
ĠÐºÐ¾ÑĢ Ñĭ
ĠÐºÐ¾ÑĢ Ð¾Ð»
ĠÐ²ÐµÑĤ ÑĢ
ĠÐ²ÐµÑĤ Ñħ
ĠÐ²ÐµÑĤ ÑĢÑĥ
ĠÐ±ÐµÑĢ ÐµÐ¶
ĠÐ±ÐµÑĢ ÐµÑĩÑĮ
ĠÐ²ÐµÐ» ÐµÐ½Ð¾
ĠÐ½Ð°Ð¿ ÑĢ
ĠÐ½Ð°Ð¿ ÐµÐ²
ĠÐ½Ð°Ð¿ Ð¾Ð»Ð½
ĠÐ¿ÑĢÐ¸Ð² Ð°Ð»
ĠÐ¿ÑĢÐ¸Ð² ÑĳÐ»
ĠÐ¿ÑĢÐ¸Ð² Ð¾Ð»ÑĮÐµ
ĠÐ»ÑĥÑĩ Ð°Ð¼Ð¸
ĠÐ»ÑĥÑĩ ÑĪÐ¸Ñħ
ĠÐ»ÑĥÑĩ ÑĪÐµÐ¹
ĠÐ»ÑĥÑĩ ÑĪÐ¸Ðµ
ĠÑĩÐµÑĢ ÐµÐ¿
ĠÑĩÐµÑĢ ÑģÑĤÐ²
ĠÑħÐ¾Ð» Ð¼Ð°
ĠÐ¾Ð±ÑĢ ÐµÐ»Ð¸
ĠÐ¾Ð±ÑĢ ÐµÐ»Ð°
ĠÐ¾Ð±ÑĢ ÑĭÐ·
Ð¨ Ð»Ð°
Ð¾Ñī Ð°Ð¹
Ð¾Ñī Ð½Ð¾Ð³Ð¾
Ð¾Ñī ÑĥÐ½
ĠÐ´Ð¾Ð±ÑĢ Ñĭ
ĠÐ´Ð¾Ð±ÑĢ Ð¾ÑĤÑĭ
ĠÐ´Ð¾Ð±ÑĢ Ð¾ÑĤÐ°
ÑĥÐ¶Ð´ Ð°ÑĤÑĮ
ĠÐ²Ð·Ð¾ÑĢ Ð¾Ð²
ĠÐĳÐ¾Ð¶ ÑĮÐµ
ĠÐĳÐ¾Ð¶ ÐµÑģÑĤÐ²Ð¾
ĠÑģÐ¼ÐµÑĢÑĤ Ð¸Ñİ
ĠÐŀÐ½ ÐµÐ³Ð¸
ĠÐ¼ÐµÑĩ Ð¸
ĠÐ²ÐµÑģ ÐµÐ½
ĠÐ²ÐµÑģ ÐµÐ»Ð°
ĠÐ²ÐµÑģ ÐµÐ»ÑĮÑı
ĠÐ¿Ð¾Ð± ÐµÐ³
ĠÐ¿Ð¾Ð± Ð»ÐµÐº
ĠÐ¿Ð¾Ð± ÐµÐ¶Ð°Ð»
ĠÐ¿Ð¾Ñĩ Ð²Ð°
ĠÐ¿Ð¾Ñĩ ÑĥÐ²ÑģÑĤÐ²
ÐµÑı Ð»Ð¸ÑģÑĮ
Ð¸Ð»ÑĮ Ð½Ð¾Ð¹
ĠÐ½ÐµÐ¿ ÑĢÐ°Ð²Ð´
ĠÐ½ÐµÐ¿ Ð¾ÑĢÐ¾Ñĩ
ĠÑĢÐ°Ð± Ñĭ
ÐŁÑĢÐµÐ´ Ð°Ð½ÑĮÑı
ÐŁÑĢÐµÐ´ Ð²Ð¸Ð´
ĠÑģÑĤÑĢÐ°Ð½ Ð½ÑĭÐµ
ĠÑģÑĤÑĢÐ°Ð½ Ð½ÑĭÐ¼
ĠÑģÐ¾Ð½ Ð½Ð¾Ð¹
ĠÐ¶ÐµÐ½ Ð°Ð¼Ð¸
ĠÐ¶ÐµÐ½ ÑģÐºÐ¾Ð¹
ĠÐ¿Ð°ÑĢ Ñĩ
ĠÑĥÐ· Ð´ÑĨÑĭ
ĠÐºÐ¾ÑĤÐ¾ÑĢ ÑĭÐ¼Ð¸
Ð¾ÑĤÑĢ Ð°Ð·
ĠÑĦ Ð»ÐµÐ¹
ĠÐºÐ°ÑĢ Ð»Ñĥ
ĠÐºÐ°ÑĢ Ð»Ð¾Ð¹
ĠÐ´ÐµÑĢÐµÐ² Ðµ
ĠÐ´ÐµÑĢÐµÐ² ÑĮÑı
Ð¸Ð¿ Ð¸ÑĤ
ĠÐ²ÐµÐ´ Ð°Ð»Ð°
ĠÐ½Ð°Ðº Ð»Ð°Ð»Ð¸
ĠÐ³Ð»ÑıÐ´ ÐµÐ»Ð¸
ĠÐ³Ð»ÑıÐ´ ÐµÐ»Ð°
ĠÐ¶ÐµÐ» Ð°ÑĤÐµÐ»ÑĮÐ½Ð¾
ĠÐ¿ÐµÑĢÐ² Ð¾Ð¼
ĠÐĵÐ¾ÑģÐ¿Ð¾Ð´ ÑģÑĤÐ²Ð°
ĠÐĵÐ¾ÑģÐ¿Ð¾Ð´ Ð½Ð¸Ñħ
ĠÐ´Ð² ÑĥÐ³ÑĢÐ¸Ð²
ĠÐ»ÐµÐ³ Ð¸Ð¾Ð½Ñĭ
Ð½ÑĥÐ² ÑĪÐ¸Ñħ
ÐµÑĢÐ¿ ÐµÐ²
ĠÐ£ Ñģ
ĠÐ£ Ð´
ĠÐ´ÐµÑĤ Ð¾Ðº
ĠÐ´ÐµÑĤ Ð¸Ð½Ð°
ĠÐ´ÐµÑĤ ÑģÐºÐ¸Ð¹
ĠÐ´ÐµÑĤ ÑģÑĤÐ²Ðµ
ĠÐ´ÐµÑĤ Ð¾ÑĩÐµÐº
ĠÐ³ÑĢÐ¾Ð· Ñı
ĠÐ³ÑĢÐ¾Ð· ÐµÐ½
ĠÑĪÑĥÐ¼ Ðµ
ĠÑĪÑĥÐ¼ Ð½ÑĭÐ¼
ĠÑģÑĤÑĢÐ°ÑĪ Ð½ÑĭÐ¼
ĠÑģÑĤÑĢÐ°ÑĪ Ð½Ð¾Ðµ
ÑĥÐ½ Ð´Ñĥ
ĠÐ³Ð»ÑĥÐ± Ð¸Ð½Ñĥ
ĠÐ¾ÑģÑĤ Ð°ÑĤÑĮÑģÑı
ĠÐ¾ÑģÑĤ Ð°Ð»Ð°ÑģÑĮ
ĠÐ¾ÑģÑĤ Ð°Ð»Ð¾ÑģÑĮ
ĠÐ¾ÑģÑĤ ÐµÑĢÐµÐ³
Ð°Ð¶ÐµÐ½ Ð¸Ð¹
ÐĽÑİÐ± Ð¾
ÐĽÑİÐ± Ð¾Ðµ
ÑĤÐ¾ÑĢ Ð³
ĠÑĩÑĥÐ´ Ð½Ð¾Ð¹
ÑĢÐµÐ¼ Ñı
ÑĢÐµÐ¼ ÐµÐ»
ĠÑī ÐµÐ¿
ĠÑī ÐµÐºÐ¸
ĠÐ½ÐµÑģ Ð»Ð°
ĠÐ½ÐµÑģ ÐµÑĤÑģÑı
Ð°Ñĩ Ñĥ
ĠÐ±Ð¾ ÐµÐ¼
ĠÐ±Ð¾ ÑıÑģÑĮ
ÐĴÐ· Ð±
ÐĴÐ· Ð°Ð¸Ð¼
Ð¸ÑĨ Ð°Ñħ
ĠÑģÐµÐ¼ Ñı
ĠÑģÐµÐ¼ ÑıÐ½
ĠÐ¿Ð¾Ð· Ð¶Ðµ
ĠÐ¾Ñĩ ÐµÐ²Ð¸Ð´
ĠÐºÐ°Ð¶Ð´ Ð°Ñı
Ð°ÑĤÐµÐ»ÑĮ Ð½Ð°Ñı
ÐŁÐ¾Ð» Ð½Ñĭ
ÐŁÐ¾Ð» ÑĥÐ´
ÐŁÐ¾Ð» Ð½Ð¾Ñĩ
Ð¦ ÐµÐ½Ð¾Ð¹
ÑĭÑĩ ÐµÐ¹
ÑĭÑĩ Ð½ÑĭÐ¹
ÑĭÑĩ Ð°Ð¹
ĠÐ²ÑģÑı Ðº
ÐĴÐ¾Ð· ÑĢÐ°Ð´
ÐĴÐ¾Ð· ÑĮÐ¼Ð¸
ÐĴÐ¾Ð· Ð¼ÐµÐ·Ð´
ĠÐ´Ð²Ð¾ÑĢ Ñĥ
ĠÐ´Ð²Ð¾ÑĢ ÑĨÐ¾Ð¼
ĠÑĥÑģÑĤ Ð»
ĠÑĥÑģÑĤ ÑĢÐ°ÑĪ
ĠÑĥÑģ Ð½ÑĥÐ»
Ð¾Ð¼Ð½ Ð¸Ð»
ĠÑģÐ¾Ð» Ð¾Ð¼
ĠÑģÑĤÐ°Ð½ ÐµÐ¼
Ð»Ð°Ðº Ð°Ð»
ĠÐ·Ð°ÑĤ ÐµÑıÐ»Ð¸
ÐµÐ·Ð´ Ð½Ð¾Ð¹
ÐĵÑĢ Ð¸ÑĪ
ÐĵÑĢ ÑĥÐ·
ĠÐ¾Ð´Ð¸Ð½ Ð¾ÐºÐ¾
Ð¾ÐºÐ¾ ÐµÐ½
ÐŁÑĢÐ¸ ÐµÐ¼
ĠÐºÐ» Ð¾Ðº
ĠÐ´Ð¸Ð² Ð½Ð¾
ĠÐ´Ð¸Ð² Ð½ÑĭÑħ
ĠÐ¼Ð°Ð» Ð¾Ð¹
ĠÐ¼Ð°Ð» Ð°Ñı
Ð¡ÑĤÐ°ÑĢ Ð¸Ð½
ĠÑģÐ»ÐµÐ´ Ð¸Ð»
ĠÑģÑĢÐµÐ´ ÑģÑĤÐ²Ð°
ĠÐ±ÐµÐ» Ð¾ÐºÑĥÑĢ
Ð½ÑĥÑĤ Ð¾Ð¹
ĠÐ±Ð¾ÑĢ Ð¾Ð´Ðµ
ĠÐ¿ÑĥÑĤ ÐµÐ¹
ĠÐ¼ÐµÑģÑĤ Ð°Ð¼
ĠÐ¼ÐµÑģÑĤ Ð°Ñħ
ĠÐ¼ÐµÑģÑĤ Ð°Ð¼Ð¸
ĠÑģÑĤÐ¾Ð» Ðµ
ÐľÐ¾Ð» Ð¸ÑĤÑĮÑģÑı
ĠÐ²Ð·Ð´ ÑĭÐ±
ĠÑģÐ»ÑĭÑĪ ÑĮ
ĠÐ¸Ð·Ð± Ð°
ÑĢÐ¾Ð² ÑĭÐ¹
ĠÑģÐ¾Ñģ Ð½Ñĥ
ĠÐ²Ð¾Ñģ ÑħÐ¾Ð´Ð¸ÑĤ
ÐµÐ½Ð¸Ñı Ð¼
ÐµÐ½Ð¸Ñı Ñħ
ĠÐ±ÑĥÑĢ ÐµÐ¹
ĠÐ±ÑĥÑĢ Ð½ÑĭÐ¹
ĠÐ±ÑĥÑĢ Ð½Ð¾Ð¹
ĠÐ±ÑĥÑĢ Ð»Ð°Ðº
ĠÐ±ÑĥÑĢ Ð¶ÑĥÐ¹
ĠÐĿÐµ ÐµÐ»Ð¾Ð²Ð°
Ð¾Ð¹Ð´ ÑĳÐ¼
ĠÐ·Ð°Ñģ Ð½ÑĥÐ»
ĠÐ·Ð°Ñģ Ð»Ð¾Ð½
ĠÐ·Ð°Ñģ ÑĭÐ¿
ÐŁÐµÑĢ ÐµÐ±
ÐŁÐµÑĢ ÐµÐ¼ÐµÐ½
ĠÐ³Ð¾Ð»Ð¾Ñģ Ð¾Ðº
ĠÑĤÑıÐ¶ ÐºÐ¸Ñħ
ĠÑĤÑıÐ¶ ÐºÐ¸Ð¼
ĠÑĤÑıÐ¶ ÐµÐ»ÐµÐ¹
ĠÑħÐ¾ÑĤ ÐµÐ»Ð¾ÑģÑĮ
ÐĵÐ¾ÑĢ Ð¸ÑĤ
ÐĵÐ¾ÑĢ ÐµÐ»Ð¾Ð²Ð°
ĠÐ³ÑĢÐ¾Ð¼ ÐºÐ¸Ðµ
ĠÐ²Ð¾Ð·Ð² ÐµÑģÑĤÐ¸Ð²
ĠÐ§ÐµÐ»Ð¾Ð²ÐµÐº Ðµ
ĠÐ½ÐµÐ¶ ÐµÐ½
ĠÐ½Ð°Ð³ Ð¸Ñħ
ĠÑĢÐµÐ± ÐµÐ½
ĠÐ¼ÐµÐ´ Ñĥ
ĠÐĴÑģ ÑĶ
ĠÑĢÐ°ÑģÐ¿ ÑĢÑıÐ¼
ĠÐ¿ÑĢÐ¸Ð· Ð½Ð°Ðº
ĠÑħÐ¾ÑĢ ÑĥÐ³
ĠÐ¿ÑĢÐµÐ¶ Ð½ÐµÐ³Ð¾
ĠÐ²Ð¾Ð¿ Ð»Ð¾ÑĤ
ĠÐ²ÑĢÐ°Ð³ Ð°Ð¼Ð¸
ĠÐ½Ð°ÑĢÐ¾Ð´ Ð½Ð°Ñı
ĠÑģÐµÐ´ ÑĭÑħ
ĠÑħÐ» Ñĭ
ĠÐ±ÑĢÐ°ÑĤ Ð¾Ð¼
ĠÑıÐ² Ð¸Ð»
ĠÑıÐ² Ð½Ð¾
ĠÑıÐ² Ð¸Ð²
ĠÐ´ÑĢÑĥÐ¶ Ð¸Ð½Ð¾Ð¹
ĠÐŃ ÑĤÐ¸
ĠÑĢÑıÐ´ Ð°Ð¼Ð¸
ĠÑıÑĢ Ð¾ÑģÑĤÑĮÑİ
ĠÑģÐ½ÐµÐ³ Ð°Ñħ
ĠÑĢÐµÑĩ ÐºÐµ
ÐļÐ¾ÑĤÐ¾ÑĢ Ð°Ñı
ÐļÐ¾ÑĤÐ¾ÑĢ Ð¾Ðµ
ĠÑĢÐ°Ð·Ð´ Ð¾ÑĢ
ĠÑĢÐ°Ð·Ð´ ÑĥÐ¼
ĠÑĢÐ°Ð·Ð´ ÑĢÑĥÐ¶
ĠÐ²ÑĭÑĪ Ð¸Ð½Ñĥ
ĠÐºÐ°Ð· Ð½Ñĥ
ĠÐºÐ°Ð· Ð°ÐºÐ¸
ĠÐ·Ð°Ð´ ÑĢÐµÐ¼
ĠÑĢÐµÑĪ Ð¸Ð»ÑģÑı
ĠÑĢÐµÑĪ Ð¸Ð»Ð°ÑģÑĮ
ĠÐ¿ÑĢÐ¾Ñģ Ð¸ÑĤÑĮ
ĠÐ¿ÑĢÐ¾Ñģ Ð¸Ð»Ð°
ÐŁÐ¾Ð² ÐµÑĢÑħ
ĠÐ¾Ð±ÑĬ ÑıÐ»
ĠÐ¾Ð±ÑĬ ÐµÐ´Ð¸Ð½
ĠÐ²ÐµÑĩÐµÑĢ Ð½ÐµÐ¹
ĠÐ²ÐµÑĩÐµÑĢ Ð½Ð¸Ð¹
ÑĭÐº Ð°Ð»
ÑĭÐº Ð½Ð¾Ð²
ĠÐ²Ð¾ÑĢ Ñĭ
Ð¼Ð¾Ð¶ ÐµÑĤ
ĠÑĤÐ° Ð¸Ð½ÑģÑĤÐ²
ÑĩÐ¸Ð² Ð°
ĠÐ´Ð°Ð»ÑĮ Ð½Ð¾Ð¹
ĠÐ´Ð°Ð»ÑĮ Ð½Ð¸Ðµ
ĠÐ±ÐµÐ·Ð´ ÑĭÑħ
ĠÐ´Ð¾Ð»Ð³ Ð¸Ðµ
ĠÑģÐ°Ð´ Ð°
ĠÑģÐ°Ð´ Ð°Ð¼
ĠÐ´Ð¾Ð² Ð¾Ð´
ĠÐ´Ð¾Ð² Ð¾Ð»ÐµÐ½
ĠÐ¸ÑģÑĤ Ð¸Ð½Ñĥ
ĠÐ¸ÑģÑĤ Ð¾Ñī
ÐĿÐ°Ð¿ Ð¾Ð»Ð½
ÐĿÐ°Ð¿ Ð¾Ð¼Ð¸Ð½
ÐĿÐ°Ð¿ ÑĢÐ¾ÑĤÐ¸Ð²
ĠÐ¿Ð¾ÑĤÐ¾Ð¼ ÑģÑĤÐ²Ð¾
ĠÑģÐ¾Ð· Ð½
ĠÑģÐ¾Ð· Ð¸Ð´
ĠÑģÐ¾Ð· ÑĢÐµÐ²
ÐµÐ»ÐµÐ½ Ð¾Ðº
Ð¡ÑĤÐ¾ ÑıÑĤÑĮ
ĠÑĩÐ¸ÑģÑĤ Ð°
Ð¢ÑĢ ÐµÑħ
ĠÐ³ÑĢÐµÑħ Ð¾Ð¼
ĠÑģÐ²ÑıÑĤ Ð°Ñı
ĠÑĪÐ°Ð³ Ð°
ĠÑĪÐ°Ð³ Ð°ÐµÑĤ
ĠÑĪÐ°Ð³ Ð°Ð¼Ð¸
ĠÐ±ÐµÑģÐ¿ Ð¾Ñī
ĠÐ±ÐµÑģÐ¿ Ð¾ÐºÐ¾Ð¹
ĠÐ±ÐµÑģÐ¿ ÐµÑĩÐ½Ð¾
ĠÐ±ÐµÑģÐ¿ ÐµÑĩÐ½Ð¾Ð¹
ĠÐ±ÐµÑģÐ¿ ÑĢÐ¸Ð¼
ĠÐ¿ÐµÑĩÐ°Ð»ÑĮ Ð½Ð¾
ĠÑĤÐ¸ÑĪ Ð¸
ĠÐ³Ð¾ÑĤÐ¾Ð² ÑĭÐ¹
ÐŁÐ¾Ð¼ Ð°Ð·
ÐŁÐ¾Ð¼ Ð¸Ð¼Ð¾
ÐĶÐ¾ÑģÑĤ ÑĥÐ¿
ÐĶÐ¾ÑģÑĤ Ð°ÑĤÐ¾ÑĩÐ½Ð¾
ĠÐ±Ð¾Ð³Ð°ÑĤ Ð¾Ð³Ð¾
ÑĢÐ¾Ð½ Ð¸ÑĨÐ°
ĠÐ¿Ð¾Ð¶ ÑĢÐ°ÑĤÑĮ
ĠÐ²ÐµÐ½ ÑĨÐµ
ĠÐºÑĢÐ°Ð¹ Ð½Ð¾ÑģÑĤÐ¸
ĠÑģÑĩÐ°ÑģÑĤÐ»Ð¸Ð² ÐµÐ¹
ĠÑģÑĩÐ°ÑģÑĤÐ»Ð¸Ð² Ð¾Ð³Ð¾
ĠÑģÐ¾Ð·Ð´ Ð°Ð½ÑĮÑı
ĠÐ¾Ñħ Ð²Ð°ÑĤ
ĠÐ¾Ñħ Ð¾ÑĤÐ½Ð¾
ĠÐĿÐµÐ± Ñĥ
ĠÑĥÐ¶Ð°Ñģ Ð½Ð¾Ð¹
ĠÐ¿Ð°Ð´ ÑĥÑĤ
ĠÐ¿Ð°Ð´ ÑĪÐ¸Ð¹
ĠÐ²Ð¾ÑģÑĤ Ð¾ÑĢÐ¶
ĠÐ¶Ð°Ð» ÐµÐ¹
ĠÐ¶Ð°Ð» ÐºÐ¸Ð¹
ĠÐ¶Ð°Ð» ÐµÑİ
ĠÐ³ÑĢÐ¾Ð± Ð¾Ð¼
ĠÑĢÐ°ÑģÑĤ Ð¾Ð¿
ĠÐ¿ÑĢÐ¾Ð² Ð¾Ð´
ĠÐ¿ÑĢÐ¾Ð² ÐµÐ´
ĠÑĢÐ¾Ñģ Ðµ
ĠÐ¿ÑĢÐ¸Ð¼ ÐµÑĩ
ĠÐ´Ð¾Ñģ ÑĥÐ³Ð°
ĠÐ¿ÑĢÐ¸Ð´ Ð¸
ĠÐ¿ÑĢÐ¸Ð´ ÑĥÑĤ
ĠÐ¿ÑĢÐ¸Ð´ ÐµÑĤÑģÑı
ÐŁÐ¾Ð¿ ÑĢÐ°Ð²
ÐŁÐ¾Ð¿ ÑĢÐ¾Ð±
Ð¾Ð»Ðº Ð¾Ð½
ĠÐ³Ð¾Ð´ Ð°Ð¼Ð¸
ĠÐ¿ÑĢÐ°Ð·Ð´ Ð½Ð¾
ĠÐ¿ÑĢÐ°Ð·Ð´ Ð½Ð¾Ð¹
ĠÐ¿ÑĢÐ°Ð·Ð´ Ð½Ð¸ÐºÐ¸
ĠÐ¿ÑĢÐ°Ð·Ð´ Ð½Ð¸ÐºÐ°
ĠÐ»Ð°Ñģ ÐºÐ¾Ñİ
Ð£Ð¼ Ð¾Ð¼
Ð£Ð¼ Ð¸Ð»ÑĮÐ½Ð¾
ÑĢÐ°ÑĪ Ð½ÑĭÐ¹
ĠÐ²Ð¾ÑģÐ¿ ÐµÐ²Ð°ÑĤÑĮ
ÑĩÐ°Ñģ Ð°
ĠÐ¾Ð· ÐµÑĢÐ°
ĠÐ±ÑĭÑģÑĤÑĢ ÐµÐµ
ĠÐ·Ð¸Ð¼ Ð½Ð¸Ðµ
ĠÑģÐ»ÑĥÐ¶ Ð±Ñĥ
ĠÐºÐ¾Ñģ Ð½ÑĥÐ»ÑģÑı
ÐŁÑĥÑģÑĤ Ð¸Ð»ÑģÑı
ÐĿÐ°Ñģ ÑĭÑĤ
ĠÑĢÑĭÐ± ÐºÐµ
ĠÐ¿ÑĢÐµÐºÑĢÐ°Ñģ Ð½Ð¾Ðµ
ÐŁÐ» Ð°Ð½ÐµÑĤ
ĠÐ³Ð»Ð°Ð² Ð°
ĠÐ¾ÑģÑĤÐ°Ð² Ð¸Ð²
ÐĳÐ¾Ð³ Ð°ÑĤÑĭ
ÐĶÐ¾Ð» Ð¸Ð½Ñĭ
ĠÑħÐ¾Ð´ Ð¸
ĠÑħÐ¾Ð´ Ð¸Ð»Ð°
ÐĹÐ°Ð± ÑĭÐ²
ÑģÑĤÐ²Ñĥ ÐµÐ¼
ĠÑĢÐ°Ð±Ð¾ÑĤ Ð°Ð»
ĠÑĢÐµÐ±ÑıÑĤ Ð¸ÑĪÐºÐ¸
ĠÐ½ÐµÐº Ð¾ÑĤÐ¾ÑĢ
ĠÑĢÑĥÑĩ ÑĮÑıÐ¼Ð¸
ÐĴÐµÑĢ ÑģÑĤ
ÐĴÐµÑĢ Ð½ÐµÐ¹
ĠÑħÐ¾Ð»Ð¾Ð´ Ð½Ð¾Ñİ
ĠÐ½ÐµÐ¿ÑĢ Ð¸ÑĤÐ²Ð¾ÑĢ
ĠÐ½ÐµÐ¿ÑĢ ÐµÑģÑĤÐ°Ð½Ð½Ð¾
ĠÐ´Ð°Ð» ÐµÐµ
ÐĿÐµÐ±ÐµÑģ Ð½ÑĭÐ¼
ĠÐ¿ÑĢÐµÐ² ÑĭÑĪ
Ð½Ð¸Ñĩ Ð°Ð»
ĠÐ¿Ð¾Ñħ Ð¾Ð¶Ðµ
ÐĸÐ¸Ð² Ð¾ÑĤ
ÐĸÐ¸Ð² ÑĥÑĤ
ÑĢÑĭÑĤ ÑĭÐ¹
ĠÐ´Ð¾Ð± Ð»
ĠÐ¼Ð³ Ð»Ð¾Ð¹
ĠÐ·Ð°Ð³ Ð¾ÑĢ
ĠÐ¿ÑĢÐ¾Ð± ÐµÐ³
ÐĴÐ¿ ÐµÑĢÑĳÐ´
ĠÑĥÑģÐ» Ð¾Ð²
ĠÑĪÐµÐ» Ð¾Ñħ
ĠÑĪÐµÐ» Ð¾Ð¼Ñĭ
ĠÑĢÐ°Ð·Ð± ÐµÐ³
ĠÐ´ÐµÑĢÐ¶ Ð¸
ĠÑģÐ¾Ð»Ð´Ð°ÑĤ Ñĥ
ĠÑģÐ´ ÐµÐ»Ð°
ĠÑģÐ´ ÐµÑĢÐ¶
ĠÑĤÐ¾Ð¿ Ð¾ÑĢÐ¾Ð¼
ĠÐ´ÐµÐ´ Ð°
ÐĿÐ°ÑĢ ÑıÐ´
ĠÐºÑĢÐ¸Ñĩ Ð°Ð»Ð°
ÐĵÐ¾ÑģÐ¿Ð¾Ð´ ÐµÐ½ÑĮ
ĠÐ±Ð»ÐµÐ´ Ð½Ð¾Ð³Ð¾
ĠÐ´ÑĢÐµÐ² Ð½Ð¸Ñħ
ĠÐ²Ð¸ÑĤÑıÐ· Ð¸
Ð»Ð°Ð³ Ð¾Ð´
ĠÐºÐ¾Ð¿ ÑĮÑĳÐ¼
ĠÐºÑĢÐµÐ¿ Ð¸
ĠÐºÑĢÐµÐ¿ Ð¾Ðº
ÐĹÐµÐ¼ Ð½ÑĭÐµ
ÐĹÐµÐ¼ Ð»Ðµ
ĠÑĢÐ°ÑģÑģÐºÐ°Ð· ÑĭÐ²Ð°Ð»
ĠÑĢÐ°Ð½ ÐµÐ½
ĠÑĢÐ°Ð½ Ð½Ð¸Ð¹
Ð£Ñģ Ñĭ
Ð£Ñģ ÐµÑĢÐ´
Ð£Ñģ ÐµÐ»Ð¸ÑģÑĮ
ĠÐ¿Ð»Ð¾Ð´ Ð°Ñħ
ĠÑĤÑĥÐ¼ Ð°Ð½Ð½ÑĭÐ¹
ĠÐ´Ð°Ð² Ð½Ð¸Ð¹
ĠÐ´Ð°Ð² Ð½Ð¸Ñħ
ĠÐºÐ¾Ð¼ Ð°ÑĢ
ĠÑĢÐ¾Ðº Ð¾Ð²Ð¾Ð¼
ĠÑģÑĤÐµÐ½ Ð°Ð¼
ĠÐ¾ÑĤÐ¿ Ð¾ÑĢ
ĠÐ¿Ð¾ÐºÐ¾ÑĢ Ð½ÑĭÐ¹
ĠÐ¿Ð¾ÐºÐ¾ÑĢ ÑģÑĤÐ²Ð¾Ð¼
ĠÐ±Ð»Ð°Ð³Ð¾Ð´ Ð°ÑĢÑı
ĠÑģÑĤÑĢÐµÐ¼ Ð¸ÑĤÑģÑı
ĠÐ±Ð»Ð°Ð¶ÐµÐ½ ÑģÑĤÐ²
ĠÐ´ÐµÑĢÐ· Ð¾Ðº
ĠÐ´ÐµÑĢÐ· Ð½ÑĥÐ»
ĠÐ´ÐµÑĢÐ· Ð¾ÑģÑĤÐ¸
ĠÑģÐ¾ÑģÐµÐ´ Ð°
ĠÑģÐ¾ÑģÐµÐ´ Ñĥ
ĠÑģÐ¾ÑģÐµÐ´ ÑģÑĤÐ²Ðµ
ĠÑģÑĭÐ½ Ð°Ð¼
ÑĩÐ°ÑĤ Ð°
ĠÑĤÐµÐ» Ðµ
ĠÑĤÐµÐ» ÐµÐ³Ð¸
ÐŁÐ¾ÑģÑĤ Ð¸Ð³
ÐŁÐ¾ÑģÑĤ ÑĢÐ¾
ĠÑĥÐº ÑĢÐ°
ĠÐ¿Ð»ÐµÑĩ Ñĥ
ĠÐ¿Ð¾Ð±ÐµÐ´ Ð°
ÑĭÑģ Ð»Ð°
ĠÐ¿Ð¸ÑĢ Ð¾Ð²
ĠÐ²Ð¾Ð»ÑĮ Ð½Ð¾ÑģÑĤÐ¸
ĠÐ²Ð¾Ð»ÑĮ Ð³Ð¾ÑĤÐ½Ð¾
ĠÐ½ÑĥÐ¶ Ð´Ðµ
ÑĩÐ¸Ðº Ñĥ
ÐĿÐ°Ð¼ Ð½Ð¾Ð³Ð¾
ÐĶÑĥÑĪ ÐµÐ²
Ð£ÑĤ Ð¸Ñħ
Ð£ÑĤ ÑĢÐ¾Ð¼
ĠÐ¿Ð¾ÐºÐ»Ð¾Ð½ Ð¸Ð»Ð°ÑģÑı
ĠÐ¿ÑĢÐ¾Ð¸Ð· Ð¾Ð¹Ð´ÑĳÑĤ
ĠÐ·Ð°ÐºÐ¾Ð½ Ñĭ
ĠÐ´Ð¾Ð¶Ð´ Ð°Ð»ÑģÑı
ĠÐ¼ÑĥÐ· Ñĥ
ĠÑĥÐ² Ð»ÐµÑĩ
ĠÑĥÐ² Ð»ÑĳÐº
ĠÑĪÐµÐ¿ ÑĤ
ĠÑĪÐµÐ¿ ÑĤÐ°Ð»
ĠÐ³Ð¾ÑĢÐ¾Ð´ Ð¾Ð²
ĠÐ¼Ð¾Ñī Ð¸
ĠÐ¾Ð±ÑĢÐ°Ð· Ñĥ
ĠÐ¾Ð±ÑĢÐ°Ð· Ð¾Ð²Ð°Ð²
ĠÐ²Ð°Ð¶ Ð½ÑĭÑħ
ĠÐ²Ð°Ð¶ Ð½Ð¾ÑģÑĤÑĮÑİ
ĠÑĩÑĥÐ¶ Ð°Ñı
ĠÑģÑĤÐ¾Ð½ Ð°Ð»
ĠÑıÑģ Ð½Ð¾Ð¹
ÐļÐ¾Ð» Ð¾Ð¼
ÐļÐ¾Ð» Ð´Ñĥ
ĠÐ¾ÑĤÐº Ð»Ð¾Ð½
ÐŁÑĢÐ¾ÑģÑĤ ÑĳÑĢ
ÐĹÐ» Ð¾Ð¹
ÐĹÐ» Ð¾Ð´ÐµÐ¹
ĠÐ·ÐµÐ¼Ð»Ñı Ðº
ĠÐ¿Ð¾ÑģÐ»ÑĥÑĪ Ð½ÑĭÐ¹
ĠÑĥÐ´Ð°Ð» ÐµÑĨ
ĠÐ½ÐµÐ· Ð°Ð±
ĠÐ¿ÑĢÑıÐ¼ ÑĭÐ¼
ĠÑĤÑĢÐµÐ¿ ÐµÑīÐµÑĤ
ĠÐ°Ð» ÑĩÐµÑĤ
ĠÐ°Ð» ÑĤÐ°ÑĢ
ĠÐ²ÐµÑĤÐµÑĢ ÐºÐ¾Ð¼
ĠÐ²ÐµÐ»Ð¸Ðº Ð°Ð½Ð¾Ð¼
ÐŁÐµÑĢÐµÐ´ Ð¾
ÐĴÐ¸Ð´ ÐµÑĤÑĮ
ĠÑĩÐµÑĤ Ñĭ
ĠÐ¾Ð±Ð»Ð°Ðº Ð°Ñħ
ĠÑģÐ¿Ð°Ñģ ÑĳÑĤ
ĠÑģÐ¿Ð°Ñģ Ð¸Ð±Ð¾
ĠÐ²ÐµÑī Ð¸
ĠÐ²ÐµÑī ÐµÑģÑĤÐ²Ð¾
ĠÐ²ÐµÑī ÐµÑģÑĤÐ²Ð°
ÐĴÐµÑģ Ð½Ð¾Ð¹
ÐĴÐµÑģ ÐµÐ»ÑĮÑı
ÐŁÑĢÐ¸ÑĪ Ð»Ð¾ÑģÑĮ
ĠÑĥÐ´Ð°ÑĢ Ð°
ĠÑĥÐ´Ð°ÑĢ Ñĭ
Ð°Ñī Ð¸Ðµ
ĠÑĤÑĢÐµÐ² Ð¾Ð³Ñĥ
ĠÐ²Ð¾Ð² ÐµÐºÐ¸
ĠÑħÐ¾Ð·Ñı ÑİÑĪÐºÐ°
ĠÑĪÐ°Ð¿ Ð¾ÑĩÐºÐ¸
ĠÐ±ÑĢÐ¾Ñģ Ð¸ÑĤ
ĠÐ±ÑĢÐ¾Ñģ Ð°ÐµÑĤ
ĠÐ²Ð»Ð°Ð´ ÐµÐ½Ð¸Ð¹
ĠÐ²Ð»Ð°Ð´ ÑĭÐº
ĠÑĢÐ¾Ð· Ð³Ð°Ð¼Ð¸
ÐŀÑģÑĤ Ð°Ð»Ð°ÑģÑĮ
ÐŀÑģÑĤ Ð°Ð»Ð¾ÑģÑĮ
ÑĢÐµ ÑİÑĤ
ĠÑģÐ¾Ð»Ð½ ÐµÑĩÐ½ÑĭÑħ
ĠÐ²ÑģÑĤÑĢ ÐµÐ¿ÐµÐ½
ĠÐ´Ð»Ð¸Ð½ Ð½ÐµÐ¹
ÐŁÐ¾Ð· Ð°Ð±
ĠÐ½Ð°ÑģÑĤ Ð¾Ñı
ĠÐ¾ÐºÑĢÑĥÐ¶ ÐµÐ½Ð½ÑĭÐ¹
ĠÐºÐ½Ð¸ Ð³
ĠÐºÐ½Ð¸ Ð³Ñĥ
ĠÐºÐ½Ð¸ Ð³Ðµ
ÐĴÐ¾Ð» Ð¾Ñģ
ĠÐºÑĢÐ°Ñı Ð¼Ð¸
ĠÑģÐºÐ»Ð¾Ð½ ÑıÑģÑĮ
ĠÑĤÐ²Ð¾ÑĢ ÐµÐ½ÑĮÐµ
ÐĿÐ°Ð² Ð¸Ñģ
ĠÐ»Ð¾Ð¶ ÐµÑĩÐºÐ¸
ÐľÐ¾Ð³ Ð»Ð¸
ÐĹÐ°Ð² Ð¸ÑģÑĤ
Ð£Ð¿ Ð°Ð»
Ð£Ð¿ Ð°Ð»Ð¸
ĠÐ³Ð»ÑĥÐ¿ Ð°Ñı
ĠÐ½Ð°ÑĩÐ°Ð» Ñĥ
ĠÐ¿ÑĢÐ¸ÑĢ Ð¾Ð´
ĠÐ¿ÑĢÐ¸ÑĢ Ð¾Ð´Ð½Ð¾Ð¹
ĠÐ¿ÑĢÐ¸Ñĩ Ð¸Ð½Ñĥ
ĠÐ¿ÑĢÐ¸Ñĩ Ð¸Ð½Ñĭ
ĠÑģÐ²Ð¾Ð±Ð¾Ð´ Ðµ
ĠÑģÐ²Ð¾Ð±Ð¾Ð´ ÐµÐ½
ĠÐŁÐµÑĤ ÑĢÐ¾Ð¼
ĠÐ·Ð½Ð°ÐºÐ¾Ð¼ Ñĭ
ĠÑģÐ¾Ñĩ Ð¸Ð½
ÐŁÐ¾Ñĩ ÑĥÑı
ÐŁÐ¾ÑĪ Ð»Ð¾
ĠÑģÑĤÐ¸Ñħ Ð°Ñħ
ĠÑģÑĤÐ¸Ñħ Ð¸Ð¸
ÐŁÑĢÐ¾ÑĤÐ¸Ð² Ð½Ð¸Ðº
ÐŁÑĢÐ¾ÑĤÐ¸Ð² Ð½Ð¸ÐºÐ¾Ð²
Ð§ÑĥÐ´ Ð½ÑĭÐµ
ĠÑĨÐµÐ¿ ÐµÐ¹
ÑĢÐµÑĪ Ð¸ÑĤÐµ
ĠÑģÑĥÐ¿ÑĢÑĥÐ³ Ð¾Ð¼
ĠÐ¿ÑıÑĤ Ñĥ
ĠÐ¿ÑĭÑĪ Ð½Ð¾
ĠÐ³Ð¾Ð»Ð¾Ð´ Ð¾Ð¼
Ð¡Ð¼ÐµÑĢÑĤ Ð½ÑĭÐ¹
ĠÐºÑĢÐµÑģÑĤÑĮÑıÐ½ Ð°Ð¼Ð¸
ĠÑĥÐ³ÑĢÑİÐ¼ ÑĭÐµ
Ð¤ ÑĢÐ¾Ð½ÑĤ
Ð¤ Ð°ÑĢÐ»Ð°ÑĦ
ĠÐºÐ½ÑıÐ¶ Ð½Ñĭ
Ð¡Ð²ÐµÑĢ Ðº
Ð¡Ð²ÐµÑĢ ÐºÐ°Ñı
ĠÑĩÐµÑģÑĤ Ð½ÑĭÐµ
ÐĶÐ¾ÑĢ Ð¾Ð³Ð¸
Ð°ÑıÐ½ ÑĮÑı
ĠÐ½ÐµÑģÑĩÐ°ÑģÑĤ Ð½Ð¾Ð¹
ĠÐ¿Ð¾Ð¹ Ð¼ÐµÑĤ
ĠÐ´Ð¾Ðº ÑĥÑĩ
ĠÐ¼ÐµÐ»ÑĮ Ð½Ð¸ÑĨÑĭ
ĠÐ¼ÐµÐ»ÑĮ Ð½Ð¸ÑĨÐ°
ĠÐºÐ¾Ð² ÑĩÐµÐ³
ÐŁÑĢÐ¾Ñģ Ð½ÑĥÐ»Ð¸ÑģÑĮ
ĠÑģÐ¿Ð¾ÐºÐ¾Ð¹ Ð½ÑĭÐ¹
ĠÐ½Ð°Ð´ÐµÐ¶Ð´ Ð¾Ð¹
ĠÐ²Ð·Ð´Ð¾Ñħ Ð½ÑĥÐ»
ĠÐ²Ð·Ð´Ð¾Ñħ Ð½ÑĥÐ²
ĠÑĤÐ¾ÑĢÐ¶ÐµÑģÑĤÐ² ÐµÐ½Ð½ÑĭÐ¹
ĠÐ²ÑģÑĤ Ð°ÑĢÑĮ
ĠÐ²Ð½Ñĥ Ðº
ĠÐ²ÑĭÐ´ Ð°Ð»
ĠÐ²ÑĭÐ´ ÑĥÐ¼
ĠÐ¸Ð·Ð³ Ð½Ð°Ð½ÑĮÐµ
ĠÐ³Ð»ÑĥÑħ Ð¾Ð¼
ĠÑĥÑĤÑĢÐµÐ½ Ð½Ð¸Ñħ
ĠÐ¶ÐµÐ½Ñī Ð¸Ð½Ðµ
ĠÑģÐºÐ¾ÑĢÐ± Ð½ÑĭÐ¹
ĠÑħÐ»Ð°Ð´ Ð½ÑĭÐµ
ĠÐ±ÐµÐ·ÑĥÐ¼ Ð½ÑĭÐ¹
ĠÐ±ÐµÐ·ÑĥÐ¼ Ð½ÑĭÐµ
ĠÑģÐµÐ» ÐµÐ½ÑĮÑı
ĠÑģÐµÑģÑĤ ÑĢÐ¸
ĠÑĥÑĪ Ð°Ñħ
ÑıÑīÐµÐ¹ ÑģÑı
ĠÑħÑĢÐ°Ð½ Ð¸ÑĤ
ĠÑħÑĢÐ°Ð½ Ð¸ÑĤÑĮ
ĠÐ¸Ð·ÑĥÐ¼ Ð»ÐµÐ½ÑĮÐµÐ¼
ĠÑĢÐ°Ð·Ð³ Ð½ÐµÐ²
ĠÐ¼ÑĭÑģÐ»Ð¸ Ñİ
ĠÑĤÐ²ÐµÑĢÐ´ ÑıÑĤ
ĠÑģÐ¾Ð±ÑĢ Ð°Ð½ÑĮÐµ
ĠÐ·ÑĥÐ± Ð°Ð¼Ð¸
ÐŁÐ¾Ð½ Ð¸Ð¼
ĠÐ»Ð¸Ðº Ð¾Ð¼
ĠÑĤÐµÐ¼Ð½Ð¾ ÑĤÐ¾Ñİ
ĠÐ²ÐµÑģÐµÐ» Ð¾Ð¹
ÐŀÑĤÐ²ÐµÑĤ Ð°
ĠÐ²Ð¾Ð·Ð¼ ÐµÐ·Ð´
ĠÐ¸ÑģÐ¿ÑĥÐ³ Ð°Ð½Ð½ÑĭÐ¹
ĠÐ¼Ð½Ð¾Ð¶ ÐµÑģÑĤÐ²Ð¾Ð¼
ĠÐ²ÑģÑĤÑĢÐµÑĤ Ð¸ÑĤ
ĠÐ²ÑģÑĤÑĢÐµÑĤ Ð¸ÑĤÑĮ
ĠÐ¿ÑĢÐ¾Ð³ Ð½Ð°ÑĤÑĮ
ĠÐ¿ÑĢÐµÑģ Ð¼ÑĭÐº
ĠÐ¾ÑĤÑĢÐ°Ð´ Ñĥ
ĠÑħÐ² Ð°ÑĤÑĮ
ĠÐ¾Ð±Ð¼Ð°Ð½ ÑĥÑĤÑĮ
ĠÐļÐ»Ð¸Ð¼ Ð°
ĠÐ²Ð¾Ð»ÑĪÐµÐ± Ð½ÑĭÐ¹
ĠÑĥÐ¼Ð¸ÑĢ Ð°Ñı
ĠÐ¿Ð¾Ð²ÐµÐ» ÐµÐ²Ð°ÐµÑĤ
ĠÐ¿ÑĢÐ¾Ñī Ð°Ð¹
ÐĹÐ² Ð¾Ð½
ÐĺÐ·Ð± ÑĢÐ°Ð½
Ð¡Ð¿Ð°Ñģ ÐµÐ½Ð¸Ñı
ĠÐŁÑĢÐµÑģÑĤÐ¾Ð» Ñĭ
ĠÐ¸ÑģÐ¿ÑĭÑĤ Ð°Ð»
ĠÐ²Ð¾ÑģÑĤÐ¾ÑĢÐ³ Ðµ
ĠÐ¼ÑĥÐ·Ñĭ ÐºÐ¾Ð¹
Ð»ÑıÑĤÑĮ ÐµÐ¼
ĠÐ¿ÐµÐ½ Ñĥ
ĠÐ¿Ð¸Ñģ Ð°Ð»
ĠÐ½Ð°Ð± ÐµÐ³Ð¸
ĠÐ·Ð°Ñħ Ð¾ÑĤÐµÐ»
ĠÐ·Ð°Ñħ Ð¾ÑĩÐµÑĪÑĮ
ĠÑģÐ¼ÑĥÑĤ Ñĥ
ĠÑģÑĤÑĢÑĥ Ð¸
ĠÑģÑĤÑĢÑĥ Ð½Ñĭ
ĠÐ¿Ð¾ÑĤÐµÑĢ ÑıÑĤÑĮ
ĠÐ·Ð°Ð¿ÑĢÐµÑĤ Ð¸Ð»
Ð¾Ð½Ð¾Ñģ Ð½ÑĭÑħ
ĠÐ¶ÐµÑĢÑĤÐ² Ð¾Ñİ
ĠÑħÐ¸ÑĤÑĢ ÑĭÐ¹
ĠÐ¡Ð²Ð¾ ÐµÐ¹
ĠÐ¡Ð²Ð¾ Ð¸Ð¼
ĠÐ¡Ð²Ð¾ Ð¸Ñħ
ĠÐ´Ð²ÐµÑĢ ÑĮÑİ
ĠÐºÐ°Ð¿ Ð»Ñİ
ĠÐºÐ¸Ð¿ ÐµÐ»Ð°
ĠÐºÑĢÐ°ÑĤ ÐºÐ¾Ð¹
ĠÐºÑĢÐ¾ÑĤ ÐºÐ¾
ĠÐºÑĢÐ¾ÑĤ ÐºÐ¸Ð¹
ĠÐºÑĢÐ¾ÑĤ Ð¾ÑģÑĤÑĮÑİ
ĠÐ¿ÑĢÐ¸ÑıÑĤ Ð½Ð¾
ĠÐ¿ÑĢÐ¸ÑıÑĤ Ð½ÑĭÐ¹
ĠÐķÑĢ Ð¼Ð¸Ð»Ð¾
ĠÐ½ÐµÐ´Ð²Ð¸Ð¶ Ð¸Ð¼
ĠÐ¾ÑĢÑĥÐ¶ Ð¸Ðµ
ĠÑģÐ´ÐµÐ» Ð°Ð»Ð¸
ĠÐ¿ÑĤ Ð¸Ñĩ
ĠÐ¿Ð°Ñħ Ð½ÐµÑĤ
ÑĩÐµÑģ ÐºÐ°Ñı
ÐĿÐ¸Ñĩ ÑĤÐ¾Ð¶
ĠÐ¿ÑĢÐ¸Ñħ Ð¾ÑĤ
ÐĶÐµÑĢÐµÐ² Ð½Ð¸
ÐĶÐµÑĢÐµÐ² ÑĮÐµÐ²
Ð£Ð² Ð°Ð¶
ĠÑģÐ¼Ðµ ÑıÑģÑĮ
ĠÑģÐ¼Ðµ ÑıÐ»Ð°ÑģÑĮ
ĠÑģÐ¿ÑĢÐ¾Ñģ Ð¸Ð»
ĠÐ¿ÐµÑĢÐµÐ² ÐµÑģ
ĠÐ°Ð½Ð³ ÐµÐ»Ð¾Ð²
ĠÐŀÐ»ÑĮ Ð³Ð¾Ñİ
ĠÑģÐµÑĢÐ´ÐµÑĩ Ð½Ð¾Ð¹
ĠÐ¿Ð¾Ð¼ÐµÑīÐ¸Ðº Ð¾Ð¼
ĠÐ²Ð¸Ñħ ÑĢÑĮ
ĠÐºÐ¾Ð»ÑĮ ÑĨÐ°
ÐĴÑĤÐ¾ÑĢ Ð¾Ð¹
ÐĴÑĤÐ¾ÑĢ Ð¸ÑĩÐ½Ð¾
ĠÐ²ÑĭÐ· Ð¾Ð²
ĠÐ¿Ð¾ÑĢÑıÐ´ ÐºÑĥ
ĠÐ¿Ð¾ÑĢÑıÐ´ ÐºÐµ
ĠÐ¿Ð¾ÑĢÑıÐ´ ÐºÐ¾Ð¼
Ð¡Ð»ÑĥÑĩ Ð¸Ð»Ð¾ÑģÑĮ
ĠÐ¿ÐµÑģÐ½Ñı Ñħ
ĠÐ¿ÐµÑģÐ½Ñı Ð¼Ð¸
ĠÐ¿ÑĥÑģÑĤÑĭÐ½ Ð½Ð¾Ð¹
ĠÑģÐ»Ð°Ð´Ð¾ÑģÑĤ Ð½Ð¾Ð¹
ĠÑĤÐ¾Ð²Ð°ÑĢÐ¸Ñī Ð¸
ĠÑģÑĩÐ¸ÑĤ Ð°Ð¹
ĠÐ¿Ð¸ÑģÑĮ Ð¼
ĠÑĢÐ¾Ð³ Ð°ÑĤ
ÐŁÐµÑĩ Ð°Ð»ÑĮ
ÐŁÐµÑĩ Ð°Ð»ÑĮÐ½ÑĭÐ¹
ÐļÑĥÐ¿ ÐµÑĨ
ÐļÑĥÐ¿ ÑĩÐ¸Ð½Ðµ
ÐŁÑĢÐ¾ÑĪ Ñĥ
ÐŁÑĢÐ¾ÑĪ Ð»Ð¾
ĠÐ³ÑĢÐ°Ð´ Ñĥ
ĠÐ¿Ð¾Ð´ÑĥÐ¼ Ð°Ð»Ð°
ĠÐ·Ð°Ð±Ð¾ÑĤ ÑĥÑĪÐºÐ°
ĠÐºÑĢÐ°ÑģÐ°Ð² ÑĨÑĭ
ĠÐ±Ð¾Ñı ÑĢÐµ
ĠÑĥÑģÑĤÐ°Ð» ÑĭÐµ
ĠÐ²Ð»Ð°ÑģÑĤ Ð½Ð¾
ĠÑħÐ¾ÑĢÐ¾ÑĪ Ð¸Ðµ
ĠÐ¿ÑĮÑı Ð½
ĠÐ¿ÑĮÑı Ð½Ð¾Ð³Ð¾
ĠÐ´Ð¾Ð¿ Ð¾Ð´Ð»Ð¸Ð½Ð½Ð¾
ĠÐ¼Ð¾Ð½ Ð°ÑĪ
ÐĶÐµÐ² Ð¸ÑĨÑĭ
ÐĹÐ°Ð³ Ð°Ð´
Ð¡ÑĤÑĢÐµÐ¼ ÑıÑģÑĮ
Ð¡ÑĤÑĢÐµÐ¼ Ð³Ð»Ð°Ð²
ĠÐ½Ð°ÑģÐ»Ð°Ð¶Ð´ ÐµÐ½ÑĮÑı
ĠÐ½ÐµÐ¼ÐµÑĨ ÐºÐ¾Ð¹
ĠÐºÐ¾Ð»ÐµÑģ Ð½Ð¸ÑĨÑĭ
ĠÑĤÐ¾ÑĢÐ¾Ð¿ Ð¸Ð»ÑģÑı
ĠÑĤÐ¾ÑĢÐ¾Ð¿ Ð»Ð¸Ð²Ð¾
Ð¢ÑĢÑĥÐ´ Ð¾Ð²
ĠÐºÐ¾Ð²Ð°ÑĢ Ð½Ð¾Ð¹
ĠÑģÐ²Ð¸ÑģÑĤ Ð¾Ð¼
ĠÑģÐ²ÑıÑī ÐµÐ½Ð½Ð¾Ð¹
ĠÐ¿ÑĢÐ¸Ð³ Ð²Ð¾Ð·Ð´
ĠÐļÐ¸ÐµÐ² Ð°
ÐłÐ°Ð·Ð´ ÑĥÐ¼
ĠÐ¸ÑģÐºÑĥÑģ Ð¸ÑĤÐµÐ»ÑĮ
ĠÐ¸ÑģÐºÑĥÑģ ÑģÑĤÐ²Ð¾Ð¼
ĠÐ¶ÐµÐ»ÐµÐ· Ð½ÑĭÐ¹
ĠÐ²Ð¸Ð½ Ð¾Ð¼
ĠÐ²Ð¸Ð½ Ð¾Ð³ÑĢÐ°Ð´
Ð¼Ð¸ÑĢ Ð°Ð»
ĠÑĤÑĳÐ¼ Ð½Ð¾Ð¹
ÐĶÐ¾Ð±ÑĢ Ð¾
ÐĶÐ¾Ð±ÑĢ Ð¾Ð¹
ÐĶÐµÑĢÐ¶ Ð°Ð²
ĠÑģÐ²ÐµÐº Ð¾ÑĢ
ĠÑģÐ²ÐµÐº ÑĢÐ°
ĠÑĢÐ°Ð·Ð»Ð¸Ñĩ Ð½ÑĭÑħ
ĠÑĢÐ°Ð·Ð»Ð¸Ñĩ Ð½ÑĭÐµ
ĠÐ¿ÐµÑĢÐµÑģ ÑĳÐº
ĠÐ·Ð²ÑĥÑĩ Ð°Ð»
ĠÐ·Ð»Ð°ÑĤ Ð¾Ð¼
ÐŁÐ¾ÐºÐ¾ÑĢ Ð½Ð¾
ÐŁÐ¾ÐºÐ¾ÑĢ Ð½Ð¾ÑģÑĤÐ¸
ĠÑĥÐ·Ð½Ð° Ñİ
ĠÐ¾ÑģÑĤÑĢÐ¾Ð² Ðµ
ĠÑĤÑĥÐ¼Ð°Ð½ Ð¾Ð¼
ĠÐ¿ÑĭÑĤ ÐºÐ¸
ĠÐ²Ð¾Ð¶Ð´ ÐµÐ»ÐµÐ½
Ð¡Ð¾Ð³ ÑĢÐµÑĤ
ĠÐ»Ð¸ÑĢ Ðµ
ĠÑĩÐ°Ð¹ ÐºÑĥ
ÐľÐ³Ð½Ð¾Ð² ÐµÐ½Ð½ÑĭÐ¼
ĠÐ¾Ð±Ð½ Ð°ÑĢÑĥÐ¶
ĠÐ¿ÐµÑĢÐµÐ¼ ÐµÐ½Ð°
ĠÐ¿ÐµÑĢÐµÐ¼ ÐµÐ½Ñĭ
ĠÐ¿ÑĢÐ¸ÑģÑĤ Ð°ÑĤÑĮ
ĠÐ¿ÑĢÐ¸ÑģÑĤ Ð°Ð½Ð¸
ĠÐ¿Ð¾ÑĢÑĤ ÑıÐ½ÐºÐ¸
ĠÐĺÐ³Ð¾ÑĢ Ñı
ÐĵÑĢÐ¾Ð· Ð½Ð¾
ĠÐ·Ð°Ð´ÑĥÐ¼ ÑĩÐ¸Ð²
ĠÑģÐ¾ÐºÑĢÑĥÑĪ Ð¸ÑĤ
ĠÑģÐ¾Ð²ÐµÑĢÑĪÐµÐ½ ÑģÑĤÐ²Ð°
ĠÐ¿ÑĥÑĩ Ð¸Ð½Ðµ
ÐĴÐµÐ»Ð¸ ÐºÐ°Ð½Ñĭ
ĠÐ¶Ð¸Ð»Ð¸ ÑīÐµ
ĠÐ¶ÐµÑĢÑĤ Ð²Ð¾Ð¹
ĠÐ¶ÐµÑĢÑĤ Ð²Ñĭ
ÐŁÑĢÐ¸Ñģ Ð¿
Ð§Ð¸ÑĤ Ð°ÐµÑĤ
Ð§Ð¸ÑĤ Ð°ÑĤÐµÐ»ÑĮ
ĠÐ·Ð°ÐºÑĢ ÑĭÐ»Ð°
ÐłÐ°ÑģÐ¿ Ð¾Ð»Ð¾Ð¶
ÐŀÐ¿Ð°Ñģ Ð½Ð¾ÑģÑĤÑĮ
ÐŀÐ¿Ð°Ñģ Ð½Ð¾ÑģÑĤÐ¸
ĠÐ²Ð¾Ð·Ð²ÑĢÐ°ÑĤ Ð¸Ð»ÑģÑı
ĠÑĢÐ°ÑģÑģÐ²ÐµÑĤ Ðµ
ĠÑĢÐ°ÑģÑģÐ²ÐµÑĤ Ð°
ĠÑıÐ·Ñĭ ÐºÐµ
ĠÐ¿ÑĥÐ³ Ð°ÐµÑĤ
ÑĩÐ°Ð¹ ÑĪÐ¸Ð¹
ĠÐ³Ð°Ð» Ð´
ĠÐ³Ð°Ð» ÑĩÐ°ÑĤÐ°
ÐĶÐ¾Ñģ ÐµÐ»ÑĮ
ÐĶÐ¾Ñģ ÐµÐ»Ðµ
ÐĶÐ¾Ñģ ÑĭÑĤÐ°
ĠÐ»ÑİÑĤ Ð¾Ð³Ð¾
ĠÐ»ÑİÑĤ ÑĭÐ¹
ÐĴÑģÐµÐ²ÑĭÑĪ Ð½Ð¸Ð¹
ĠÐ»ÑİÐ±Ð¸Ð¼ ÑĭÐµ
ĠÐ¿Ð¾ÑĢÑĥ ÐºÐ¾Ð¹
ĠÐ²ÑĢÐ°Ð¶ ÐµÑģÐºÐ¸Ñħ
ĠÑĥÑĤÐµÑĪ ÐµÐ½ÑĮÐµ
ĠÐ¿Ð¾Ð³ÑĥÐ± Ð¸Ð»
ĠÐ¿ÑĢÐ¾ÑģÑĤÑĢÐ°Ð½ ÑģÑĤÐ²Ð°
ĠÑĥÐ¿Ð¾ ÐµÐ½ÑĮÐµ
ĠÐ½Ð°ÐºÐ°Ð· Ð°Ð½ÑĮÐµ
ĠÐ´Ð²Ð¾ÑĢÑıÐ½ ÐºÐ¾Ð¹
ÐĳÐµÑģÐ¿ Ð»Ð¾Ð´
ÑİÑīÐ¸Ñħ ÑģÑı
ĠÐĵÑĢÐ¸ÑĪ ÑĥÑħÐ°
Ð½Ð°Ð´ ÑĨÐ°ÑĤÑĭÐ¹
ĠÑģÐ¸Ð½ ÐµÐ¼
ĠÑģÐ¸Ð½ ÐµÐ¼Ñĥ
ĠÐ²Ð»ÑİÐ± Ð»ÐµÐ½Ð°
ĠÐ±ÑĥÐ» Ð°Ð²
ÐĹÐ½Ð° ÐµÑĤ
ÐĹÐ½Ð° ÑĩÐ¸ÑĤ
ĠÑĥÑĤÑĢÐ°ÑĤ Ð¸Ð»
ĠÑĥÑĤÑĢÐ°ÑĤ Ð¸ÑĤÑĮ
ÐŀÐ±ÑĪÐ¸ÑĢ Ð½ÑĭÐµ
ĠÐ¾Ð³ÑĢÐ¾Ð¼ Ð½ÑĭÑħ
ĠÐºÐ¾Ð»Ð¾Ñģ ÑĮÑı
ĠÐ¿Ð¾ÑģÑĤÑĥÐ¿ Ð¾Ðº
ĠÑĩÑĥÐ´ÐµÑģ Ð½ÑĭÐ¹
ÑĢÑĭÐ³ Ð½ÑĥÐ»
ÑĢÑĭÐ³ Ð½ÑĥÐ»Ð°
Ð½ÑıÑĤ Ð½ÑĭÐ¹
ĠÑģÑĢÐ°Ð²Ð½ Ð¸ÑĤÑĮ
ĠÐ¿Ð¸Ð» Ñĥ
ĠÐ´ÐµÐ½ ÐµÐ¶ÐºÐ¸
ĠÐ¼Ð¾Ð´ Ð½Ð¾Ð¹
ĠÑģÐ²Ð¸Ð´ Ð°Ð½ÑĮÑı
ÐŁÑĢÐ¸Ð¿ Ð»ÑĭÐ»Ð°
ÐĳÐ¾Ð¶ÐµÑģÑĤÐ² ÐµÐ½Ð½ÑĭÐ¹
ĠÐ¿Ð¾Ð»Ñĥ Ð½Ð¾Ñĩ
ĠÑĤÑĢÐ¸Ð´ ÑĨÐ°ÑĤÐ¸
ĠÐ²Ð¾Ð·Ð½ÐµÑģ ÑĳÐ½
ĠÐ½ÐµÐ²ÐµÐ´Ð¾Ð¼ Ð¾Ð¹
ĠÐ½Ð°Ð³ÑĢÐ°Ð´ Ñĥ
ĠÑĢÐ°ÑĤ Ð½ÑĭÐ¹
ĠÐ¿ÑĢÐµÐ³ ÑĢÐ°Ð¶Ð´
ĠÐ¿ÑĢÐ¸ÐµÑħ Ð°Ð»Ð¸
ÐĴÐ½Ð¸Ð¼ Ð°Ð½ÑĮÐµ
ĠÐ»ÐµÐ½ Ð¸Ð²
ĠÐ¶ÑĥÑĢ Ð½Ð°Ð»
ÐĵÐ»ÑĥÐ± Ð¾Ðº
ĠÐ³ÑĢÑĥÐ± ÑĭÐ¼
ĠÐ¿Ð¾Ð»Ð¾Ð¶ Ð¸Ð»
ĠÐ±ÐµÐ·Ð· Ð°ÐºÐ¾Ð½
ĠÑģÑĤÐ°ÑĢÐ¾ÑģÑĤ Ñĥ
ĠÑģÐ¾Ð±ÑģÑĤÐ²ÐµÐ½ Ð½ÑĭÐ¼
ĠÐ·Ð°Ð±Ð² ÐµÐ½ÑĮÑı
ĠÐ¿ÑĢÐ¸Ð²ÑĭÑĩ ÐºÐµ
ĠÐ¿Ð¾Ð·Ð°Ð± ÑĭÐ»
ĠÐ·Ð°Ð½Ð¸Ð¼ Ð°Ð»Ð¸
ĠÐ¿ÑĢÐ¾Ð½Ð¸Ðº Ð½ÑĥÑĤÑĮ
ĠÐ³Ð¾ÑģÑĥÐ´Ð°ÑĢ ÐµÐ²Ñĥ
ĠÐ½ÐµÐ» ÐµÐ³
ĠÐ´Ð¾Ð· Ð¾ÑĢÐ¾Ð¼
ÐŀÑĩ Ð½ÑĥÐ»Ð°ÑģÑĮ
ÐļÑĥÑĢ ÑĩÐ°Ð²
ĠÐµÑħ Ð°Ð»
ĠÐµÑħ Ð°Ð»Ð¸
ĠÑģÐ²Ð¸ÑĢÐµÐ¿ ÑĭÐ¹
ÐľÐ¸Ð» ÑĭÐ¹
ÐľÐ°ÑĤ ÑĥÑĪÐºÐ°
ÐľÐ°ÑĤ ÑĢÐµÐ½Ð°
ĠÐ²ÑģÐº Ð¾ÑĩÐ¸Ð»Ð°
ĠÐĿÐ¸Ðº Ð¾Ð³Ð´Ð°
ĠÐļÐ¾ÑĩÑĥÐ± ÐµÑı
ĠÐ½Ð°ÑģÐ»ÐµÐ´ ÑģÑĤÐ²Ð¾
ĠÐ²ÐµÑĢÑģÑĤ Ñĭ
ĠÐ·Ð½Ð°Ð¼ Ñı
ĠÐ¯ÐºÐ¾Ð² Ð»Ð¸Ñĩ
ĠÑīÐµÐº Ð°Ñħ
ĠÑĤÑĢÐµÐ²Ð¾Ð¶ Ð¸ÑĤ
ĠÑģÑĥÑĪ Ñĥ
ĠÑģÑĥÑĪ ÐµÐ¹
ĠÑĢÑĭÐ´ Ð°Ñı
ĠÑģÑĤÐµÐ· Ðµ
ÐĶÐ²Ð¾ÑĢ ÐµÑĨ
ÐĶÐ²Ð¾ÑĢ ÑıÐ½
ÐĶÐ²Ð¾ÑĢ Ð¾Ð²ÑĭÐ¹
ĠÐ¾ÑĤÑģ ÑİÐ´Ð°
ĠÐ¾ÑĤÐ²Ð¾ÑĢ Ð¸Ð»Ð°ÑģÑĮ
ĠÐ¿Ð¾Ð´Ð² Ð»Ð°ÑģÑĤ
ĠÐ¡Ð°Ð² ÐµÐ»Ð¸Ð¹
ĠÐĴÐ»Ð°Ð´ Ñĭ
ĠÐĴÐ¾Ð¶Ð´ Ñı
Ð¡ÑĤÑĢÐ°Ð´ Ð°Ð½ÑĮÑı
ĠÐ¾Ð³Ð½ ÐµÐ½Ð½ÑĭÑħ
ÐŀÐ´Ð½Ð¾ Ð¾Ð±ÑĢÐ°Ð·
ĠÐ¿ÐµÑĩÐ°Ð» ÐµÐ½
ĠÐ²Ð¾ÑĤÑĩ Ð¸Ð½Ð¾Ð¹
ĠÑģÑĢÐ°Ð¶ ÐµÐ½ÑĮÑıÑħ
ĠÐºÐ»ÐµÐ² ÐµÑĤÑĭ
ĠÐ¤ÐµÐ´ Ð¾Ñģ
ĠÐ¼Ð°ÑĤÐµÑĢ Ð¸Ðº
ĠÐ¼Ð°ÑĤÐµÑĢ ÑĮÑİ
ĠÐ´ÑĭÑħ Ð°Ð½ÑĮÐµÐ¼
ÐĿÐ¾Ñģ Ð¸Ð»
ÐŁÐ°ÑĢ ÐµÐ½ÑĮ
ĠÑģÑĤÐ²Ð¾Ð» Ñĭ
Ð¢ÑıÐ¶ ÑĳÐ»
ĠÑĥÐµÐ´Ð¸Ð½ ÐµÐ½ÑĮÐµ
ĠÐºÑĢÑĥÑĩ Ð¸Ð½Ð°
ĠÑģÐºÑĢÐ¾Ð¼ Ð½ÑĭÐ¹
ÐĿÐ°ÑģÑĤ Ð°Ð»Ð°
ÐĿÐ°ÑģÑĤ Ð°Ð½ÐµÑĤ
ÐŀÑĤÐ¿ ÑĥÑģÑĤÐ¸
ĠÑįÑĦÐ¸ÑĢ Ð°
ĠÐ´ÑĢÐ¾Ð² Ð½Ð¸
ĠÐ²ÑĢÐ°ÑĤ Ð°Ð¼
ĠÑĢÐ¾Ð´Ð¸Ð¼ ÑĥÑİ
ÐĸÐ¸Ð· Ð½Ð¸
ĠÐ¼Ð¸Ð»Ð¾ÑģÐµÑĢÐ´ Ð¸Ñı
Ð¡Ð¿ÑĢÐ¾Ñģ Ð¸Ð»Ð¸
Ð¡Ð²Ð¾Ð± Ð¾Ð´Ð°
Ð¡Ð²Ð¾Ð± Ð¾Ð´Ñĭ
ĠÑĤÐ²Ð°ÑĢ ÑıÐ¼
ĠÑĢÐ°Ð²Ð½Ð¸ Ð½Ñĥ
ĠÐ²ÑģÐ¿ÑĭÑħ Ð½ÑĥÐ²
ĠÐ²ÑģÐ¿ÑĭÑħ Ð½ÑĥÐ»Ð°
ĠÐ²ÐµÐ»Ð¸ÑĩÐ°Ð² ÑĭÐ¹
ĠÑĤÑİÑĢÑĮÐ¼ Ð°
ĠÑģÐµÑĤ Ð¸
ĠÑģÐµÑĤ ÐµÐ¹
Ð¡Ð»Ð°Ð´ ÐºÐ°
ĠÑģÑĤÐµÐº Ð»Ð¾
ĠÑħÐ²Ð¾ÑĢ Ð¾ÑģÑĤ
ĠÐ²ÑĭÑħÐ¾Ð´ ÑıÑĤ
ĠÑģÐºÑĢÑĭÐ» Ð°ÑģÑĮ
ĠÑĢÐ°Ð·Ð¼ ÑĭÑĪ
ĠÑĤÑĢÐµÑī Ð°ÑĤ
ĠÐ¿ÐµÑĢÑģÑĤ Ð°Ð¼Ð¸
ĠÐ±ÑĢÐµÐ´ Ð¸ÑĤ
ĠÐ½Ð¾ÑĩÐ»ÐµÐ³ Ð°
ÐĸÐ°Ð» ÐµÑĤÑĮ
Ð¡Ð¿ÐµÑĪ Ð¸ÑĤ
ĠÑģÐ½ÐµÐ¶ Ð¾Ðº
ÐłÐ°ÑģÑģ Ð²ÐµÑĤ
ĠÐ¾ÑĤÐ´ÑĭÑħ Ð°
ĠÐºÑĢÑĭÐ»ÑĮ ÑĨÐ¾
ĠÐ¾Ð±ÑĬÑıÐ² Ð¸Ð»
ĠÐ¦Ð°ÑĢ ÑĳÐ¼
ĠÐ½ÐµÐ½Ð°Ð²Ð¸Ð´ ÐµÐ»
Ð¡ÑĩÐ°ÑģÑĤÐ»Ð¸Ð² ÑĭÐµ
ĠÐ²Ð»ÐµÐº ÑĥÑĤ
Ð¡Ð¾Ðº ÑĢÐ¾Ð²
Ð¡Ð¾Ð¼Ð½ ÐµÐ½ÑĮÑı
ĠÑĩÐ¸ÑģÐ» Ð¾Ð¼
ĠÑĥÐ¹ ÑĤÐ¸
ĠÐ¾ÑĤÐ²ÐµÑĢ Ð·
ÐľÐµÐ»ÑĮ ÐºÐ°ÑİÑĤ
ÐłÐµÐ² Ð½Ð¸Ð²
ĠÐ½Ð°ÑģÐº ÑĥÑĩÐ¸ÑĤ
ĠÑĥÐ¼Ð¸Ð» ÐµÐ½ÑĮÐµ
ĠÐºÐ¾ÑĢÐ¾ÑĤ ÐºÐ¸Ð¹
ĠÐ±Ð»Ð°Ð³Ð¾Ð´Ð°ÑĤ Ð½ÑĭÐ¹
ĠÐ¡Ð¿Ð°Ñģ Ð¸Ð±Ð¾
ÑĪÐ¸Ð¼Ð¸ ÑģÑı
ÐĿÑĥÐ¶ Ð½Ñĭ
ÐĴÐµÐ´ ÑĥÑĤ
ÐĴÐ¼ÐµÑģÑĤ Ð¾
ÐŁÑĢÐ¾Ð¼ Ð¾Ð»Ð²Ð¸Ð²
ÐĳÑĢ Ð°Ð·Ð´
ÐĳÐ¾Ð¹ ÑĨÑĭ
ÐĿÐµÐ¸ÑģÑĤ Ð¾Ð²Ð¾
ĠÐ¾Ð±ÐµÑī Ð°Ð»
ĠÐ¾Ð±ÑıÐ· Ð°Ð½Ñĭ
ĠÐ¾Ð±ÑĭÑĩ Ð½ÑĭÐ¹
ĠÐ¿ÑĢÐµÐ´Ð»Ð°Ð³ Ð°ÐµÑĤ
ĠÐ½ÐµÐ±ÑĢÐµÐ¶ Ð½Ð¾
ĠÐ½ÐµÐ±ÑĢÐµÐ¶ Ð½Ð¾Ð¹
ĠÐºÐ»ÑıÑĤ Ð²Ñĥ
ĠÐ¸Ð·Ð±ÑĢÐ°Ð½ Ð½ÑĭÐ¹
ĠÐ¾ÑĤÐºÑĢÑĭÐ» ÑģÑı
ĠÐ¿Ð¾Ð¼ÐµÑīÐ¸Ñĩ Ð¸Ð¹
ĠÑĥÐ³ÑĢÐ¾Ð· Ñĭ
ĠÐ¿ÑĢÐµÐ²Ð¾Ñģ ÑħÐ¾Ð´Ñı
ĠÐ¿ÑĢÐ¸ÑģÑĥÑĤÑģÑĤÐ² Ð¸Ð¸
Ð¼Ð¾ÑĤÑĢÐµÐ» ÑģÑı
ĠÑĤÐµÑĩ ÐµÐ½ÑĮÐµ
ĠÐ´ÑĮÑı Ñĩ
ĠÑĢÑĥÐ³ Ð°ÐµÑĤÑģÑı
ÐĴÑģÐº Ð¾ÑĩÐ¸Ð»
Ð¢ÐµÐ» ÐµÑģ
ĠÑĥÑħ Ð¾Ð¼
ÐĳÐµÑĢ ÐµÐ·
ÐĹÐ¾Ð»Ð¾ÑĤ Ð¾Ð¹
ĠÐ¿Ð¾Ð´Ð± Ð¾ÑĢ
ÑĥÐ¿ÑĢ ÐµÐ¶Ð´
ÐŀÑĤÑģ ÑİÐ´Ð°
ĠÐŁÑĢÐ¾Ð² Ð¸Ð´
ĠÐ´Ð¾Ð±ÑĢÐ¾Ð´ ÐµÑĤÐµÐ»Ð¸
ĠÐ±Ð¾ÐµÐ² Ð¾Ð¼
ĠÑģÐµÐ¼ÐµÐ¹ ÑģÑĤÐ²Ðµ
ĠÐ´ÑĥÐ±ÑĢÐ°Ð² Ñĭ
ĠÐ²Ð¾Ð·Ð¼ÑĥÑĤ Ð¸Ð»
ÐŁÐ¾Ð¹Ð¼ Ð°Ð»Ð¸
ĠÑĤÐ°Ð± Ð¾ÑĢ
ÐĿÐ°Ð» ÐµÐ²Ð¾
ĠÐ¾Ð±Ð»Ð°Ð´ Ð°Ð»
ÐĽÐ¸Ðº ÑĥÑı
ĠÐ¾ÑģÑĥÐ¶Ð´ ÑĳÐ½
ĠÑģÐ¾Ð±Ð°Ñĩ ÑĮÐµÐ¹
ĠÐŁÑĢÐ¾Ðº Ð»
ĠÐ·Ð°Ð¼ÑĭÑģÐ» Ñĭ
ĠÐ·Ð°Ð¼ÑĭÑģÐ» Ð¾Ð²
ĠÐ¥ÑĢÐ¸ÑģÑĤ Ð°
Ð¡Ð²ÑıÑī ÐµÐ½Ð½ÑĭÐ¹
ĠÐ²Ð·Ð´ÑĢÐ¾Ð³ Ð½ÑĥÐ»
ĠÑģÐ¸ Ð½Ð¸Ðµ
ĠÐ²Ð¸Ð· Ð¶
ĠÑĢÐ¸Ð³ Ðµ
Ð½Ð¾ÑģÑĤ ÐµÐ¹
Ð³Ð¾Ð½ ÑıÐµÑĤ
ÐĶÐ°Ð»ÑĮ ÑĪÐµ
ÐĳÐ»Ð¸ÑģÑĤ Ð°Ñı
ĠÐĲÐ»ÐµÐº ÑģÐ°Ð½Ð´ÑĢÐ¾Ð²
ĠÐľÐ°ÑĢ Ð¸Ð¸
ÐĸÐ´ Ð°Ð»Ð°
ĠÐ²ÐµÑĤÐ² ÑıÐ¼Ð¸
ĠÑģÑĭÑĢ ÑĭÑħ
ĠÑĤÐ¾Ð»ÑģÑĤ Ð¾Ð¿ÑĥÐ·
ĠÐ¸ÑģÐ¿Ð¾Ð» Ð¸Ð½
Ð¡Ð²Ð¸ÑĢÐµÐ¿ ÑĭÐ¹
ÐŁÐ¾ÑĢÑıÐ´ Ð¾Ðº
ĠÐ·Ð°ÑģÐ»ÑĥÐ³ Ð°Ð¼
Ð¡Ð¾Ð»Ð´Ð°ÑĤ Ñĭ
ÐĶÑĥÑħÐ¾Ð² Ð½Ð¾Ð¹
ĠÐ±ÑĥÐ³ Ð¾ÑĢ
ĠÐºÐ½ÑĥÑĤ Ð¾Ð¼
ĠÐ·ÐµÑĢ Ð½Ð°
ĠÐ³Ð½ÑĥÑģ Ð½ÑĭÐ¹
ÐŁÐµÐ² ÐµÑĨ
ÐŁÑĥÑĩ Ð¸Ð½Ñĭ
ĠÑĥÐ½Ð¸Ñĩ ÑĤ
ÑĥÐ³Ð¾Ð¼ Ð¾Ð½Ð½ÑĭÐ¹
ĠÐ¿ÐµÑĢÐµÐ» ÐµÑĤ
ĠÐĳÐ¾ÑĢ ÐºÐ¸
ÐļÑĢÐ¸Ðº Ð½ÑĥÐ»
ĠÐ·Ð»Ð¾Ð²ÐµÑī Ð¸Ð¹
ĠÐºÐ¾Ð»Ð¾Ð½ Ð½Ñĭ
ĠÐ·Ð°Ð¼ÐµÑĢ Ð»Ð¾
ÐĴÐµÑĢÑħ Ð¾Ð²
ĠÐ±Ð¸ÑĤÐ² Ð°Ñħ
ÐļÑĢÐ°ÑģÐ°Ð² Ð¸ÑĨ
ĠÐ½Ð°ÑģÑĤÐ¾ ÑıÑīÐ¸Ð¹
ÐĹÐ°Ð¼ÐµÑĤ Ð¸Ð²
ĠÑģÑħ Ð¾ÑĢÐ¾Ð½
ĠÑģÐ°Ð² ÑĢÐ°Ñģ
ĠÑģÐ°Ð¶ Ð°ÐµÑĤ
ĠÐ²Ð¸Ñģ Ð¸ÑĤ
ĠÐ½Ð°Ð½ ÐµÑģ
ĠÐ±Ð¾Ð¼ Ð±ÐµÐ¶
ÐĺÐ³ÑĢÐ° ÐµÑĤ
ÐŁÐ¾Ð·Ð´ Ð½ÐµÐµ
Ð¡ÑĢÐ°Ð· Ñĥ
ĠÐ»Ð°Ð½ Ð¸ÑĤÑĭ
ĠÑĩÑĢÐµÐ² Ðµ
ĠÑĩÑĢÐµÐ² Ð°
ĠÐµÐ·Ð´ Ð¸Ð»Ð¸
ĠÑĥÑģÐº Ð¾Ð»ÑĮÐ·
Ð§ÐµÑĢÑĤ Ñĭ
ĠÑģÐ»ÐµÑĤ ÐµÐ»Ð°
ÐĵÐ¾Ð»Ð¾Ð² Ñĥ
ĠÑĢÐ°Ð·Ð½Ð¾ ÑĨÐ²ÐµÑĤ
ĠÑĢÐ°Ð·Ð²ÐµÐ´ Ð°ÑĤÑĮ
ĠÐĴÑĭÑģ Ð¾ÑĩÐ°Ð¹
ĠÐ»Ð¸ÑģÑĤÐ² Ð¾Ð¹
ĠÐĳÐ»Ð°Ð³ Ð¾Ð´
ÐĺÐ·Ð¼ÐµÐ½ Ð½Ð¸Ðº
ĠÐ½ÐµÑĤÐµÑĢÐ¿ÐµÐ» Ð¸Ð²Ð¾
ĠÐĽÑĥ Ð½Ðµ
ĠÐ£ÑĤ ÑıÑĤ
ĠÐ·Ð°ÑĤÐ¼ ÐµÐ²Ð°ÐµÑĤ
ÐłÐ°ÑģÑģÑĥÐ´ Ð¾Ðº
Ð¢ÑĢÐµÐ¿ ÐµÑīÐµÑĤ
ĠÐ±ÐµÑģÐ¿Ð¾Ð»ÐµÐ· Ð½Ð¾
ÑĢÑĥÑģ ÑģÐºÐ¸
Ð¡ÐµÑģÑĤ ÑĢÐ°
ĠÑĩÑĢ ÐµÑģÐ»
Ð§ÑĥÐ¶ Ð¸Ðµ
ÐĵÐµÐµÐ½ Ð½Ñĭ
ĠÐ²ÑĭÑģÐ»ÑĥÑĪ Ð°Ð¹
ĠÑģÐºÐ»Ð°Ð´ Ð½Ð¾
ĠÑĤÑĢÐ¾Ð³ Ð°Ð¹
ĠÐĴÐµÐ»Ð¸ Ð°Ð»
ĠÐ¿ÑĢÐ°Ð²Ð¾ÑģÐ»Ð°Ð² Ð½ÑĭÐµ
ĠÐ´ÐµÐ²ÑĩÐ¾Ð½ ÐºÐ°
ĠÐºÐ°ÑĢÐ°Ð² Ð°Ð½
ĠÐ´Ð¸ÑĤÑıÑĤ ÐºÐ¾
ĠÐºÐ²Ð°Ñģ ÐºÑĥ
ÑĥÐºÑĢ Ð¾ÑĤ
ĠÐ¾ÑģÑĮ Ð¼Ð½Ð°Ð´ÑĨÐ°ÑĤÑĮ
ĠÐ¼Ð¾Ñģ ÐºÐ¾Ð²
ĠÑĢÐ° ÑģÑĤÐ²Ð¾ÑĢ
ÐĴÐ¾Ð¿ ÑĢÐ¾Ñģ
ĠÑģÑĤÑıÐ³ Ð¸
ÐĶÐ¾Ð½ ÑĭÐ½Ðµ
ĠÑģÐ²Ð¸Ñī ÐµÑĤ
Ð£Ð½Ð¸Ð¶ ÐµÐ½Ð½Ð¾
ĠÐ²ÑĭÐ¼Ð¾Ð»Ð² Ð¸Ð»
ĠÐ»Ð¸ÑĨÐµÐ¼ ÐµÑĢ
ĠÐ²Ð¾Ð·ÑĢ Ð¾Ð¶Ð´
ĠÐĶÐ½ÐµÐ¿ ÑĢÐ°
ĠÑģÐ²Ð¾ÐµÐ½ÑĢÐ°Ð² Ð½Ð¾Ð¹
Ð¥Ð»ÐµÐ± Ð°
ĠÐ±ÐµÑģÑĩ ÐµÑģÑĤ
ĠÐ¾ÑģÐ¾Ð· Ð½Ð°Ð²
ĠÐ¿Ð¾ÑģÐ¼Ð¾ÑĤÑĢ Ð¸Ð¼
ĠÐ½ÐµÐ²ÑĢÐµÐ´ Ð¸Ð¼
ĠÑģÐ¾Ð²Ð¾ÐºÑĥÐ¿ Ð½Ð¾
ÐŁÐµÑĢÐµÐ¿ ÑĢÐ°Ð²Ð°
ĠÑİÐ½Ð¾ ÑĪÐ¸
ÐļÐ¾ÑĢÐ¼ Ð¸Ð»Ð¸
ÐĽÑİÐ´Ð¼Ð¸Ð» Ñĥ
ÐĹÐ»Ð¾Ð²ÐµÑī Ð¸Ð¹
ÑģÐ¾Ð» Ð´Ð°ÑĤ
ĠÐ²Ð» ÐµÐ²Ð¾
ÐĴÐ¾Ð² ÐµÐº
ÐĴÐ¾Ð»Ð½ ÐµÐ½ÑĮÐµ
ÐĴÐµÐ»ÑĮÐ¼Ð¾Ð¶ Ð½Ð¾Ð¼Ñĥ
ĠÐ»ÐµÐ»Ðµ ÑıÑĤÑĮ
Ð¢Ð¾Ð²Ð°ÑĢ Ð¸Ñī
ĠÑıÐ½ ÑĤÐ°ÑĢ
ÐŁÑĢÐµÐ¼ÑĥÐ´ÑĢ Ð¾ÑģÑĤÑĮ
ĠÐ¾Ð±Ð¾ÑĢÐ¾Ð½ Ðµ
Ð¥Ð¾ÑĤ ÐµÐ»Ð¾ÑģÑĮ
ĠÐ½Ð°ÑĢÑĥÑĪ Ð¸Ð²
ĠÐ½Ð°Ð²ÐµÑĢ Ð½ÑıÐºÐ°
ĠÐ»ÐµÐ³ÐºÐ¾Ð¼ ÑĭÑģÐ»
ĠÐ½ÐµÑģÐ¼ Ð¾ÑĤÑĢÑı
ĠÐ´Ð²Ð¾ÑĢÑı Ð½Ð¸Ð½
ĠÑĥÑģÐ¼ÐµÑħ Ð½ÑĥÐ»ÑģÑı
ÐĿÐ°ÑģÐº Ð¾Ð»ÑĮÐºÐ¾
ĠÑĩÐµÑĤÑĭÑĢ ÐµÑħ
ÐłÐ°Ð±Ð¾Ñĩ Ð¸Ð¹
ĠÐĴÑģÐµÐ¼Ð¾Ð³ÑĥÑī ÐµÐ³Ð¾
ĠÑģÐ¾ÑĤÑĢ ÑĳÑĤ
ĠÐ½Ð¾Ð·Ð´ ÑĢÐ¸
Ð¡ÐµÑĢÐ³ ÐµÐ¹
ĠÑıÐ¹ ÑĨÐ°
ÑĥÐ¶Ð¶ Ð¸ÑĤ
ĠÑħÐ¸Ð¶ Ð¸Ð½Ñĭ
ÐĵÐ°Ð²ÑĢ Ð¸Ð»Ð¾
ĠÐ¼Ð¸ÑĢÐ¾Ð·Ð´ Ð°Ð½ÑĮÐµ
ĠÑģÐ¾Ð¾Ð±ÑĢÐ°Ð· Ð½Ð¾
ĠÑĩÐµÑĢÐ½Ð¾ ÑĥÑģÑĭÐµ
ĠÐ¿ÑĢÐ¸Ð·Ð½Ð° ÑİÑģÑĮ
ĠÐ±ÐµÐ·Ð´ÐµÐ¹ÑģÑĤÐ² Ð¸Ð¸
ĠÐ½ÐµÐ·Ð°Ð¼ ÐµÑĤÐ½Ð¾
ĠÐĸÐ¸Ð· Ð½Ð¸
ÐĹÐ°Ð¿Ð»Ð°ÑĤ Ð¾Ð²Ð°
Ð¼Ð°ÑĤÑĢ Ð¸Ð²Ð°Ð»
ĠÑģÐ¿ÑĢÐ°Ð²ÐµÐ´ Ð»Ð¸Ð²Ð¾
ĠÐ¿ÑĢÐ°Ð´ÐµÐ´ Ð¾Ð²
ĠÐĵÑĢÐ°Ð½Ð´Ð¸Ñģ Ð¾Ð½
Ð´Ð¾ÑĢ Ð¾Ð³Ð¾Ñİ
ĠÐ½ÑĥÑĤ ÑĢÐ¾
ĠÐ¿ÑĢÐ¾Ð·Ñı Ð±
ÐļÐ»Ñİ ÑĩÐ¸
ĠÑĥÑĢÐ°Ð³ Ð°Ð½
ĠÐ¿Ð¾Ð»Ð¿ ÑĥÑĤÐ¸
ĠÐĴÐ»Ð°ÑģÑĮ ÐµÐ²
ĠÑįÐºÐ¸Ð¿ Ð°Ð¶
ÐŁÐ¾Ð´ÑĤÑıÐ½ÑĥÑĤ Ð¾Ð¹
ĠÐ½Ð°ÑģÐµÐº Ð¾Ð¼ÑĭÑħ
ĠÐĹÐ¼Ð¸ ÐµÐ¼
ĠÐ¥Ð°Ð½Ð° Ð°Ð½
ĠÐ²Ð¾ÑĢÐ¾Ñĩ Ð°ÑĤÑĮÑģÑı
ÐŁÐ¾Ð¿Ð¾ÑĤÑĩ ÑĥÐ¹
ĠÐ¾ÑĤÐºÑĢÐ¾Ð² ÐµÐ½Ð½Ð¾
ĠÐ¸Ð½ÑģÑĤÑĢ ÑĥÐ¼ÐµÐ½ÑĤ
ĠÐĲÑĦÐ°Ð½Ð°ÑģÑĮ ÐµÐ²Ð¸Ñĩ
ĠÑģÑĨÐµÐ½ Ðµ
ĠÐ¿Ð°Ð³ ÑĥÐ±
ĠÑĤÑĳ Ð¿
ĠÐ½Ð°Ð¾ÑĤÑĢ ÐµÐ·
Ð¸ÑħÐ¾Ð½ÑĮ ÐºÑĥ
ÐľÐ¸Ð½Ð¸ ÑģÑĤÑĢÑĥ
ÐĿÐµÑĥÑĢÐ¾Ð¶Ð°Ð¹ ÐºÐ°
Ð¸ÐºÑĢÐ°ÑĤ Ñĭ
ĠÐĴÐµÐ»ÑĮÐ·ÐµÐ² ÑĥÐ»
ĠÐĶÑĭÑĢÑı Ð²Ð¸Ð½Ð°
ĠÐĹÐ½Ð¾Ð± Ð¸ÑĪÐ¸Ð½Ð°
Ð¡Ð¼Ð¸Ð»ÑĥÐ¹ ÑģÑı
ĠÐŀÐ½ÐµÐ³Ð¸ Ð½ÑĭÐ¼
ĠÐ½ÐµÐ¿ÑĢÐ°Ð²Ð´ Ð¾Ñİ
ÐĳÐ¾Ð³Ð°ÑĤÑĭ ÑĢÑı
ĠÑĤÐ¾Ð»ÑģÑĤÐ¾Ð¿ÑĥÐ· Ð¾Ð¼Ñĥ
! !
) âĢ¦
. Â»
s ie
u s
Ġ "
Ġ N
Ġ f
Ġ v
Ġ be
Ð¾ Ð¸ÑĤ
Ð¾ ÐµÐ²
Ð¾ Ð¸Ð¼
Ð¾ ÑĥÐ±
Ð¾ ÑĨÐµÐ½
Ð¾ ÑıÐ·Ð½
Ðµ ÑıÑĤ
Ðµ ÑİÑĤÑģÑı
Ðµ Ð¸ÑĩÑĥ
Ð° ÑģÑı
Ð° ÐµÐ²
Ð° ÐµÐº
Ð° ÑĥÑĤÐºÐ¸
ÑĤ Ð°Ð¼
ÑĤ Ð¸Ð½
ÑĤ ÑıÑĤ
ÑĤ Ð¸Ñħ
ÑĤ Ð²Ð¾ÑĢ
ÑĤ ÑıÑħ
Ð¸ Ð½ÑĭÐ¼
Ð¸ ÐºÐ°Ñħ
Ð¸ Ð½Ð¸Ð²
Ñģ Ð¾Ð½
Ñģ Ð²ÐµÑĤ
Ñģ Ð¾Ð»Ð½ÑĨÐµ
Ñģ Ð¼ÐµÑĢÑĤ
ÑĢ Ð¸ÑĤ
ÑĢ ÑĭÐ¹
ÑĢ Ð½ÑĭÑħ
ÑĢ Ð°Ð¿
ÑĢ ÐµÑĪÑĮ
ÑĢ Ð°Ð»ÑģÑı
ÑĢ ÑĳÑĤ
ÑĢ Ð¾Ñī
ÑĢ ÑĭÐ»Ð°
ÑĢ Ð°Ð»Ð°ÑģÑĮ
ÑĢ Ð°Ð·Ð´
ÑĢ ÑĭÑĤÑĮ
ÑĢ ÐµÐ»Ð¸ÑģÑĮ
Ð½ Ð¾Ð»
Ð½ ÐµÐ»
Ð½ ÐµÑģÑĮ
Ð½ ÐµÑĤÑĮ
Ð½ Ð°Ð¹ÑĤÐµ
Ð½ Ð°ÑĤÑĭÐ¹
Ð» Ð°Ð»
Ð» ÐµÐ·
Ð» Ð¸Ð½Ñĥ
Ð» ÐµÐ½Ð¸
Ð» ÑĥÐ½
Ð» Ð°Ð¶ÐµÐ½
Ð» ÑİÑĤÑģÑı
Ð» ÐµÐ»Ðµ
Ð» Ð¾Ð¶Ð¸ÑĤÑĮ
Ð» ÐµÐ½Ð¸Ð¸
Ñĥ ÑĤÐ¾
Ñĥ Ð»Ð¸Ð²
Ñĥ Ð»Ð¸ÑģÑĮ
Ñĥ ÐµÐ¼ÑģÑı
Ñĭ ÐºÐ°Ñı
Ñĭ ÑĩÐµÑİ
Ñı Ð½Ð°
Ñı Ð½Ðµ
Ñı Ð½ÑĥÐ»ÑģÑı
Ñı Ð½ÑĥÐ»Ð¸ÑģÑĮ
Ñı Ð½ÑĥÐ»Ð¾
ĠÑģ ÐºÐ¸
ĠÑģ Ð¾Ð»ÑĮ
ĠÑģ Ð¾ÑĪ
ĠÑģ Ð½Ð¸Ð¼
ĠÑģ ÐµÑĢÐ¶
ĠÑģ Ð¾ÑģÐº
ĠÑģ ÐµÐµÑĤ
ĠÑģ Ð½Ð¾Ñģ
ĠÑģ Ð½ÑıÐ»
ĠÑģ ÐµÑĩÐµ
ĠÑģ Ð¾Ð¹Ð´Ñı
ĠÑģ Ð´Ð°ÑĳÑĤÑģÑı
ĠÑģ Ð¾Ð»ÑĮÑİ
ĠÑģ Ð½ÑıÐ»Ð¸
ĠÐ¿ ÐµÐ´
ĠÐ¿ Ð°Ð·
ĠÐ¿ ÐµÐ³
ĠÐ¿ Ð°Ð¿
ĠÐ¿ Ð¸Ñĩ
ĠÐ¿ ÐµÐ½Ð¸
ĠÐ¿ ÑĥÐ»
ĠÐ¿ Ð°Ð²Ð°
ĠÐ¿ ÑĮÑİÑĤ
ĠÐ¿ Ð¾Ð¹Ð´ÐµÑĪÑĮ
Ðº Ð¸Ð½Ñĥ
Ðº Ð½ÐµÑĤ
ĠÐ² Ð²
ĠÐ² Ð¸ÑĪÑĮ
ĠÐ² Ð´Ñĥ
ĠÐ² ÑıÐ»
ĠÐ² Ð²Ð¾Ð»
ĠÐ² ÐµÐµÑĤ
ĠÐ² Ð¾Ð½Ð°
ĠÐ² Ð½ÑıÐ²
ĠÐ² ÐµÑģÑĤÑĮÑİ
ĠÐ² ÑĨÐµÐ¿
ĠÐ² Ð²ÐµÐ»Ð°
ĠÐ² ÐµÐ»ÑĮÐ¼Ð¾Ð¶
ĠÐ² Ð³Ð»ÑĥÐ±
Ð² Ð°Ð½Ð°
Ð² ÑĥÑĪÐºÐ°
Ð² ÑĪÐ¸ÑģÑĮ
Ð² ÐµÐ·Ð´
Ð² ÐµÐºÐ°
Ð² ÐµÑģÐµÐ»Ð¾
Ð² Ð°Ð´ÑĢÐ°ÑĤ
Ð´ ÐºÑĥ
Ð´ ÐµÑĢÐ¶
ĠÐ½ ÑĭÑĢ
ĠÐ½ ÐµÑĢÐ²
ĠÐ½ ÐµÑĢÐµÐ´ÐºÐ¾
Ñĩ Ð°ÑĢ
Ñĩ Ð°Ð´
Ñĩ Ð½ÑĭÐ¹
Ñĩ ÐµÐ²
Ñĩ Ð°ÑĤÑĮ
Ñĩ Ð¸Ñħ
Ñĩ Ð°Ð»Ð¸
Ñĩ ÐµÐ»Ð¾Ð²ÐµÐº
Ð¼ Ñı
Ð¼ Ð¾Ð¹
Ð¼ Ð¾ÑĢ
Ð¼ ÐµÑĩ
Ð¼ ÐµÑī
Ð¼ ÐµÐ½Ð½Ð¾Ð¹
Ð¼ Ð°ÑĤÑĭÐ¹
Ð¼ Ð¾ÑĢÐµ
Ñħ Ð¾Ð·
Ñħ Ð¾Ð¶Ñĥ
ÑģÑĤ ÐµÐ¹
ÑĪ Ð¸ÑĤÑģÑı
ÑĪ Ð½ÐµÐ³Ð¾
ÐµÐ½ Ð³
ÐµÐ½ Ð½Ð°
ÐµÐ½ ÐºÐµ
ÐµÐ½ Ð½Ð¾Ð¼Ñĥ
ÐµÐ½ ÑĤÑĭ
ĠÑĤ Ð°Ð»
ĠÑĤ Ð°ÐµÑĤ
ĠÑĤ Ð²ÐµÑĢ
ĠÑĤ Ð¸Ð³
ĠÑĤ ÑĥÑģÐº
ĠÑĤ Ð¾ÑĩÐºÐ¸
ĠÑĤ Ð¾ÑĩÐºÐ°
ĠÑĤ ÑĥÐ¶Ð¸
ĠÑĤ Ð°ÑģÐº
ĠÑĤ ÑıÐ½ÐµÑĤ
ĠÐ¾ Ð¹
ĠÐ¾ ÑģÑı
ĠÐ¾ Ð½ÑĭÐ¹
ĠÐ¾ ÐºÐ¾
ĠÐ¾ ÑĢÐ°ÑĤ
ĠÐ¾ ÐºÐ¾Ð¼
ĠÐ¾ ÐºÐ°ÑıÐ½
ĠÐ¾ ÑģÐ¿Ð¾ÑĢ
ÐµÑĤ Ð¸
Ð°Ð» Ð°Ð½Ð³
Ð¾Ð» ÑĤ
Ð¾Ð» Ð¸Ð»
Ð¾Ð» Ð°Ð¹
Ð¾Ð» ÐºÐ¾Ð²
Ð¾Ð» ÑİÐ´
Ð¾Ð» Ð½Ð¸Ð²
Ð¾Ð» Ð¾ÑģÐ°
Ð¾Ð» Ð²Ð¸Ð¸
ĠÐ´ ÑĥÐ¿
ĠÐ´ Ð½Ñİ
ĠÐ´ Ð°Ð½Ð¸
ĠÐ´ Ð¾ÑĩÐºÐ¸
ĠÐ´ Ð¸ÑģÐº
ĠÐ´ Ð°Ð´ÑĥÑĤ
ĠÐ´ Ð°ÑĪÑĮ
ĠÐ¸ Ñİ
ĠÐ¸ Ð½ÑĭÐµ
ĠÐ¸ Ð½Ð¾Ð¼Ñĥ
ĠÐ¸ Ð´ÐµÐ¼
Ð¾Ð² Ð½Ð°
Ð¾Ð² Ð¾Ðµ
Ð¾Ð² ÑĨÑĭ
Ð¾Ð² ÑģÐºÐ¸Ð¹
Ð¾Ð² Ð°Ð»Ð¸ÑģÑĮ
Ð¾Ð² ÐµÑĢÑĪ
Ð¾Ð² Ð°Ð½ÑĮÐµÐ¼
Ð¾Ð² Ð¸ÑĨÑĭ
Ð¾Ð² Ð¸ÑīÐ°
ĠÐ± Ð°Ðº
ĠÐ± ÐµÑģÑĤ
ĠÐ± Ð°Ñħ
ĠÐ± Ð°Ð»Ð°
ĠÐ± Ð¸Ð»ÑģÑı
ĠÐ± ÐµÐ»Ð¾Ð²
ĠÐ± Ð¾ÑĢÐ¾Ð½
ĠÐ± Ð°Ð½Ð¸
ĠÐ¼ Ð°Ð¼
ĠÐ¼ Ð¾Ñĩ
ĠÐ¼ ÐµÑĢÐº
ĠÐ¼ Ð¸Ð½Ð¾Ð²
ĠÐ¼ Ð¾Ð´Ðµ
ĠÐ¼ Ð°ÐºÐ¾Ð²
ĠÐ¼ ÑĢÑĥÑĤ
ĠÐ¼ Ð°ÑģÐº
ĠÐ¼ ÑĥÐºÐ°Ñħ
ÐµÑĢ ÑĳÐ¼
ÐµÑĢ ÐµÑĩÐ½ÑĭÐ¹
ĠÐº Ð¾ÑĪ
ĠÐº Ð¾Ðµ
ĠÐº Ð»ÐµÑĤ
ĠÐº Ð¸Ð½ÑĥÐ²
ĠÐº Ð¾ÑĤÐ¾Ð¼
ĠÐº Ð°ÑİÑģÑĮ
ĠÐº Ð°Ð²Ð°Ð»
ĠÐº Ð½Ð¸Ð·Ñĥ
ĠÐº Ð°ÑıÑĤÑĮÑģÑı
ĠÐº Ð½ÑıÐ³Ð¸Ð½Ðµ
ĠÐº Ð°Ð¶ÑĥÑĤÑģÑı
ĠÐº ÐµÐ»ÑĮÐ¸
Ð¹ ÑĤÐµ
Ð¹ ÑĤÐµÑģÑĮ
Ð¾ÑĢ Ð½ÑĭÑħ
Ð¾ÑĢ Ð¾ÑĪ
ÐµÐ» Ð¸Ð»
ÐµÐ» ÐºÐ¸
ÐµÐ» ÐµÐ²
ÐµÐ» Ð°Ñı
ÐµÐ» ÑĭÐ¼
Ð¸ÑĤ Ð°Ð»
Ð¸ÑĤ Ð¾Ð¼
Ð¸ÑĤ ÑĭÐ¼
Ð¸ÑĤ ÐµÐ»ÐµÐ½
Ð¾Ð´ Ð½Ð¸
Ð¾Ð´ Ð¸Ð¼
Ð¾Ð´ ÑĮÐµ
Ð¾Ð´ ÐµÑİ
Ð¾Ð¼ Ð¾Ð½
Ð¾Ð¼ ÐµÑĨ
Ð¸Ð» Ð¾Ð¹
Ð¸Ð» Ð¾Ñģ
Ð¸Ð» ÐµÐ½Ð½ÑĭÐ¹
ÐĿ ÐµÐ»
ÐĿ ÐµÐ·Ð´
ÐĿ ÐµÐ³Ð¾Ð´
ÐĿ Ð°Ð»Ð¸Ð²
ÐĿ Ð¾Ð³Ð¸
ĠÐ· ÐµÐ½Ð¸ÑĤ
ĠÐ· ÑĢÐµÐ½Ð¸Ðµ
Ðĺ Ð½Ð¾Ðµ
Ðĺ ÐºÐ¾Ð½
Ðĺ ÑīÑĥ
ÐµÐ¼ ÑĭÑħ
ÐµÐ¼ ÐµÐ½Ð¸
ĠÑĢ ÐµÐ¶
ĠÑĢ Ð°Ð½Ð°
ĠÑĢ Ð°Ð½ÑĮ
ĠÑĢ Ð²Ñĭ
ĠÑĢ ÑĤÑĥ
ĠÑĢ Ð°ÑĤÐ¸
ĠÑĢ Ð¸ÑģÐº
ĠÑĢ ÑĳÐ²
ĠÐ³ Ð¸
ĠÐ³ Ñĥ
ĠÐ³ Ð°ÑĢ
ĠÐ³ Ð¾ÑģÐ¿
ĠÐ³ Ð¾Ð½ÐµÑĨ
ĠÐ³ Ð½Ð°Ð»
ĠÐ³ ÐµÐ½ÐµÑĢ
ĠÐ³ ÑĥÐ»ÑĮ
ĠÐ³ ÑĥÐ´ÐµÑĤ
Ð°ÑĤ Ð¾
Ð°ÑĤ Ð¸Ð»
Ð°ÑĤ Ð¾Ðº
Ð°ÑĤ Ð½ÑĭÐµ
Ð°ÑĤ ÐµÐ»Ñİ
ĠÐ¿ÑĢ Ð¾Ð»ÑĮÑİ
ÐŁ Ð°
ÐŁ Ð¸Ð»
ÐŁ Ð°Ð½
ÐŁ ÐµÑģÑĤ
ÐŁ ÑĥÑĪ
ÐŁ Ð¾Ñİ
ÐŁ Ð¸Ñģ
ÐŁ Ð»ÐµÑĤ
ÐŁ Ð¾Ð²Ð°ÑĢ
ÐŁ Ð°ÑĢÐ¾Ð¼
ÐŁ Ð»Ð¾Ñħ
ÐŁ Ð¸ÑĪÑĥ
ÐĴ Ð°ÑĢ
ÐĴ Ð¸Ð½
ÐĴ ÑĭÐ»
ÐĴ ÑĢÐ°Ð¶
ÐĴ Ð¾ÑģÑģ
ÐĴ Ð°ÑĪÐµ
ÐĴ ÐµÑīÐ°Ñı
ÐĴ Ð²ÐµÑĢÑħÑĥ
ÐĴ ÐµÐ½ÐµÑĨ
Ð°Ðº Ð°Ð»Ð¸
Ð°Ðº ÑĤÐ¸ÑĢ
Ð¾Ð³ Ð¾Ð½
Ð¾Ð³ Ð»Ð°Ð²
Ð½Ð¾ ÑĩÐ¸
Ð¡ Ð¸Ð»
Ð¡ Ð°Ð¶
Ð¡ Ð»Ð¸Ð²
Ð¡ Ð¸Ð¶Ñĥ
Ð¡ Ð¾Ð·Ð²
Ð¡ ÑĪÐ¸Ð±
Ð¡ Ð¾ÑĢÐ²
Ð¡ Ð´Ð°ÑĳÑĤÑģÑı
Ð¡ Ð¾ÑħÑĢÐ°Ð½
Ð± Ð¸ÑĤ
Ð± Ð¾Ð³
Ð± Ð¾Ñİ
Ð± ÑĢÐ¾Ð´
Ð± ÑĢÐµÐ¶
ÑģÑı Ð´ÐºÑĥ
Ð¿ ÑĤ
Ð¿ Ñĭ
Ð¿ Ð¾Ðº
Ð¿ Ð¾ÑĪÐµÐ»
ÑĨ Ð¸Ñİ
ÑĨ Ð¸Ð¾Ð½
Ð¾ÑĤ Ð¸ÑĤ
Ð¾ÑĤ Ð¸Ð»
Ð¾ÑĤ Ð¾Ðº
Ð¾ÑĤ Ð°ÑĤÑĮ
Ð°Ð¼ Ð°Ð½
Ð°Ð¼ ÑıÑĤ
Ð°Ð¼ Ð¼Ð¾Ð½
Ð³ Ð°Ð½
Ð³ Ð°Ð¿
Ð³ Ð¾ÑģÐ¿Ð¾Ð´
ĠÐ» ÐµÑĩ
ĠÐ» ÑĥÐ¶
ĠÐ» Ð¸Ð»Ð¸ÑģÑĮ
ĠÐ» ÑĥÐº
ĠÐ» ÐµÑģÑĤÐ¸
ĠÐ» Ð¾ÑģÐº
ĠÐ» ÐµÐ²Ð¾Ð¹
ĠÐ» ÐµÑģÑĤÑĮÑİ
ĠÐ» Ð°ÐºÐ¾Ð¼
ÐµÐ´ ÑĮÑİ
ÐµÐ´ ÐµÑĢÐ¶
ÐµÐ´ Ð»ÐµÐ½Ð½Ð¾
Ð°Ð² ÐµÑģ
Ð°Ð½ ÑĦ
Ð°Ð½ Ð½Ð¾Ð¼
Ð°Ð½ Ð¸Ð¸
Ð¾Ñģ Ð½
Ð¾Ñģ Ð»Ð°
Ð¾Ñģ ÑħÐ¾Ð´
Ð°Ñģ ÑĭÑĤ
Ð°ÑĢ Ð´
Ð°ÑĢ ÐµÐ¼
Ð°ÑĢ ÐºÐ¸
Ð°ÑĢ Ð¸Ñģ
Ð°ÑĢ ÑģÐºÐ¸Ð¹
ÐµÐ¹ Ð½ÑĭÐµ
ÐµÐ¹ ÑģÐºÐ¸Ñħ
ÐµÐ¹ ÑĪÐµÐ¹
ÐµÐ¹ ÑĪÐµÐ³Ð¾
ĠÐ½Ðµ ÑĥÑĢ
ĠÐ½Ðµ ÑıÑģ
ĠÐ½Ðµ ÑĥÐ¶ÑĤÐ¾
Ñī Ð¸Ð½Ñĭ
Ñī Ð°Ð´Ð½Ð¾
Ð½Ð¸ ÑĪ
Ð½Ð¸ ÑıÐ¼Ð¸
ĠÑĩ Ð¾Ðº
ĠÑĩ ÑĥÑİ
ĠÑĩ Ð°Ñİ
ĠÑĩ ÑĥÑı
ĠÑĩ Ð°ÑĪÑĥ
ĠÑĩ Ð¼Ð¾Ðº
Ð°Ð´ Ð¸ÑĤ
Ð°Ð´ ÐºÐ°
Ð°Ð´ Ð½ÑĭÐµ
Ð°Ð´ ÐºÐ¾Ñİ
Ð°Ð´ Ð¸ÑģÑĤÑĭÐ¹
ÐµÑģ Ñĩ
ÐµÑģ Ð½Ð¸Ðº
Ðŀ ÐºÐ°Ð¼
Ðŀ ÐºÐ¾Ð²Ñĭ
Ðŀ ÑĪÐµÐ»Ð¾Ð¼
Ð¸Ð½ Ð½ÑĭÐµ
Ð¸Ð½ ÐºÑĥ
Ð¸Ð½ Ð³Ð°Ð»
Ð¾Ð½ Ð¸ÑĤ
Ð¾Ð½ Ð¾Ð³
Ð¾Ð½ Ð½Ð¾
Ð¾Ð½ ÐºÐ°
Ð¾Ð½ Ð½ÑĭÑħ
Ðļ ÑĥÑĩ
Ðļ ÑĥÑģÑĤ
Ðļ Ð»Ð°Ð´
Ðļ Ð¾Ð½Ð¸
Ðļ Ð¾ÑĩÑĥÐ±
Ðļ Ð¾Ð¼Ð°Ð½
Ðļ Ð½ÑıÐ³Ð¸Ð½Ðµ
Ðļ Ð²Ð°Ð´ÑĢÐ°ÑĤ
ĠÑģÑĤ ÐµÐ±
ĠÑģÑĤ ÐµÐ¶
ĠÑģÑĤ Ð¸Ñģ
ĠÑģÑĤ ÐµÐ½Ð°
ĠÑģÑĤ ÑĭÑĩ
ĠÑģÑĤ ÑĥÐ¶Ð¸
ĠÑģÑĤ Ð°Ð»ÑĮÐ½ÑĭÐµ
ĠÑģÑĤ Ð°Ð¸
ĠÑģÑĤ Ð°ÐºÐ°Ð½Ð°
ĠÐ½Ð° ÐµÐ´Ð¸Ð½Ðµ
ĠÐ½Ð° ÑĥÐ³Ð°Ð´
Ð¾Ð± Ð·
Ð¾Ð± ÑıÐ·
Ð¾Ð± Ð¾ÑıÐ·Ð½
Ð¢ Ñī
Ð¢ ÐµÑĩ
Ð¢ ÑĥÑĢ
Ð¢ ÐµÐ½Ð¸
Ð¢ ÑĮÐ¼
Ð¢ ÑĥÑĩÐ°
Ð¢ Ð¾ÑĪÐµÐ½
ÑĥÐ´ ÑĥÑĤ
ÑĥÐ´ Ð°Ð»Ð°
ÑĥÐ´ ÐµÑĤÑģÑı
ÑĥÐ´ ÑĢÐ¸
ÑĥÐ´ ÑĢÐµÐ½
Ð¾Ðº Ð¾Ð½
Ð¾Ðº ÑĢÑĥÑĪ
Ð¾Ðº ÑĢÑĭÐ»
Ð¸Ð² Ð¾Ð¼Ñĥ
Ð¸Ð² Ð¸Ð»ÑģÑı
Ð¸Ð² ÑĪÐµÐ¹
Ð¸Ð² Ð°ÐµÐ¼
Ð¸Ð² ÑĪÐ¸Ðµ
Ð¸Ð² ÑĪÐµÐ³Ð¾
Ð¸Ð² Ð°Ð»Ð°ÑģÑı
ĠÐ¶ ÐµÐ³
ĠÐ¶ ÐµÑĢÐ´
ĠÐ¶ ÑĳÐ½
ĠÐ¶ ÐµÐ»Ð°
ĠÐ¶ Ð°Ð½Ð´
ĠÐ¶ ÑĥÑĤÐºÐ¾
Ð½Ð° ÑĪÐµÐ¼Ñĥ
ÑĥÑĤ Ð°
ÑĥÑĤ Ñĭ
ÑĥÑĤ Ð¾Ð¼
ÑĥÑĤ ÑģÑĤÐ²Ð¾Ð²Ð°Ð»
ÑĥÑĤ ÑģÑĤÐ²ÑĥÐµÑĤ
ÐµÐ² ÐµÐ»
ÐµÐ² ÑĭÐ¼
ÐµÐ² ÑĪÐ¸
ÐµÐ² ÑĪÐµÐ³Ð¾
ÐµÐ² Ð¾Ð´Ð½Ð¸
Ð¾Ð· Ð°ÑĢ
Ñĳ ÐºÐ¸
Ñĳ Ð½ÑĭÐ¹
Ñĳ Ð½Ð°
Ñĳ Ð½ÑĭÑħ
Ð¸Ð¼ Ðµ
Ð¸Ð¼ Ð°ÐµÑĤ
Ð¸Ð¼ Ð»ÑıÐ½
ÐµÑģÑĤ Ð¸Ð»
ÐµÑģÑĤ Ð¸Ð¼
ÐµÑģÑĤ Ð¸ÑģÑĮ
ĠÐµ Ð»ÑĮ
ÐĶ ÐµÑģ
ÐĶ Ð°Ð»Ð°
ÐĶ Ð²ÐµÑĢ
ÐĶ ÑĢÐ¾Ð³
ÐĶ ÐµÑĢÐ·
ÐĶ Ð¾Ð½Ð¾Ñģ
ÐĶ ÐµÑıÐ½
Ð»Ð¸ Ð½Ñĭ
Ð»Ð¸ Ð¹
Ð»Ð¸ ÑĩÐµÑĤ
Ð»Ð¸ ÑģÑĤÐ°Ð»
Ð»Ð¸ ÐºÐ°ÐµÑĤÑģÑı
ĠÑĥ Ð»Ñİ
ĠÑĥ ÑģÑĤÑĢÐ¾
ĠÑĥ Ð½Ð¾ÑģÐ¸ÑĤ
Ð¾Ð¶ Ð°
Ð¾Ð¶ ÐµÐ¹
Ð¾Ð¶ Ð¸Ð²
ÐµÐ· Ð³
ÐµÐ· Ð½ÑĭÐ¹
ÐµÐ· Ð¶Ð°Ð»
Ð¶ Ð°Ð²
Ð¶ ÑĥÑģÑĮ
Ð¶ Ð¸Ð·Ð½
Ð¾ÑģÑĤ ÐµÐ¹
Ð¾ÑģÑĤ Ð¾ÑĢÐ¾Ð¶
Ð¾ÑģÑĤ Ð¾ÑıÐ½
ÑıÑĤ ÑĭÐ¹
Ð¾Ñĩ Ð¸ÑĤÑĮ
ÐµÐ³ Ð°Ð»Ð¸
ÐµÐ³ ÑĥÐ±
ĠÑı ÑĪ
ĠÑı ÑģÑĤÐ²
ĠÑı Ð³Ð¾Ð´
ÐµÑĩ ÐµÐ½
ÐµÑĩ Ð½Ð¾ÑģÑĤÐ¸
ÐµÑĩ Ð°Ð»Ð¸Ð»ÑģÑı
ÑĥÐ¶ ÐµÐ»Ð¸
ÑĥÐ³ Ðµ
ÑĥÐ³ Ð°Ð½Ð°
ÑĥÐ³ Ð¾ÑĤÐ¾Ð²
ĠÑģÐ² Ð¸ÑĤÐ¾Ð¹
ĠÑģÐ² ÐµÑĢÑħÑĥ
ĠÐ¾ÑĤ ÑĩÐµÑĤ
ĠÐ¾ÑĤ ÑĢÑıÑħ
ĠÐ¾ÑĤ Ð²ÑĭÐº
ĠÐ¾ÑĤ ÑĥÐ¼Ð°Ð½
ĠÐ¾ÑĤ ÑĤÐ¾ÑĢÐ³
ÐŁÑĢ ÐµÐ±
ÐŁÑĢ ÐµÐ¶
ÐŁÑĢ Ð¸Ð¼Ð¸
ÐŁÑĢ Ð¸ÐºÐ¾Ð²
ÐŁÑĢ Ð°Ð²Ð°
ÐŁÑĢ ÐµÑģÐ»Ð°Ð²
ÐŁÑĢ ÐµÐ¶Ð´Ðµ
ÐŁÑĢ ÐµÐ³ÑĢÐ°Ð´
Ð»Ð° Ñī
Ð»Ð° ÑĪÐ°Ñı
ĠÐºÑĢ Ð°Ð´
ĠÐºÑĢ Ð¸Ð²
ĠÐºÑĢ Ð¸ÑģÑĤ
ĠÐºÑĢ ÑĥÑĤÐ¾
Ð§ ÑĥÑĢ
Ð§ ÐµÐ¼Ñĥ
Ð§ ÐµÑĢÐ²
Ð§ ÑĮÐ¸
ÑĥÑĪ Ð°
ÑĥÑĪ Ð°Ð¹ÑĤÐµ
ĠÑģÐ» ÐµÐ²Ð°
ĠÑģÐ» ÑĳÐ·
ÐµÐº Ð°Ð½
ÐµÐº Ð»Ð¾
ÐµÐº Ð½ÑĥÐ»
Ð°Ñı Ð½Ð°
Ð°Ñı Ð»ÑģÑı
Ð°Ñı Ð½Ð¸ÐµÐ¼
ĠÑħ Ð¸Ð»
ĠÑħ Ð°ÑĤÑĭ
ĠÑħ Ð°ÑĤÑĥ
Ð»Ñı Ð¹
Ð»Ñı Ð½ÑĥÑĤÑĮ
Ð»Ñı Ð»Ð¸ÑģÑĮ
Ðľ ÐµÑģÑĤ
Ðľ Ð°Ð»ÑĮ
Ðľ Ð¸Ð½Ñĥ
Ðľ Ð¸Ð½ÑĥÐ²
Ðľ ÐµÑĢÐ·
Ðľ Ð¾ÑĢÐµ
Ðľ ÐµÑĤÐµÐ»ÑĮ
Ðľ Ð°Ð¼Ð°
Ðľ Ð¾Ð¶Ð½Ð¾
Ð¾Ð»ÑĮ Ð½ÑĭÐ¼
Ð¾Ð»ÑĮ ÑĪÐµ
Ð½Ðµ Ñı
Ðĳ ÐµÐ¹
Ðĳ Ð¾Ð»Ð¾ÑĤ
Ðĳ ÐµÐ»ÑĭÐ¹
Ðĳ ÐµÑĢÐ¸
Ðĳ ÑĮÑİÑĤ
Ðĳ ÑĭÑģÑĤÑĢ
Ðĳ Ð»Ð¸ÑģÑĤÐ°Ð»
Ð¸ÑĢ ÐµÐ²
Ð¸ÑĢ Ð°ÑİÑĤÑģÑı
Ð¸ÑĢ Ð°ÑİÑīÐ¸Ð¹
ÐĹ Ð¼
ÐĹ Ð¾Ð»
ÐĹ Ð°Ð½
ÐĹ Ð²Ð°Ð»
ÐĹ Ð½Ð°Ñĩ
ÐĿÐµ ÑĥÐ·
ÐĿÐµ ÑĥÐ¶ÑĤÐ¾
ÐĿÐµ Ð¾Ð´Ð¾Ð»
ÐĿÐµ ÑĥÐ¼Ð¾Ð»
Ð£ ÑĩÐ°ÑģÑĤ
Ð£ ÑģÑĤÐ°Ð²
Ð£ Ð½Ð¸Ð·
Ð£ ÑĢÐ¾Ð´
ĠÐ²Ñģ ÐµÐ½
ĠÐ²Ñģ ÐµÐ»
ĠÐ²Ñģ ÐµÐ²
ĠÐ²Ñģ ÑħÐ¾Ð´Ð¸ÑĤ
ĠÐ²Ñģ Ð»ÑĥÑĪ
ĠÐ²Ñģ ÐºÐ°Ñĩ
ĠÐ²Ñģ ÐµÐ»ÐµÐ½Ð½Ð¾Ð¹
ÐĲ Ð³Ð°Ð¿
ĠÐ¾Ð± ÑĪ
ĠÐ¾Ð± Ð¾Ð»
ĠÐ¾Ð± Ð¾ÑĢ
ĠÐ¾Ð± Ð¾Ð³
ĠÐ¾Ð± Ð»Ð¸Ð²
ĠÐ¾Ð± ÐµÐ´Ð¾Ð¼
ĠÐ¾Ð± Ð²Ð¸Ð½
ĠÐ¾Ð± Ð»ÑĳÐº
ĠÐ¾Ð± ÐµÑģÐ¿
ĠÐ¾Ð± ÑĥÑıÐ½
Ð°Ð¹ Ð½Ñĥ
Ð¾Ð¿ Ð°Ð¼Ð¸
Ð¾Ð¿ ÑĭÐ²Ð°Ð»
Ð¾Ð¿ ÑıÑħ
Ð¾Ð¿ Ð¾ÑĢÐ¾Ð¶Ð½ÐµÐ¹
ÑģÑĤÐ² Ð°Ð¼Ð¸
Ðĵ Ð°Ð´
Ðĵ ÑĥÐ´
Ðĵ Ð»Ð°Ð´
Ðĵ Ð¸Ð±
Ðĵ ÑĥÑģ
Ðĵ Ð¾Ð´Ñĭ
Ðĵ Ð»Ð°Ñģ
Ðĵ Ð¾ÑģÑĥÐ´
Ðĵ Ð°ÑĢÐ¼
Ð°Ð»Ð¸ Ð½Ñĭ
Ð°Ð³ Ð°
Ð°Ð³ Ð°Ð»
ÐµÐ»ÑĮ Ð¼
ÐµÐ»ÑĮ Ñİ
ÑĢÐ° Ð¸Ð»ÑĮ
ÐµÑĪ Ð¸
ÐµÑĪ Ñĥ
ÐµÑĪ ÐµÐ½Ð¾
ĠÐ³ÑĢ Ð¸Ð´
ĠÐ³ÑĢ ÐµÐµÑĤ
ĠÐ³ÑĢ ÐµÐ¼Ñı
ÑĥÐ¼ Ð±
ÑĥÐ¼ ÐµÐ»Ð¸
ĠÐ¿Ð¾Ð´ Ð·
ĠÐ¿Ð¾Ð´ ÑħÐ¾Ð´
ĠÐ¿Ð¾Ð´ Ð½ÐµÐ²
ĠÐ¿Ð¾Ð´ Ð½Ð¾Ñģ
ĠÐ¿Ð¾Ð´ Ð½ÑıÑĤÑĮ
ĠÐ¿Ð¾Ð´ ÐµÐ»Ð°ÐµÑĪÑĮ
ĠÐ¿Ð¾Ð´ Ð³Ð¾Ð½ÑıÐµÑĤ
ÑĥÑĩ ÐµÐµ
ÑĥÑĩ ÐµÑİ
ĠÐ¿Ð¾ Ð¸ÑĤ
ĠÐ¿Ð¾ ÑģÑı
ĠÐ¿Ð¾ ÐµÐ´Ð¸Ð½
ÑģÐº Ð°Ð»
ÑģÐº Ð¾ÑĢÐ±
ĠÐ²Ñĭ Ð³Ð»Ñı
ĠÐ²Ñĭ ÐºÐ¸Ð´
ĠÐ²Ñĭ ÑģÑĤÑĢÐµÐ»
Ð´Ð° ÑİÑīÐ¸Ð¹
ĠÐ¾Ð½ ÐµÐ¼
ĠÑĪ Ð¾Ð¿
ĠÑĪ Ð°Ñħ
ĠÑĪ ÐºÑĥ
ĠÑĪ Ð»ÐµÑĤ
ĠÑĪ ÑĤÐ¾ÑĢ
ĠÑĪ Ð°ÑĢÐ°
ĠÑĪ ÐµÑģÑĤÐ²ÑĥÐµÑĤ
ĠÑĪ ÐµÑĢÑģÑĤ
ĠÐ¡ Ð¾
ĠÐ¡ Ð²
ĠÐ¡ Ð¸ÑĤ
ĠÐ¡ ÑĤÐ¾
ĠÐ¡ Ð°ÑĪ
ĠÐ¡ ÐµÐ±Ðµ
ĠÐ¡ ÑĥÐ»
ĠÐ¡ Ð»ÐµÐ´
ĠÐ¡ ÐµÐ³Ð¾Ð´Ð½Ñı
ĠÐ¡ Ð»ÑĥÑĪ
ĠÐ¡ ÐµÐ¼Ñı
ĠÐ¡ Ð°ÑĪÑĥ
ĠÐ¡ Ð¾Ð±Ð¾Ð¹
ĠÐ¡ Ð¾Ð²ÐµÑĤ
ĠÐ¸Ð· Ð½Ñĭ
ĠÐ¸Ð· ÑıÑī
ĠÐ¸Ð· ÑĢÐ°Ð½
ĠÐ¸Ð· Ð¾Ñī
ĠÐ¸Ð· Ð¼ÐµÑĢ
ĠÐ¸Ð· ÑĢÑıÐ´
ĠÐ¸Ð· Ð»Ð¸ÑĪ
ĠÐ¸Ð· ÑĢÑĭÐ³
ÑĥÐ± Ð»ÐµÐ½Ð½ÑĭÐ¹
Ð°Ñħ Ð¸
Ð°Ñħ Ð°ÑĢ
ĠÐĿ Ð°Ð³
ĠÐĿ Ð°Ñħ
ĠÐĿ Ð¸Ð·
ĠÑģÐº Ð¾Ð±
ĠÑģÐº ÑĢÐ¾
ĠÑģÐº Ð²Ð¾Ð·
ÐĿÐ° Ð¸Ð²
ÐĿÐ° ÑģÑĤÐ°Ð²
ÐĿÐ° ÑĪÐ¸
ÑĥÐ¿ Ðµ
ÑĢÑĥÐ³ Ð¸
ĠÑĢÐ°Ð· Ñĥ
ĠÑĢÐ°Ð· Ð½ÑĭÐ¹
ĠÑĢÐ°Ð· Ð¾Ð¶
ĠÑĢÐ°Ð· ÑĥÐ·
ĠÑĢÐ°Ð· Ð¾Ð±ÑĢ
ĠÑĢÐ°Ð· ÑĢÐ¾Ñģ
ĠÑĢÐ°Ð· Ð¼ÐµÑĢ
ĠÑĢÐ°Ð· ÑĢÐ°Ð·
ĠÑĢÐ°Ð· Ð»ÑİÐ±
ĠÑĢÐ°Ð· Ð¾ÑĪÐ»Ð¸ÑģÑĮ
ĠÐ¿Ð¾Ð» Ð°
ĠÐ¿Ð¾Ð» Ñĭ
ĠÐ¿Ð¾Ð» ÑĥÐ¶
ĠÐ¿Ð¾Ð» ÑĥÐ¿
ĠÐ¿Ð¾Ð» Ð½Ð°Ñı
ĠÐ¿Ð¾Ð» ÑĥÑĢ
ĠÐ¿Ð¾Ð» ÑĩÐ¸
ĠÐ¿Ð¾Ð» ÐµÐ²ÑĭÑħ
ĠÐ¿Ð¾Ð» ÑĩÐ°ÑģÐ°
ĠÐ¿Ð¾Ð» Ð²ÐµÐºÐ°
Ð½Ñı ÐºÐ¸
Ð½Ñı Ð»Ð¸ÑģÑĮ
Ð¯ ÑĢ
Ðł Ð¾Ð²
Ðł ÑĥÐºÐ¸
Ðł ÑĥÐºÑĥ
Ðł Ð¾Ð³Ð´Ð°Ð¹
Ð°ÑģÑĤ ÑģÑı
ĠÑĤÑĢ ÑĥÑī
ĠÑĤÑĢ Ð¾Ð½ÑĮ
ĠÑĤÑĢ ÑĥÑģÑĮ
ĠÑĤÑĢ Ð°Ð¿ÐµÐ·
ĠÑĤÑĢ Ð°ÐºÑĤÐ¸ÑĢ
ĠÐĴ ÑģÑĤ
ĠÐĴ Ð¾Ð¹
ĠÐĴ Ð°Ð¼
ĠÐĴ Ð°ÑģÑĮ
ĠÐĴ ÑĭÑĪ
ĠÐĴ Ð°Ð²Ð¸Ð»Ð¾
Ð°Ð¿ Ð¾Ð²
Ð°Ð¿ ÐºÐ¸
Ð°Ð¿ ÐºÑĥ
Ðķ Ð¢
Ðķ Ðł
Ð¸Ñĩ ÐµÐº
Ð¸Ñĩ Ð°ÑģÑĤ
Ð¸Ñĩ Ð¸Ð½Ñĥ
ĠÐ¢ Ð¾ÑĩÐ½Ð¾
ĠÐ¢ Ð²Ð¾Ñİ
ĠÐ¢ ÐµÑĢÐµÐ½
ĠÐ¢ Ð¾Ð±Ð¾Ñİ
Ð¸Ð· Ñĥ
Ð¸Ð· ÑĢÐ°Ðº
Ð¸Ð· Ð²Ð¾Ð»
ĠÐ·Ð° Ð½Ñĭ
ĠÐ·Ð° Ð¸Ð³
ĠÐ·Ð° ÑĩÐµÑĢÐ¿
ÐĽ Ð¾Ð¼
ÐĽ Ð°Ð½
ÐĽ Ð¸Ñħ
ÐĽ ÑĥÐ³Ð°
ÐĽ Ð°ÐºÐµÐ¹
ÐĽ Ð¾Ð±Ð·
ÐŀÑĤ ÑħÐ¾Ð´Ð¸ÑĤ
ÐŀÑĤ ÑĪÐµÐ»ÑĮ
ÐŀÑĤ Ð²ÐµÑĢÐ·
ĠÐ³Ð¾ÑĢ ÑĪ
ĠÐ³Ð¾ÑĢ Ð´Ðµ
ĠÐ³Ð¾ÑĢ ÑģÑĤÐ¸
ĠÐ³Ð¾ÑĢ ÐµÑģÑĤÑĮ
ĠÐ³Ð¾ÑĢ ÐµÑģÑĤÐ¸
ĠÐ³Ð¾ÑĢ Ð¾Ð´Ñĥ
ĠÐ³Ð¾ÑĢ Ð½ÐµÐ³Ð¾
ĠÐ³Ð¾ÑĢ Ð»Ð°ÑģÑĤ
ĠÑģÐ¼ ÐµÑĤ
ĠÑģÐ¼ ÑĢÐ°Ð´
ĠÑģÐ¼ ÐµÑĪÐ½Ð¾
ĠÑģÐ¿ ÐµÑģ
ĠÑģÐ¿ Ð°Ð»Ð¸
ĠÑģÐ¿ Ð¾Ñİ
ĠÑģÐ¿ Ð¾ÑĤÑĭ
ĠÑģÐ¿ ÑĢÐ¾ÑģÑĤ
ĠÑģÐ¿ ÑĥÑģÐºÐ°ÐµÑĤÑģÑı
ĠÑģÐ¿ Ð¾ÐºÐ¾ÐµÐ½
ĠÑį Ð»ÐµÐ¼
ĠÐŁ Ð¾Ð¹
ĠÐŁ Ð¾Ð½
ĠÐŁ Ð¾Ðº
ĠÐŁ Ð¾Ð·
ĠÐŁ ÑĥÑģÐºÐ°Ð¹
ĠÐŁ Ð¾ÑĢÐ°
ĠÐŁ Ð¾ÑĤÐ¾Ð¼
ÐµÑħ Ð¾Ð²
ÐµÑħ Ð¾Ð½ÐµÐº
ĠÐ»Ð¸ Ð³
ĠÐ»Ð¸ ÐºÐ¸
ĠÐ»Ð¸ ÑģÑĤÑĮ
ĠÐ»Ð¸ ÑģÑĤÐ²Ñĥ
ĠÐ±ÐµÐ· ÑĬ
ĠÐ±ÐµÐ· Ð¶Ð°Ð»
ĠÐ±ÐµÐ· Ð²Ð¸Ð½
ĠÐ±ÐµÐ· Ð±Ð¾Ð¶
ĠÑĨ Ð²ÐµÐ»Ð¸
ĠÑĤÐ°Ðº Ð¸Ð¼Ð¸
ÐµÑĨ Ð¾Ð²
ÐµÑĢÑĤ Ð°Ð»
ĠÐ²Ð· ÑĢ
ĠÐ²Ð· ÑıÐ»Ð°ÑģÑĮ
ĠÐ²Ð· ÑĭÑģÐº
ĠÐ²Ð· Ð¾ÑĪÐ»Ð¸
ÐĴÑģ ÐµÑĩÐ°ÑģÐ½Ð¾
ÑĥÑģÑĤ Ð¸Ð»Ð¸
ĠÐ¿ÐµÑĢ Ðµ
ĠÐ¿ÐµÑĢ Ð¾Ð¼
ĠÐ¿ÐµÑĢ ÐµÐ¶Ð´
ĠÐ¿ÐµÑĢ Ð»Ð¾Ð²
ĠÐ¿ÐµÑĢ Ð²Ð¾Ðµ
ĠÐ¿ÐµÑĢ ÐµÐºÑĢÐµÑģÑĤ
ĠÐ¿Ð» Ð¾Ñģ
ĠÐ¿Ð» Ð¾ÑģÐº
ĠÐ¿Ð» Ð¾Ð´Ñĥ
ĠÐ¿Ð» ÐµÑģÐº
ĠÐ¿Ð» ÐµÐ²Ð°ÑĤÑĮ
ĠÐ¿Ð» ÐµÑīÑĥÑĤ
ĠÐ²Ð¾Ð· ÑĢÐ°Ð·
ĠÐ²Ð¾Ð· ÑĮÐ¼Ð¸
ĠÐ²Ð¾Ð· Ð´Ð°ÑİÑĤ
ÑĥÑĢ Ñĭ
ÑĥÑĢ Ð½Ð¾Ð¹
ÑĥÑĢ Ð¼Ð°Ð½
ĠÐ¼Ð¾Ð» Ñı
ĠÐ¼Ð¾Ð» Ð¸Ð»
ĠÐ¼Ð¾Ð» Ð¸Ð»Ð°ÑģÑı
ĠÐ¼Ð¾Ð» Ð½Ð¸Ð¸
ĠÐ¾Ð´ Ñĭ
ĠÐ¾Ð´ ÐµÐ»
ĠÐ¾Ð´ ÐµÑĢÐ¶
ĠÐ° Ð¹
ĠÐ° Ð´Ð°
ĠÐĳ ÑĢ
ĠÐĳ ÑĥÑĢ
ĠÐĳ Ð»ÐµÐ´
ĠÐĲ ÑĤ
ĠÐĲ Ðº
ĠÐĲ Ð·
ĠÐĲ ÑĦ
ĠÐĲ Ð½Ð´
ĠÐĲ Ð¿Ð¾ÑģÑĤ
ĠÑģÑĤÑĢ Ñı
ĠÑģÑĤÑĢ ÑĥÐ¹
ĠÑģÑĤÑĢ ÑĥÐ½
ÑĭÐ² Ð°ÑıÑģÑĮ
ÐŀÐ½ ÐµÐ³
ĠÐ¿ÑĢÐ¸ ÐµÐ¼
ĠÐ¿ÑĢÐ¸ ÑģÑĤÐ°Ð²
ĠÐ¿ÑĢÐ¸ Ð½Ð¸Ð¼Ð°ÐµÑĤ
ĠÐ¿ÑĢÐ¸ Ð½Ð¾ÑģÑı
ĠÐ±Ð» Ð°Ð¶ÑĮ
Ð°Ð»ÑĮ Ð¾Ð½
Ð°Ð»ÑĮ Ð½Ð¾Ð¼
ĠÐŀ Ð»Ð¸Ð¼
ÐµÐ»Ð¸ Ð¸
Ð¸Ñı Ð¼
Ð¾ÑĪ ÑĮ
ÑĭÑĪ ÐµÐ¹
ÑĭÑĪ ÐºÐ¾Ð¼
ĠÐ±ÑĢ Ñı
ĠÐ±ÑĢ Ñİ
ĠÐ±ÑĢ Ð°Ð»
ĠÐ±ÑĢ Ð°Ð¶
Ð¸ÑģÑĤ Ð¾
ĠÐĶ Ð¾Ð»
ĠÐĶ Ð°Ð¹
ĠÐĶ ÑĭÐ¼
ĠÐĶ Ð¾ÑĩÑĮ
ĠÐĶ Ð°ÑĢÑĮ
ĠÐĶ Ð¾Ð»Ð³Ð¾
ĠÐĶ Ð°Ð²Ð¸Ð´
ĠÐĶ ÐµÑĤÐ¸
ĠÐ»ÑİÐ± ÑĭÑħ
ĠÐ»ÑİÐ± Ð¾Ð²Ð½Ð¾
ĠÐ½Ð°Ð´ ÑĥÐ¼Ð°Ð»Ð¸
ĠÐĵ Ð»ÑĥÑħ
ĠÐĵ ÑĥÐ´Ð°Ð»Ð°
Ð¡ÑĤ ÑĢ
Ð¡ÑĤ Ð°Ð½Ð¾Ð²
Ð¡ÑĤ ÑĢÐ°ÑģÑĤ
Ð¡ÑĤ ÑĢÐ°Ñħ
ĠÐ¿Ð¾Ðº ÑĥÑĢ
ĠÐ¿Ð¾Ðº ÑĢÐ°Ñģ
ĠÐ¿Ð¾Ðº ÑĢÐµÑģÑĤ
ĠÐľ Ð½Ð¾Ñİ
ĠÐľ Ð°ÑĪÐµÐ½ÑĮÐºÐ°
ÑĥÐ· Ð°
ÑĳÐ½ Ð½ÑĭÐ¼Ð¸
ÑģÑĤÑĢ Ð°ÑĤ
ÐŁÐ¾Ð´ ÐºÑĢ
ÐŁÐ¾Ð´ Ð½Ð¸Ð¼
ÐŁÐ¾Ð´ Ð²ÐµÑĢÐ³
ÐŁÐ¾Ð´ Ð½ÑıÐ²
ÐŁÐ¾Ð´ Ð²ÐµÑĢÐ¶
ÐŁÐ¾Ð´ Ð½ÑıÑĤÑĮ
ÐŁÐ¾Ð´ Ð¸Ð²Ð¸Ð»ÑģÑı
ĠÐ´ÑĢ Ð¾ÑĤ
ĠÐļ Ð¾Ð³Ð¾
ĠÐļ ÑĢÐµÑģÑĤ
Ð¾Ð±ÑĢ Ð°Ð²
ÑĢÐ°Ð² Ð¸Ð»
ÑĢÐ°Ð² Ð¸ÑĤÑĮ
ÑĢÐ°Ð² Ð¸Ð»Ð°ÑģÑĮ
ÑĢÐ°Ð² ÑĪÐ¸
ÑĢÐ°Ð² ÐµÐ´Ð»Ð¸Ð²
ĠÑģÑĤÐ°ÑĢ Ð¸Ð½Ðµ
ĠÑģÑĤÐ°ÑĢ Ð¸ÐºÐ¸
ĠÑģÑĤÐ°ÑĢ ÑĭÐ¼Ð¸
ĠÑģÑĤÐ°ÑĢ Ð¸ÐºÐ¾Ð²
ĠÐ¿Ð¾ÑĢ Ð¾Ðº
ĠÐ¿Ð¾ÑĢ ÑĥÑĩÐ¸Ð»
Ð¾Ñħ Ð²Ð°ÑĤ
Ð¾Ñħ Ð¾Ð½ÑĮÐºÐ¾
Ð¾Ñħ Ð¾ÑĩÑĥÑĤ
ĠÐ½Ð°Ñģ ÑĭÑĤ
ĠÐ½Ð°Ñģ ÐµÐ»Ñı
ĠÐ½Ð°Ñģ Ð¼ÐµÑĢÑĤ
ĠÐ²ÑĢ Ð¾Ð´Ðµ
ÑĥÑī ÑĥÑģÑĮ
ĠÑĢÐ°Ñģ ÑĪÐ¸ÑĢ
ĠÑĢÐ°Ñģ ÑģÐ»Ð°Ð±
Ð²ÐµÑĢ ÑģÑĤ
Ð²ÐµÑĢ ÐºÐ°Ð»Ð¸
ÑĭÑĤ Ð¸Ðµ
ÐµÐ½Ñı Ñı
ĠÑĢÑĥ ÐºÐ¾Ð²
ÐºÑĢ Ð¸Ð¿ÐµÐ»Ð°
ÐµÑī Ð¸ÑĤ
ĠÐ´Ð¾Ð» Ð¾Ð¶Ð¸ÑĤÑĮ
ĠÑĥÐ¶ ÐµÐ»ÑĮ
ÑĦ Ñĥ
ÑĦ ÐµÑĤ
ÑĦ Ð¸Ð»Ñı
ĠÐ²Ð¸Ð´ Ð°Ð»Ð°
ĠÐ¿ÑĢÐµÐ´ Ð²
ĠÐ¿ÑĢÐµÐ´ Ð°Ð½Ð½ÑĭÐ¹
ÐĶÐ° ÑİÑĤ
ĠÐ±ÑĭÐ» Ð¾Ð¼
ĠÐ²ÐµÑĢ Ðµ
ĠÐ²ÐµÑĢ Ð½Ð°
ĠÐ²ÐµÑĢ Ð½ÑĭÐµ
ĠÐ²ÐµÑĢ Ð½ÑĥÑģÑĮ
Ð¾Ð²Ð¾ÑĢ Ð¸Ð»
ÑĨÐµ Ñİ
ĠÐĹ Ð°Ð¼
ĠÐĹ Ð°Ð´
ĠÐ²Ð¾Ð» ÐºÐ°
ĠÐ²Ð¾Ð» ÐºÐ¾Ð²
ĠÐ²Ð¾Ð» ÑħÐ²
Ð¸Ð³ Ð°ÐµÑĤ
ÐŁÐ¾ ÐµÐ´Ñĥ
Ð¥ Ð²Ð°Ð»Ð°
Ð¥ Ð²Ð¾ÑģÑĤ
Ð¥ Ð»ÑĭÐ½ÐµÑĤ
ĠÑģÐ°Ð¼ Ð¾
ĠÑģÐ°Ð¼ Ð¾Ð¼Ñĥ
ÐĺÐ· Ð³
ÐĺÐ· ÑĢÑĳÐº
Ð»Ð¸Ð² Ð°Ð»
ÑıÐ´ Ð¸
ĠÐºÐ¾Ð½ ÑĤ
ĠÐºÐ¾Ð½ ÑĨÑĭ
ĠÐºÐ¾Ð½ ÑıÑħ
ĠÐ´ÑĢÑĥÐ³ Ðµ
ĠÐ´ÑĢÑĥÐ³ Ð¸Ð¼Ð¸
ĠÑĢÐ¾Ð´ Ð½Ñı
ĠÑĢÐ¾Ð´ Ð¸Ð½Ñĭ
ĠÑĥÐ¼ ÐµÐ»Ð°
ĠÑĥÐ¼ ÑĭÑģÐ»
ĠÐł Ð°Ð·ÑĥÐ¼
ĠÑģÐ²ÐµÑĤ Ð¸ÑĤÑģÑı
ĠÑģÐ²ÐµÑĤ Ð»Ð¾Ð¹
ĠÐ´ÑĥÑĪ Ð¸ÑģÑĤÑĭÐ¹
ĠÐķ Ðµ
ĠÐķ Ð²Ð¾Ð¹
ĠÐķ Ð³Ð¸Ð¿
Ð»ÑıÐ´ ÑĭÐ²Ð°Ð»
ĠÑģÐµÑĢÐ´ Ñİ
ĠÐ¼Ð¸ÑĢ ÑģÐºÐ¾Ð¹
ĠÐ¼Ð¸ÑĢ Ð¾Ð²Ð¾Ð¹
ĠÐ½ÐµÐ¼ Ð°Ð»
ĠÐ½ÐµÐ¼ Ð¾Ð¼
ĠÐ¿Ð¾Ð¼ Ð¾Ð³Ñĥ
ĠÐ¿Ð¾Ð¼ Ð¾Ð¶ÐµÑĤ
ĠÐ¿Ð¾Ð¼ Ð¾Ð»Ñĩ
ĠÐ¾Ð¿ Ð¾Ð·
ĠÐ¾Ð¿ ÑĢÐ¾Ðº
ĠÐ¾Ð¿ ÑĥÑģÐºÐ°ÐµÑĤÑģÑı
Ð¸Ñģ Ð¸
ĠÐ·Ð² Ð°Ð½Ð¸Ñı
ĠÐ·Ð² ÑĥÑĩÐ¸ÑĤ
ĠÐ²Ð¾ ÐµÑĤ
ĠÐ²Ð¾ ÐµÐ½Ð½ÑĭÐ¹
ĠÐ²Ð¾ Ð¸ÑģÑĤÐ¸Ð½Ñĥ
ÑĪÐµ ÐµÑģÑı
ÑĳÑĤ Ñĥ
ĠÐ¼Ð¾Ð³ ÑĥÑīÐµÑģÑĤÐ²
ĠÐ¼Ð¾Ð³ ÑĥÑĩÐ¸Ñħ
ĠÐ¼Ð¾Ð³ ÑĥÑĩÐ°Ñı
Ð¡Ðº ÑĥÑĩ
Ð¡Ðº Ð¾ÑĢÐ±
ĠÑģÐ¸Ð» ÐµÐ½
ĠÐ·ÐµÐ¼ ÐµÐ»ÑĮ
ĠÐ·ÐµÐ¼ Ð½ÑĭÐ¼
Ð´Ñĥ ÑģÑĮ
ĠÐ¸Ð¼ ÐµÐ»Ð°
ĠÐ¸Ð¼ ÐµÑİ
ĠÐ¸Ð¼ ÐµÐ½ÐµÐ¼
ÑĢÐµÐ´ Ð¸
ÑĩÐ°ÑģÑĤ Ð¸
ÑĩÐ°ÑģÑĤ Ð»Ð¸Ð²
ĠÑģÐ»Ð¾Ð² Ñĥ
ĠÑģÐ»Ð¾Ð² Ð°Ð¼Ð¸
ĠÑģÐ»Ð¾Ð² ÐµÑĩÐºÐ¾
ĠÑĥÑĤ ÑĢÐ°Ð¼
ÐºÐ¾Ð² Ð°
Ð»ÐµÐ½ Ð½Ð°Ñı
Ð»ÐµÐ½ Ð½Ð¾Ñİ
ĠÐ¿Ð¾ÑĤ Ð°
ĠÐ¿Ð¾ÑĤ ÑĢÐ¾Ð³
ĠÐ¿Ð¾ÑĤ ÐµÐ¼Ð½
ĠÐ»ÑİÐ´ ÑģÐºÐ¾Ð¼Ñĥ
ĠÐ´ÐµÑĢ ÐµÑĤ
ĠÐ¿Ð¾Ð² Ð¸Ð½
ĠÐ¿Ð¾Ð² Ð·Ð´
ĠÐ¿Ð¾Ð² ÑĭÐ¶
ĠÐ¿Ð¾Ð² ÐµÑģÐ¸Ð»
ĠÐĺ ÑģÑĤ
ĠÐĺ Ð½Ð´
ĠÐĺ ÐµÑĢÐ°ÑĢÑħ
ĠÐĺ Ð³Ð½Ð°ÑĤ
Ð²Ð¸ ÑīÐ°
ĠÐ¿ÑĢÐ°Ð² ÑĭÐ¼
ĠÐ¿ÑĢÐ°Ð² ÑĥÑİ
ÑıÐ½ Ð°Ð¼
ÑıÐ½ ÐºÐµ
ÑĢÐ°Ð½ Ð½ÑĭÐ¹
ÑĢÐ°Ð½ Ð½ÑĭÐµ
ĠÐ·Ð½ Ð°Ð½ÑĮÐµ
ĠÐ·Ð½ Ð°Ð¹ÑĤÐµ
ĠÐ·Ð½ Ð°Ð²Ð°ÑĤÑĮ
ÐļÑĢ Ð°Ð¹
ÐµÑģÑĤÐ² ÐµÐ½Ð½Ð¾
ÐŀÐ± ÐµÐ´
ÐŀÐ± ÑĢÐ°ÑĤ
ÐŀÐ± ÑĢÑıÐ´
ÐŀÐ± Ð½ÑıÐ²ÑĪÐ¸ÑģÑĮ
ĠÐ»ÐµÑĤ Ð°Ð¼
ĠÐ»ÐµÑĤ Ð°ÐµÑĤ
ĠÐ»ÐµÑĤ Ð½ÐµÐ¹
ĠÐ»ÐµÑĤ ÐµÐ»Ð¸
Ð¡Ð» ÐµÐ´
Ð¡Ð» Ð°Ð²Ð½Ð¾
ÑıÐ· Ð½ÑĮ
ĠÐ±Ð»Ð°Ð³ Ðµ
ĠÐ±Ð»Ð°Ð³ Ð¸Ðµ
ĠÐ±Ð»Ð°Ð³ Ð¾Ð²Ð¾Ð½
ĠÐ±Ð»Ð°Ð³ Ð¾ÑĢÐ°Ð·ÑĥÐ¼
ĠÐ¾Ð³ Ð»Ð°ÑĪ
ĠÐ¾Ð³ Ð»ÑıÐ´ÐµÐ»
ĠÐ¾Ð³ Ð»Ð°ÑĪÐ°Ñı
ĠÑĤÐµÐ¼ Ð½Ñĭ
ĠÑĤÐµÐ¼ Ð½Ð¾Ðµ
ĠÑĤÐµÐ¼ Ð½Ð¾Ð¼
ĠÑĤÐµÐ¼ Ð½ÐµÐµÑĤ
ÑĥÑģ Ð¸ÑĤÐµÐ»ÑĮ
ĠÐ±ÐµÐ´ Ð½ÑĭÐ¼
ĠÐ±ÐµÐ´ Ð½Ð¾Ð¼Ñĥ
ĠÐ±ÐµÐ´ ÑģÑĤÐ²Ð¸Ðµ
ĠÐ½ÐµÐ¹ Ð´Ñĥ
ĠÑĤÐ²Ð¾ ÐµÑİ
ĠÐ¶Ð¸Ð² Ð¸ÑĤ
ĠÐ¶Ð¸Ð² Ð¾Ðµ
ĠÐ¶Ð¸Ð² ÑĳÑĤ
ĠÐ±ÐµÑģ ÐºÐ¾ÑĢ
ĠÐ¾Ñģ Ð¸
ĠÐ¾Ñģ Ð¸Ð»
ĠÐ¾Ñģ ÐµÐ´
ĠÐ¾Ñģ Ð¸Ð½
ĠÐ¾Ñģ Ð²ÐµÑĤ
ĠÐ¿Ð¾ÑģÐ» Ð°Ð»Ð°
ĠÐ¿Ð¾ÑģÐ» Ð°Ð½ÑĮÐµ
ĠÐ¿Ð¾ÑģÐ» Ð¾Ð²Ð¸ÑĨÐ°
ĠÐ¼Ð¾ÑĢ ÑģÐºÐ¸Ðµ
ÑĢÐ¸ ÑĨ
ÑĢÐ¸ Ð¸Ð»Ð°
ÑĢÐ¸ ÑģÑıÐ´ÐºÑĥ
ĠÑĨÐ°ÑĢ Ð¸
ĠÑĨÐ°ÑĢ ÑģÑĤÐ²ÐµÐ½
ĠÑĨÐ°ÑĢ ÐµÐ²Ð½Ð°
ĠÑģÐ¾Ð± Ð°ÐºÐ¸
ĠÐ·Ð°Ð± Ð¸Ð»Ð°ÑģÑĮ
ĠÐ·Ð°Ð± ÑĥÐ´Ñĥ
ĠÑģÐ»Ð°Ð² Ð½Ð¾Ð¹
ĠÑģÐ»Ð°Ð² Ð¾Ñİ
ĠÑģÐ»Ð°Ð² Ð½Ð¾Ð¼Ñĥ
ĠÐ±Ð¾Ð»ÑĮ Ð½Ð°
ÐŀÐ´ ÐµÑĤÑĭÐ¹
ĠÐ§ ÑĥÐ´
ÑĢÑı Ð²
ĠÐ²Ð¿ Ð¾Ð¿
ĠÐ²Ð¿ ÑĢÐ¾Ðº
ĠÐ²Ð¿ ÐµÑĢÐ²Ð¾Ð¹
ĠÐ²Ð¿ ÑĢÐ¾ÑģÐ°Ðº
ĠÐ²Ð¿ ÑĢÐ¸ÑģÑıÐ´ÐºÑĥ
ĠÐ·Ð» ÑĥÑİ
ĠÐ·Ð» Ð¾ÑģÑĤÑĮ
ĠÐ·Ð» Ð¾Ð²Ð¾Ð½
Ð¾Ð¶Ð´ ÐµÐ½ÑĮÐµ
ÐĴÑģÐµ Ð¾Ð±Ñī
ĠÐ¼Ð¸Ð» ÑĭÐ¼
ĠÐ¼Ð¸Ð» Ð¾Ðµ
Ð¡Ð¿ Ð¸Ð½Ð°
Ð¡Ð¿ ÑĥÑģÐº
Ð¡Ð¿ Ð¾ÑĢÐ¸ÑĤÑĮ
ĠÐ½Ð°ÑĢ ÐµÑĩ
ĠÐºÐ¾Ð» ÐµÑĨ
ĠÐºÐ¾Ð» ÑıÑģ
ĠÐºÑĢÐ°Ñģ Ñĥ
ĠÐºÑĢÐ°Ñģ Ð½Ð¾Ð¹
ĠÐºÑĢÐ°Ñģ Ð½ÑĭÐ¼
ĠÐºÑĢÐ°Ñģ Ð½Ð°Ñı
ĠÐºÑĢÐ°Ñģ Ð½Ð¾Ð³Ð¾
ĠÐºÑĢÐ°Ñģ ÐºÐ°Ð¼Ð¸
ĠÐºÑĢÐ°Ñģ Ð¸Ð²Ð¾
ĠÐºÑĢÐ°Ñģ Ð¸Ð²ÑĭÐµ
ĠÐĽ Ñİ
ĠÐĽ ÐµÑĤ
ĠÐĽ Ð°ÑĢ
ĠÐĽ Ð¸Ðº
ĠÐĽ ÑĥÑĩ
ĠÐĽ Ð°ÑĢÐ¸
ĠÐ¿Ð¾Ð³ Ð¾ÑĢ
ĠÐ¿Ð¾Ð³ Ð¾Ð´Ð¸
ĠÐ¿Ð¾Ð³ ÑĥÐ»Ð¸Ð²
ÐŁÐ¾Ðº ÑĢÐ¾Ð²
ÐŁÐ¾Ðº Ð¸Ð½ÑĥÑĤ
ÐŁÐ¾Ðº Ð¾Ð½Ñĩ
ÐŁÐ¾Ðº ÑĢÑĭÐ»
ĠÐ±Ð¾Ð³ Ð¸
ĠÐ±Ð¾Ð³ Ð°Ñĩ
Ð½ÑĮ Ð¸
ĠÐ»ÐµÑģ Ð°Ð¼
ĠÐ¿ÐµÑģ Ð½ÐµÑİ
ÑĨÑĥ ÐµÑĤ
ĠÐĿÐµÐ±ÐµÑģ Ð½Ð¾Ð¹
ÐĿÐ°Ð´ Ð´Ð°Ð¹
ĠÑģÐ¾ Ð¸Ð·Ð²Ð¾Ð»
ĠÐ¿ÑĢÐ¾ ÐµÐ¼
ĠÐ¿Ð¾Ñģ ÑĥÐ´
ĠÐ¿Ð¾Ñģ Ð¼Ðµ
ĠÐ¿Ð¾Ñģ ÐºÐ°Ðº
ĠÐ½ÐµÐ² ÑĭÑģ
ĠÐ½ÐµÐ² Ð´Ð¾Ð¼
ĠÐ½ÐµÐ² ÑĭÐ½Ð¾Ñģ
ĠÐ½ÐµÐ² Ð¼Ð¾ÑĩÑĮ
ĠÐ½ÐµÐ² Ð½ÑıÑĤÐ½ÑĭÐ¹
ĠÐ²Ð¾Ð¹ Ð½Ð¾Ð¹
ĠÐ´ÑĥÐ¼ Ð°Ñı
Ð£Ð¶ ÑĮ
ĠÐ²Ð¾Ð´ Ð¾ÑĩÐºÐ¸
ĠÐ²Ð¾Ð´ ÑıÐ½Ð¾Ð¹
ĠÐ½ÐµÐ´ Ð¾Ð²ÐµÑĢ
Ð¡Ð¼ Ð¾Ð»Ðº
ĠÐ¼Ð¾Ð»Ð¾Ð´ ÑĨÑĥ
ĠÐ¼Ð¾Ð»Ð¾Ð´ ÑĩÐ¸ÐºÐ¸
ĠÐ·Ð°Ð¿ ÐµÐ»
ĠÐ·Ð°Ð¿ ÑıÑĤ
ĠÐ·Ð°Ð¿ Ð¸Ñģ
ĠÐ·Ð°Ð¿ Ð¾Ð·Ð´Ð°Ð»
ĠÐ´Ð¾Ð¼ Ð¾Ð¼
ĠÐ´Ð¾Ð¼ Ð°Ñħ
ĠÐ´Ð¾Ð¼ Ð¸ÑĪÐºÐ¸
ĠÐ²ÐµÑĩ Ð½ÑĭÐ¼
ĠÐ²ÐµÑĩ Ð½Ð¾Ðµ
ĠÐ²ÐµÑĩ Ð½ÑĥÑİ
ĠÐ·Ð°Ðº Ð°Ð»
ĠÐ·Ð°Ðº Ð°Ð·
ĠÐ·Ð°Ðº ÑĥÑģ
ĠÐ·Ð°Ðº ÑĢÑĭÐ²
ĠÐ·Ð°Ðº Ð¾Ð½Ñĩ
ĠÐ·Ð°Ðº Ð¾Ð¿Ð°Ð»
ĠÐ·Ð°Ðº Ð¸Ð¿ÐµÐ»
ĠÐŁÑĢ Ð¸Ð¼
ĠÐŁÑĢ Ð¾ÑĪÐºÐ°
ĠÐŁÑĢ Ð¾ÑīÐ°Ð¹
ĠÐŁÑĢ Ð¸Ð·ÑĢÐ°Ðº
ĠÐ±Ð°ÑĢ ÑģÐºÐ¾Ð¹
ĠÐ·Ð°Ð² ÐµÑĢÑĤ
ĠÐ·Ð°Ð² ÑıÐ·
ĠÐ·Ð°Ð² Ð¸ÑģÐ¸ÑĤ
ĠÑĥÐ³ Ð»ÑıÐ´
ĠÑĥÐ³ Ð¾Ñī
ĠÑĥÐ³ Ð¾Ð²Ð°ÑĢÐ¸Ð²Ð°ÑĤÑĮ
ĠÑĥÐ³ Ð»Ð°Ð¼
ĠÑģÐ½ ÐµÑģÐ»Ð¸
ĠÐ¿Ð¾Ð¿ ÑĢÐµÐº
ĠÐ¿Ð¾Ð¿ ÐµÑĢÐµÐº
ĠÐ³Ð¾Ð»Ð¾Ð² ÐºÑĥ
ĠÐ³Ð¾Ð»Ð¾Ð² ÑĥÑĪÐºÑĥ
ĠÐ¿ÑĢÐ¾ÑģÑĤ Ð¸Ð»Ð°ÑģÑĮ
ĠÐ¿ÑĢÐ¾ÑģÑĤ Ð¾ÑĢÑĭ
ĠÐ»ÑĮ Ð´
ÑĢÐ°Ð´ ÑĮ
ĠÐ´ÐµÐ² Ð¾Ðº
ĠÑĢÐ°Ð´ ÑĥÑıÑģÑĮ
ĠÐ½Ð¾Ð² Ð¾
ĠÐ½Ð¾Ð² Ð¾Ð¼
ĠÐ½Ð¾Ð² Ð¾Ñİ
ĠÐ·Ð°Ð¼ ÐºÐ½ÑĥÐ»
ĠÐ·Ð°Ð¼ Ð¸ÑĢÐ°ÐµÑĤ
ĠÐ·Ð°Ð¼ ÐµÐ½Ð¸ÑĤÑĮ
ĠÑģÐ¾Ð² ÐµÑī
ĠÑģÐ¾Ð² ÐµÑĤÐµ
ĠÐ¿ÑĥÑģÑĤ Ð°
ĠÐ¿ÑĥÑģÑĤ Ð¸ÑĤ
ĠÐ¿ÑĥÑģÑĤ Ð¾Ðµ
ÐĳÐµÐ· Ð²ÐµÑģÑĤ
ÐĳÐµÐ· Ð±Ð¾Ð¶
Ð»ÐµÑĤ Ð°Ð»
Ð»ÐµÑĤ ÐµÐ»Ð¸
ĠÐ½Ð°Ð² ÑıÐ·
ĠÐ½Ð°Ð² Ð»ÐµÑĩÑĮ
ÐłÐ°Ð· Ð²Ðµ
ÐłÐ°Ð· Ð³Ð¾Ð²Ð¾ÑĢ
ĠÐ²ÑĢÐµÐ¼ ÐµÑĩÐºÐ¾
ÑĢÐ¾Ñģ Ð¸ÑĤ
Ð²Ñĭ ÑģÑĮ
ĠÑĥÐ¿ ÑĢÑıÐ¶
ĠÑĥÐ¿ Ð¾ÑĢÐ½ÑĭÐ¹
ĠÑĥÐ¿ ÑĢÐµÐ¶Ð´
ĠÐ¿Ð¾ÑģÑĤ Ð°ÑĢ
ĠÐ¿Ð¾ÑģÑĤ Ð¾ÑĢÐ¾Ð½
Ð²Ð°Ð» Ð¸ÑĤÑģÑı
ĠÐ·Ð½Ð° ÑİÑĤ
ĠÐºÐ¾ÑĢ ÐµÐ½ÑĮ
ĠÐºÐ¾ÑĢ Ð¾ÑĩÐµ
ĠÐ²ÐµÑĤ ÐºÐ¸
ĠÐ±ÐµÑĢ ÑĥÑĤ
ĠÐ²ÐµÐ» Ð¸ÑĪÑĮ
ĠÐ½Ð°Ð¿ Ð°ÑģÑĤÑĮ
ĠÐ½Ð°Ð¿ ÐµÑĢÑĳÐ´
ĠÐ½Ð°Ð¿ ÑĢÑıÐ¶
ĠÐ½Ð°Ð¿ ÐµÐ²Ñĭ
ĠÐ¿ÑĢÐ¸Ð² ÐµÐ»
ĠÐ¿ÑĢÐ¸Ð² ÐµÐ·
ĠÐ¿ÑĢÐ¸Ð² ÐµÐ»Ð¸
ĠÐ¿ÑĢÐ¸Ð² ÑıÐ·
ĠÐ¿ÑĢÐ¸Ð² Ð¾Ð´Ð¸ÑĤ
ĠÐ¿ÑĢÐ¸Ð² ÐµÑĤÐ°
ĠÐ»ÑĥÑĩ Ð¾Ð¼
ĠÑĩÐµÑĢ Ð½Ð¸
ĠÑħÐ¾Ð» Ð¼Ð°Ñħ
ĠÑħÐ¾Ð» ÐµÑĢÑĥ
ĠÐ¾Ð±ÑĢ ÑĥÑĪ
ĠÐ¾Ð±ÑĢ ÑĭÐ²
ĠÐ²Ð¾ÑĤ ÑīÐµ
Ð¨ Ð»ÐµÑĤ
Ð¨ Ð°ÑĢÐ°Ñħ
ĠÐ´Ð¾Ð±ÑĢ Ð¾ÑĤÐ¾Ð¹
ĠÑģÑĩÐ°ÑģÑĤ ÑĮÑİ
ĠÑģÑĩÐ°ÑģÑĤ Ð¸Ñİ
ĠÑģÑĩÐ°ÑģÑĤ Ð¸ÐµÐ¼
ĠÐ²Ð·Ð¾ÑĢ Ð°Ð¼
ĠÐĳÐ¾Ð¶ Ð¸Ñİ
ĠÐĳÐ¾Ð¶ ÑĮÐ¸
ĠÑģÐ¼ÐµÑĢÑĤ Ð½ÑĭÑħ
ĠÑģÐ¼ÐµÑĢÑĤ Ð¾Ð½Ð¾Ñģ
ĠÐ¼ÐµÑĩ Ð°Ð¼Ð¸
ĠÑĩÐ°Ñģ Ð°
ĠÑĩÐ°Ñģ Ð¾Ð²ÑĭÑħ
ĠÐ¿Ð¾Ð± ÑĥÐ´
ĠÐ¿Ð¾Ñĩ ÐºÐ¸
ĠÐ¿Ð¾Ñĩ ÑĥÑı
ĠÐ¿Ð¾Ñĩ Ð²Ñĥ
Ð²Ð¸Ð´ Ñĥ
ÐµÑı Ð»Ð°
Ð¸Ð»ÑĮ Ð½ÑĭÑħ
ĠÑĤÑĢÑĥÐ´ Ñĥ
ĠÑĤÑĢÑĥÐ´ Ð½Ð¾Ðµ
ĠÐ½ÐµÐ± ÑĭÐ»Ð¸
ÐĴÑĭ Ð¶
ĠÐ½ÐµÐ¿ ÑĢÐµÐ¼ÐµÐ½Ð½Ð¾
ĠÐ½ÐµÐ¿ Ð¾ÐºÐ¾ÑĢ
ÐŁÑĢÐµÐ´ ÑģÐºÐ°Ð·
ĠÑģÑĤÑĢÐ°Ð½ ÐµÐ½
ĠÑģÑĤÑĢÐ°Ð½ Ð½Ð¾
ĠÑģÑĤÑĢÐ°Ð½ Ð½ÑĭÐ¹
ĠÑģÑĤÑĢÐ°Ð½ Ð½ÑĭÑħ
ĠÐ¶ÐµÐ½ Ð¾Ñİ
ĠÐ¶ÐµÐ½ ÑģÐºÐ¾Ð³Ð¾
ĠÐ±ÑĥÐ´ÐµÑĤ Ðµ
Ð¾ÑĩÑĮ Ð¸
ĠÐ¿Ð°ÑĢ ÑĤ
ĠÐ¿Ð°ÑĢ Ñĥ
ĠÐ¿Ð°ÑĢ Ð¸Ð»
ĠÐ¿Ð°ÑĢ Ð½Ñİ
ĠÐĹÐµÐ¼ Ð»ÑĳÐ¹
ĠÑĥÐ· Ð½Ð¸Ðº
Ð¾Ð´Ð¸ÑĤ ÐµÑģÑĮ
ĠÑĦ Ð»Ñı
ĠÑĦ Ð°Ð½ÑĦ
Ð½ÐµÑĤ Ðµ
ĠÐ¸ÑģÐº Ð°Ð»Ð¸
ĠÐ¸ÑģÐº Ð°ÑĤÐµÐ»ÑĮ
ĠÐºÐ°ÑĢ ÐµÑĤ
ĠÐºÐ°ÑĢ Ð°Ð½Ð´Ð°
ĠÐ²ÐµÐ´ ÐµÑĤÐµ
ĠÑĤÐ¾Ð¼ Ð¸ÑĤÑĮÑģÑı
ĠÑĤÐ¸Ñħ Ð¸Ñħ
Ð½ÐµÐ¼ ÑģÑı
ĠÑĥÐ± Ð¸Ð»
ĠÑĥÐ± ÐµÐ¶Ð°ÑĤÑĮ
ĠÐ³Ð»ÑıÐ´ Ð¸Ð¼
ĠÐ³Ð»ÑıÐ´ ÑİÑĩÐ¸
ĠÐ¶ÐµÐ» Ð°ÐµÑĤ
ĠÐĵÐ¾ÑģÐ¿Ð¾Ð´ ÑģÑĤÐ²
ĠÐ»ÐµÐ³ Ð»Ð°
ĠÐ»ÐµÐ³ ÐºÐ¸Ñħ
ĠÑģÐ»ÐµÐ· Ð°Ð¼
ÐµÑĢÐ¿ Ð¸ÑĤ
ĠÐ½Ð°Ñĩ Ð°Ð»Ð¾
ĠÐ²Ð¾Ð·Ð´ ÐµÐ»
ĠÐ²Ð¾Ð·Ð´ ÐµÑĢÐ¶
ĠÐ£ Ñĩ
ĠÐ£ Ð¼
ĠÐ£ Ð¹
ĠÐ£ Ð·
ĠÐ£ Ð¶Ðµ
ĠÐ´ÐµÑĤ ÑģÐºÐ¸Ñħ
ĠÐ´ÐµÑĤ ÑģÐºÐ¾Ð³Ð¾
ĠÐ¸ÑģÐ¿ Ð¾Ð²ÐµÐ´ÑĮ
ĠÐ¸ÑģÐ¿ Ð¾ÑĢÑĤ
ĠÐ³ÑĢÐ¾Ð· Ðµ
ĠÐ³ÑĢÐ¾Ð· Ñĥ
ĠÐ³ÑĢÐ¾Ð· Ñĭ
ĠÐ³ÑĢÐ¾Ð· ÑıÑĤ
ĠÐ³ÑĢÐ¾Ð· Ð½ÑĭÑħ
ĠÐ³ÑĢÐ¾Ð· Ð½ÐµÐ¹
ĠÑĪÑĥÐ¼ Ð½Ð¾Ð¼
ĠÑģÑĤÑĢÐ°ÑĪ Ð½ÐµÐ¹
ĠÑģÑĤÑĢÐ°ÑĪ Ð½ÑĥÑİ
ĠÐ·Ð¾Ð»Ð¾ÑĤ Ðµ
ĠÐ¿Ð¾Ð½ ÑĭÐ½Ðµ
ĠÐ¿Ð¾Ð½ ÐµÑģÐ»Ð¸
ĠÐ¿Ð¾Ð½ Ð¸Ð¶Ðµ
ĠÐ¾ÑģÑĤ Ð°Ð»Ð°ÑģÑı
ĠÐ¾ÑģÑĤ ÐµÑĢÐµÐ¶
ĠÐ¾ÑģÑĤ ÐµÑĢÑĳÐ³
ĠÐ¾ÑģÑĤ Ð°ÑĤÐ¾Ðº
ÐĽÑİÐ± Ñı
ÐĽÑİÐ± Ð¸Ð»Ð°
ÐĽÑİÐ± ÑĥÑıÑģÑĮ
ĠÑĩÑĥÐ´ Ñĥ
ĠÑĩÑĥÐ´ Ð½Ð¾Ðµ
ĠÑĩÑĥÐ´ Ð¸ÑīÐ°
ĠÐ¥ Ð¾ÑĤÑı
ĠÐ½ÐµÑģ Ð¾Ð·Ð´
ĠÐ½ÐµÑģ ÑĳÑĤÑģÑı
ĠÐ´ÐµÐ» Ð°Ð»Ð°
ĠÑģÐ²Ð¾Ð¹ ÑģÑĤÐ²ÐµÐ½
ĠÐºÑĢÑĥÐ³ Ð¾Ð²Ð¾Ð¹
Ð°Ñĩ ÐºÐ¸
Ð°Ñĩ ÐºÑĥ
Ð°Ñĩ Ð°Ð»Ñĥ
ĠÐ±Ð¾ ÑıÑħ
ÐĴÐ· ÑıÑĤÑĮ
ÐĴÐ· Ð°Ð¼ÐµÐ½
ĠÐºÑĢÐ¾Ð² Ð°ÑĤÑĮ
ĠÐºÑĢÐ¾Ð² Ð¸Ñİ
Ð¸ÑĨ Ð°Ð¼Ð¸
ĠÑģÐµÐ¼ ÐµÐ½Ð¸
ĠÑģÐµÐ¼ Ð¸Ð½Ð°ÑĢ
ĠÐ¿Ð¾Ð· Ð°Ð²Ð¸Ð´
ĠÐ¾Ñĩ Ð°Ð¼
ĠÐ¾Ñĩ ÐºÐ¸
ĠÐ¾Ñĩ ÐºÐ°Ñħ
ĠÑģÑĢ ÑĥÐ±
ĠÑģÑĢ Ð°Ð¶ÐµÐ½
Ð°ÑĤÐµÐ»ÑĮ Ð½ÑĭÐ¼
Ð°ÑĤÐµÐ»ÑĮ ÑģÑĤÐ²Ð¾
Ð°ÑĤÐµÐ»ÑĮ Ð½Ð¾ÑģÑĤÑĮ
ÐŁÐ¾Ð» ÐµÑĤ
ÐŁÐ¾Ð» Ð½Ð°
Ð¦ ÐµÑĢÐºÐ¾Ð²
Ð¾Ð½ÑĮ ÐµÐ¼
Ð¾Ð½ÑĮ ÐºÐ¸
ĠÑĨÐ²ÐµÑĤ Ð°
ÑĢÑĭ ÑĤÐ¾
ÑĢÑĭ Ð»Ð¸
ĠÐ²ÑģÑı ÐºÐ¸Ðµ
ĠÐ²ÑģÑı ÐºÐ¸Ñħ
ĠÐ²ÑģÑı ÐºÑĥÑİ
ÐĴÐ¾Ð· Ð½ÑĳÑģ
ĠÐ´Ð²Ð¾ÑĢ ÑĨÐµ
ĠÐ´Ð²Ð¾ÑĢ Ð¾Ð²Ð¾Ð³Ð¾
ĠÑĥÑģÑĤ Ð°Ð»Ð°
ĠÑĥÑģÑĤ Ð°Ð½Ð¾Ð²
ĠÑĥÑģ Ð¼Ð¸ÑĢ
ĠÐ½Ð¸Ñĩ ÐµÐ¼Ñĥ
ĠÐ±Ð¾Ð¹ ÑĨÐ¾Ð¼
ĠÐ±Ð¾Ð¹ ÑĨÐ°Ð¼
ĠÐ²Ð»Ð° ÑģÑĤÐ²Ð¾Ð²Ð°ÑĤÑĮ
Ð¾Ð¼Ð½ Ð¸ÑĤ
ĠÑģÐ¾Ð» Ð¸
Ð»Ð°Ðº Ð°Ð»Ð¸
Ð»Ð°Ðº Ð°Ð»Ð°
ĠÐ·Ð°ÑĤ ÑĢÐµÑī
ÐµÐ·Ð´ Ð¾Ð¼
ÐµÐ·Ð´ ÐµÑģ
ÐĵÑĢ ÐµÐ±
ÐĵÑĢ ÑĥÑģÑĤÑĮ
ĠÐ¾Ð´Ð¸Ð½ Ð¾ÐºÐ¾Ð¹
ÐŁÑĢÐ¸ ÑģÐ»
ÑĢÐµÐ² Ð°Ñı
ĠÐ¾Ðº Ð½Ñĥ
ĠÐ¾Ðº Ð¾Ð½Ñĩ
ĠÐºÐ» Ð¾Ñĩ
ĠÐ³Ð¾ÑĢÐ´ ÑĭÑħ
ĠÐ³Ð¾ÑĢÐ´ ÑĥÑİ
ĠÐ³Ð¾ÑĢÐ´ Ð¾ÑģÑĤÑĮÑİ
ĠÐ´Ð¸Ð² Ð½Ð°Ñı
ĠÐ¼Ð°Ð» ÑĥÑİ
ĠÐ¼Ð°Ð» Ð¾ÑģÑĤÑĮ
ĠÐ²ÑģÐµÐ¼ Ð¾Ð³
ĠÐ²ÑģÐµÐ¼ Ð¾Ð³ÑĥÑīÐ¸Ð¹
ĠÐ¡Ð°ÑĤ ÑĥÑĢ
ĠÐ½ÐµÐ±ÐµÑģ Ð½Ð¾Ð¼
ĠÐ¿ÐµÑĢÐµÐ´ Ð¾
Ð¡ÑĤÐ°ÑĢ Ð¾Ð¹
Ð¡ÑĤÐ°ÑĢ ÑĭÐµ
Ð¡ÑĤÐ°ÑĢ ÑĥÑĪÐºÐ¸
ĠÑģÐ»ÐµÐ´ Ð¸ÑĤ
ĠÑģÐ»ÐµÐ´ Ð¸ÑĤÑĮ
ĠÑģÐ»ÐµÐ´ Ð¾Ð²Ð°ÑĤÑĮ
ĠÑģÑĢÐµÐ´ ÑģÑĤÐ²Ð¾
ĠÐ±ÐµÐ» Ñĭ
ĠÐ±ÐµÐ» ÐºÐ°
ĠÐ±ÐµÐ» Ð¾Ðµ
ĠÐ¾ÑĤÐ² ÐµÐ´
ĠÐ¾ÑĤÐ² ÑĢÐ°ÑĤ
ĠÐ¾ÑĤÐ² ÐµÑģÑĤÑĮ
ĠÐ¾ÑĤÐ² ÑĢÐ°Ñī
ĠÐ¼Ð¾Ð»Ñĩ Ð°ÑĤÑĮ
Ð½ÑĥÑĤ ÑĭÐ¹
ĠÐ´Ð¾ÑģÑĤ Ð°ÑĤÑĮ
ĠÐ±Ð¾ÑĢ Ð¾ÑĤÑĮÑģÑı
ĠÐ·Ð°ÑĢ ÑĭÐ´
ĠÐ¿ÑĥÑĤ ÐµÑĪ
ÐŀÐ¿ Ð»Ð°Ðº
ÐŀÐ¿ ÑĢÐµÐ´ÐµÐ»
ÐŀÐ¿ ÐµÑĩÐ°Ð»Ð¸Ð»ÑģÑı
ĠÑģÑĤÐ¾Ð» Ð¸ÑĨÐ°
ĠÑģÑĤÐ¾ÑĢÐ¾Ð½ ÑĥÑĪÐºÐ°
ÐľÐ¾Ð» Ð¸Ð»Ð°ÑģÑĮ
ÐľÐ¾Ð» ÑĩÐ°ÑĤ
ÐľÐ¾Ð» ÑĩÐ°
ÐľÐ¾Ð» Ð¾Ð´Ð¾Ð¹
ÐĳÐµÑģ ÑĨ
ÑİÑī ÑĥÑİ
ĠÑģÐ»ÑĭÑĪ Ð¸ÑĪÑĮ
ĠÑģÐ»ÑĭÑĪ Ð°Ð»Ð¾ÑģÑĮ
Ð¾ÑģÐ»ÐµÐ´ ÑģÑĤÐ²Ð¸Ð¸
ÑĢÐ¾Ð² ÑĥÑĪÐºÐ°
ÑıÐ³ Ð°
ÑıÐ³ ÑĩÐ¸Ð²
ĠÐ²Ð¾Ñģ ÑģÑĤÐ°Ð²
ĠÐ²Ð¾Ñģ ÑģÑĤÐ°Ð»
ĠÐ±ÑĥÑĢ Ð»Ð¸Ð²Ð¾
ĠÐ±ÑĥÑĢ Ð¼Ð¸ÑģÑĤÑĢ
ĠÐ·Ð°Ñģ ÐºÑĢÐ¸Ð¿ÐµÐ»Ð°
ÐŁÐµÑĢ ÐµÑĤ
ÐŁÐµÑĢ ÐµÑģÐº
ĠÑĤÑıÐ¶ ÐµÐ»Ð°
ÐĵÐ¾ÑĢ Ð°
ÐĵÐ¾ÑĢ Ð´Ñĭ
ĠÐ³ÑĢÐ¾Ð¼ ÑĩÐµ
ĠÐ³ÑĢÐ¾Ð¼ ÐºÐ¸Ð¼
ĠÐ²Ð¾Ð·Ð² ÐµÐ»Ð¸Ñĩ
ĠÐ½ÐµÐ¶ Ð½ÐµÐ¹
ĠÐ½ÐµÐ¶ Ð½Ð¾ÑģÑĤÑĮ
ĠÐ½ÐµÐ¶ Ð½Ð¾ÑģÑĤÐ¸
ĠÐ½Ð°Ð³ Ð»Ð¾
ĠÐ½Ð°Ð³ Ð¸Ð±
ĠÑĢÐµÐ± ÑĢÐ¾
ĠÑĢÐµÐ± ÐµÐ½ÐºÐ°
ĠÑĢÐµÐ± ÐµÐ½ÐºÑĥ
ĠÐ¾ÑĤÐ²ÐµÑĤ Ðµ
ĠÐ¾ÑĤÐ²ÐµÑĤ ÑģÑĤÐ²ÑĥÐµÑĤ
ĠÑİ Ð½Ð°Ñı
ĠÑİ ÑĢÐ¾Ð´
ĠÐ¼ÐµÐ´ Ð»
ĠÐ¼ÐµÐ´ Ð½ÑĭÐ¹
ĠÐ¼ÐµÐ´ Ð»Ð¸ÑĤ
ĠÐĴÑģ ÐµÐ´ÐµÑĢÐ¶
ĠÑĢÐ°ÑģÐ¿ ÑĥÑģÑĤÐ¸Ð»
ĠÑĢÐ°ÑģÐ¿ Ð¾Ð»Ð°Ð³
ĠÐ¿ÑĢÐ¸Ð· ÑĢÐ°Ñĩ
ĠÐ¿ÑĢÐ¸Ð· Ð²Ð°Ð½
ĠÑħÐ¾ÑĢ Ñĭ
ĠÐ¼Ð½Ð¾Ð³Ð¾ Ðµ
ĠÐ²Ð¾Ð¿ Ð»Ð¸
ĠÐ¾ÑĤÐ´ Ð°Ð¼
ĠÐ½Ð°ÑĢÐ¾Ð´ Ðµ
ĠÑģÐµÐ´ Ð»Ð°
ĠÑģÐµÐ´ Ð¸Ð½Ñĭ
Ð¼ÐµÐ½ ÐµÐ¼
Ð¼ÐµÐ½ Ð½Ð°Ñı
Ð½Ð°Ñĩ Ð°Ð»Ðµ
ĠÐ±ÑĢÐ°ÑĤ ÐµÑĨ
ĠÐ¿ÑĢÐ¸Ðº Ð»Ð¾Ð½
ĠÐ¿ÑĢÐ¸Ðº ÑĢÑĭÐ²
ĠÑıÐ² Ð¸ÑĤÑĮ
ĠÑĢÐ°ÑģÑģ Ð¼ÐµÑıÐ»Ð¸ÑģÑı
ÑĥÑģÐº Ð°ÑĤÑĮ
ĠÑħÑĢ ÑĥÐ¿
ĠÑħÑĢ Ð°Ð¿
ĠÐŀÑĤ ÑģÑĤÑĥÐ¿
ĠÐŀÑĤ ÑĩÐµÐ³Ð¾
ĠÐ´ÑĢÑĥÐ¶ Ð¸Ð½
ĠÐ´ÑĢÑĥÐ¶ ÐºÐ°
ĠÐ´ÑĢÑĥÐ¶ ÐºÑĥ
ĠÐ´ÑĢÑĥÐ¶ ÐºÐµ
ĠÐ´ÑĢÑĥÐ¶ Ð±Ð°
ĠÐŃ Ð¹
ĠÐ½Ð°Ð· Ð²Ð°Ð»
ĠÐ½Ð°Ð· ÑĭÐ²Ð°Ð»
ĠÑĢÑıÐ´ Ñĥ
ĠÑĢÑıÐ´ Ð¾Ð²
Ð¡Ð¾ ÐµÐ´Ð¸Ð½
ĠÑıÑĢ ÑĭÐ¹
ĠÑıÑĢ ÐºÐ¸Ð¹
ĠÑıÑĢ Ð¾ÑģÑĤÑĮ
ĠÑıÑĢ Ð¼Ðµ
ĠÑıÑĢ Ð¼Ð¾
ĠÑıÑĢ Ð¼Ð°ÑĢ
ĠÐºÑĢÑĭÐ» Ð°ÑĤÑĭÐ¹
ĠÐºÑĢÑĭÐ» ÑĮÑıÐ¼Ð¸
ĠÑĢÑĥÑģ ÑģÐºÐ¸Ñħ
ĠÑģÐ½ÐµÐ³ Ð¾Ð²
ĠÑĢÐµÑĩ Ð°Ñħ
ÐŁÐ¾ÑĢ Ð¾Ñİ
ÐŁÐ¾ÑĢ ÑĭÐ²
ĠÑģÐ»Ð°Ð´ Ðº
ĠÑģÐ»Ð°Ð´ Ð¾Ðº
ĠÑģÐ»Ð°Ð´ Ð¾ÑģÑĤÑĮ
ĠÑģÐ»Ð°Ð´ ÐºÐ¾Ðµ
ĠÑģÐ»Ð°Ð´ ÐºÐ¸Ñħ
ĠÐĲÐ´Ð°Ð¼ Ð¾Ð¼
Ð¼ÐµÑĢ Ð·
Ð¼ÐµÑĢ Ð½Ð¾Ð¹
Ð¡Ð°Ð¼ Ð¾Ð»ÐµÑĤ
Ð¡Ð°Ð¼ Ð¾Ð»ÑİÐ±
ĠÐĶÑĥÑħ Ð¾Ð¼
ĠÐºÐ°Ð· Ð°Ðº
ĠÐºÐ°Ð· Ð°ÐºÐ¾Ð²
ĠÐ·Ð°Ð´ Ð²Ð¾ÑĢ
ĠÐ·Ð°Ð´ ÑĥÐ¼Ð°Ð»
ÐŁÐ¾Ð² ÐµÑĢ
ÐŁÐ¾Ð² ÐµÐ»
ÐŁÐ¾Ð² ÐµÑģ
ÐŁÐ¾Ð² Ð¸Ð½
ÐŁÐ¾Ð² Ð¸Ñģ
ÐŁÐ¾Ð² Ð¸Ð½Ð¾Ð²
ÐŁÐ¾Ð² ÐµÑĢÐ³
ÐŁÐ¾Ð² ÐµÑģÐ¸Ð»
ĠÑĩÑĥÐ² ÑģÑĤÐ²ÑĥÐµÑĪÑĮ
ĠÑĤÐ° Ð¸Ð½ÑģÑĤÐ²ÐµÐ½Ð½ÑĭÑħ
ĠÑĤÐ°Ð¹ Ð½ÑĭÐµ
ÑĩÐ¸Ð² ÑĭÐ¼
ĠÐ´Ð°Ð»ÑĮ Ð½ÑĭÐ¹
ĠÐ¿ÑĢÐ¸Ð½ ÑıÑĤ
ĠÐ¿ÑĢÐ¸Ð½ ÑıÐ»Ð°
ĠÐ±ÐµÐ·Ð´ Ð½Ðµ
ĠÐ´Ð¾Ð»Ð³ Ð°Ñı
ĠÐ´Ð¾Ð»Ð³Ð¾ Ðµ
ĠÐ¤ Ð°ÑĢÐ°
Ð°ÐµÐ¼ Ð¾Ð¹
ĠÑģÐ°Ð´ Ð°Ð¼Ð¸
ĠÐ¼ÐµÑĢ Ð½Ð¾
Ð¡Ð²Ð¾ ÐµÑİ
ĠÐ¼Ð¾Ð»Ð² Ð¸Ð»Ð¸
ĠÐ¸ÑģÑĤ Ð¸Ð½Ðµ
ĠÐ¸ÑģÑĤ Ð¾ÑĢÐ³
ĠÐ¿Ð¾ÑģÐ»ÐµÐ´ Ð½ÑİÑİ
ĠÐ±Ð¾Ð» ÐµÐ½
ĠÑģÐ¾Ð· Ð²ÐµÐ·Ð´
ĠÑĩÐ¸ÑģÑĤ ÑĥÑİ
ĠÑĩÐ¸ÑģÑĤ Ð¾ÑĤÑĭ
ĠÑĩÐ¸ÑģÑĤ Ð¾ÑĤÐ°
Ð¢ÑĢ ÐµÑĤÑĮ
Ð¢ÑĢ ÐµÑīÐ¸ÑĤ
ĠÐ³ÑĢÐµÑħ Ð°Ñħ
ĠÑĢÐ°Ð² Ð½Ð¾Ð¹
ĠÑĢÐ°Ð² Ð½ÑĭÐµ
ĠÑĢÐ°Ð² Ð½ÑĭÐ¼Ð¸
ĠÑĢÐ°Ð² Ð½Ð¸Ð½
ĠÑģÐ²ÑıÑĤ Ð¾Ð¼
ĠÑģÐ²ÑıÑĤ ÑĭÐ¼
ĠÑĪÐ°Ð³ Ñĥ
ĠÐ±ÐµÑģÐ¿ Ð¾ÑĢÑıÐ´
ĠÐ±ÐµÑģÐ¿ ÑĢÐµÐ´ÐµÐ»ÑĮ
ĠÐ¿ÐµÑĩÐ°Ð»ÑĮ Ð½Ð¾Ð¼
ÐĶÐ¾ÑģÑĤ Ð°Ð²
ÐĶÐ¾ÑģÑĤ Ð°Ð»Ð¾ÑģÑĮ
ÐĶÐ¾ÑģÑĤ Ð¸ÑĩÑĮ
ĠÐ±Ð¾Ð³Ð°ÑĤ Ð¾Ð¹
ÑĢÐ¾Ð½ Ð¸Ð»
ÑĢÐ¾Ð½ ÑĥÑĤÑĭÑħ
ĠÐ²ÐµÐº Ñĥ
ĠÐ²ÐµÐº Ð°Ñħ
ĠÐ´ÑĥÑħ Ð°
ÐĿÐµÐ² ÐµÑģÐµÐ»Ð¾
ĠÐ³Ð½ÐµÐ² Ð½ÑĭÐ¹
Ð¸ÐºÐ° ÐµÑĤ
ĠÑģÐ¾Ð·Ð´ Ð°Ð»Ð°
ĠÑģÐ¾Ð·Ð´ Ð°Ð½Ð¸Ñı
ĠÑģÐ¾Ð·Ð´ Ð°Ð½Ð½Ð¾Ðµ
ĠÐ¾Ñħ Ð¾ÑĤÑĥ
ĠÐ¾Ñħ Ð¾ÑĤÐ¾Ð¹
ĠÑĥÐ¶Ð°Ñģ Ðµ
ĠÑĥÐ¶Ð°Ñģ Ð°
ĠÑĥÐ¶Ð°Ñģ ÐµÐ½
ĠÑģÐµÑĢ Ð´ÐµÑĨ
ĠÑģÑĥÐ´ ÐµÐ±
ĠÑģÑĥÐ´ Ð°ÑĢÑĮ
ĠÑģÐ¸Ð´ Ñı
ĠÑģÐ¸Ð´ ÐµÑĤÑĮ
ĠÐ¿Ð°Ð´ Ð°Ð»
ĠÐ¿Ð°Ð´ Ð°Ð»Ð¸
ĠÐ¶Ð°Ð» Ð¾Ð±
ĠÐ¶Ð°Ð» Ð¾Ð±Ð½Ð¾
ĠÐ³ÑĢÐ¾Ð± Ð¾Ð²Ð°Ñı
ÐŀÑģ ÑĭÐ¿
ĠÐ¶Ð°ÑĢ Ñĥ
ĠÐ¶Ð°ÑĢ ÐºÐ¾Ð¹
ĠÐ¶Ð°ÑĢ ÐºÐ¸Ð¹
ĠÐ¿ÑĢÐ¸Ð± Ð°Ð²Ð¸Ð»
ĠÑĢÐ°ÑģÑĤ Ð¾Ð»
ĠÑĢÐ°ÑģÑĤ ÑĥÑĤ
ĠÐ¿ÑĢÐ¾Ð² Ð¾Ð´Ð¸Ð»Ð°
ĠÐ·Ð¾Ð² ÑĳÐ¼
ĠÐ·Ð¾Ð² ÑĳÑĪÑĮ
ĠÑĢÐ¾Ñģ Ð°
ĠÑĢÐ¾Ñģ Ñģ
ĠÑĢÐ¾Ñģ Ñĭ
ĠÑĢÐ¾Ñģ Ð»Ð¸
ĠÑĢÐ¾Ñģ Ð»Ð¾
ĠÐ³ÑĥÐ± Ð°Ð¼
ĠÐ¿ÑĢÐ¸Ð¼ ÑĥÑĤ
ÐĹÐ°ÑĤ Ð¸Ñħ
ĠÐ¿Ð¾ÑĪ Ð»Ð¾
ĠÐ¿Ð¾ÑĪ ÑĳÐ»
ĠÐ´Ð¾Ñģ Ð°Ð´Ðµ
ĠÑĢÑĥÐ± Ð°ÑĪ
ĠÑĢÑĥÐ± Ð°ÑħÐ°
ĠÐ¿ÑĢÐ¸Ð´ Ñĥ
ĠÐ¿ÑĢÐ¸Ð´ Ð°Ð»
ĠÐ¿ÑĢÐ¸Ð´ Ð°Ð²
ĠÐ¿ÑĢÐ¸Ð´ Ð°ÑĤÑĮ
ÐŁÐ¾Ð¿ Ñĭ
ÐŁÐ¾Ð¿ Ð¾Ð²
ÐŁÐ¾Ð¿ Ð°Ð´
ÐŁÐ¾Ð¿ Ð°Ð»ÑģÑı
ÐŁÐ¾Ð¿ Ð°ÑĢÐ½Ð¾
ÐĿÐµÑģ Ð¿
ÐĿÐµÑģ ÐºÑĢ
ÐĿÐµÑģ ÐµÑĤÑģÑı
ÐĿÐµÑģ Ð»ÑĭÑħ
ÐĿÐµÑģ Ð¾ÐºÑĢÑĥÑĪ
ĠÐ¿ÑĢÐ°Ð·Ð´ Ð½ÑĭÐ¹
ĠÐ¾ÑĤÐºÑĢ ÑĭÑĤÑĮ
Ð£Ð¼ ÐµÐ»
ĠÐ²Ð¾ÑģÐ¿ ÐµÑĤÑĮ
ĠÐ²Ð¾ÑģÐ¿ ÑĢÑıÐ½ÑĥÐ»
ĠÐ¾Ð· ÐµÑĢ
ĠÐ¾Ð· Ð°ÑĢÑı
ĠÐ¾Ð· Ð¸ÑĢÐ°Ñı
ĠÐ¾Ð· Ð½Ð¾Ð±
ĠÐ±ÑĭÑģÑĤÑĢ ÑĭÑħ
ĠÐ·Ð¸Ð¼ Ð½Ð¸Ñħ
ĠÐ¿Ð¾Ð¼ÐµÑī Ð¸ÐºÐ¾Ð²
ÑİÑĪ Ð°
ÑİÑĪ ÐºÑĥ
ĠÐ¼Ð°ÑĤ ÑĥÑĪÐºÐµ
ĠÐºÐ¾ ÑģÑı
ĠÐ³Ð¾ÑģÐ¿Ð¾Ð´ ÑĮ
ĠÐ³Ð¾ÑģÐ¿Ð¾Ð´ ÑģÐºÐ¾Ðµ
ĠÐ³Ð¾ÑģÐ¿Ð¾Ð´ ÑģÐºÑĥÑİ
ĠÑģÐ»ÑĥÐ¶ ÐµÐ½Ð¸Ðµ
ĠÐļÐ°Ðº Ð°Ñı
ÐŁÑĥÑģÑĤ ÑĭÐµ
ÐŁÑĥÑģÑĤ ÑĭÐ½Ð¸
ÐŁÑĥÑģÑĤ Ð¾Ð¿Ð¾ÑĢÐ¾Ð¶Ð½ÐµÐ¹
ĠÐ²ÐµÐ»Ð¸ ÐºÐ¸Ñħ
ÐĿÐ°Ñģ ÐµÐ»ÐµÐ½Ð½ÑĭÐ¹
ĠÑĢÑĭÐ± Ð°
ĠÑĢÑĭÐ± Ð¾Ñİ
ĠÐ¿ÑĢÐµÐºÑĢÐ°Ñģ Ð½Ð°
ĠÐ¿ÑĢÐµÐºÑĢÐ°Ñģ Ð½ÑĥÑİ
ÐŁÐ» ÐµÐ½Ñı
ĠÐ³Ð»Ð°Ð² Ð½ÑĭÐ¹
ĠÐ³Ð»Ð°Ð² Ð½Ð¾Ðµ
ĠÑģÐ¾Ðº ÑĢÑĭÑĤ
ĠÑģÐ¾Ðº ÑĢÑĭÐ»Ð°ÑģÑĮ
ĠÐ¸Ñģ ÑģÑĤÑĥÐ¿
ĠÐ¾ÑģÑĤÑĢ ÑĭÐ¼Ð¸
ĠÐ¾ÑģÑĤÐ°Ð² Ð¸ÑĤÑĮ
ĠÐ¾ÑģÑĤÐ°Ð² Ð»Ñİ
ĠÐ¾ÑģÑĤÐ°Ð² Ð°ÑĤÑĮÑģÑı
ÐļÐ¾ÑĢ Ñĩ
ÐļÐ¾ÑĢ Ð¾ÑĩÐµ
ÐĳÐ¾Ð³ Ð¾Ð²
ÐĳÐ¾Ð³ Ð¾Ð¿Ð¾Ð´Ð¾Ð±
ÐĳÐ¾Ð³ Ð¾Ð±Ð¾ÑıÐ·Ð½
ĠÐ¦ ÐµÐ»ÑĭÐ¹
ĠÑħÐ¾Ð´ Ð¸Ð»Ð¸
ĠÑħÐ¾Ð´ Ð°ÑĤÐ°Ð¹
ÐĹÐ°Ð± Ð¾ÑĤ
ÐĹÐ°Ð± ÑĭÑĤÑĮ
ÐĵÐ»ÑıÐ´ Ñı
ÐĵÐ»ÑıÐ´ ÐµÑĤÑĮ
ĠÐ³ÑĢÑĥÐ´ Ñĭ
ĠÐ³ÑĢÑĥÐ´ Ð°Ð¼Ð¸
ĠÑĢÐ°Ð±Ð¾ÑĤ Ð°ÑĤÑĮ
ĠÑĢÐµÐ±ÑıÑĤ ÑĥÑĪÐºÐ¸
ĠÑģÐ± Ð¾ÑĢ
ĠÑģÐ± ÐµÑĢÐµÐ³
ĠÑģÐ± ÐµÑĢÐµÑĩÑĮ
ÐĺÐ¼ Ð¿ÐµÑĢ
ĠÐ¿ÑĢÐ¾Ð¿ Ð°ÑģÑĤÑĮ
ÐĳÐ»Ð°Ð³ Ð¾ÑĢÐ°Ð·ÑĥÐ¼
ÐĳÐ»Ð°Ð³ Ð¾Ð¿ÑĢÐ¸ÑıÑĤ
ĠÐ½ÐµÐº ÑĤÐ¾
ĠÐ½ÐµÐº Ð¸Ðµ
ĠÐ½ÐµÐº Ð¾Ð¼Ñĥ
ĠÐ½Ð¸Ð· Ð¼ÐµÐ½
ÐĴÐµÑĢ Ð½Ð¾
ÐĴÐµÑĢ Ð½Ð¸ÑĤÐµÑģÑĮ
ĠÑĢÐ°Ð·ÑĥÐ¼ Ð°
ĠÑĢÐ°Ð·ÑĥÐ¼ ÐµÐµÑĤÑģÑı
ĠÑħÐ¾Ð»Ð¾Ð´ Ð¾Ð¼
ĠÐ½ÐµÐ¿ÑĢ Ð¸ÑģÑĤÐ¾Ð¹
ĠÐ½ÐµÐ¿ÑĢ Ð¾Ð³Ð»ÑıÐ´
ĠÐ½ÐµÐ¿ÑĢ Ð¾Ð±ÑĥÐ´
ÐĿÐµÐ´ Ð°Ð²
ÐĿÐµÐ´ Ð¾Ð»Ð³
ÐĿÐµÐ±ÐµÑģ Ð½Ð¾Ð¼Ñĥ
ĠÐ·Ð°Ð½ ÑıÑĤÑĮ
ĠÐ·Ð°Ð½ ÑıÑĤÐ°
ĠÐ·Ð°Ð½ Ð°Ð²ÐµÑģ
Ð½Ð¸Ñĩ Ð°ÑĤÑĮ
ĠÑĩÐµÑĢÑĤ ÐµÐ¹
ĠÑĩÐµÑĢÑĤ Ð°Ñħ
ĠÑĥÐ²Ð¸Ð´ Ð¸ÑĤ
ĠÑĥÐ²Ð¸Ð´ ÐµÐ»Ð¸
ĠÑĥÐ²Ð¸Ð´ ÐµÐ»Ð°
ĠÐ¿Ð¾Ñħ Ð²
ĠÐ¿Ð¾Ñħ Ð¾ÑĤÐ¸
ĠÑĤÑĢÐ°Ð² Ð°
ĠÑģÐ¸Ð»ÑĮ Ð½ÑĭÑħ
ĠÑģÐ¸Ð»ÑĮ Ð½ÑĭÐµ
ĠÑģÐ¸Ð»ÑĮ Ð½ÐµÐµ
ÐĸÐ¸Ð² Ñĥ
ÐĸÐ¸Ð² Ð¾Ð³Ð¾
ÐĸÐ¸Ð² ÑĭÑħ
ÐĸÐ¸Ð² ÑĭÐµ
ĠÐ´Ð¾Ð± ÑĭÑĩÑĥ
ĠÐ´Ð¾Ð± ÑĭÑĩÐµÐ¹
ĠÐ´Ð¾Ð± ÑĭÑĩÐµÑİ
ĠÐ¿ÑĢÐ¾Ð± Ð¾Ð²Ð°Ð»
ÐĴÐ¿ Ð¾Ð»Ð½Ðµ
ĠÑĥÑģÐ» ÑĥÐ¶
ĠÑĪÐµÐ» ÐºÑĥ
ĠÑģÐ´ ÑĥÑĢÑĥ
ĠÑĤÐ¾Ð¿ Ð¾Ð»ÐµÐ¹
ĠÐ´ÐµÐ´ ÑĥÑĪÐºÑĥ
ÐĿÐ°ÑĢ ÑĥÐ¶Ñĥ
Ð½Ð¾Ñĩ ÐºÐ¸
Ð½Ð¾Ñĩ ÐºÑĥ
ĠÑıÐ· Ð²
ĠÑıÐ· ÑĭÑĩ
ĠÑģÐ»ÑĥÑĪ Ð°Ñı
ĠÑģÐ»ÑĥÑĪ Ð°Ð»Ð¸
ĠÑģÐ»ÑĥÑĪ Ð°Ñİ
ĠÐ¿Ð»Ð°Ð¼ ÐµÐ½Ð°
ĠÐ¿Ð»Ð°Ð¼ ÐµÐ½Ð½ÑĭÑħ
ĠÐ¿Ð°Ð» Ð°ÑĤ
ĠÐ¿Ð°Ð» ÑıÑĤ
ĠÐ¿Ð°Ð» ÐºÐ°Ð¼Ð¸
ĠÐ½ÐµÐ½ Ð°ÑģÑĭÑĤ
ĠÐ±Ð¸ÑĤ Ð¾
ÐŁÐ¾Ð³ Ð¾Ð´Ð¸
ÐŁÐ¾Ð³ ÑĢÑĥÐ·
ÐĵÐ¾ÑģÐ¿Ð¾Ð´ Ð½Ñı
ÐĵÐ¾ÑģÐ¿Ð¾Ð´ ÑģÐºÐ¸Ð¹
ĠÑģÑĤÑĢÐ°Ð´ Ð°Ð»ÑĮ
ĠÑģÑĤÑĢÐ°Ð´ Ð°Ð½Ð¸Ñı
ĠÐ´ÑĢÐµÐ² Ñĥ
ĠÐ²Ð¸ÑĤÑıÐ· ÐµÐ¹
ĠÐ²ÑģÑĤÑĢÐµÑĩ ÐµÐ½
ĠÑĤÐµÑĢ ÑıÑĤÑĮ
ĠÐºÐ¾Ð¿ ÑĭÑĤ
Ð¾Ð½Ñĩ Ð°Ð»ÑģÑı
ĠÐĵÑĢ ÑĥÐ·
ĠÑĢÐ°ÑģÑģÐºÐ°Ð· Ð°
ĠÑĢÐ°ÑģÑģÐºÐ°Ð· Ð°Ð»Ð°
ĠÑĩÐ¸ÑĤ Ð°Ð»Ð¸
Ð£Ñģ ÐµÑıÐ½
Ð£Ñģ Ð°Ð´ÑĮÐ±
ĠÑģÐ¾ÑĤÐ²Ð¾ÑĢ ÐµÐ½Ð°
ĠÑģÐ¾ÑĤÐ²Ð¾ÑĢ ÑĳÐ½Ð½ÑĭÐ¹
ĠÐ½Ð¾Ð¶ ÐºÐ°
ĠÐ´Ð°Ð»ÐµÐº Ð¸
ĠÐ´Ð°Ð»ÐµÐº Ð¾Ð¹
ĠÐ´Ð°Ð»ÐµÐº Ð¸Ñħ
ĠÐºÐ¾Ð¼ Ð¿
ĠÐºÐ¾Ð¼ Ð°ÑĢÐ°
ĠÑĢÐ¾Ðº Ð¾Ð²ÑĥÑİ
ĠÐ³Ð¾ÑģÑĤ Ð¸Ð½
ĠÐ³Ð¾ÑģÑĤ ÑıÐ¼
ĠÑģÑĤÐµÐ½ Ñĥ
ĠÑģÑĤÐµÐ½ Ð¾Ñİ
ĠÑģÐ»Ð°Ð± Ð¾ÑģÑĤÐ¸
ĠÐ³ÑĢÑĥÑģÑĤ Ð½ÑĭÐ¹
ĠÐ³ÑĢÑĥÑģÑĤ Ð½Ð¾Ð¹
ĠÐ¿Ð¾ÐºÐ¾ÑĢ Ð½Ð¾
ĠÑģÑĤÑĢÐµÐ¼ ÑıÑĤÑģÑı
ĠÐ±Ð»Ð°Ð¶ÐµÐ½ ÑģÑĤÐ²Ðµ
ĠÑģÐ¾ÑģÐµÐ´ Ð½Ð¸Ñħ
ĠÑģÑĭÐ½ ÐºÐ°
ÑĩÐ°ÑĤ ÑĭÑħ
ÐŁÐ¾Ñģ ÐµÑĢÐµÐ´
ÐŁÐ¾Ñģ Ð¼Ð¾ÑĤÑĢÐµÐ»
ĠÑĪÑĥÑĤ ÐºÐ°
ĠÑĪÑĥÑĤ Ð¸ÑĪÑĮ
ĠÐ¿Ð»ÐµÑĩ Ð¾Ð¼
ĠÐ¿Ð¾Ð±ÐµÐ´ Ð¾Ð¹
ĠÐ¿Ð¸ÑĢ Ð¾Ð³
ĠÐ²Ð¾Ð»ÑĮ Ð½ÑĥÑİ
ĠÐ½Ð¾Ñģ Ð¾Ð¼
ĠÐ½Ð¾Ñģ Ð¸Ð»Ð°
ĠÐ¸Ð³ÑĢ Ð°ÑĤÑĮ
ĠÐ¸Ð³ÑĢ Ð°Ñı
ĠÐ¸Ð³ÑĢ Ð°Ð»Ð¸
ĠÐ¸Ð³ÑĢ Ð¸Ð²ÑĭÐ¹
ĠÐ¸Ð³ÑĢ ÑĥÑĪÐºÐ¾Ð¹
ĠÐ»ÑĥÐ³ Ð¾Ð¼
ĠÐ»ÑĥÐ³ Ð°Ð¼
ĠÐ»Ð¸ÑĪ Ð¸Ð»ÑģÑı
ÐĶÑĥÑĪ Ñĥ
Ð£ÑĤ Ð¾Ð¼
ÐĽÑİÐ´ ÑģÐºÐ¸Ðµ
ĠÐ¿Ð¾ÐºÐ»Ð¾Ð½ Ð¸Ð»Ð¸ÑģÑĮ
ĠÐ¿ÑĢÐ¾Ð¸Ð· Ð²Ð¾Ð´
ĠÐ¿ÑĢÐ¾Ð¸Ð· Ð¾ÑĪÐ»Ð¾
ĠÐ·Ð°ÐºÐ¾Ð½ Ð°
ĠÐ·Ð°ÐºÐ¾Ð½ Ñĥ
ĠÐ´Ð¾Ð¶Ð´ Ñİ
ĠÑĥÐ² ÑıÐ´
ĠÐ¿ÑĢÐ¸Ñģ ÐµÑģÑĤÑĮ
ĠÐ¿ÑĢÐ¸Ñģ ÑĥÐ¶Ð´
ĠÐ¿ÑĢÐ¸Ñģ Ð°Ð´Ð¸ÑģÑĤÑĭÐ¹
ĠÐ¼Ð¾Ñī Ð½Ð¾
ĠÐ´ÑĢÐµÐ¼ Ð¾ÑĤÑĭ
ĠÐ´ÑĢÐµÐ¼ Ð»Ð¸Ð²Ð°Ñı
ĠÐ¾Ð±ÑĢÐ°Ð· Ðµ
ĠÐ¾Ð±ÑĢÐ°Ð· Ñĭ
ĠÐ²Ð°Ð¶ Ð½ÑĭÐµ
ĠÐ²Ð°Ð¶ Ð½Ð°Ñı
ĠÐ½Ð°Ð¹ Ð´Ñĥ
ĠÐ½Ð°Ð¹ Ð´ÑĥÑĤ
ĠÐ½Ð°Ð¹ Ð´ÐµÐ¼
ĠÑĩÑĥÐ¶ Ð¸Ð¼
ĠÑĩÑĥÐ¶ Ð¸Ñħ
ĠÑĩÑĥÐ¶ Ð¸Ðµ
ĠÑĩÑĥÐ¶ ÑĥÑİ
ĠÑĥÐºÑĢ Ð°Ð´ÐºÐ¾Ñİ
ĠÑıÑģ Ð½Ñĭ
ĠÑıÑģ Ð½Ð°
ĠÑıÑģ Ð½ÐµÐ¹
ÐĹÐ°Ðº Ð¾Ð½Ñĭ
ĠÐ¾Ð±ÑĢÐ°ÑĤ Ð¸ÑĤ
ĠÐ¾Ð±ÑĢÐ°ÑĤ Ð¸ÑĤÑĮ
Ð¯Ð² Ð»ÐµÐ½ÑĮÑı
ĠÐ»Ð¸ÑĨ Ð°Ñħ
ĠÐ»Ð¸ÑĨ ÐµÐ·ÑĢ
ĠÑģÐ¾Ð²ÐµÑĢÑĪ Ð¸ÑĤÑĮ
ĠÑģÐ¾Ð²ÐµÑĢÑĪ ÐµÐ½Ð½Ð¾
ĠÐ²ÐºÑĥÑģ Ðµ
ĠÐ²ÐºÑĥÑģ Ð¸Ð²
ĠÐ»Ñĥ ÐºÐ¾ÑĪ
ĠÐ¾ÑĤÐº Ð°Ð·Ð°Ð»
ÐĹÐ» Ð¾ÑģÑĤÑĮ
ĠÐ¿Ð¾ÑģÐ»ÑĥÑĪ Ð°Ð¹
ĠÐ¿Ð¾ÑģÐ»ÑĥÑĪ Ð°Ð½ÑĮÐµ
ĠÐ¿Ð¾ÑģÐ»ÑĥÑĪ Ð°Ð½ÑĮÑı
ĠÑĥÐ´Ð°Ð» Ð¸Ð»Ð¸ÑģÑĮ
ĠÐ¿ÑĢÐ¾Ð¼ ÑĭÑģÐ»
ĠÐ¿ÑĢÐ¾Ð¼ ÑĭÑģÐµÐ»
ĠÐ½ÐµÑĩ ÐµÑģÑĤ
ĠÑĥÐ»ÑĭÐ± Ð°Ð»ÑģÑı
ĠÑĥÐ»ÑĭÐ± Ð°Ð»Ð°ÑģÑĮ
ĠÑĥÐ»ÑĭÐ± ÐºÐ¾Ñİ
ĠÑĥÐ»ÑĭÐ± Ð½ÑĥÐ»ÑģÑı
ĠÑĤÑĢÐµÐ¿ ÐµÑī
ĠÑĤÑĢÐµÐ¿ ÐµÑīÑĥÑĤ
ĠÑģÑĤÑĢÐµÐ» Ð¾Ñİ
ĠÑģÑĤÑĢÐµÐ» ÑıÐ»
ĠÐ²ÐµÑĤÐµÑĢ Ð¾Ðº
ĠÑģÑĥÐ¼ ÐµÐ»
ĠÑģÑĥÐ¼ ÐµÑĢÐµÐº
ĠÐ¼ÑĥÑĩ Ð¸Ð»
ĠÐ¼ÑĥÑĩ ÐµÐ½ÑĮÐµ
ĠÐ¼ÑĥÑĩ Ð¸ÑĤÐµÐ»ÑĮÐ½Ð¾
ÐĴÐ¸Ð´ ÑıÑĤ
ĠÐ¼ÐµÑĩÑĤ Ð°
ĠÐ¼ÐµÑĩÑĤ Ð°Ð¼Ð¸
ĠÐ¼ÐµÑĩÑĤ Ð°Ð½ÑĮÐµ
ĠÐ¼ÐµÑĩÑĤ Ð°ÑĤÐµÐ»ÑĮ
ĠÐ¿ÑĭÐ» Ñĥ
ĠÐ¿ÑĭÐ» Ð°Ð»
ĠÐ¿ÑĭÐ» ÐºÐ¾Ð¹
ĠÐ¿ÑĭÐ» ÐºÐ¸Ð¹
ÐºÐ¾Ð½ Ð¾Ð¼
ĠÐ²ÐµÑī Ð°Ñħ
ĠÐ²ÐµÑī ÐµÑģÑĤÐ²
ĠÐ²ÑĤÐ¾ÑĢ Ð¸Ð»
ĠÑĢÐµÐ² Ð½Ð¾ÑģÑĤÐ¸
ĠÑĢÐµÐ² Ð½Ð¾ÑģÑĤÑĮÑİ
ÐŁÐ¾ÑģÐ»ÐµÐ´ Ð½ÐµÐ¹
ÐŀÐ³ Ð»Ñı
ĠÐ¡ÑĤ Ð¾Ð»ÑĮ
ĠÐ¡ÑĤ ÑĥÐ¿Ð°Ð¹
ĠÐķÐ² Ð³
ĠÐķÐ² Ð¸Ð½
ĠÐķÐ² ÑĢÐ¾Ð¿
ĠÑĤÐ¾ÑĢÐ¶ ÐµÑģÑĤÐ²Ð°
Ð°Ñī Ð¸Ð¼
Ð°Ñī Ð¸Ñħ
ĠÐ²Ð½Ð¸Ð¼ Ð°ÑĤÑĮ
ĠÐ²Ð½Ð¸Ð¼ Ð°Ð½ÑĮÐµÐ¼
ĠÑĤÐµ Ð°ÑĤ
ĠÐ´ÑĥÐ± Ð¾Ð²ÑĭÐ¹
ĠÑģÐ»ÑĥÑĩ Ð°Ð»Ð¾ÑģÑı
ĠÑĤÑĢÐµÐ² Ð¾Ð¶Ð¸ÑĤÑĮ
ĠÑĤÑĢÐµÐ² Ð¾Ð³Ð¸
ĠÐ³Ð¾ÑĢÑĮ ÐºÐ°
ĠÐ³Ð¾ÑĢÑĮ ÐºÐ¾Ðµ
ĠÐ³Ð¾ÑĢÑĮ ÐºÑĥÑİ
ĠÐ¾ÑĤÐ²ÐµÑĩ Ð°Ð¹
ĠÐ·Ð°Ð» Ñĥ
ĠÐ¶Ð¸Ð» ÑĮÑı
ĠÐ»Ð¸ÑģÑĤ Ð¾Ð²
ĠÐ»Ð¸ÑģÑĤ Ð¾Ðº
ĠÐ±ÑĢÐ¾Ñģ Ð¸Ð»ÑģÑı
ĠÐ¿Ð¾ÐºÐ¾Ð¹ Ð½Ð¸ÐºÐ°
ÐļÑĢÐ°Ñģ Ð½ÑĭÐµ
ĠÐ²ÐµÐ»Ð¸Ñĩ ÑĮÐµ
ĠÐ²ÐµÐ»Ð¸Ñĩ Ð°Ð²Ð°
ĠÐ²Ð»Ð°Ð´ ÑĭÑĩÐ¸
ĠÐºÐ°ÑĤ Ð°ÐµÑĤÑģÑı
ÐŀÑģÑĤ Ð°Ð»ÑģÑı
ÐŀÑģÑĤ Ð°ÑĤÑĮÑģÑı
ÐŀÑģÑĤ ÐµÑĢÐµÐ¶
ĠÑĥÐ½Ñĭ Ð»Ð°
ĠÑĥÐ½Ñĭ Ð½ÑĮÐµÐ¼
ĠÑģÐºÐ°Ð¶ ÐµÑĪÑĮ
ĠÐ¼ÑĥÐ¶Ð¸Ðº Ñĥ
ĠÐ¼ÑĥÐ¶Ð¸Ðº Ð¾Ð¼
ÐŁÐ¾Ð· Ð°Ð´Ð¸
ÐŁÐ¾Ð· Ð½Ð°Ð½ÑĮÐµ
ÐŁÐ¾Ð· Ð²Ð¾Ð»ÑĮÑĤÐµ
ĠÐ½Ð°ÑģÑĤ Ð°Ð»Ð°
ĠÐ½Ð°ÑģÑĤ Ð¸Ð³
ĠÐ¾ÑĤÑĩ ÑĳÑĤ
ĠÐ¾ÐºÑĢÑĥÐ¶ Ð½Ð¾ÑģÑĤÐ¸
ĠÐ½ÐµÐ½Ð°Ð² Ð¸Ð¶Ñĥ
ĠÐ±Ð°ÑĪ Ð½Ðµ
ĠÐ±Ð°ÑĪ Ð½ÐµÐ¹
ĠÐ±Ð°ÑĪ Ð½Ñİ
ĠÐ³Ð¸Ð± Ð½Ñĥ
ĠÐ³Ð¸Ð± Ð½ÐµÑĤ
ÐĴÐ¾Ð» Ð½Ñĭ
ÐľÑĥÐ¶ Ð¸ÑĨ
ĠÑģÐºÐ»Ð¾Ð½ Ðµ
Ð¾ÑħÐ¾ÑĤ Ð½Ð¾
ĠÐĸ ÐµÐ½Ð°
ĠÐ²Ðº Ð¾ÑģÑĮ
ĠÑĤÐ²Ð¾ÑĢ Ñı
ĠÑĤÐ²Ð¾ÑĢ Ð¸ÑĤÑĮ
ĠÐ¼ÐµÑĢÑĤÐ² Ð¾Ð³Ð¾
ĠÐ¼ÐµÑĢÑĤÐ² ÑĭÑħ
ÐĿÐ°Ð² ÑĢÑıÐ´
ĠÐ¿ÑĢÐ¾Ñħ Ð¾Ð¶Ð¸Ð¹
ĠÐ»Ð°Ð´ Ñĭ
ĠÐ»Ð°Ð´ ÑĮÑİ
ĠÐ»Ð¾Ð¶ Ð°
ĠÐ»Ð¾Ð¶ Ð¸ÑĤÑģÑı
ĠÐ»Ð¾Ð¶ Ð¸ÑģÑĮ
ÐĹÐ°Ð² ÐµÑĤ
ÐĹÐ°Ð² Ð¸Ð´
ÐĹÐ°Ð² ÑĤÑĢÐ°
ÐĹÐ°Ð¿ Ð¸ÑģÐºÐ¸
Ð£Ð± ÑĮÑİ
Ð£Ð¿ ÑĢÑıÐ¼
ĠÐ¿Ð¾Ð´Ð¾Ð± ÑĮÑı
ĠÐ¿Ð¾Ð´Ð¾Ð± Ð½Ð¾Ð³Ð¾
ĠÐ¿Ð¾Ð´Ð¾Ð± ÑĮÐµ
ĠÐ³Ð»ÑĥÐ¿ Ð¾Ð³Ð¾
ĠÐ³Ð»ÑĥÐ¿ Ð¾ÑģÑĤÐ¸
ĠÐ³Ð»ÑĥÐ¿ ÑĨÐ¾Ð²
ĠÐºÑĢÐµÑģÑĤÑĮÑıÐ½Ð¸ Ð½
ĠÐ²Ð¾ÑĢÐ¾ÑĤ ÑıÑģÑĮ
ĠÐ¨ ÑĥÑĤ
ĠÐ¨ ÐµÑģÑĤÐ¾Ð¹
ĠÐ¾Ð² ÑĨÑĥ
ĠÐ´ÐµÐ»Ð° ÐµÑĪÑĮ
ĠÐ±Ð°Ð» Ð°Ñħ
ĠÐ¿ÑĢÐ¸Ñĩ Ð¸Ð½Ð°
ĠÐ¿ÑĢÐ¸Ñĩ Ð¸Ð½Ðµ
ÐľÐ¾ Ð¸Ð¼
ĠÑĪÐ°ÑĤ ÑĢÐ¾Ð²
ĠÑĪÐ°ÑĤ ÑĢÐµ
ĠÑģÐ¼Ð¾ÑĤÑĢ ÐµÑĤÑĮ
ĠÐŁÐµÑĤ ÑĥÑĪÐºÐ¾Ð²
ĠÐ¿Ð»ÐµÐ½ Ð¸ÑĤÑĮ
ĠÐ¼Ð¾Ð³Ð¸Ð» Ð°Ñħ
ĠÐ·Ð½Ð°ÐºÐ¾Ð¼ Ð°
ĠÐ·Ð½Ð°ÐºÐ¾Ð¼ ÑĭÐ¹
ĠÐ´ÑĭÑĪ Ð¸ÑĤÑģÑı
ĠÐ¿ÑĢÐ¸ÑĤ Ð¸Ñħ
ĠÐ¿ÑĢÐ¸ÑĤ ÑĥÐ¿
ÐŁÐ¾Ñĩ ÐµÐ¼Ñĥ
Ð¸Ð½ÑģÑĤÐ² ÐµÐ½Ð½Ð¾Ð¹
ĠÑģÑĤÐ¸Ñħ Ð¸Ð¹
ĠÑģÑĤÐ¸Ñħ Ð¸Ñı
ÐŁÑĢÐ¾ÑĤÐ¸Ð² Ð½Ð¸ÐºÐ°
Ð§ÑĥÐ´ ÐµÑģ
ĠÐ²Ð¾Ð»Ð½ Ð°Ð¼Ð¸
ĠÑģÑĥÐ¿ÑĢÑĥÐ³ Ð¸
ĠÐ¿ÑıÑĤ Ð¸
ĠÐ¿ÑıÑĤ Ð½Ð¾
ĠÐ¿ÑĭÑĪ ÐµÑĤ
ĠÐ¿ÑĭÑĪ Ð½Ð°
ĠÐ¿ÑĭÑĪ Ð½ÑĭÑħ
ĠÐ¸Ð´ ÑĳÑĤ
ĠÐ³Ð¾Ð½ ÑıÑĤ
ÐĶÐ¾Ð² ÐµÑĢ
ÐĶÐ¾Ð² Ð¾Ð»ÑĮÐ½ÑĭÐ¹
ÐĹÐ°Ð¼ Ð¾Ð»Ðº
ĠÑĢÐ°Ð·Ð² Ð»ÐµÑĩ
ĠÐ³Ð¾Ð»Ð¾Ð´ ÐµÐ½
ĠÐºÑĢÐµÑģÑĤÑĮÑıÐ½ ÐºÐµ
ĠÐºÑĢÐµÑģÑĤÑĮÑıÐ½ ÑģÐºÐ¸Ð¹
ĠÐºÑĢÐµÑģÑĤÑĮÑıÐ½ ÑģÐºÐ°Ñı
Ð¤ Ð¸Ð½Ð³Ð°Ð»
ĠÐ½ÐµÐ³ Ð°
ĠÑĩÐµÑģÑĤ Ð½Ð¾Ð¹
ĠÑĥÑĩ ÐµÐ½
ĠÑĥÑĩ Ð¸ÑĤÐµÐ»ÑĮ
ÐĵÐ»Ð°Ð² Ñĭ
ÐłÐ¾Ð´ Ð½Ð¾Ð¹
ÐłÐ¾Ð´ Ð¸Ð½Ð°
ĠÐ½ÐµÑģÑĩÐ°ÑģÑĤ ÑĮÑİ
ĠÐ½ÐµÑģÑĩÐ°ÑģÑĤ Ð»Ð¸Ð²
ĠÑĩÑĥÐ²ÑģÑĤÐ² ÑĥÑİ
ĠÑĩÑĥÐ²ÑģÑĤÐ² Ð¾Ð²Ð°Ð»
ĠÐ´ÑĭÐ¼ Ñĥ
ĠÐºÐ¾Ð² ÑĢÐ°Ð¼Ð¸
Ð¡Ð¸Ð´ ÑıÑĤ
ÐŁÑĢÐ¾Ñģ Ð¸Ð»
ÐŁÑĢÐ¾Ñģ Ð½ÑĥÐ»Ð°ÑģÑĮ
ÐŁÑĢÐ¾Ñģ Ð½Ð¸ÑģÑĮ
Ð§ÐµÑĢ Ð½Ð°Ñı
ĠÑĤÑĢÑĥÐ± Ñĥ
ĠÐ±ÐµÑģÑģ Ð¼ÑĭÑģÐ»
ĠÐ²Ð·Ð´Ð¾Ñħ Ð¾Ð²
ĠÐ²Ð·Ð´Ð¾Ñħ Ð½ÑĥÑĤÑĮ
ĠÐ²ÑģÑĤ Ð°ÑİÑĤ
ĠÐ´Ð°Ð¼ Ð°
ĠÐºÑĥÑģÑĤ Ð°
ÐĴÑĢÐ°Ð³ Ñĥ
ĠÑģÐ²ÐµÐ¶ Ð¸Ð¹
ĠÑģÐ²ÐµÐ¶ ÐµÐ³Ð¾
Ð£Ð´ Ð¾Ð±
ĠÐ²ÑĭÐ´ Ð°ÑĤÑĮ
ĠÐ¸Ð·Ð³ Ð¾Ð»Ð¾Ð²
ĠÐ¸Ð·Ð³ Ð½Ð°Ð½ÑĮÑı
ĠÐ¿Ð»Ð¾ÑĤ Ð½Ð¾
ĠÐ¿Ð»Ð¾ÑĤ ÑĮÑİ
ĠÑĥÑĤÑĢÐµÐ½ Ð½ÐµÐ¼
ĠÐ¶ÐµÐ½Ñī Ð¸Ð½
ĠÐ¿ÑĢÐ¾ÐºÐ»ÑıÑĤ Ð°
ĠÐ¿ÑĢÐ¾ÐºÐ»ÑıÑĤ ÑĭÐµ
ĠÐ¾ÑģÐº Ð¾Ð»
ÐĿÐ°ÑĪ Ð»Ð¸
ĠÐ±ÐµÐ·ÑĥÐ¼ ÑĮÐµ
ÐĴÑģÑİ Ð´Ñĥ
ĠÑģÑĤÑĢÐ¾Ð³ Ð¾Ð¼
ÐŁÐ¾Ð´Ð¾Ð± Ð½ÑĭÑħ
ÐĸÐµÐ» Ð°Ñı
ÐĸÐµÐ» Ð°Ð½ÑĮÐµ
ĠÑģÐµÐ» Ð¾Ð¼
ĠÑģÐµÑģÑĤ ÑĢÐ¾Ð¹
ĠÐ½ÐµÑĢ ÑĥÑĪ
ĠÐ´Ð¸Ðº Ð¾Ðµ
ĠÐºÐ¾ÑģÑĤ ÑĢÐ°
ĠÐºÐ¾ÑģÑĤ Ð¾ÑĩÐºÐ¸
ĠÐ¿ÑĢÐ¸Ð» Ð¾Ð¶
ĠÐ¿ÑĢÐ¸Ð» ÐµÑĤÐµÐ»
ĠÐ¿ÑĢÐµÑģÑĤÑĥÐ¿ Ð¸ÑĤÑĮ
ĠÐ¿ÑĢÐµÑģÑĤÑĥÐ¿ Ð»ÐµÐ½ÑĮÐµ
ĠÑĥÑĪ Ð»Ð¸
ĠÐ²ÑĭÑĢ Ð²Ð°Ð»
Ð½Ð°Ð² Ð°ÑĤÑĮ
ĠÑĤÑİ ÑĢÐµÐ¼
ĠÑĤÐµÑĢÐ¿ ÐµÐ½ÑĮÐµÐ¼
ĠÑħÐ²Ð°Ð» Ð¾Ð¹
Ð£Ð· Ð½Ð°Ð»
ÐĵÐ¾ÑĤÐ¾Ð² ÑıÑģÑĮ
ĠÑĢÐ°Ð·Ð³ Ð¾Ð²Ð°ÑĢÐ¸Ð²Ð°ÑĤÑĮ
ĠÐºÐ¾Ð½Ñĩ ÐµÐ½
ĠÐºÐ¾Ð½Ñĩ Ð°ÐµÑĤÑģÑı
ĠÑģÐ¾Ð±ÑĢ Ð°Ð²
ÐŁÐ¾Ð½ ÑıÑĤ
ÐŁÐ¾Ð½ Ð¸Ðº
Ð¡ÐµÑĢÐ´ ÑĨÐ°
Ð¡ÐµÑĢÐ´ ÐµÑĩÐ½ÑĭÐ¹
ĠÐ»Ð¸Ðº ÑĥÑı
ĠÐ»Ð¾ÑĪÐ°Ð´ ÑĮ
ĠÐ»Ð¾ÑĪÐ°Ð´ ÐºÐ¸
Ð¢Ð²Ð¾ÑĢ ÐµÐ½ÑĮÐµ
ĠÐ¡Ñĭ Ð½Ð¾Ð²
ĠÐ¡Ñĭ Ð½Ð¾Ð¼
ĠÑĤÑĢÐ¾Ð½ ÑĥÐ»Ð°ÑģÑĮ
ĠÐ¿ÑĢÐ¸Ð¿ Ð»
ĠÐ¿ÑĢÐ¸Ð¿ Ð°Ð»
ĠÐ¿ÑĢÐ¸Ð¿ Ð¾Ð´
ĠÐ¿ÑĢÐ¸Ð¿ Ð°Ð²
ĠÐĶÑĢÐµÐ² Ñĥ
ĠÑĤÐµÐ¼Ð½Ð¾ ÑĤÑĭ
ĠÐ²ÐµÑģÐµÐ» Ð¸Ð¹
ĠÐ²ÐµÑģÐµÐ» ÑĭÑħ
ĠÑģÐµÑĢÐµÐ± ÑĢ
ĠÑģÐµÑĢÐµÐ± ÑĢÐµ
Ð¼Ð°ÑĤ ÑĥÑĪÐºÑĥ
ĠÑĤÐµÑģ Ð½ÐµÐ¹
ĠÑĤÐµÑģ Ð½Ð¸ÑĤ
ĠÑĤÐ¾Ð²Ð°ÑĢ Ð¾Ð¼
ÐµÐ¼Ñı ÑĪÐ¸ÑĤÑģÑı
Ð¡Ð¾Ð·Ð´ Ð°Ð²
Ð¡Ð¾Ð·Ð´ Ð°Ð½ÑĮÑı
ĠÐ»Ð¾Ð² ÐºÐ¾
ĠÑĪÐ°ÑĢ Ð°Ñħ
ĠÐ³Ð¾Ð»ÑĥÐ± ÑĮ
ĠÐ²ÐµÑĢÑĪ Ð¸Ð½
ĠÐ²ÑĭÑģÐ¾Ðº Ð¾Ð³Ð¾
ĠÐ¸ÑģÐ¿ÑĥÐ³ Ð°Ð»ÑģÑı
ĠÑģÐ¾Ð¼Ð½ ÐµÐ½Ð¸Ñı
ĠÐ¼Ð¸Ð½ÑĥÑĤ Ð°
ĠÑĢÐ¾Ð± ÐºÐ¸Ð¹
ĠÑĢÐ¾Ð± ÐºÐ¸Ðµ
ĠÐ¿ÑĢÐ¾Ð³ Ð½Ð°Ð»Ð¸
ĠÐ¿ÑĢÐ¾Ð³ ÑĢÐµÐ¼ÐµÐ»
ĠÐ¾ÑĤÑĢÐ°Ð´ Ñĭ
ĠÐ¾ÑĤÑĢÐ°Ð´ Ð½ÑĭÐ¹
ÐŁÑĢÐ¾Ð² Ð¸Ð´
ĠÐ²ÑĭÐ± ÑĮÐµÑĪÑĮ
ĠÑģÐ¼Ð¸ÑĢ ÐµÐ½Ð½Ð¾
ĠÐ±Ð»ÐµÑģÑĤ ÑıÑĤ
ĠÐ²Ð¾Ð»ÑĪÐµÐ± Ð½ÑĭÐ¼
ĠÑĥÐ¼Ð¸ÑĢ Ð°Ð»
ĠÐ¿Ð¾Ð²ÐµÐ» ÐµÐ²Ð°ÑĤÑĮ
ĠÐ¿ÑĢÐ¾Ñī Ð°Ð½ÑĮÐµ
ĠÐ¿ÑĢÐ¾Ñī Ð°ÑıÑģÑĮ
ĠÐºÐ°ÑĢÑĤ ÑĥÐ·
ĠÐºÐ°ÑĢÑĤ Ð¸Ð½Ð°
ĠÐºÐ°ÑĢÑĤ Ð¸Ð½Ñĭ
ÑħÐ²Ð°ÑĤ Ð¸Ð»
ĠÐ¼Ð¾ÑģÑĤ Ð°
ĠÐ¼Ð¾ÑģÑĤ Ñĥ
ĠÐ¼Ð¾ÑģÑĤ Ñĭ
ĠÐ»ÐµÐ¶ Ñĥ
ÐĹÐ² Ð°Ð»Ð°
ĠÐ¾Ð±Ð¸Ð´ Ñĭ
ĠÐĶÐµÐ¼ ÑĥÑĪÐºÐ°
ÐĺÐ·Ð± ÐµÐ³
[...]
