{"!":0,"\"":1,"#":2,"$":3,"%":4,"&":5,"'":6,"(":7,")":8,"*":9,"+":10,",":11,"-":12,".":13,"/":14,"0":15,"1":16,"2":17,"3":18,"4":19,"5":20,"6":21,"7":22,"8":23,"9":24,":":25,";":26,"<":27,"=":28,">":29,"?":30,"@":31,"A":32,"B":33,"C":34,"D":35,"E":36,"F":37,"G":38,"H":39,"I":40,"J":41,"K":42,"L":43,"M":44,"N":45,"O":46,"P":47,"Q":48,"R":49,"S":50,"T":51,"U":52,"V":53,"W":54,"X":55,"Y":56,"Z":57,"[":58,"\\":59,"]":60,"^":61,"_":62,"`":63,"a":64,"b":65,"c":66,"d":67,"e":68,"f":69,"g":70,"h":71,"i":72,"j":73,"k":74,"l":75,"m":76,"n":77,"o":78,"p":79,"q":80,"r":81,"s":82,"t":83,"u":84,"v":85,"w":86,"x":87,"y":88,"z":89,"{":90,"|":91,"}":92,"~":93,"¡":94,"¢":95,"£":96,"¤":97,"¥":98,"¦":99,"§":100,"¨":101,"©":102,"ª":103,"«":104,"¬":105,"®":106,"¯":107,"°":108,"±":109,"²":110,"³":111,"´":112,"µ":113,"¶":114,"·":115,"¸":116,"¹":117,"º":118,"»":119,"¼":120,"½":121,"¾":122,"¿":123,"À":124,"Á":125,"Â":126,"Ã":127,"Ä":128,"Å":129,"Æ":130,"Ç":131,"È":132,"É":133,"Ê":134,"Ë":135,"Ì":136,"Í":137,"Î":138,"Ï":139,"Ð":140,"Ñ":141,"Ò":142,"Ó":143,"Ô":144,"Õ":145,"Ö":146,"×":147,"Ø":148,"Ù":149,"Ú":150,"Û":151,"Ü":152,"Ý":153,"Þ":154,"ß":155,"à":156,"á":157,"â":158,"ã":159,"ä":160,"å":161,"æ":162,"ç":163,"è":164,"é":165,"ê":166,"ë":167,"ì":168,"í":169,"î":170,"ï":171,"ð":172,"ñ":173,"ò":174,"ó":175,"ô":176,"õ":177,"ö":178,"÷":179,"ø":180,"ù":181,"ú":182,"û":183,"ü":184,"ý":185,"þ":186,"ÿ":187,"Ā":188,"ā":189,"Ă":190,"ă":191,"Ą":192,"ą":193,"Ć":194,"ć":195,"Ĉ":196,"ĉ":197,"Ċ":198,"ċ":199,"Č":200,"č":201,"Ď":202,"ď":203,"Đ":204,"đ":205,"Ē":206,"ē":207,"Ĕ":208,"ĕ":209,"Ė":210,"ė":211,"Ę":212,"ę":213,"Ě":214,"ě":215,"Ĝ":216,"ĝ":217,"Ğ":218,"ğ":219,"Ġ":220,"ġ":221,"Ģ":222,"ģ":223,"Ĥ":224,"ĥ":225,"Ħ":226,"ħ":227,"Ĩ":228,"ĩ":229,"Ī":230,"ī":231,"Ĭ":232,"ĭ":233,"Į":234,"į":235,"İ":236,"ı":237,"Ĳ":238,"ĳ":239,"Ĵ":240,"ĵ":241,"Ķ":242,"ķ":243,"ĸ":244,"Ĺ":245,"ĺ":246,"Ļ":247,"ļ":248,"Ľ":249,"ľ":250,"Ŀ":251,"ŀ":252,"Ł":253,"ł":254,"Ń":255,"ĠÐ":256,"Ð¾":257,"Ðµ":258,"Ð°":259,"ÑĤ":260,"Ð¸":261,"Ð¾Ð":262,"Ñģ":263,"čĊ":264,"ÑĢ":265,"Ð½":266,"Ð»":267,"Ñĥ":268,"ÐµÐ":269,"Ð°Ð":270,"Ñĭ":271,"ÑĮ":272,"Ñı":273,"ĠÑģ":274,"ĠÐ¿":275,"Ðº":276,"ĠÐ²":277,"Ð²":278,"Ð´":279,"ĠÐ½":280,"Ñĩ":281,"Ð¼":282,"Ñħ":283,"ÑģÑĤ":284,"ÑĪ":285,"ÐµÐ½":286,"Ñİ":287,"ĠÑĤ":288,"ĠÐ¾":289,"Ð¾Ð¹":290,"ÐµÑĤ":291,"Ð°Ð»":292,"Ð¾Ð»":293,"ĠÐ´":294,"ĠÐ¸":295,"Ð¾Ð²":296,"ĠÐ±":297,"ĠÐ¼":298,"ÐµÑĢ":299,"ĠÐº":300,"Ð½Ñĭ":301,"âĢ":302,"Ð¹":303,"Ð¾ÑĢ":304,"ÐµÐ»":305,"ÑĥÐ":306,"Ð¸ÑĤ":307,"Ð¾Ð´":308,"Ð¾Ð¼":309,"Ð¸Ð»":310,"ÐĿ":311,"ĠÐ·":312,"Ðĺ":313,"ÐµÐ¼":314,"ĠÑĢ":315,"ĠÐ³":316,"Ð°ÑĤ":317,"ĠÐ¿ÑĢ":318,"ÐŁ":319,"ÐĴ":320,"Ð·":321,"Ð°Ðº":322,"Ð¾Ð³":323,"Ð½Ð¾":324,"Ð¡":325,"Ð±":326,"ÑģÑı":327,"Ð¿":328,"ÑĨ":329,"Ð¾ÑĤ":330,"Ð°Ð¼":331,"Ð³":332,"ĠÐ»":333,"ÐµÐ´":334,"Ð°Ð²":335,"Ð°Ð½":336,"âĢĶ":337,"Ð¾Ñģ":338,"Ð°Ñģ":339,"Ð°ÑĢ":340,"ÑĤÐ¾":341,"ÐµÐ¹":342,"ĠÐ½Ðµ":343,"Ñī":344,"Ð½Ð¸":345,"ĠÑĩ":346,"Ð°Ð´":347,"ÐµÑģ":348,"Ðŀ":349,"Ð°Ð·":350,"Ð¸Ð½":351,"Ð¾Ð½":352,"Ðļ":353,"ĠÑģÑĤ":354,"ÐºÐ¸":355,"ĠâĢĶ":356,"ĠÐ½Ð°":357,"Ð¾Ð±":358,"Ð¢":359,"ÑĥÐ´":360,"Ð¾Ðº":361,"Ð¸Ð²":362,"Ð½ÑĭÐ¹":363,"ĠÐ¶":364,"Ð½Ð°":365,"ÑĥÑĤ":366,"ÐµÐ²":367,"Ð¾Ð·":368,"Ñĳ":369,"Ð¸Ð¼":370,"ÐµÐ±":371,"Ð°ÑĤÑĮ":372,"ÐµÑģÑĤ":373,"ĠÐµ":374,"ÐĶ":375,"Ð»Ð¸":376,"ĠÑĥ":377,"Ð¾Ð¶":378,"ÐµÐ·":379,"Ð¶":380,"Ð¾ÑģÑĤ":381,"ÑıÑĤ":382,"Ð¾Ñĩ":383,"ÐºÐ°":384,"Ð½Ð¾Ð¹":385,"ÐµÐ³":386,"ÐµÐ½ÑĮ":387,"ĠÑı":388,"ÐµÑĩ":389,"ÑĥÐ¶":390,"ÑĥÐ³":391,"ĠÑģÐ²":392,"âĢ¦":393,"ÑģÑĮ":394,"ĠÐ¾ÑĤ":395,"Ð½Ñĥ":396,"ĠÐ±Ñĭ":397,"Ð¸Ñħ":398,"ÐŁÑĢ":399,"Â«":400,"Ð»Ð°":401,"ĠÐºÑĢ":402,"Â»":403,"Ð§":404,"ÑĥÑĪ":405,"ĠÑģÐ»":406,"ÐµÐº":407,"Ð°Ñı":408,"Ð¾Ð³Ð¾":409,"ĠÑħ":410,"Ð»Ñı":411,"Ðľ":412,"Ð¾Ð»ÑĮ":413,"Ð½Ðµ":414,"Ðĳ":415,"ÐµÐ¶":416,"ÑĭÐ¹":417,"Ð¸ÑĤÑĮ":418,"Ð¸ÑĢ":419,"ÐĹ":420,"Ð°Ð¶":421,"Ð¸Ð´":422,"ÐĿÐµ":423,"Ð£":424,"ĠÐ²Ñģ":425,"ÐĲ":426,"ÐµÐ¿":427,"ĠÐ¾Ð±":428,"Ð¸Ðº":429,"Ð°Ð¹":430,"Ð¾Ð¿":431,"Ð¸Ð¹":432,"ÑģÑĤÐ²":433,"Ð½ÑĭÑħ":434,"ÐºÐ¾":435,"Ðĵ":436,"Ð°Ð»Ð¸":437,"Ð°Ð±":438,"Ð°Ð³":439,"ÐµÐ»ÑĮ":440,"ÑĢÐ°":441,"ÐµÑĪ":442,"ĠÐ³ÑĢ":443,"ÑĥÐ¼":444,"ĠÐ¿Ð¾Ð´":445,"ÑĥÑĩ":446,"âĢĵ":447,"ĠÐ¿Ð¾":448,"ÑģÐº":449,"ĠÐ²Ñĭ":450,"Ð´Ð°":451,"Ð³Ð¾":452,"ĠÐ¾Ð½":453,"ĠÑĪ":454,"ĠÐºÐ°Ðº":455,"ĠÐ¡":456,"ĠÐ¸Ð·":457,"ĠÑĩÑĤÐ¾":458,"ÑĥÐ±":459,"ÑĮÑı":460,"Ð°Ñħ":461,"ĠÐĿ":462,"Ð½ÑĭÐµ":463,"ĠÑģÐº":464,"ÐĿÐ°":465,"ÑĥÐ¿":466,"Ð°ÐµÑĤ":467,"ÑĢÑĥÐ³":468,"Ð¾Ñİ":469,"Ð¸ÑĪ":470,"ĠÑĤÑĭ":471,"ĠÑĢÐ°Ð·":472,"Ð°Ð¼Ð¸":473,"ĠÐ¿Ð¾Ð»":474,"Ð½Ñı":475,"Ð¯":476,"Ðł":477,"ÐºÑĥ":478,"Ð°Ð»Ð°":479,"Ð°ÑģÑĤ":480,"ÐļÐ°Ðº":481,"ĠÑ":482,"ÑĭÑħ":483,"ĠÐ»Ñİ":484,"ĠÑĤÑĢ":485,"ĠÐĴ":486,"Ð¸Ð»Ð¸":487,"Ð°Ð¿":488,"Ð§ÑĤÐ¾":489,"Ð½ÑĭÐ¼":490,"Âł":491,"Ðķ":492,"ÐĿÐ¾":493,"Ð´Ðµ":494,"Ð¸Ñĩ":495,"ĠÐ¢":496,"Ð¸Ð·":497,"ĠÐ·Ð°":498,"ÐĽ":499,"Ð¸Ðµ":500,"ÐŀÑĤ":501,"ĠÐ³Ð¾ÑĢ":502,"ÑİÑĤ":503,"ÐµÐ³Ð¾":504,"ĠÑģÐ¼":505,"Ð²Ð¾":506,"ĠÑģÐ¿":507,"ĠÑį":508,"ÑĭÐµ":509,"ĠÐŁ":510,"ĠâĢĵ":511,"ÐµÑħ":512,"ĠÐ»Ð¸":513,"ÑĥÑħ":514,"Ð°ÑģÑĮ":515,"Ð½Ð°Ñı":516,"ÑĨÐ°":517,"Ð»Ð¾":518,"ÑĭÐ¼":519,"ĠÐ±ÐµÐ·":520,"!Â»":521,"ĠÑĨ":522,"ÑģÐºÐ¸":523,"ĠÑĤÐ°Ðº":524,"ÐµÑĨ":525,"ÑĥÑİ":526,"ÐµÑĢÑĤ":527,"ÑĮÑİ":528,"ĠÐ²Ð·":529,"Ð¸Ð»Ð°":530,"ÐĴÑģ":531,"ÑĥÑģÑĤ":532,"ĠÐ¿ÐµÑĢ":533,"ĠÐ¿Ð»":534,"ĠÐ²Ð¾Ð·":535,"ĠÐ³Ð»":536,"Ð½ÐµÐ¹":537,"ÑĥÑĢ":538,"Ð½Ð¾Ð³Ð¾":539,"ĠÐ¼Ð¾Ð»":540,"ĠÐ¾Ð´":541,"ĠÐ°":542,"ĠÐĳ":543,"ĠÐĲ":544,"ĠÑģÑĤÑĢ":545,"ÑĭÐ²":546,"ÐŀÐ½":547,"Ð¾ÑģÐ»":548,"ĠÐ¿ÑĢÐ¸":549,"Ð¾Ð³Ð´Ð°":550,"ĠÐµÐ³Ð¾":551,"ĠÐ±Ð»":552,"Ð°Ð»ÑĮ":553,"ĠÐŀ":554,"ÐµÐ»Ð¸":555,"ÑģÐ»":556,"Ð¸Ñı":557,"Ð¾ÑĪ":558,"Ð²Ð¾ÑĢ":559,"ÑĭÑĪ":560,"ÑĮÐµ":561,"Ð½Ð¸Ðº":562,"ÑıÑĤÑĮ":563,"ÐºÐ¾Ð¹":564,"..":565,"ĠÐ¼Ð¾":566,"ĠÐ¼Ñĭ":567,"ĠÐ±ÑĢ":568,"ÐµÑĢÐ´":569,"Ð¸ÑģÑĤ":570,"ĠÐĶ":571,"ĠÐ»ÑİÐ±":572,"Ð¾Ð¼Ñĥ":573,"Ð¸ÑĪÑĮ":574,"ĠÐ½Ð°Ð´":575,"ĠÐĵ":576,"Ð¡ÑĤ":577,"ĠÐ¿Ð¾Ðº":578,"ĠÐ¸Ñħ":579,"Ð¸Ð»ÑģÑı":580,"ÑĥÑĤÑĮ":581,"ĠÑģÐ²Ð¾":582,"ĠÐľ":583,"ĠÐ¼Ð½Ðµ":584,"ÑĥÐ·":585,"ÑĳÐ½":586,"ÑĭÐ»":587,"ÑģÑĤÑĢ":588,"ĠÐ¶Ðµ":589,"Ð°ÑĪ":590,"ÐŁÐ¾Ð´":591,"Ð¾ÑģÐ¿":592,"ĠÐ´ÑĢ":593,"ĠÐļ":594,"Ð¾Ð±ÑĢ":595,"ÐµÐ½ÑĮÐµ":596,"ĠÐ½Ð°ÑĪ":597,"Ð½Ð¾Ð²":598,"Ð²Ð°":599,"Ð½Ð¾Ðµ":600,"ÑĢÐ°Ð²":601,"ĠÐ½Ð¸":602,"ĠÑģÑĤÐ°ÑĢ":603,"ĠÐ¿Ð¾ÑĢ":604,"Ð¸ÑĤÑģÑı":605,"Ð¾Ñħ":606,"Ð¢Ð°Ðº":607,"ĠÐ½Ð°Ñģ":608,"ĠÐ²ÑĢ":609,"ÑĥÑī":610,"ĠÑĢÐ°Ñģ":611,"Ð²ÐµÑĤ":612,"ÐµÑĪÑĮ":613,"ĠÐ±ÑĥÐ´":614,"Ð²ÐµÑĢ":615,"Ð»Ð°Ð´":616,"ĠÑįÑĤ":617,"ÑĭÑĤ":618,"ÐµÐ½Ñı":619,"ĠÑĢÑĥ":620,"ÐºÑĢ":621,"Ð½ÑĥÐ»":622,"ÐµÑī":623,"ÐµÐ½Ð½ÑĭÐ¹":624,"ĠÐ´Ð¾Ð»":625,"ĠÑĥÐ¶":626,"ÑĦ":627,"ĠÐ²Ð¸Ð´":628,"ÑģÑĤÑĮ":629,"ÐµÑģÑĮ":630,"ĠÐ¿ÑĢÐµÐ´":631,"Ð»Ñİ":632,"ÐµÐ»Ð°":633,"ÐµÐ±Ðµ":634,"ÐµÐ½ÑĮÑı":635,"ĠÐ³Ð¾Ð»":636,"ÐĶÐ°":637,"ĠÐ±ÑĭÐ»":638,"ĠÐ²ÐµÑĢ":639,"ÐµÐ±ÐµÑģ":640,"Ð¾Ð²Ð¾ÑĢ":641,"ÐµÐ±Ñı":642,"Ð¸Ð½Ñĥ":643,"ÑĨÐµ":644,"ĠÐĹ":645,"Ð¾ÑģÑĮ":646,"ĠÐ²Ð¾Ð»":647,"Ð¸Ð³":648,"Ð¸ÑĤÐµÐ»ÑĮ":649,"ÐŁÐ¾":650,"Ð¥":651,"Ð½ÑĥÑİ":652,"ÑīÐµ":653,"ĠÑģÐ°Ð¼":654,"ĠÐ½Ð¾":655,"ÐĺÐ·":656,"ĠÐ²ÑģÐµ":657,"Ð»Ð¸Ð²":658,"ÐºÐµ":659,"Ð¢Ñĭ":660,"ÑıÐ´":661,"ĠÐ½ÐµÑĤ":662,"ĠÐºÐ¾Ð½":663,"Ð¾Ð»ÑĮÐºÐ¾":664,"Ð¾Ðµ":665,"Ð¸ÑģÑĮ":666,"ĠÐ´ÑĢÑĥÐ³":667,"ĠÑĢÐ¾Ð´":668,"ĠÑĥÐ¼":669,"ĠÐł":670,"Ð°Ñİ":671,"ĠÑģÑĤÑĢÐ°":672,"ĠÑģÐ²ÐµÑĤ":673,"ĠÂ«":674,"Ð°Ð»ÑģÑı":675,"!..":676,"ĠÐ´ÑĥÑĪ":677,"Ð¼Ñĥ":678,"ĠÐķ":679,"Ð»ÑıÐ´":680,"ÑĥÐ´ÑĮ":681,"ĠÑģÐµÑĢÐ´":682,"ÑĨÑĭ":683,"ĠÐ¼Ð¸ÑĢ":684,"ĠÐ½ÐµÐ¼":685,"ĠÐ¿Ð¾Ð¼":686,"ĠÐ¾Ð¿":687,"Ð°Ð¶Ð´":688,"ĠÐ½Ð¾Ñĩ":689,"ÐµÑĢÑĮ":690,"ÑĤÐ¾Ð±":691,"ÐµÑĤÑĮ":692,"Ð¸Ñģ":693,"Ð½Ð¾Ð¼":694,"ÐĹÐ°":695,"ĠÐ½Ð¸Ð¼":696,"ĠÐ·Ð²":697,"ÑĥÐ´Ð°":698,"ĠÐ²Ð¾":699,"ÐµÑĤÑģÑı":700,"ÑĪÐµ":701,"Ð°Ð»Ð¾":702,"ÑĳÑĤ":703,"ÑıÑģÑĮ":704,"ĠÐ¼Ð¾Ð³":705,"Ð°ÑİÑĤ":706,"Ð»ÑĮ":707,"ÐµÐ½Ð¸":708,"Ð¡Ðº":709,"ĠÑģÐ¸Ð»":710,"ĠÐ·ÐµÐ¼":711,"ÐºÐ¸Ð¹":712,"Ð´Ñĥ":713,"ĠÐ¸Ð¼":714,"Ð¾Ð·Ð´":715,"ÑģÐ¿":716,"ÑħÐ¾Ð´":717,"ĠÑĤÐ¾":718,"ÐµÐ»Ð¾Ð²":719,"ÑĢÐµÐ´":720,"ÑĩÐ°ÑģÑĤ":721,"ĠÑģÐ»Ð¾Ð²":722,"ĠÑĥÑĤ":723,"ÐºÐ¾Ð²":724,"Ð¸Ð½Ð°":725,"Ðĸ":726,"Ð°Ð·Ð°Ð»":727,"Ð»ÐµÐ½":728,"Ð¾ÑģÐ¿Ð¾Ð´":729,"ĠÐ¿Ð¾ÑĤ":730,"ĠÐ²Ð´":731,"ĠÐ»ÑİÐ´":732,"ĠÐ´ÐµÑĢ":733,"ĠÐ½Ð°Ð¼":734,"ĠÐ¿Ð¾Ð²":735,"ĠÐĺ":736,"ÑıÑī":737,"Ð²Ð¸":738,"ĠÐ¼ÐµÐ½Ñı":739,"ÐµÐ¿ÐµÑĢÑĮ":740,"ÐµÐ»Ð¾":741,"ĠÐ¿ÑĢÐ°Ð²":742,"ÑıÐ½":743,"ÑĢÐ°Ð½":744,"ÑıÐ»":745,"Ð¸Ð±":746,"Ð¼Ð¸":747,"ĠÐ·Ð½":748,"ÐļÑĢ":749,"ÐµÑģÑĤÐ²":750,"ĠÐ´Ð¾":751,"Ð¾ÑģÑĤÐ¸":752,"ÑĢÐ°ÑĤ":753,"ÐŀÐ±":754,"ÑĩÐ¸":755,"ĠÐ¼ÑĥÐ¶":756,"Ð¾ÑĤÐ¾ÑĢ":757,"ĠÐ»ÐµÑĤ":758,"Ð¡Ð»":759,"Ð»Ð¾Ð½":760,"ÑıÐ·":761,"ĠÐ±Ð»Ð°Ð³":762,"ĠÐ¾Ð³":763,"ÑĭÐ½":764,"ĠÑĤÐµÐ¼":765,"ĠÐ¾Ð½Ð°":766,"Ð½Ð¾Ñİ":767,"ÑĬ":768,"ÑĥÑģ":769,"ĠÐ±ÐµÐ´":770,"ĠÐ½ÐµÐ¹":771,"ĠÐ³Ð´Ðµ":772,"ĠÑĤÐ²Ð¾":773,"ĠÐµÐ¹":774,"ĠÐ¶Ð¸Ð²":775,"ÐĵÐ´Ðµ":776,"ĠÐ±ÐµÑģ":777,"Ð°Ð½ÑĮÐµ":778,"Ð½Ð¸Ð¼":779,"ĠÐ¾Ñģ":780,"ÐµÐ¼Ñĥ":781,"ĠÐ¼Ð¾Ð¹":782,"Ð²Ð¾Ð¹":783,"Ð¸Ð½Ñĭ":784,"ĠÐ¿Ð¾ÑģÐ»":785,"ĠÐ¶Ð¸Ð·":786,"ÐºÐ¾Ð¼":787,"ĠÐ¼Ð¾ÑĢ":788,"ÑĢÐ¸":789,"ĠÑĨÐ°ÑĢ":790,"ĠÑģÐ¾Ð±":791,"ĠÐ·Ð°Ð±":792,"Ð¾Ð»Ð½":793,"ĠÑģÐ»Ð°Ð²":794,"Ð¸Ð»Ð¸ÑģÑĮ":795,"ĠÐ±Ð¾Ð»ÑĮ":796,"Ð°Ð½Ð°":797,"ÐŀÐ´":798,"ĠÐ§":799,"ÑĢÑı":800,"ÑģÑĤÐ¸":801,"ĠÐ´Ð»Ñı":802,"ÐķÐ³Ð¾":803,"ĠÐ²Ð¿":804,"?Â»":805,"ÑģÐ»Ð¸":806,"ÑĥÐ»":807,"ĠÐ·Ð»":808,"\"âĢĶ":809,"ĠÐĳÐ¾Ð³":810,"Ð¾Ð¶Ð´":811,"ÐĴÑģÐµ":812,"Ð´ÐµÑĤ":813,"ĠÐ¼Ð¸Ð»":814,"ĠÐµÐµ":815,"ĠÑĥÐ´":816,"Ð¸Ð»Ð°ÑģÑĮ":817,"Ð¡Ð¿":818,"ĠÐ½Ð°ÑĢ":819,"ĠÐºÐ¾Ð»":820,"Ð°Ð²Ð½Ð¾":821,"ĠÐºÑĢÐ°Ñģ":822,"ÑģÐºÐ¸Ð¹":823,"ĠÐĽ":824,"ÑĤÐ¸":825,"ÐµÐ½Ð°":826,"ĠÐµÐ¼Ñĥ":827,"ĠÐ¿Ð¾Ð³":828,"Ð¾Ð²ÑĮ":829,"ÑģÑĤÐ²Ð¾":830,"ÑĢÐ°Ñģ":831,"ÑģÑĤÐ°Ð²":832,"ÐŁÐ¾Ðº":833,"ĠÑĤÐ°Ð¼":834,"Ð¸Ð½Ðµ":835,"ĠÐ´Ð°":836,"ĠÐ±Ð¾Ð³":837,"ĠÐ¼Ð¾Ð¶":838,"Ð¸ÑĤÐµ":839,"Ð¾ÑĤÑĮ":840,"Â».":841,"Ð¾ÑģÑĤÑĮ":842,"Ð»Ðµ":843,"Ð½ÑĮ":844,"ĠÐ»ÐµÑģ":845,"ĠÐ¿ÐµÑģ":846,"ÐµÐ½Ñĭ":847,"ÐµÑĢÐµÐ´":848,"ÑĨÑĥ":849,"ĠÐĿÐµÐ±ÐµÑģ":850,"ÑĢÐ¾Ð¼":851,"ÐĿÐ°Ð´":852,"ĠÑģÐ¾":853,"ÐµÐ½Ð½Ð¾Ð¹":854,"ĠÐ¿ÑĢÐ¾":855,"ĠÐ¿Ð¾Ñģ":856,"ĠÐ½ÐµÐ²":857,"Ð°Ð½ÑĮÑı":858,"ĠÐ²Ð¾Ð¹":859,"ÑĭÐ±":860,"ÑĪÐ¸Ð¹":861,"ĠÐ´ÑĥÐ¼":862,"Ð£Ð¶":863,"ÑİÐ±":864,"ĠÐ²Ð¾Ð´":865,"ĠÐ½ÐµÐ´":866,"Ð¡Ð¼":867,"ĠÐ¼Ð¾Ð»Ð¾Ð´":868,"Ð¾ÑĢÐ¾Ð½":869,"ĠÐ·Ð°Ð¿":870,"Ð¾Ð»Ð¾ÑĤ":871,"ÐĴÐ¾ÑĤ":872,"ÐļÐ¾Ð³Ð´Ð°":873,"Ð½Ð¸Ð¹":874,"ĠÐ¾Ð½Ð¸":875,"Ð°ÑĤÑĮÑģÑı":876,"ĠÐ´Ð¾Ð¼":877,"ĠÐ´ÐµÐ½ÑĮ":878,"ÑĥÑĪÐºÐ°":879,"ĠÐ²ÐµÑĩ":880,"ÐµÐ»Ð¾Ð²ÐµÐº":881,"ĠÐ·Ð°Ðº":882,"ĠÐŁÑĢ":883,"ÑĤÑĮ":884,"ĠÐ±Ð°ÑĢ":885,"ĠÐ·Ð°Ð²":886,"ĠÑĥÐ³":887,"ĠÑģÐ½":888,"ĠÐ¿ÐµÑĩ":889,"ĠÐ¿Ð¾Ð¿":890,"ĠÐ´Ð¾ÑĢ":891,"ĠÐ³Ð¾Ð»Ð¾Ð²":892,"ÑĥÐº":893,"ĠÑĤÐµÐ±Ñı":894,"Ð½ÑıÐ·":895,"ÐŃ":896,"Ð´ÐµÑģÑĮ":897,"ĠÐ¿ÑĢÐ¾ÑģÑĤ":898,"ĠÐ»ÑĮ":899,"ĠÐ±ÑĭÐ»Ð¾":900,"ÑĤÐµ":901,"ÑĢÐ°Ð´":902,"ÐµÐ½Ð½Ð¾":903,"ĠÐ´ÐµÐ²":904,"ĠÑĢÐ°Ð´":905,"ĠÐ²ÑĭÑģ":906,"ĠÐ½Ð¾Ð²":907,"ĠÐ·Ð°Ð¼":908,"ĠÑģÐ¾Ð²":909,"ĠÐ¿ÑĥÑģÑĤ":910,"ÐĳÐµÐ·":911,"Ð»ÐµÑĤ":912,"ĠÐ½Ð°Ð²":913,"ĠÐ³Ð¾Ð²Ð¾ÑĢ":914,"ÐµÑģÑĤÑĮ":915,"ÐłÐ°Ð·":916,"ĠÑĤÐµÐ±Ðµ":917,"Ð¸ÑĤÑĮÑģÑı":918,"ĠÐ³Ð»Ð°Ð·":919,"ĠÐ²ÑĢÐµÐ¼":920,"ĠÐ¯":921,"ÑıÐ¶":922,"Ð°Ð½ÑĮ":923,"ÐµÑĩÑĮ":924,"ÑĢÐ¾Ñģ":925,"Ð²Ñĭ":926,"ĠÑĥÐ¿":927,"ĠÐ¿Ð¾ÑģÑĤ":928,"Ð²Ð°Ð»":929,"Ð¾Ð´Ð°":930,"ĠÐ·Ð½Ð°":931,"ĠÐºÐ¾ÑĢ":932,"ÑĳÐ¼":933,"ÑĢÐ°Ñĩ":934,"ĠÐ²ÐµÑĤ":935,"ĠÐ±ÐµÑĢ":936,"ÐµÑģÑĤÑĮÑı":937,"ĠÐ²ÐµÐ»":938,"ĠÐ½Ð°Ð¿":939,"ĠÐ¿ÑĢÐ¸Ð²":940,"ĠÐ»ÑĥÑĩ":941,"ÐĿÐ¸":942,"ĠÑĩÐµÑĢ":943,"ĠÑħÐ¾Ð»":944,"ĠÐ¾Ð±ÑĢ":945,"Ð°ÐµÑĤÑģÑı":946,"ĠÐ²Ð¾ÑĤ":947,"ĠÑĤÐ¾Ð»ÑĮÐºÐ¾":948,"ÐľÑĭ":949,"ÑĥÐ²":950,"ÑģÑĤÑĥÐ¿":951,"ÑģÐºÐ¾Ð¹":952,"Ð¨":953,"Ð¾Ñī":954,"ÑĢÐ°Ð³":955,"ĠÐ´Ð¾Ð±ÑĢ":956,"ĠÑģÑĩÐ°ÑģÑĤ":957,"ÑĥÐ¶Ð´":958,"ĠÐ²Ð·Ð¾ÑĢ":959,"ĠÐĳÐ¾Ð¶":960,"ÑģÑĤÐ²Ð°":961,"ĠÑģÐ¼ÐµÑĢÑĤ":962,"ĠÐŀÐ½":963,"ĠÐ¼ÐµÑĩ":964,"ĠÑĩÐ°Ñģ":965,"Ð½ÐµÐ²":966,"Ð½ÑĥÑĤÑĮ":967,"ĠÐ²ÐµÑģ":968,"Ð¾ÑĤÐ¾Ð²":969,"ĠÑĩÐµÐ¼":970,"ÐºÐ°Ñı":971,"ĠÐ±ÑĭÑĤÑĮ":972,"Ð°Ð»Ð¸ÑģÑĮ":973,"ĠÐ¼Ð¾Ð¶ÐµÑĤ":974,"Ð½Ñİ":975,"ĠÐ¿Ð¾Ð±":976,"ĠÐ¿Ð¾Ñĩ":977,"ĠÑĤÐµÐ¿ÐµÑĢÑĮ":978,"ÐµÑĢÐº":979,"ĠÐºÑĤÐ¾":980,"Ð»Ð¸ÑģÑĮ":981,"Ð²Ð¸Ð´":982,"ÐµÑı":983,"Ð¸Ñī":984,"Ð¸Ð»ÑĮ":985,"Ð¢Ð¾":986,"ĠÑĤÑĢÑĥÐ´":987,"ĠÐĲÐ´":988,"!\"":989,"ĠÐ½ÐµÐ±":990,"ÐļÑĤÐ¾":991,"ÐĴÑĭ":992,"ĠÐ½ÐµÐ¿":993,"ĠÑĢÐ°Ð±":994,"ÐŁÑĢÐµÐ´":995,"ĠÑģÑĤÑĢÐ°Ð½":996,"ĠÑģÐ¾Ð½":997,"ĠÑģÑĤÐ¾":998,"ĠÐ½Ð¸Ñħ":999,"ĠÑĩÑĤÐ¾Ð±":1000,"ĠÐ¶ÐµÐ½":1001,"Ð¾Ð´Ñĭ":1002,"ĠÐ±ÑĥÐ´ÐµÑĤ":1003,"ÑıÐ¼":1004,"ĠÑĤÑĥÑĤ":1005,"Ð§ÑĤÐ¾Ð±":1006,"ÐĳÐ»":1007,"ĠÑģÐµÑĢÐ´ÑĨÐµ":1008,"ĠÑģÑĭ":1009,"Ð³ÑĢ":1010,"Ð¾ÑĩÑĮ":1011,"?..":1012,"ĠÐ¿Ð°ÑĢ":1013,"ĠÐĹÐµÐ¼":1014,"ĠÑĥÐ·":1015,"Ð»Ð°Ñģ":1016,"ÑĥÐ¹":1017,"ĠÐºÐ¾ÑĤÐ¾ÑĢ":1018,"Ð¾Ð´Ð¸ÑĤ":1019,"Ð¾ÑĤÑĢ":1020,"ĠÑĦ":1021,"ĠÑģÐºÐ¾ÑĢ":1022,"Ð½ÐµÑĤ":1023,"Ð½Ð³":1024,"ÑĭÐ»Ð°":1025,"ÑĪÐ¸ÑģÑĮ":1026,"ĠÐ¸ÑģÐº":1027,"ĠÐºÐ°ÑĢ":1028,"ÐŀÐ½Ð°":1029,"ĠÐ²ÑģÑĳ":1030,"ĠÐ²ÑģÐµÑħ":1031,"ĠÑįÑĤÐ¾":1032,"ĠÐ´ÐµÑĢÐµÐ²":1033,"Ð¸Ð¿":1034,"ÑĥÐµÑĤ":1035,"ĠÐ²ÐµÐ´":1036,"ĠÑĤÐ¾Ð¼":1037,"ĠÑĤÐ¸Ñħ":1038,"Ð°Ð»Ð°ÑģÑĮ":1039,"ĠÐ²Ð´ÑĢÑĥÐ³":1040,"Ð½ÐµÐ¼":1041,"ĠÐ¿ÑĥÑĤÑĮ":1042,"ĠÐ½Ð°Ðº":1043,"ÑĩÐµ":1044,"ÑĪÐ¸Ñħ":1045,"ĠÑĥÐ±":1046,"ĠÑĤÐ¾Ð»":1047,"ĠÐ³Ð»ÑıÐ´":1048,"ĠÐ¶ÐµÐ»":1049,"ĠÐ¿ÐµÑĢÐ²":1050,"ĠÐĵÐ¾ÑģÐ¿Ð¾Ð´":1051,"ĠÐ´Ð²":1052,"Ð½Ð¾ÑģÑĤÑĮ":1053,"ĠÐ»ÐµÐ³":1054,"Ð½ÑĥÐ²":1055,"ĠÑģÐ»ÐµÐ·":1056,",-":1057,"ĠÐ½Ð¾Ð³":1058,"ÐµÑĢÐ¿":1059,"ĠÐ½Ð°Ñĩ":1060,"ĠÐµÑīÐµ":1061,"ĠÐ²Ð¾Ð·Ð´":1062,"ĠÐ£":1063,"ĠÑĤÐ¾ÑĤ":1064,"ĠÐ´ÐµÑĤ":1065,"ĠÐ¸ÑģÐ¿":1066,"Ð½Ð¸ÐºÐ¸":1067,"ĠÐ³ÑĢÐ¾Ð·":1068,"ĠÑĪÑĥÐ¼":1069,"ĠÑģÐ²Ð¾ÐµÐ¹":1070,"ÐµÑĢÐ¶":1071,"ĠÑģÑĤÑĢÐ°ÑĪ":1072,"ÑĥÐ½":1073,"ĠÐ·Ð¾Ð»Ð¾ÑĤ":1074,"ĠÐ±ÑĭÐ»Ð°":1075,"ÐºÐ¾Ñİ":1076,"ĠÐ³Ð»ÑĥÐ±":1077,"ĠÐ¿Ð¾Ð½":1078,"ĠÐ¾ÑģÑĤ":1079,"Ð°Ð¶ÐµÐ½":1080,"ÐĽÑİÐ±":1081,"ÑĤÐ¾ÑĢ":1082,"ĠÐ²Ð°Ñģ":1083,"ĠÑĩÑĥÐ´":1084,"ĠÐ¥":1085,"Ð¸Ð¸":1086,"ÑĢÐµÐ¼":1087,"Ð¡Ð²":1088,"Ð¾ÑĤÐ¸Ð²":1089,"Ġ-":1090,"ĠÑī":1091,"ĠÐ²Ð°Ð¼":1092,"ĠÐ½ÐµÑģ":1093,"âĢ¦Â»":1094,"ÑģÐºÐ¸Ñħ":1095,"ĠÐ´Ð¾ÑĢÐ¾Ð³":1096,"ÑĢÐµÐ½":1097,"Ð¾Ð²Ð°":1098,"ÐĴÐ¾":1099,"ÐµÑģÑĤÐ¸":1100,"ÐĿÐµÑĤ":1101,"Ð½Ð¾ÑģÑĤÐ¸":1102,"Ð½Ð¾Ð¼Ñĥ":1103,"ĠÐ´ÐµÐ»":1104,"Ð¾ÑģÐº":1105,"ÐµÐ½ÑĮÐµÐ¼":1106,"ĠÑģÐ²Ð¾Ð¹":1107,"ĠÐºÑĢÑĥÐ³":1108,"Ð½ÑĭÐ¼Ð¸":1109,"ÐµÐµ":1110,"Ð°Ñĩ":1111,"ÑĩÐ¸ÑĤ":1112,"ĠÐ±Ð¾":1113,"Ð¢Ð°Ð¼":1114,"Ð¾ÐºÐ¾Ð¹":1115,"ÐĴÐ·":1116,"ĠÐºÑĢÐ¾Ð²":1117,"ÑĥÐ´ÑĮÐ±":1118,"Ð¸ÑĨ":1119,"ÐµÑİ":1120,"ÑĮÐ¼":1121,"ĠÑģÐµÐ¼":1122,"ĠÐ¿Ð¾Ð·":1123,"ĠÐ¾Ñĩ":1124,"ĠÐ¼ÐµÐ¶":1125,"ÐµÑĢÑĪ":1126,"Ð°ÑĤÑĮÑı":1127,"ĠÐĿÐ¾":1128,"ĠÑģÑĢ":1129,"ĠÐºÐ°Ð¶Ð´":1130,"Ð¾Ð´Ñĥ":1131,"Ð°ÑĤÐµÐ»ÑĮ":1132,"ÐŁÐ¾Ð»":1133,"Ð¦":1134,"ĠÑĤÐ²":1135,"Ð¾Ð½ÑĮ":1136,"ÑĭÑĩ":1137,"ĠÑģÐºÐ°Ð·Ð°Ð»":1138,"ĠÑĨÐ²ÐµÑĤ":1139,"ÑĢÑĭ":1140,"ĠÐ²ÑģÑı":1141,"Ð°Ð»ÐµÐº":1142,"Ð¸Ð»Ð¾":1143,"ÐĴÐ¾Ð·":1144,"Ð½Ð¾Ð²ÑĮ":1145,"Ð°Ð½Ð½ÑĭÐ¹":1146,"ÑģÐºÐ¸Ðµ":1147,"ĠÐ´Ð²Ð¾ÑĢ":1148,"Ð°Ð±Ñĭ":1149,"ĠÐ½Ð¸Ðº":1150,"ĠÐ±Ð»Ð¸":1151,"ĠÐºÐ¾Ð³Ð´Ð°":1152,"ĠÑĥÑģÑĤ":1153,"ĠÐ½Ð¾ÑĩÑĮ":1154,"ÑİÐ´":1155,"ĠÑĤÐ¾Ð±":1156,"ĠÑĥÑģ":1157,"ÐĴÑģÑĳ":1158,"ĠÐ¶Ð¸Ð·Ð½Ð¸":1159,"Ð»Ð°Ð²":1160,"ĠÐ½Ð¸Ñĩ":1161,"ĠÐ±Ð¾Ð¹":1162,"ĠÐ·Ð´ÐµÑģÑĮ":1163,"ÐĺÑħ":1164,"Ð°Ð·Ð´":1165,"ĠÐ²Ð»Ð°":1166,"Ð¾Ð¼Ð½":1167,"ĠÐµÑģÐ»Ð¸":1168,"Ð½Ð¸ÐºÐ¾Ð²":1169,"ÑĢÐ°Ðº":1170,"ĠÑģÐ¾Ð»":1171,"Ð¾Ð²Ð¾Ð¹":1172,"ĠÑģÑĤÐ°Ð½":1173,"ĠÐµÑģÑĤÑĮ":1174,"ÑĢÐ¾":1175,"Ð»Ð°Ðº":1176,"ĠÐ²Ð°ÑĪ":1177,"ĠÐ·Ð°ÑĤ":1178,"ÐŁÐ¾ÑĤ":1179,"ÐµÐ·Ð´":1180,"ÐºÐ°Ñħ":1181,"ÐµÐ¶Ð´":1182,"ÐĵÑĢ":1183,"ĠÐ¾Ð´Ð¸Ð½":1184,"Ð¾ÐºÐ¾":1185,"ÐŁÑĢÐ¸":1186,"!..Â»":1187,"Ð½ÑıÐ·ÑĮ":1188,"ÑĢÐµÐ²":1189,"ÐµÐ½Ð¸Ð¹":1190,"ĠÐ¾Ðº":1191,"ĠÐºÐ»":1192,"ÑĳÐ»":1193,"ĠÐ³Ð¾ÑĢÐ´":1194,"ÑĥÑı":1195,"ÑĩÐµÑĤ":1196,"ĠÐ´Ð¸Ð²":1197,"Ð¾Ð²Ð°Ð»":1198,"ĠÐ¼Ð°Ð»":1199,"Ð½ÑĥÐ»Ð°":1200,"ĠÐ²ÑģÐµÐ¼":1201,"ĠÐ¡Ð°ÑĤ":1202,"ÐłÐ°Ñģ":1203,"ĠÐ´Ð¾Ð»Ð¶":1204,"ĠÐ½ÐµÐ±ÐµÑģ":1205,"ĠÐ¾ÑĢ":1206,"ĠÐµÐ´":1207,"ĠÐ¿ÐµÑĢÐµÐ´":1208,"Ð¡ÑĤÐ°ÑĢ":1209,"ĠÑģÐ»ÐµÐ´":1210,"Ñį":1211,"ÑĤÑĭ":1212,"ĠÑģÑĢÐµÐ´":1213,"ÐµÐ½Ð½ÑĭÑħ":1214,"ĠÐ±ÐµÐ»":1215,"ÐĴÐ´":1216,"Ð¾ÑĤÑĭ":1217,"ĠÐ¾ÑĤÐ²":1218,"ĠÐ¼Ð¾Ð»Ñĩ":1219,"ĠÐĲÐ½Ð³":1220,"Ð½ÑĥÑĤ":1221,"ĠÐ´Ð¾ÑģÑĤ":1222,"ĠÐ±Ð¾ÑĢ":1223,"ĠÐ·Ð°ÑĢ":1224,"Ð°ÑĢÑĮ":1225,"ÑģÑĤÑĢÐµÑĩ":1226,"ĠÐ²Ð½Ð¾Ð²ÑĮ":1227,"Ð²Ðµ":1228,"Ð¸Ð»Ð¾ÑģÑĮ":1229,"ÐµÐ¶Ð¸ÑĤ":1230,"ĠÐ¢Ñĭ":1231,"Ð²Ð¸Ð¶":1232,"ĠÐ¿ÑĥÑĤ":1233,"ĠÐ¼ÐµÑģÑĤ":1234,"ÐŀÐ¿":1235,"ĠÑģÑĤÐ¾Ð»":1236,"ĠÑģÑĤÐ¾ÑĢÐ¾Ð½":1237,"ĠÑħÐ¾Ñĩ":1238,"ÐľÐ¾Ð»":1239,"ÐĳÐµÑģ":1240,"Ð°ÑİÑī":1241,"ĠÐ¾Ð¿ÑıÑĤÑĮ":1242,"Ð¸ÐºÐ¸":1243,"ÑıÐ²":1244,"ÑıÑĤÑģÑı":1245,"ĠÐ±ÑĥÐ´ÑĤÐ¾":1246,"ÑĪÑĮ":1247,"ĠÐ¼Ð½":1248,"ÐºÐ¾Ðµ":1249,"ĠÐ²Ð·Ð´":1250,"ĠÐ¼Ð¾ÐµÐ¹":1251,"ÑİÑī":1252,"ĠÑģÐ»ÑĭÑĪ":1253,"ĠÐ¸Ð·Ð±":1254,"Ð¾ÑģÐ»ÐµÐ´":1255,"Ð¸Ð¶":1256,"ÑĢÐ¾Ð²":1257,"ÑıÐ³":1258,"ĠÑģÐ¾Ñģ":1259,"ĠÐ²Ð¾Ñģ":1260,"ÐµÐ½Ð¾":1261,"ÐµÐ½Ð¸Ñı":1262,"ĠÑĤÐ¾ÑĢ":1263,"ĠÐ±ÑĥÑĢ":1264,"ĠÐ»Ð¸ÑĪÑĮ":1265,"ÐŀÐ½Ð¸":1266,"ĠÐĿÐµ":1267,"ĠÐ¼Ð¾Ñı":1268,"Ð¾Ð¹Ð´":1269,"ĠÐ·Ð°Ñģ":1270,"ÐŁÐµÑĢ":1271,"ÐµÐºÑĢÐ°Ñģ":1272,"ÐľÐ½Ðµ":1273,"ÑģÐºÐ°Ð·":1274,"ÑĭÑĤÑĮ":1275,"ĠÐ³Ð¾Ð»Ð¾Ñģ":1276,"ĠÑĤÑıÐ¶":1277,"Ð¾ÑĤÐ°":1278,"Ð¾Ð¶Ðµ":1279,"ĠÑħÐ¾ÑĤ":1280,"ÐĵÐ¾ÑĢ":1281,"ĠÐ³ÑĢÐ¾Ð¼":1282,"ĠÐ²Ð¾Ð·Ð²":1283,"Ð¾Ð²Ð°ÑĢ":1284,"Ð¢ÐµÐ¿ÐµÑĢÑĮ":1285,"ĠÐ§ÐµÐ»Ð¾Ð²ÐµÐº":1286,"ĠÐ±ÐµÑĢÐµÐ³":1287,"ĠÑģÐµÐ±Ðµ":1288,"ÐºÐ°Ð¼Ð¸":1289,"ĠÐ½ÐµÐ¶":1290,"ĠÐ½Ð°Ð³":1291,"ĠÐ¼Ð½Ð¾Ð¹":1292,"ĠÑĢÐµÐ±":1293,"ĠÐ¾ÑĤÐ²ÐµÑĤ":1294,"Ð¾Ð»Ð½ÑĨÐµ":1295,"ĠÑİ":1296,"ÑĢÑĥ":1297,"ĠÐ¼ÐµÐ´":1298,"ÐĿÑĥ":1299,"ÐĶÐ¾":1300,"ĠÐĴÑģ":1301,"ĠÑĢÐ°ÑģÐ¿":1302,"ĠÑįÑĤÐ¾ÑĤ":1303,"ĠÐ¿ÑĢÐ¸Ð·":1304,"Ð°Ð½Ð¸":1305,"ĠÑħÐ¾ÑĢ":1306,"Ð½ÐµÐµ":1307,"ÑĭÐ²Ð°Ð»":1308,"ĠÐ²ÐµÑģÑĮ":1309,"ĠÐ¼Ð½Ð¾Ð³Ð¾":1310,"ĠÐ¿ÑĢÐµÐ¶":1311,"ÐµÑģÑĤÐ²Ð¾":1312,"ĠÐ»ÑİÐ´ÐµÐ¹":1313,"ĠÐ²ÑĢÐµÐ¼Ñı":1314,"Ð½Ð°Ðº":1315,"ĠÑģÑĥÐ´ÑĮÐ±":1316,"ĠÐ²Ð¾Ð¿":1317,"Ð²Ð¾Ð·":1318,"ĠÐ¾ÑĤÐ´":1319,"ĠÐ²ÑĢÐ°Ð³":1320,"Ð½ÑĥÐ»ÑģÑı":1321,"ĠÐ½Ð°ÑĢÐ¾Ð´":1322,"ÑĭÑĢ":1323,"ÑıÑħ":1324,"ĠÑģÐµÐ´":1325,"Ð¼ÐµÐ½":1326,"Ð½Ð°Ñĩ":1327,"ĠÑħÐ»":1328,"ĠÐ±ÑĢÐ°ÑĤ":1329,"ÑĪÐ¸":1330,"ÐºÐ¸Ðµ":1331,"ĠÑģÐ²Ð¾Ñİ":1332,"ÑģÐºÐ¾Ð³Ð¾":1333,"ĠÐ¶Ð¸Ð·Ð½ÑĮ":1334,"ÑĢÐµÑĤ":1335,"ĠÐ¸Ð»Ð¸":1336,"ĠÐ¸Ð»ÑĮ":1337,"ĠÐ±ÐµÐ³":1338,"ĠÐ¿ÑĢÐ¸Ðº":1339,"ĠÑıÐ²":1340,"ĠÐºÑĢÐµÑģÑĤÑĮÑı":1341,"ĠÑģÐºÐ°Ð·":1342,"ÑĭÐ¼Ð¸":1343,"ĠÑĢÐ°ÑģÑģ":1344,"ÑĥÑģÐº":1345,"ĠÑĢÐµÐº":1346,"Ð½Ð¸Ñħ":1347,"Ð¸Ð¼Ð¸":1348,"ĠÑħÑĢ":1349,"Ð°Ð¶Ðµ":1350,"ĠÐŀÑĤ":1351,"ĠÐ´ÑĢÑĥÐ¶":1352,"ĠÐŃ":1353,"ĠÐ½Ð°Ð·":1354,"ÑĪÐµÐ¹":1355,"Ð¾Ð²Ð°ÑĤÑĮ":1356,"ĠÑĢÑıÐ´":1357,"Ð¡Ð¾":1358,"ĠÑıÑĢ":1359,"ĠÐºÑĢÑĭÐ»":1360,"ĠÐ»ÑİÐ±Ð¾Ð²ÑĮ":1361,"ĠÑĢÑĥÑģ":1362,"ĠÑģÐ½ÐµÐ³":1363,"Ð°Ð½Ñĭ":1364,"ÑĭÐ½Ðµ":1365,"Ð²Ð¾Ð»":1366,"ÐĺÐ»ÑĮ":1367,"ĠÑĢÐµÑĩ":1368,"ÐŁÐ¾ÑĢ":1369,"ÐļÐ¾ÑĤÐ¾ÑĢ":1370,"ÐºÐ¸Ñħ":1371,"ĠÑģÐ»Ð°Ð´":1372,"ĠÑĢÐ°Ð·Ð´":1373,"ÐµÑĢÑĤÐ²":1374,"ÑĳÐ½Ð½ÑĭÐ¹":1375,"ĠÐĲÐ´Ð°Ð¼":1376,"ÐµÑģÑı":1377,"Ð»ÐµÐ´":1378,"Ð¼ÐµÑĤ":1379,"Ð¼ÐµÑĢ":1380,"Ð¡Ð°Ð¼":1381,"Ð³Ð¾ÑĢ":1382,"ĠÐ²ÑĭÑĪ":1383,"ĠÐĶÑĥÑħ":1384,"ĠÑģÐµÐ±Ñı":1385,"ĠÐºÐ°Ð·":1386,"ÐµÐ»Ñı":1387,"ĠÐ·Ð°Ð´":1388,"ĠÑĢÐµÑĪ":1389,"ĠÐ¿ÑĢÐ¾Ñģ":1390,"ÐŁÐ¾Ð²":1391,"Ð½Ð¸ÐºÐ°":1392,"Ð¸Ð½Ð¾Ð²":1393,"Ð¸Ð¼Ð¾":1394,"ÐĶÐ»Ñı":1395,"Ð»Ð¸Ñĩ":1396,"Ð¾Ð»ÑĮÐ½Ð¾":1397,"ĠÐ¾Ð±ÑĬ":1398,"ĠÐ¢Ð²Ð¾ÑĢ":1399,"ĠÑĥÐ¶Ðµ":1400,"ĠÑģÑĤÑĢÐ°Ñħ":1401,"ĠÐ²ÐµÑĩÐµÑĢ":1402,"ÑĭÐº":1403,"ĠÑĩÑĥÐ²":1404,"Ð¸Ð½Ð¾Ð¹":1405,"ĠÐ»ÑİÐ±Ð²Ð¸":1406,"ÐµÑĢÐºÐ¸Ð½":1407,"Ð»ÐµÐº":1408,"ÑĥÑģÑĮ":1409,"ĠÐ²Ð¾ÑĢ":1410,"Ð¼Ð¾Ð¶":1411,"Ð¼ÐµÑĢÑĤ":1412,"ĠÑĤÐ°":1413,"ĠÑĤÐ°Ð¹":1414,"ÑĨÐ¾Ð¼":1415,"ĠÐ¿Ð¾Ð»Ðµ":1416,"ĠÐ»ÑİÐ´Ð¸":1417,"Ð¾Ñı":1418,"ÑĩÐ¸Ð²":1419,"ĠÐ´Ð°Ð»ÑĮ":1420,"ĠÐ¿ÑĢÐ¸Ð½":1421,"Ð¾ÑĤÐ²Ð¾ÑĢ":1422,"Ð¾Ð½ÐµÑĨ":1423,"Ð¾Ð±Ð¾Ð´":1424,"ÐĶÑĢÑĥÐ³":1425,"ÐĽÐ¸ÑĪÑĮ":1426,"ĠÐ±ÐµÐ·Ð´":1427,"ĠÐ´Ð¾Ð»Ð³":1428,"ĠÐ´Ð¾Ð»Ð³Ð¾":1429,"ĠÐ¤":1430,"ÐµÐµÑĤ":1431,"Ð°ÐµÐ¼":1432,"ĠÑģÐ°Ð´":1433,"Ð¼Ð°Ð½":1434,"Ð³Ð¾Ð²Ð¾ÑĢ":1435,"ĠÑħÐ¾ÑĤÑĮ":1436,"ĠÐ²Ð¾Ð·Ð´ÑĥÑħ":1437,"ÑĭÐ´":1438,"ÑĭÐ¿":1439,"Ð´ÑĥÑĤ":1440,"ĠÐ´ÐµÐ»Ð¾":1441,"ĠÐ¼ÐµÑĢ":1442,"Ð¡Ð²Ð¾":1443,"ĠÑĩÐ°ÑģÑĤ":1444,"ĠÐ¼Ð¾Ð»Ð²":1445,"ÑĥÐºÐ¸":1446,"ÐºÐ¾ÑĢ":1447,"Ð¼ÐµÑģÑĤ":1448,"ĠÐ´Ð¾Ð²":1449,"ĠÐ¸ÑģÑĤ":1450,"ÐĿÐ°Ð¿":1451,"ÑħÐ¾Ð´Ð¸ÑĤ":1452,"ĠÐ¿Ð¾ÑĤÐ¾Ð¼":1453,"ĠÐ¿Ð¾ÑģÐ»ÐµÐ´":1454,"Ð»Ð¸Ð½":1455,"ÑĩÐµÐ¼":1456,"ĠÐ±Ð¾Ð»":1457,"ÐµÐ´ÑĮ":1458,"ĠÑģÐ¾Ð·":1459,"ÐµÐ»ÐµÐ½":1460,"Ð¡ÑĤÐ¾":1461,"ĠÑĩÐ¸ÑģÑĤ":1462,"Ð¢ÑĢ":1463,"ĠÐ³ÑĢÐµÑħ":1464,"ĠÐĴÑĢÐ°Ð³":1465,"ĠÐ¾ÐºÑĢ":1466,"ÐµÐ»ÑĭÐ¹":1467,"ĠÑĢÐ°Ð²":1468,"ĠÑģÑĤÐ°Ð»":1469,"ÐºÐ¸Ð¼":1470,"ĠÑģÐ²ÑıÑĤ":1471,"ĠÑĪÐ°Ð³":1472,"ĠÑģÐ²Ð¾Ð¸":1473,"ĠÐ±ÐµÑģÐ¿":1474,"ĠÐ¿ÐµÑĩÐ°Ð»ÑĮ":1475,"Ð°Ð½ÑĮÐµÐ¼":1476,"Ð´Ð°ÑĤ":1477,"Ð¼Ñĭ":1478,"ĠÑĤÐ¸ÑĪ":1479,"ĠÐ³Ð¾ÑĤÐ¾Ð²":1480,"ÐŁÐ¾Ð¼":1481,"Ð¾Ð±Ð½Ð¾":1482,"ÐµÑģÑĤÐ¾Ð»":1483,"ÐĶÐ¾ÑģÑĤ":1484,"ÑĢÐ°Ñī":1485,"ĠÐ³ÑĢÑĥÐ´ÑĮ":1486,"ĠÐ²Ð·Ð³":1487,"ĠÐ±Ð¾Ð³Ð°ÑĤ":1488,"Ð²Ð¾Ð·ÑĮ":1489,"Ġ(":1490,"ÑĢÐ¾Ð½":1491,"ÑĥÑģÐ»":1492,"ĠÐ¿Ð¾Ð¶":1493,"ĠÐ²ÐµÐ½":1494,"ĠÐ²ÐµÐº":1495,"ĠÐ´ÑĥÑħ":1496,"Ð¾ÑĢÐ³":1497,"ÐĿÐµÐ²":1498,"ĠÐ³Ð½ÐµÐ²":1499,"ĠÐºÑĢÐ°Ð¹":1500,"ÑĥÑĪÐºÐ¸":1501,"Ð°ÑıÑģÑĮ":1502,"ĠÑģÑĩÐ°ÑģÑĤÐ»Ð¸Ð²":1503,"ÑįÑĤ":1504,"Ð¸ÐºÐ°":1505,"ĠÑģÐ¾Ð·Ð´":1506,"ĠÑĤÐ¾Ð¹":1507,"ĠÑĤÐ¾Ñģ":1508,"ĠÐ¾Ñħ":1509,"ÐµÐ·ÑĢ":1510,"Ð¾ÑĩÐ½Ð¾":1511,"ÐµÐ½ÑĮÑİ":1512,"ĠÐĿÐµÐ±":1513,"ĠÐ½Ð°ÑĪÐ¸":1514,"ĠÑĥÐ¶Ð°Ñģ":1515,"ĠÐ±Ð¾Ð»ÑĮÑĪÐµ":1516,"ÐĴÐ´ÑĢÑĥÐ³":1517,"ĠÑģÐµÑĢ":1518,"ĠÑģÑĥÐ´":1519,"ĠÑģÐ¸Ð´":1520,"ĠÐ¿Ð°Ð´":1521,"ĠÐ²Ð¾ÑģÑĤ":1522,"ĠÐ½ÐµÐ³Ð¾":1523,"ĠÐ³ÐµÑĢ":1524,"ĠÐ¶Ð°Ð»":1525,"ĠÐ¶Ð¸ÑĤÑĮ":1526,"ÑĳÑĢ":1527,"ÐµÐ³Ð´Ð°":1528,"ÐĳÑĭÐ»":1529,"Ð¸ÐºÐ¾Ð²":1530,"ĠÐ³ÑĢÐ¾Ð±":1531,"ĠÑĤÐ¾Ð»Ð¿":1532,"ĠÐ·Ð°ÑģÑĤ":1533,"ÐŀÑģ":1534,"ĠÐ¶Ð°ÑĢ":1535,"Ð»Ð°Ñĩ":1536,"ÑģÑĤÐ²Ð¾Ð¼":1537,"ĠÐ¿ÑĢÐ¸Ð±":1538,"ĠÐ´ÑĢÑĥÐ·":1539,"Ð¥Ð¾ÑĤÑĮ":1540,"ĠÐ½Ð¸Ð¼Ð¸":1541,"Ð°ÑİÑĤÑģÑı":1542,"ĠÑĤÐ¾Ð±Ð¾Ð¹":1543,"ĠÑĤÐ¾Ð³Ð´Ð°":1544,"ĠÑĤÐ²Ð¾Ð¹":1545,"ĠÑĢÐ°ÑģÑĤ":1546,"ĠÐ¿ÑĢÐ¾Ð²":1547,"ÑĥÐ´ÑĢ":1548,"ÑģÑĤÐ²ÐµÐ½":1549,"ÑĪÐ¸Ðµ":1550,"ĠÐ·Ð¾Ð²":1551,"ĠÑĢÐ¾Ñģ":1552,"ĠÐ³ÑĥÐ±":1553,"ĠÐ¿ÑĢÐ¾Ðº":1554,"ĠÐ¿ÑĢÐ¸Ð¼":1555,"Ð½Ð¾Ñģ":1556,"Ð±ÑĥÐ´ÑĮ":1557,"Ð½Ð¸Ð±ÑĥÐ´ÑĮ":1558,"Ð¶Ðµ":1559,"ÐĹÐ°ÑĤ":1560,"ĠÐ¿Ð¾ÑĪ":1561,"ĠÐĵÐ¾ÑģÐ¿Ð¾Ð´ÑĮ":1562,"Ð²Ð°ÑĤ":1563,"Ð´Ð¸":1564,"ĠÐ´Ð¾Ñģ":1565,"ĠÑĢÑĥÐ±":1566,"ĠÐ¿ÑĢÐ¸Ð´":1567,"ÐŁÐ¾Ð¿":1568,"Ð¢ÑĥÑĤ":1569,"Ð½ÐµÐ³Ð¾":1570,"Ð¾Ð»Ðº":1571,"ĠÐ´Ð°Ð¶Ðµ":1572,"ÐĿÐµÑģ":1573,"ĠÐ³Ð¾Ð´":1574,"ĠÐ¿ÑĢÐ°Ð·Ð´":1575,"ÐĴÐµÐ»":1576,"ÑĨÐµÐ¼":1577,"ÑĨÐ°ÑĤÑĮ":1578,"ĠÐ»Ð°Ñģ":1579,"Ð¢Ð²Ð¾":1580,"Ð¢Ð¾Ð»ÑĮÐºÐ¾":1581,"ĠÐ¾ÑĤÐºÑĢ":1582,"Ð£Ð¼":1583,"ÑĢÐ°ÑĪ":1584,"ĠÐ³Ð¾Ð²Ð¾ÑĢÐ¸ÑĤ":1585,"Ð½Ð°Ð»":1586,"Ð»ÑĭÐ±":1587,"ĠÐ²Ð¾ÑģÐ¿":1588,"Ð²Ñĥ":1589,"ÑĩÐ°Ñģ":1590,"ĠÐ¾Ð·":1591,"ÐµÑĤÐµ":1592,"ĠÐ´Ð°ÑĢ":1593,"ĠÑĢÐµÑĩÑĮ":1594,"ĠÐ¿ÑĢÐ¾Ñĩ":1595,"Ð°Ð½Ð¾Ð²":1596,"ĠÑĩÐµÐ»Ð¾Ð²ÐµÐº":1597,"ĠÐ±ÑĭÑģÑĤÑĢ":1598,"ÐľÐµÐ¶":1599,"ĠÑĤÐ°ÐºÐ¾Ð¹":1600,"Ð²ÐµÑĢÐ³":1601,"ÑģÐºÐ°Ñı":1602,"Ð²ÐµÐ´":1603,"Ð°Ð»Ð¾ÑģÑĮ":1604,"Ð¾Ð²Ð½Ð¾":1605,"ĠÐ·Ð¸Ð¼":1606,"ÑģÑĤÐ²Ðµ":1607,"ÐķÑīÐµ":1608,"ÑİÑĤÑģÑı":1609,"ĠÑģÐ¿Ð¾ÑĢ":1610,"ĠÐ¿Ð¾Ð¼ÐµÑī":1611,"Ð²ÐµÑģÑĤ":1612,"ÐµÐ½Ð¸Ðµ":1613,"ÑİÑĪ":1614,"ĠÐ¼Ð°ÑĤ":1615,"ĠÐºÐ¾":1616,"ĠÐ³Ð¾ÑģÐ¿Ð¾Ð´":1617,"ÐµÑģÑĤÐ²Ð°":1618,"ĠÐºÑĢÐµÑģÑĤ":1619,"ĠÑģÐ»ÑĥÐ¶":1620,"ĠÑĪÐ¸ÑĢ":1621,"ÐķÐµ":1622,"ĠÐļÐ°Ðº":1623,"ĠÑģÐ»Ð¾Ð²Ð°":1624,"ÐļÑĢÐµÑģÑĤÑĮÑı":1625,"ĠÑģÐ¾Ð±Ð¾Ð¹":1626,"Ð»Ð°Ð·":1627,"Ð¼Ð¸Ð»":1628,"ĠÐºÐ¾Ñģ":1629,"ÐŁÑĥÑģÑĤ":1630,"ÐµÑģÐº":1631,"ĠÐ²ÑģÐ¿":1632,"ĠÑĤÑĢÐ¸":1633,"ĠÐ·Ð½Ð°Ðº":1634,"ÑĢÑĥÐ¶":1635,"ÑĮÐ±":1636,"ĠÐ²ÐµÐ»Ð¸":1637,"ÑģÑĤÑĮÑİ":1638,"ÑĪÐ°Ñı":1639,"ĠÐºÐ°Ð¼":1640,"ÐĿÐ°Ñģ":1641,"ĠÑĢÑĭÐ±":1642,"ĠÐ¿ÑĢÐµÐºÑĢÐ°Ñģ":1643,"ÐŁÐ»":1644,"Ð°Ð½ÑĤ":1645,"Ð½ÑıÐ¶":1646,"ĠÐ³Ð»Ð°Ð²":1647,"ĠÑĢÑĥÐºÐ¸":1648,"Ð½ÐµÑģ":1649,"ĠÑģÐ¾Ðº":1650,"Ð²Ð¾Ð´":1651,"ĠÑĤÑĥÑĩ":1652,"ĠÐ´Ð½ÐµÐ¹":1653,"ĠÐ¸Ñģ":1654,"ĠÐ¿ÑĢÐ¾ÑĪ":1655,"Ð½Ð¸Ðµ":1656,"Ð½ÑĥÐ»Ð¸":1657,"ÑģÐºÐ¸Ð¼":1658,"Ð¾ÑģÐ»Ð°Ð²":1659,"Ð°ÐµÑĪÑĮ":1660,"ĠÑģÐµÐ¹":1661,"ĠÐ¾ÑģÑĤÑĢ":1662,"ĠÐ¾ÑģÑĤÐ°Ð²":1663,"ÐļÐ¾ÑĢ":1664,"ĠÐ¶Ð´":1665,"Ð¾Ð·Ñı":1666,"ĠÐ±ÑĭÐ»Ð¸":1667,"ÐĳÐ¾Ð³":1668,"ĠÐ¼ÑĭÑģÐ»":1669,"ĠÐ½Ð°Ð´Ð¾":1670,"ĠÑģÑĤÐ°ÑĢÐ¸Ðº":1671,"ĠÑģÐ»Ð¾Ð²Ð½Ð¾":1672,"ĠÐ¦":1673,"ĠÐ²Ð¸ÑĤ":1674,"ÑģÑĤÐ°Ð»":1675,"Ð¾Ð»Ð²":1676,"Ð³Ð¸":1677,"ÐĶÐ¾Ð»":1678,"ÑĥÑĪÐºÑĥ":1679,"ĠÑħÐ¾Ð´":1680,"ÐľÐµÐ½Ñı":1681,"ÐĹÐ°Ð±":1682,"ÑģÑĤÐ²Ñĥ":1683,"ÐĵÐ»ÑıÐ´":1684,"ĠÐ³ÑĢÑĥÐ´":1685,"ÐºÑĥÑģ":1686,"Ð°ÑĪÐ°":1687,"ĠÑĢÐ°Ð±Ð¾ÑĤ":1688,"ĠÑĢÐµÐ±ÑıÑĤ":1689,"ĠÑģÐ±":1690,"ÐµÐ½Ð½ÑĭÐµ":1691,"ĠÑĤÐµÑħ":1692,"ÐµÑĢÐ°":1693,"ÐĺÐ¼":1694,"ĠÐ¿ÑĢÐ¾Ð¿":1695,"ĠÐ¢Ð°Ðº":1696,"ĠÐ¾Ð´Ð½Ð°":1697,"ĠÐ¿Ð¾ÑĢÐ°":1698,"ĠÑĥÐ³ÑĢ":1699,"ÐĳÐ»Ð°Ð³":1700,"ĠÑĤÐ¸ÑħÐ¾":1701,"Ð¸Ñİ":1702,"ÑĢÐ°Ð·":1703,"ÑĢÐ°Ð¶":1704,"Ð»ÐµÐ³":1705,"ĠÐ½ÐµÐº":1706,"ĠÐ½Ð¸Ð·":1707,"ĠÑĢÑĥÑĩ":1708,"ÐĴÐµÑĢ":1709,"Ð½Ð¸ÑĨÑĭ":1710,"Ð¸Ð½ÑĥÑĤ":1711,"Ð¸Ð²Ð°Ð»":1712,"ĠÑĢÐ°Ð·ÑĥÐ¼":1713,"ĠÐ´ÑĥÑĪÐµ":1714,"ĠÑħÐ¾Ð»Ð¾Ð´":1715,"ĠÐ½ÐµÐ¿ÑĢ":1716,"Ð¸ÑĨÐ°":1717,"ÑĢÑĭÐ²":1718,"ĠÐ´Ð°Ð»":1719,"ĠÐ¼ÑĢÐ°Ñĩ":1720,"ÐĿÐµÐ´":1721,"ÐĿÐµÐ±ÐµÑģ":1722,"ĠÐ·Ð°Ð½":1723,"ĠÐ¿ÑĢÐµÐ²":1724,"Ð·Ñı":1725,"Ð°Ð½Ð¸Ñı":1726,"Ð½Ð¸Ñĩ":1727,"ĠÑĩÐµÑĢÑĤ":1728,"ĠÑĥÐ²Ð¸Ð´":1729,"ĠÐ¿Ð¾Ñħ":1730,"ĠÑĤÑĢÐ°Ð²":1731,"ĠÑģÐ¸Ð»ÑĮ":1732,"ÐĸÐ¸Ð²":1733,"ĠÐ½Ð°ÐºÐ¾Ð½ÐµÑĨ":1734,"Ġ\"âĢĶ":1735,"ÑĢÑĭÑĤ":1736,"Ð½Ð°ÑĤÑĮ":1737,"Ð»Ð°ÑģÑĮ":1738,"ÑĮÐµÐ¼":1739,"ÑıÑģ":1740,"ĠÑģÐ½Ð¾Ð²":1741,"ÑİÐ¼":1742,"ĠÐ´Ð¾Ð±":1743,"ĠÐ±Ð°Ð±":1744,"ĠÐ¼Ð³":1745,"ĠÐ¼Ð°ÑĤÑĮ":1746,"ÐµÑĢÐ²":1747,"ĠÐºÐ½ÑıÐ·ÑĮ":1748,"Ð¾ÑĢÐ¾Ð´":1749,"ĠÐ·Ð°Ð³":1750,"ĠÐ¿ÑĢÐ¾Ð±":1751,"ĠÐ¿ÑĢÐ¸ÑĪ":1752,"ÐĴÐ¿":1753,"ĠÑĥÑģÐ»":1754,"ĠÑĪÐµÐ»":1755,"ĠÑĢÐ°Ð·Ð±":1756,"ĠÐ´ÑĥÑĪÐ¸":1757,"ĠÐ´ÐµÑĢÐ¶":1758,"ĠÑģÐ¾Ð»Ð´Ð°ÑĤ":1759,"Ð¸Ð¶Ñĥ":1760,"ÑĮÐ¸":1761,"ĠÑģÐ´":1762,"ĠÑĤÐ¾Ð¿":1763,"ĠÐ´ÐµÐ´":1764,"ĠÐ´Ð²Ð°":1765,"ÐµÐ»ÐµÐ¹":1766,"ÐĿÐ°ÑĢ":1767,"Ð½Ð¾Ñĩ":1768,"Ð½Ð¸ÑĨ":1769,"Ð½Ð¸ÑĨÐ°":1770,"ĠÑıÐ·":1771,"ĠÐºÑĢÐ¸Ðº":1772,"ĠÐºÑĢÐ¸Ñĩ":1773,"ĠÑģÐ»ÑĥÑĪ":1774,"Ð°Ð¹ÑĤÐµ":1775,"ĠÐ¿Ð»Ð°Ð¼":1776,"ĠÐ½Ð¾ÑĩÐ¸":1777,"Ð¡ÐºÐ°Ð·Ð°Ð»":1778,"ĠÑģÐ»Ð¾Ð²Ð¾":1779,"ĠÐ·Ð»Ð¾Ð±":1780,"ÑıÐ¼Ð¸":1781,"ĠÐ¿Ð°Ð»":1782,"ĠÐ½ÐµÐ½":1783,"ÐµÑĤÐ°":1784,"ĠÐ´Ð½Ñı":1785,"ĠÐ±Ð¸ÑĤ":1786,"ÐŁÐ¾Ð³":1787,"Ð¾ÑģÑĤÑĮÑİ":1788,"Ð°Ð¶Ð¸":1789,"ÐĵÐ¾ÑģÐ¿Ð¾Ð´":1790,"ĠÑģÑĤÑĢÐ°Ð´":1791,"ĠÐ±Ð»ÐµÐ´":1792,"ĠÐ´ÑĢÐµÐ²":1793,"ÑĥÑīÐµÑģÑĤÐ²":1794,"ĠÐ²Ð¸Ð´Ð¸ÑĤ":1795,"Ð¸Ð½ÑĥÐ²":1796,"ĠÑģÐµÑĢÐ´ÑĨÐ°":1797,"ĠÐ½Ð¸ÑĩÐµÐ³Ð¾":1798,"Ð½Ð°ÐºÐ¾":1799,"ĠÐ²Ð¸ÑĤÑıÐ·":1800,"Ð»Ð°Ð³":1801,"ĠÑģÐ¾Ð³":1802,"ĠÐ²ÑģÑĤÑĢÐµÑĩ":1803,"ÑĪÐ¸Ð¼":1804,"ĠÑĤÐµÑĢ":1805,"ĠÐ¼Ð¾Ñİ":1806,"ĠÐ¼Ð»Ð°Ð´":1807,"ĠÐºÐ¾Ð¿":1808,"Ð¾Ð½Ñĩ":1809,"ÑĳÐº":1810,"ÐµÐ³Ð¾Ð´":1811,"ĠÐºÑĢÐµÐ¿":1812,"Ð§ÐµÐ¼":1813,"ÐĹÐµÐ¼":1814,"ĠÐºÐ°ÐºÐ¾Ð¹":1815,"ĠÐĵÑĢ":1816,"ĠÑĢÐ°ÑģÑģÐºÐ°Ð·":1817,"Ð»Ð¸Ð²Ð¾":1818,"ĠÐķÐ³Ð¾":1819,"ÑģÐºÐ¾Ðµ":1820,"Ð´ÐµÐ¼":1821,"ÑĩÐ¸Ð½":1822,"ÑĪÐµÐ³Ð¾":1823,"ĠÑĤÐµÐ½Ð¸":1824,"Ð¾ÑĢÐ¾Ð²":1825,"ĠÑĢÐ°Ð½":1826,"ÑĨÐ¾Ð²":1827,"Ð¾ÑģÐ¾Ð±":1828,"ĠÑĩÐ¸ÑĤ":1829,"Ð¾ÑĩÐºÐ¸":1830,"Ð¸ÑħÐ°":1831,"Ð£Ñģ":1832,"ÐĽÐµÑĤ":1833,"ĠÐ¿Ð»Ð¾Ð´":1834,"ĠÐ³Ð»Ð°Ð·Ð°":1835,"ÑĭÑģÐ»":1836,"ĠÑģÐ¾ÑĤÐ²Ð¾ÑĢ":1837,"ĠÐ½Ð¾Ð¶":1838,"ĠÑĤÑĥÐ¼":1839,"ĠÐ´Ð°Ð²":1840,"ĠÐ´Ð°Ð»ÐµÐº":1841,"ĠÐºÐ¾Ð¼":1842,"ĠÑĢÐ¾Ðº":1843,"ĠÐ³Ð¾ÑģÑĤ":1844,"ĠÑģÑĤÐµÐ½":1845,"Ð»Ð¸Ðº":1846,"ĠÐ¾ÑĤÐ¿":1847,"ĠÑģÐ»Ð°Ð±":1848,"ĠÐ³ÑĢÑĥÑģÑĤ":1849,"ÐķÐ¼Ñĥ":1850,"ĠÐ¼Ð¾Ð¸":1851,"ĠÐ¿Ð¾ÐºÐ¾ÑĢ":1852,"ĠÐ±Ð»Ð°Ð³Ð¾Ð´":1853,"ĠÐ¼Ð¾ÑĢÐµ":1854,"Ð°ÑĤÑĮÑıÐ½Ð°":1855,"ĠÐ¡Ð°ÑĤÐ°Ð½Ð°":1856,"ÑĥÑģÐ»Ð°Ð½":1857,"Ð»ÑıÑĤ":1858,"Ð»ÐµÐ½Ð½ÑĭÐ¹":1859,"ĠÐ¿Ð¾Ð·Ð´":1860,"Ð²Ð°Ð½":1861,"ĠÐ´Ð°Ð²Ð½Ð¾":1862,"ĠÐ¸Ð´ÐµÑĤ":1863,"ĠÐ¼Ð¸Ð³":1864,"ĠÐºÑĥÐ´Ð°":1865,"Ð¾ÑĢÐ¾Ð¶":1866,"Ð·Ð´":1867,"Ð¸Ð¼ÑĭÐ¹":1868,"ÑıÑĤÐµÐ¶":1869,"Ð¾ÑĩÐºÐ°":1870,"Ð½ÑıÐ»":1871,"ÐķÐ¹":1872,"ÑĥÑħÐ°":1873,"ĠÑģÑĤÑĢÐµÐ¼":1874,"ĠÐ±Ð»Ð°Ð¶ÐµÐ½":1875,"ÑıÑĤÑĮÑģÑı":1876,"ĠÑĢÑĥÐºÐ¾Ð¹":1877,"Ð»ÑİÐ±":1878,"ĠÐ´ÐµÑĢÐ·":1879,"ĠÐºÑĢÑĥÐ³Ð¾Ð¼":1880,"ĠÐ±Ð»Ð¸Ð·":1881,"ĠÑģÐ¾ÑģÐµÐ´":1882,"ĠÑģÑĭÐ½":1883,"ÑĩÐ°ÑĤ":1884,"ĠÑĤÐµÐ»":1885,"ĠÐ´Ð½Ð¸":1886,"ĠÐ±Ð¾Ð¶":1887,"ĠÐ¿ÑĢÐ¾Ð´":1888,"ÐŁÐ¾Ñģ":1889,"ÐŁÐ¾ÑģÑĤ":1890,"Ð¾Ð³Ð°":1891,"ÐļÑĥÐ´Ð°":1892,"ĠÐµÑĳ":1893,"ĠÑĥÐº":1894,"ĠÑĪÑĥÑĤ":1895,"ĠÐ¿Ð»ÐµÑĩ":1896,"ĠÑįÑĤÑĥ":1897,"ĠÐ·ÐµÐ¼Ð»Ð¸":1898,"ĠÐ·ÐµÐ¼Ð»Ñİ":1899,"ĠÐ²Ð¿ÐµÑĢÐµÐ´":1900,"ĠÐ´Ð¾Ð¼Ð¾Ð¹":1901,"ĠÐ¿Ð¾Ð±ÐµÐ´":1902,"ÐŁÐ¾ÑĤÐ¾Ð¼":1903,"Ð¼Ð¾Ð¶Ð½Ð¾":1904,"Ġ*":1905,"ÑĢÑĥÑĪ":1906,"ÑĭÑģ":1907,"ĠÐ¿Ð¸ÑĢ":1908,"ĠÐ²Ð¾Ð»ÑĮ":1909,"ĠÐ½Ð¾Ñģ":1910,"ĠÐ½ÑĥÐ¶":1911,"ÑĩÐ¸Ðº":1912,"ĠÐ¾Ð¶":1913,"ĠÐ¸Ð³ÑĢ":1914,"ÐĿÐ°Ð¼":1915,"ĠÐ»ÑĥÐ³":1916,"ĠÐ»Ð¸ÑĪ":1917,"Ð°Ð½Ðµ":1918,"Ð°Ð½Ð¸Ð¹":1919,"Ð¢Ð¾ÑĤ":1920,"Ð¢ÐµÐ±Ñı":1921,"ÐĶÑĥÑĪ":1922,"Ð»Ð¸Ð·":1923,"ÐĳÑĥÐ´":1924,"Ð£ÑĤ":1925,"ÐķÐ´":1926,"ÐĽÑİÐ´":1927,"ĠÐ¿Ð¾ÐºÐ»Ð¾Ð½":1928,"ĠÐ¿ÑĢÐ¾Ð¸Ð·":1929,"ĠÐ·Ð°ÐºÐ¾Ð½":1930,"ĠÐĲÐ½Ð³ÐµÐ»":1931,"ĠÐ¿ÑĥÑĤÐ¸":1932,"ĠÐ´ÑĢÑĥÐ·ÑĮÑı":1933,"Ð°Ð½Ð¾":1934,"Ð¼Ðµ":1935,"ĠÐ´Ð¾Ð¶Ð´":1936,"ĠÐ¼ÑĥÐ·":1937,"ĠÐ·Ð´":1938,"ÐĺÐ»Ð¸":1939,"ĠÐ¿ÑĢÐ¾ÑĤÐ¸Ð²":1940,"Ð¡ÑĢÐµÐ´":1941,"ÐµÐ´Ð¸Ð½":1942,"ÑīÑĳ":1943,"ĠÑģÑĤÐµÐ¿":1944,"Ð¾ÐºÑĢÑĥÐ³":1945,"ĠÑĥÐ²":1946,"ĠÑĪÐµÐ¿":1947,"ÑĥÐ¿ÑĢÑĥÐ³":1948,"ĠÐ³Ð¾ÑĢÐ¾Ð´":1949,"ÑĭÐ²Ð°ÑĤÑĮ":1950,"ĠÐ¿ÑĢÐ¸Ñģ":1951,"ĠÐ¼Ð¾Ñī":1952,"ĠÐ´ÑĢÐµÐ¼":1953,"Ð¾Ð±ÑĢÐ°Ð·":1954,"ĠÑģÐ»Ð°Ð²Ñĭ":1955,"ĠÐ¾Ð±ÑĢÐ°Ð·":1956,"ÑĥÐ»Ñı":1957,"ĠÐ²Ð°Ð¶":1958,"ĠÐ½Ð°Ð¹":1959,"ÑĪÐµÐ±":1960,"ÐµÐ½Ð½ÑĭÐ¼":1961,"ÐµÑĢÐ¸":1962,"Ð½Ð¸Ð·":1963,"ĠÑĩÑĥÐ¶":1964,"ĠÑģÑĤÐ¾Ð½":1965,"Ð¾ÐºÐ°":1966,"ÐµÑģÑĤÑĥÐ¿":1967,"ĠÑĥÐºÑĢ":1968,"ĠÑıÑģ":1969,"Ð¾Ð»ÑĮÐ·":1970,"ÐĹÐ°Ðº":1971,"ĠÐ¾Ð±ÑĢÐ°ÑĤ":1972,"ÐµÐ»ÑĮÐ·Ñı":1973,"ĠÐ¡Ð¼ÐµÑĢÑĤ":1974,"Ð¯Ð²":1975,"ĠÐ»Ð¸ÑĨ":1976,"ĠÑģÐ²Ð¾Ð¸Ð¼":1977,"Ð²ÐµÑĢÑĮ":1978,"ĠÐķÐ²Ð°":1979,"ĠÑģÐ¾Ð²ÐµÑĢÑĪ":1980,"ĠÐ·Ð½Ð°Ñİ":1981,"ĠÑģÐ¼ÐµÑĢÑĤÑĮ":1982,"ĠÑħÐ»ÐµÐ±":1983,"ÑĢÐ¾Ð´":1984,"ÑĢÐµÐ¶":1985,"Ð»ÐµÐ¹":1986,"ĠÐ¿ÑĤÐ¸":1987,"ĠÐ²ÐºÑĥÑģ":1988,"Ð´Ð°Ð¼":1989,"ĠÐ»Ñĥ":1990,"Ð°Ð½Ð´":1991,"ÐļÐ¾Ð»":1992,"Ð¾ÐºÐ¸Ð¹":1993,"ĠÐ¾ÑĤÐº":1994,"ĠÐ¾ÑĤÐµÑĨ":1995,"ÐŁÑĢÐ¾":1996,"ÐŁÑĢÐ¾ÑģÑĤ":1997,"ÐĹÐ»":1998,"ĠÐ¿Ð¾ÑįÑĤ":1999,"ĠÐ¢ÐµÑĢÐºÐ¸Ð½":2000,"ĠÑģÐ²Ð¾Ð¸Ñħ":2001,"ĠÐ½ÐµÐ¼Ñĥ":2002,"ĠÐ·ÐµÐ¼Ð»Ñı":2003,"ĠÐ¿Ð¾ÑģÐ»ÑĥÑĪ":2004,"ĠÑĥÐ´Ð°Ð»":2005,"ĠÐ¿ÐµÑĢÐ²ÑĭÐ¹":2006,"ĠÐ½Ð¾Ð³Ð¸":2007,"ĠÐºÐ°Ð¶Ð´ÑĭÐ¹":2008,"ÑĢÐ¾Ð³":2009,"Ð»Ð¸Ð¼":2010,"ÑıÐ»Ð¸":2011,"ÑıÐ»Ð°":2012,"ĠÑģÐ¾Ð»Ð½ÑĨÐµ":2013,"ĠÐ²Ð°Ð»":2014,"ĠÐ½ÐµÐ·":2015,"Ð¼Ð°":2016,"ÐµÐ½ÐµÑĢ":2017,"ĠÑĤÑĮÐ¼":2018,"ĠÐ¼ÑĢÐ°Ðº":2019,"ÐµÐ»Ðµ":2020,"ĠÐ¿ÑĢÐ¾Ð¼":2021,"ĠÐ¿ÑĢÑıÐ¼":2022,"ĠÐ½ÐµÑĩ":2023,"ĠÑģÑĤÐ¾Ð»ÑĮ":2024,"ĠÑĥÐ»ÑĭÐ±":2025,"ÐµÐ³Ð¸Ð½":2026,"ÐµÐ¶Ð°Ð»":2027,"ÐºÐ¾ÑĪ":2028,"ĠÑĤÑĢÐµÐ¿":2029,"Ð¸Ð»Ð°ÑģÑı":2030,"ĠÐ°Ð»":2031,"ĠÑģÑĤÑĢÐµÐ»":2032,"Ð¾ÑģÐ»Ð¾Ð²":2033,"Ð»ÑİÑĩ":2034,"ĠÐ´ÑĥÑĪÐ°":2035,"ĠÐ²ÐµÑĤÐµÑĢ":2036,"ĠÐ²ÐµÐ»Ð¸Ðº":2037,"ĠÐ»ÑĥÑĩÑĪÐµ":2038,"ĠÑģÐºÐ¾ÑĢÐ¾":2039,"Ð»ÐµÐ¼":2040,"ĠÑģÑĥÐ¼":2041,"ĠÐ¿Ð°Ð¼":2042,"Ð²Ð¸Ð³":2043,"ĠÐ¼ÑĥÑĩ":2044,"ÐŁÐµÑĢÐµÐ´":2045,"ÐĴÐ¸Ð´":2046,"Ð¾ÑĤÑĥ":2047,"Ð°Ð½Ð¸Ðµ":2048,"ĠÑĩÐµÑĤ":2049,"Ð°Ð´ÑĨÐ°ÑĤÑĮ":2050,"ÐŁÑĢÐ¸Ð²":2051,"ĠÐ¾Ð±Ð»Ð°Ðº":2052,"ĠÐ¿Ð¾Ð»Ñı":2053,"ĠÑģÐ¿Ð°Ñģ":2054,"ÑĥÑĢÐ¾Ð²":2055,"ĠÑįÑĤÐ¾Ð¹":2056,"ĠÐ´ÑĢÑĥÐ³Ð¾Ð¹":2057,"ĠÐ·ÐµÐ¼Ð»Ðµ":2058,"ĠÐ¼ÐµÑĩÑĤ":2059,"ĠÐ²Ð»Ð°ÑģÑĤÑĮ":2060,"ĠÑģÑĢÐµÐ´ÑĮ":2061,"ĠÐ¿ÑĢÐµÐ¶Ð´Ðµ":2062,"ÑĢÑħ":2063,"ĠÐ¿ÑĭÐ»":2064,"ÐºÐ¾Ð½":2065,"ĠÐ²ÐµÑī":2066,"ĠÐ²ÑĤÐ¾ÑĢ":2067,"ÐµÑĢÐ²Ð°":2068,"ĠÐºÐ½ÑıÐ·":2069,"ÐĿÐµÐ¼":2070,"ĠÑĢÐµÐ²":2071,"ÐŁÐ¾ÑģÐ»ÐµÐ´":2072,"ÐĴÐµÑģ":2073,"Ð¾ÑĤÐ¾Ð¹":2074,"ÐŀÐ³":2075,"ÐŁÑĢÐ¸ÑĪ":2076,"ÐĹÐ´ÐµÑģÑĮ":2077,"ĠÐ²ÑģÐµÐ¹":2078,"ĠÐ¡ÑĤ":2079,"ĠÐ³Ð¾ÑĢÑı":2080,"ĠÐ¾Ð´Ð½Ð¾":2081,"ÑĭÐ²Ð°ÐµÑĤ":2082,"ÑĦÐ¸ÑĢ":2083,"ĠÑĢÐ¾Ð´Ð½Ð¾Ð¹":2084,"ĠÐķÐ²":2085,"ĠÑĥÐ´Ð°ÑĢ":2086,"ĠÑģÐ»ÐµÐ·Ñĭ":2087,"ĠÑĤÐ¾ÑĢÐ¶":2088,"Ð°Ñī":2089,"Ð¸ÑĨÑĭ":2090,"ÑĢÐµÐ±":2091,"ÐºÐ°Ð¼":2092,"ĠÐ²Ð½Ð¸Ð¼":2093,"ĠÐ²Ð¼ÐµÑģÑĤ":2094,"ÑİÐ´Ð°":2095,"ĠÑĤÐµ":2096,"ĠÑĤÐ¾Ð³Ð¾":2097,"ĠÐ´ÑĥÐ±":2098,"Ð¾Ð´Ð½Ð¾":2099,"Ð¾ÑĤÐµ":2100,"Ð¾ÑĤÑı":2101,"ĠÐ½ÐµÑİ":2102,"ĠÑģÐ»ÑĥÑĩ":2103,"ÐľÐ¾Ð¹":2104,"ĠÐ²ÑĭÐ¿":2105,"ĠÐĿÐ°":2106,"ĠÑĤÑĢÐµÐ²":2107,"Ð¸Ð»Ð¸ÑģÑı":2108,"ĠÐ³Ð¾ÑĢÑĮ":2109,"ĠÑĢÑĥÐº":2110,"ÑĳÑĤÑģÑı":2111,"ĠÐ·Ð½Ð°Ð»":2112,"Ð¡Ð»Ð¾Ð²Ð½Ð¾":2113,"ÑĭÐ½ÑĩÐµ":2114,"ĠÑģÑĤÑĢÐ°Ð½Ð½Ð¸ÐºÐ¸":2115,"ĠÐ¾ÑĤÐ²ÐµÑĩ":2116,"ÑĤÑĥ":2117,"Ð¸ÐµÐ¼":2118,"ĠÐ²Ð¾Ð²":2119,"ÑĪÐ¸ÑĢ":2120,"ĠÐ·Ð°Ð»":2121,"Ð°Ð½Ð³":2122,"Ð°Ð½Ð½Ð¾Ð¹":2123,"ĠÐ¶Ð¸Ð»":2124,"ĠÑĥÑģÐ¿":2125,"ĠÑħÐ¾Ð·Ñı":2126,"ÑĢÐ°ÑģÑĤ":2127,"ĠÑĪÐ°Ð¿":2128,"ĠÐ³Ð¾ÑĢÐµ":2129,"ĠÐ»Ð¸ÑģÑĤ":2130,"ĠÐ±ÑĢÐ¾Ñģ":2131,"ĠÐ¿Ð¾ÐºÐ¾Ð¹":2132,"ĠÑĥÐ¼ÐµÑĢ":2133,"ÑıÑīÐ¸Ð¹":2134,"ÐļÑĢÐ°Ñģ":2135,"ĠÐ²ÐµÐ»Ð¸Ñĩ":2136,"ĠÑģÐ½Ð¾Ð²Ð°":2137,"ĠÐ²Ð»Ð°Ð´":2138,"ĠÐ¾Ð½Ð¾":2139,"Ð¾Ð»ÐµÑĤ":2140,"ĠÐºÐ°ÑĤ":2141,"ÐĿÐ¸Ðº":2142,"ĠÑĢÐ¾Ð·":2143,"ÐĴÐ»Ð°Ð´":2144,"ÐŀÑģÑĤ":2145,"ĠÑģÑĤÐ°Ð»Ð¾":2146,"Ð¸Ð²Ð¾":2147,"ĠÑĥÐ½Ñĭ":2148,"ÐµÑĩÐ½Ð¾":2149,"ÐµÐºÐ¸":2150,"ÐĲÑħ":2151,"ĠÑģÐºÐ°Ð¶":2152,"ĠÑģÐ¿ÐµÑĪ":2153,"ĠÐ¾Ð´Ð½Ð¾Ð¹":2154,"Ð¾ÑĪÐ¾":2155,"Ð¸ÑĤÐµÐ»ÑĮÐ½Ð¾":2156,"ĠÑģÐ¸Ð»Ñĭ":2157,"ĠÐ¼ÑĥÐ¶Ð¸Ðº":2158,"ĠÐ¼Ð¾Ð»Ð¾Ð´Ð¾Ð¹":2159,"ĠÐ¢Ð²Ð¾ÑĢÑĨÐ°":2160,"ÑĢÐµ":2161,"Ð»ÑĭÐ¹":2162,"ÑĭÐ»Ð¸":2163,"ĠÑģÐ¾Ð»Ð½":2164,"ĠÐ²ÑģÑĤÑĢ":2165,"ĠÐ´Ð»Ð¸Ð½":2166,"ÐŁÐ¾Ð·":2167,"Ð¾ÑģÑĥÐ´":2168,"ĠÐ½Ð°ÑģÑĤ":2169,"Ð¸Ð²ÑĭÐ¹":2170,"ĠÐ¾ÑĤÑĩ":2171,"ĠÐ¸Ð·Ð´":2172,"ĠÐłÐ°Ð¹":2173,"ÐŀÐ´Ð¸Ð½":2174,"ĠÐĹÐµÐ¼Ð»Ðµ":2175,"ĠÐ¾ÐºÑĢÑĥÐ¶":2176,"ĠÐ½ÐµÐ½Ð°Ð²":2177,"ÐµÐ½ÐµÑĢÐ°Ð»":2178,"ÑĢÑıÐ´":2179,"ÑĪÑĥÑİ":2180,"ĠÐ±Ð°ÑĪ":2181,"ĠÐºÐ½Ð¸":2182,"ĠÑĢÐ°Ð²Ð½Ð¾":2183,"ĠÐ³Ð¸Ð±":2184,"Ð°ÑĤÐ¸":2185,"ÐĴÐ¾Ð»":2186,"Ð°Ð²Ð¸Ð»":2187,"Ð°Ð½Ð½ÑĭÑħ":2188,"Ð¢ÐµÐ¼":2189,"ÑĳÑģ":2190,"Ð¶Ð°Ð»":2191,"ĠÐºÑĢÐ°Ñı":2192,"ÐľÑĥÐ¶":2193,"ĠÑģÐºÐ»Ð¾Ð½":2194,"ĠÑģÐºÐ²Ð¾Ð·ÑĮ":2195,"ÐºÑĥÑİ":2196,"Ð¡ÑĤÐ¾Ð»ÑĮ":2197,"Ð¾ÑħÐ¾ÑĤ":2198,"ĠÐºÐ¾Ð½ÑĨÐ°":2199,"ĠÐ·Ð²Ð¾Ð½":2200,"ĠÐ¿ÐµÑģÐ½Ð¸":2201,"ÐŃÐ¹":2202,"ĠÐĳÐ¾Ð¶Ð¸Ð¹":2203,"ÐµÐ³Ð¾Ð´Ð½Ñı":2204,"),":2205,"ĠÐĸ":2206,"Ð»ÐµÐ½ÑĮÐµ":2207,"ĠÑģÐ¾Ñħ":2208,"ĠÐ²Ðº":2209,"ĠÐ½Ð°Ð¼Ð¸":2210,"ÐµÐ½ÐµÐ¼":2211,"ĠÑĤÑĥ":2212,"ĠÑĤÐ²Ð¾ÑĢ":2213,"ĠÐ¼ÐµÑĢÑĤÐ²":2214,"Ð¸ÑĤÑĢ":2215,"ÐĿÐ°Ð²":2216,"Ð°ÑĤÑĭÐ¹":2217,"ĠÐ¿ÑĢÐ¾Ñħ":2218,"ÐŁÐ¾ÑģÐ»":2219,"Ð±Ð¾":2220,"ĠÐ»Ð°Ð´":2221,"ĠÐ»Ð¾Ð¶":2222,"ĠÐºÑĢÐ¾Ð²ÑĮ":2223,"ÐľÐ¾Ð³":2224,"ÐĹÐ°Ð²":2225,"ÐĹÐ°Ð¿":2226,"Ð£Ð±":2227,"Ð£Ð¿":2228,"ÐĲÐ´Ð°Ð¼":2229,"Ð°Ð»Ð¸ÑģÑı":2230,"ĠÐ¿Ð¾Ð´Ð¾Ð±":2231,"ĠÐ¸Ð·Ð¼ÐµÐ½":2232,"Ð»Ð¾Ñī":2233,"ĠÐ³Ð»ÑĥÐ¿":2234,"Ð¾ÑĪÐ°Ð´":2235,"ĠÐ¿Ð¾ÐºÐ°":2236,"ÑĥÑīÐ¸Ð¹":2237,"ĠÐ´ÑĥÑĪÑĥ":2238,"ĠÑģÑĤÐ¾Ð¸ÑĤ":2239,"ĠÐ½Ð°ÑĩÐ°Ð»":2240,"ĠÐ¼ÐµÐ¶Ð´Ñĥ":2241,"ĠÐºÑĢÐµÑģÑĤÑĮÑıÐ½Ð¸":2242,"ÑĥÑģÐºÐ°Ð¹":2243,"ĠÐ²Ð¾ÑĢÐ¾ÑĤ":2244,"ĠÐ¨":2245,"Ð¸ÑīÐµ":2246,"ĠÐ¾Ð²":2247,"ĠÐ´ÐµÐ»Ð°":2248,"Ð¾Ð²Ð°Ð²":2249,"ĠÐ±Ð°Ð»":2250,"ĠÐ¿ÑĢÐ¸ÑĢ":2251,"ĠÐ¿ÑĢÐ¸Ñĩ":2252,"ÑĨÐµÐ²":2253,"Ð°ÑĢÐ°":2254,"ÑīÐµÑĤ":2255,"Ð½Ð¸Ð²":2256,"Ð¢Ð¾Ð³Ð´Ð°":2257,"Ð¸Ð¼ÑģÑı":2258,"ĠÑģÐ²Ð¾Ð±Ð¾Ð´":2259,"ÐľÐ¾":2260,"ÑģÐºÑĥÑİ":2261,"ĠÑĪÐ°ÑĤ":2262,"ĠÑģÐ¼Ð¾ÑĤÑĢ":2263,"ĠÐŁÐµÑĤ":2264,"ĠÑĨÐµÐ»":2265,"ĠÐ¿Ð»ÐµÐ½":2266,"ĠÐ¼Ð¾Ð¸Ñħ":2267,"ĠÑįÑĤÐ¸":2268,"ĠÐ¼Ð¾Ð³Ð¸Ð»":2269,"ÐµÐ½Ð¸ÐµÐ¼":2270,"Ð°Ð·Ð°Ð»Ð¾ÑģÑĮ":2271,"ÐŁÐ¾ÐºÐ°":2272,"ĠÐ²Ð¾Ð¹Ð½Ðµ":2273,"ĠÑģÐ¼ÐµÑĢÑĤÐ¸":2274,"ĠÐ·Ð½Ð°ÐºÐ¾Ð¼":2275,"ĠÑģÐ¾Ñĩ":2276,"Ð¼Ð¾ÑĤÑĢ":2277,"ĠÑĤÐµÐ½ÑĮ":2278,"Ð¾Ð»Ð¾Ð²":2279,"ĠÐ´ÑĭÑĪ":2280,"ĠÐ´Ð°Ð±Ñĭ":2281,"ĠÐ¸Ð½":2282,"ĠÐ¼ÑĥÐ´ÑĢ":2283,"ÐµÑĢÐ³":2284,"ĠÐ¿ÑĢÐ¸ÑĤ":2285,"ÐŁÐ¾Ñĩ":2286,"ÐŁÐ¾ÑĪ":2287,"Ð°ÑĢÑı":2288,"Ð°ÑĢÐ¸Ñı":2289,"ĠÑĩÐµÐ³Ð¾":2290,"Ð¸Ð½ÑģÑĤÐ²":2291,"ĠÑģÑĤÐ¸Ñħ":2292,"ÐŁÑĢÐ¾ÑĤÐ¸Ð²":2293,"Ð§ÑĥÐ´":2294,"ĠÐĴÐ¾ÑĤ":2295,"ÐŀÑĤÐµÑĨ":2296,"ĠÑĨÐµÐ¿":2297,"ĠÐ»ÑİÐ±Ð¾Ð²":2298,"ĠÐ´ÑĢÐ¾Ð¶":2299,"ĠÐ²Ð¾Ð»Ð½":2300,"ĠÑģÐ²ÐµÑĤÐµ":2301,"ÐĹÐ°ÑĩÐµÐ¼":2302,"ĠÐ¿Ð¾Ð³Ð¸Ð±":2303,"ĠÐ»ÐµÑģÑĥ":2304,"?..Â»":2305,"ĠÐ»ÐµÐ³ÐºÐ¾":2306,"ĠÐ¼Ð½Ð¾Ð³":2307,"ÑĢÐ¾Ð±":2308,"ÑĢÐµÑĪ":2309,"ÑĮÐµÑĤ":2310,"ĠÑģÑĥÐ¿ÑĢÑĥÐ³":2311,"ĠÐ¿ÑıÑĤ":2312,"ĠÐ¿ÑĭÑĪ":2313,"ĠÐ²Ð¸Ð¶Ñĥ":2314,"ĠÐ½ÑĭÐ½Ðµ":2315,"ĠÐ¸Ð´":2316,"ĠÐ³Ð¾Ð½":2317,"ĠÐ¿ÑĢÐ°Ñħ":2318,"Ð°Ð·ÐµÐ¿":2319,"Ð¢ÐµÐ±Ðµ":2320,"ÐĶÐ¾Ð²":2321,"Ð»ÑıÐ»":2322,"ÐĹÐ°Ð¼":2323,"ĠÐ³ÑĢÐµÑĪ":2324,"ĠÑĢÐ°Ð·Ð²":2325,"Ð°Ð»Ð°ÑģÑı":2326,"ĠÐ½Ð°ÑĪÐ¸Ñħ":2327,"ĠÐ²Ð¸Ð´ÐµÐ»":2328,"ĠÐ³Ð¾Ð»Ð¾Ð´":2329,"ĠÐºÐ¾Ð½ÑĮ":2330,"ĠÑģÑĤÑĢÐ°ÑģÑĤ":2331,"ĠÑĤÐ²Ð¾ÐµÐ¹":2332,"ĠÐ¿Ð¾ÑģÐ»Ðµ":2333,"Ð¡Ð¼ÐµÑĢÑĤ":2334,"ĠÐ±Ð°ÑĢÐ¸Ð½":2335,"ĠÐ½ÐµÐ±Ð¾":2336,"ÐĳÐ»Ð°Ð¶ÐµÐ½":2337,"ĠÑģÑĢÐ¾Ðº":2338,"ĠÑĤÐ¾Ð±Ð¾Ñİ":2339,"ĠÐºÑĢÐµÑģÑĤÑĮÑıÐ½":2340,"ĠÐ¼Ð¾Ð»Ð²Ð¸Ð»":2341,"ĠÐ³ÑĢÑĥÐ´Ð¸":2342,"ĠÑĥÐ³ÑĢÑİÐ¼":2343,"ĠÐ²Ð¸ÑĤÑıÐ·ÑĮ":2344,"Ð¤":2345,"ÑĤÐ°Ðº":2346,"Ð»Ñĥ":2347,"ĠÐ½ÐµÐ³":2348,"ĠÐ½ÐµÐ»ÑĮÐ·Ñı":2349,"Ð¼Ð°Ñħ":2350,"Ð¼Ð¾Ð»Ð²":2351,"ÐµÐ½ÑģÐºÐ¸Ð¹":2352,"ĠÐ´Ð¸ÑĤ":2353,"ĠÐºÐ½ÑıÐ¶":2354,"Ð¡Ð²ÐµÑĢ":2355,"ĠÑĩÐµÑģÑĤ":2356,"Ð¾Ð½Ð°":2357,"ĠÐ¶ÐµÑģÑĤ":2358,"ÐĶÐ¾ÑĢ":2359,"ÐĶÐ°Ð²Ð½Ð¾":2360,"ĠÑĥÑĩ":2361,"Ð¾Ð¶Ð¸ÑĤÑĮ":2362,"Ð°ÑıÐ½":2363,"ÐĵÐ»Ð°Ð²":2364,"ÐłÐ¾Ð´":2365,"Ð°ÑģÑĤÑĮ":2366,"Ð¸ÑĩÐµÑģ":2367,"ĠÑįÑĤÐ°":2368,"ĠÐĹÐ¼":2369,"Ð°Ð¶Ð´Ñĭ":2370,"ĠÑĤÐ²Ð¾Ð¸Ñħ":2371,"ĠÐ¼Ð¾ÑĢÑı":2372,"ĠÐĳÐ¾Ð³Ð°":2373,"ĠÐĿÐµÐ±ÐµÑģÐ°Ñħ":2374,"ÐŃÑĤÐ¾":2375,"ĠÐ½ÐµÑģÑĩÐ°ÑģÑĤ":2376,"Ð¾Ð½ÑĮÐºÐ¾":2377,"ĠÑĩÑĥÐ²ÑģÑĤÐ²":2378,"ĠÑĩÐ°ÑģÑĤÐ¾":2379,"ĠÐĿÐµÐ±Ð¾":2380,"ÑİÑĪÐºÐ°":2381,"ÑĢÑĭÐ»":2382,"Ð½ÐµÐ·":2383,"ĠÐ¿Ð¾Ð¹":2384,"ĠÐ²Ð¾ÐºÑĢÑĥÐ³":2385,"Ð´Ñĭ":2386,"ĠÑĤÑĥÐ´Ð°":2387,"ĠÐ¾ÑĩÐ¸":2388,"ĠÐ´Ð¾Ðº":2389,"ĠÐ´ÑĭÐ¼":2390,"ĠÐ¼ÐµÐ»ÑĮ":2391,"ĠÐºÐ¾Ð²":2392,"ĠÐºÑĥÐ¿":2393,"ĠÐ¿ÑĢÐ¾Ð½":2394,"Ð¡Ð¸Ð´":2395,"Ð³Ð°":2396,"Ð¾ÑģÑģ":2397,"Ð°ÑĢÐ¸":2398,"ÐµÐ²Ð¾Ð¹":2399,"Ð¸Ð¼Ð¾Ð¹":2400,"ÐŁÑĢÐ¾Ñģ":2401,"Ð»Ð°ÑģÑĤ":2402,"Ð§ÐµÑĢ":2403,"Ð§ÑĥÑĤÑĮ":2404,"ĠÐ²ÑģÐµÐ³Ð¾":2405,"Ð½ÑıÑı":2406,"ĠÑĤÑĢÑĥÐ±":2407,"ĠÑģÐ¿Ð¾ÐºÐ¾Ð¹":2408,"ĠÐ½Ð°Ð´ÐµÐ¶Ð´":2409,"Ð¸Ð½ÑĥÐ»":2410,"ÑıÐ»ÑģÑı":2411,"ĠÐ±ÐµÑģÑģ":2412,"Ð£Ð¶Ðµ":2413,"ÐĴÑĭÑģ":2414,"ÑĥÐ½ÑĤ":2415,"ÐŀÐ¿ÑıÑĤÑĮ":2416,"ĠÐ²Ð·Ð´Ð¾Ñħ":2417,"ĠÐ²Ð·Ð³Ð»ÑıÐ´":2418,"ÐļÑĢÐµÑģÑĤÑĮÑıÐ½Ðµ":2419,"ĠÑĤÐ¾ÑĢÐ¶ÐµÑģÑĤÐ²":2420,"\".":2421,"Ð»ÑĥÐ±":2422,"ĠÐ²ÑģÑĤ":2423,"ĠÐ²Ð½Ñĥ":2424,"ĠÐ´Ð°Ð¼":2425,"ĠÐ¼Ð½Ð¾Ñİ":2426,"ĠÐºÑĥÑģÑĤ":2427,"Ð¾ÑĢÑĭ":2428,"ÐĿÐµÐ¿":2429,"ĠÐ³Ð¾ÑģÑĤÐ¸":2430,"ÐĴÑĢÐ°Ð³":2431,"ÑģÑıÑĤ":2432,"ÑīÐ¸Ð¹":2433,"ĠÑĩÐµÑģÑĤÑĮ":2434,"ÐµÐ²ÑĭÑĪ":2435,"ÐµÐ·Ð´Ðµ":2436,"ĠÑģÐ²ÐµÐ¶":2437,"Â»,":2438,"Ð£Ð´":2439,"ĠÐ²ÑĭÐ´":2440,"ĠÐ¸Ð·Ð³":2441,"ĠÑĤÑĭÑģÑı":2442,"ÐķÑĳ":2443,"ÐŀÑĤÐº":2444,"ĠÐ¿Ð»Ð°Ðº":2445,"ĠÐ¿Ð»Ð¾ÑĤ":2446,"ĠÐ³Ð»ÑĥÑħ":2447,"ĠÑĥÑĤÑĢÐµÐ½":2448,"ĠÑĤÐ²Ð¾Ñı":2449,"ĠÐ¼Ð¾ÑĢÐ¾Ð·":2450,"ĠÑģÐ»Ð°Ð²Ñĥ":2451,"ĠÑĢÐ°Ð´Ð¾ÑģÑĤ":2452,"ĠÐ¶ÐµÐ½Ñī":2453,"ĠÑģÐºÐ¾ÑĢÐ±":2454,"ĠÐ¿ÑĢÐ¸ÐºÐ°Ð·":2455,"ĠÐ¿ÑĢÐ¾ÐºÐ»ÑıÑĤ":2456,"ÑĢÐµÐ»":2457,"Ð»Ð¾Ð²":2458,"Ð»ÑĥÑĪ":2459,"ÑĭÐ³":2460,"ÑıÐµÑĤ":2461,"ĠÐ½ÑĭÐ½ÑĩÐµ":2462,"ÐµÐ½Ð½Ð°Ñı":2463,"ĠÑĤÐ¾ÑĩÐ½Ð¾":2464,"ĠÐ¾ÑģÐº":2465,"Ð¾Ð»Ð¶":2466,"Ð¾Ð´Ðµ":2467,"ĠÑĢÐ¾Ð¶Ð´":2468,"ĠÐ¿ÑĢÐµÐ»":2469,"ÐµÐ¹ÑģÑĤÐ²":2470,"Ð¢Ð°ÑĤÑĮÑıÐ½Ð°":2471,"ÐµÐ²Ð°ÑĤÑĮ":2472,"ĠÑģÐ²Ð¾Ð±":2473,"ĠÑħÑĥÐ´":2474,"ĠÑħÐ»Ð°Ð´":2475,"ĠÐĿÑĥ":2476,"ĠÐĿÐµÑĤ":2477,"ĠÑģÐºÐ°Ð»":2478,"ÐĿÐ°ÑĪ":2479,"ĠÐ±ÐµÐ·ÑĥÐ¼":2480,"ÐĴÑģÑİ":2481,"ĠÑģÑĤÑĢÐ¾Ð³":2482,"ÐŁÐ¾Ð´Ð¾Ð±":2483,"ĠÐłÑĥÑģ":2484,"ĠÑģÐ¸Ð»Ð¾Ð¹":2485,"ÐĸÐµÐ»":2486,"ĠÑĨÐ°ÑĢÑĮ":2487,"ĠÐ³Ð»ÑıÐ´Ð¸ÑĤ":2488,"ĠÐ²Ð·Ð³Ð»Ñı":2489,"ÐµÐµÐ½":2490,"ÑģÐµÐ¼":2491,"ÑĥÐºÐ°":2492,"ĠÑģÐ¾ÑĢ":2493,"ĠÑģÐµÐ»":2494,"ĠÑģÐµÑģÑĤ":2495,"ĠÐ½ÐµÑĢ":2496,"ÑİÑģÑĮ":2497,"Ð¾Ð»Ð³Ð¾":2498,"ĠÐ´Ð¸Ðº":2499,"ĠÐ´Ð¾ÑĩÑĮ":2500,"ĠÐºÐ¾ÑģÑĤ":2501,"ĠÐ¿ÑĢÐ¸Ð»":2502,"ĠÐ¿ÑĢÐµÑģÑĤÑĥÐ¿":2503,"ÐŁÐ¾Ð±":2504,"ÐĴÑģÑı":2505,"Ð½Ð¾ÑģÑĤÑĮÑİ":2506,"Ð±Ñĭ":2507,"ĠÐ½ÐµÐµ":2508,"Ð°Ð´Ð°":2509,"ÐŀÑģÑĤÐ°Ð²":2510,"ÐļÐ½ÑıÐ·ÑĮ":2511,"Ð¸Ð²ÑĪÐ¸ÑģÑĮ":2512,"ÐĶÑĢ":2513,"ĠÑĥÑĪ":2514,"ÐµÐ·Ð¶":2515,"ÐµÐ½ÑĮÐºÐ°":2516,"ÑĥÑĩÐ¸Ð¹":2517,"ĠÐ²ÑĭÑĢ":2518,"ĠÑĢÐ°Ð·Ð³Ð¾Ð²Ð¾ÑĢ":2519,"ĠÐ³Ð¾ÑĢÑĭ":2520,"ĠÑģÐ¼ÐµÑħ":2521,"ĠÐ³Ð»Ð°Ñģ":2522,"ĠÐ°ÑĢ":2523,"ĠÐ²Ð¾Ð»Ðµ":2524,"ĠÑģÐ°Ð¼Ð°":2525,"ĠÐ´ÑĥÑĪÐ¾Ð¹":2526,"ĠÐ¿Ð¾Ð¼Ð¾Ñī":2527,"ÑıÑīÐµÐ¹":2528,"ĠÐ±ÐµÐ´Ð°":2529,"ÐŀÐ´Ð½Ð°ÐºÐ¾":2530,"ĠÐĽÑİÐ´":2531,"ÑĥÐºÐ°Ð²":2532,"ĠÐ±Ð¾ÑĢÑĮÐ±":2533,"ÑģÑĤÑĢÐµÑĩÑĥ":2534,"ĠÐ¼ÐµÑģÑĤÐ°":2535,"ĠÑħÐ¾ÑĩÑĥ":2536,"ÐĳÐµÑģÑģ":2537,"Ð½Ð°Ð²":2538,"Ð»Ð¾Ð¶":2539,"ÑĥÐ»Ð°":2540,"ÑĮÐµÐ¹":2541,"ĠÑĤÑİ":2542,"ĠÑĤÐµÑĢÐ¿":2543,"ĠÐ±Ð¾Ñİ":2544,"ÐµÑĢÐµÐ²":2545,"ĠÐ³ÑĥÐ»":2546,"Ð°ÑĤÑĭ":2547,"Ð³ÐµÐ½Ð¸Ð¹":2548,"ĠÐ½ÐµÐ¸Ð·":2549,"Ð°Ð´Ð½Ð¾":2550,"Ð¸Ð½Ñı":2551,"ÐºÐ°Ñĩ":2552,"ĠÑħÑĢÐ°Ð½":2553,"ĠÑħÐ²Ð°Ð»":2554,"ÐĳÑĭÐ»Ð°":2555,"ÐĳÑĭÑĤÑĮ":2556,"Ð£Ð·":2557,"ÐĵÐ¾ÑĤÐ¾Ð²":2558,"ĠÐ¡ÑĭÐ½":2559,"ĠÐ¸Ð·ÑĥÐ¼":2560,"ĠÑĢÐ°Ð·Ð³":2561,"ÐļÐ°ÐºÐ¾Ð¹":2562,"ÑģÐ»ÑĥÑĪ":2563,"ĠÐ¼ÑĭÑģÐ»Ð¸":2564,"ĠÐ½Ð°ÑĪÐµÐ¹":2565,"ĠÑģÑĤÐ°ÑĢÑĭÐ¹":2566,"ĠÑįÑĤÐ¾Ð¼":2567,"ĠÐ²Ð¾Ð»Ñİ":2568,"ĠÐºÐ¾Ð½Ñı":2569,"ĠÐºÐ¾Ð½Ñĩ":2570,"ĠÐ·Ð²ÐµÐ·Ð´":2571,"ÐµÐ½Ð¸Ð¸":2572,"ĠÐ·Ð½Ð°ÑĤÑĮ":2573,"ĠÐ¶Ð¸Ð²Ð¾Ð¹":2574,"ĠÐ¼ÐµÑĩÑĤÑĭ":2575,"ĠÐºÑĢÐ¾Ð²Ð°Ð²":2576,"ĠÑĤÐ²ÐµÑĢÐ´":2577,"ĠÑĤÐ¸ÑĪÐ¸Ð½Ðµ":2578,"ĠÑĢÐµÐ±ÑıÑĤÐ°":2579,"Ð¸ÐµÐ²":2580,"ÑģÐµ":2581,"Ð»ÐµÑĩ":2582,"Ð»ÐµÐ½ÑĮÑı":2583,"ĠÑģÐ¾Ð±ÑĢ":2584,"Ð¼Ð¸Ð³":2585,"Ð°Ð»Ð¸Ð²":2586,"ĠÐ´ÑĥÑĢ":2587,"ĠÐ¼Ð°Ð»Ð¾":2588,"ÐµÑĢÐ·":2589,"ÐĿÐ¯":2590,"ĠÐ·ÑĥÐ±":2591,"Ð°ÑĤÐ°":2592,"ĠÐ¿ÑĢÐ¾Ð·":2593,"ÐŁÐ¾Ð½":2594,"Ð·Ð°":2595,"Ð¡ÐµÑĢÐ´":2596,"ĠÐ»Ð¸Ðº":2597,"ĠÐ»ÐµÐ¶Ð¸ÑĤ":2598,"ĠÐ»Ð¾ÑĪÐ°Ð´":2599,"ÐµÐ´Ñĥ":2600,"Ð¢Ð²Ð¾ÑĢ":2601,"Ð¢ÐµÑĢÐºÐ¸Ð½":2602,"ÑĳÐ·Ð´":2603,"Ð¾ÑĩÐºÑĥ":2604,"ÑĥÐ¼Ñı":2605,"ĠÐ¡Ñĭ":2606,"ÑĮÑıÐ¼Ð¸":2607,"ĠÐ¿Ð¾Ð»Ð½Ð¾":2608,"ĠÑĤÑĢÐ¾Ð½":2609,"ĠÐ¿ÑĢÐ¸Ð¿":2610,"ĠÐĶÑĢÐµÐ²":2611,"ĠÐ±ÑĥÐ´Ñĥ":2612,"ĠÑĢÑĥÐºÑĥ":2613,"Ð½ÑĥÐ»Ð°ÑģÑĮ":2614,"Ð¸ÑĤÐµÐ»ÑĮÐ½ÑĭÐ¹":2615,"ĠÐ¼Ð¸ÑĢÐ°":2616,"ÑıÑīÐ¸Ñħ":2617,"ĠÑĤÐµÐ¼Ð½Ð¾":2618,"ĠÐ§ÑĤÐ¾":2619,"ÑĢÑıÐ¼":2620,"ĠÐ·Ð»Ð¾Ð´":2621,"ÑĢÐ°ÑģÐ½Ð¾":2622,"ĠÐ³Ð¾Ð»Ð¾Ð²Ñĥ":2623,"ĠÐ²ÐµÑģÐµÐ»":2624,"ĠÐ²ÐµÑģÐµÐ»Ð¾":2625,"Ð¡ÑĤÐ°ÑĢÐ¸Ðº":2626,"ĠÑģÐµÑĢÐµÐ±":2627,"ÑĢÑħÐ°Ð½Ð³":2628,".)":2629,"ÑĢÐ°Ð»":2630,"ÑĢÐ°Ð¼":2631,"Ð»Ð¾Ð¹":2632,"Ð»ÑĥÑĩ":2633,"ÐºÐ¾Ð³Ð¾":2634,"Ð²ÑıÑĤ":2635,"Ð¼Ð°ÑĤ":2636,"ÐµÐ½ÑĤ":2637,"ĠÑĤÐµÑģ":2638,"ĠÑĤÐ¾Ð¶Ðµ":2639,"ĠÑĤÐ¾Ð²Ð°ÑĢ":2640,"ÐµÐ¼Ñı":2641,"ĠÑĢÐµÐ·":2642,"Ð¡Ð¾Ð·Ð´":2643,"ĠÐ»Ð¾Ð²":2644,"Ð°Ð²Ð°":2645,"Ð°Ð½ÐµÑĤ":2646,"Ð°Ð½ÑĮÑİ":2647,"Ð°ÑĢÐ¼":2648,"ÑīÐ°":2649,"ÐļÐ¾Ð¼Ñĥ":2650,"ĠÑģÑĤÑĥÐ¿":2651,"ÑĥÑĤÑģÑı":2652,"ĠÑĪÐ°ÑĢ":2653,"ĠÐ¡Ð¾Ð»Ð½ÑĨÐµ":2654,"Ð½ÑıÐ²":2655,"ÐŀÑĤÐ²ÐµÑĤ":2656,"ĠÐ²Ð¾Ð·Ð¼":2657,"ĠÑģÑĤÑĢÐ¾Ð¹":2658,"ĠÐ¿ÑĢÐ¸Ð³Ð¾Ð²Ð¾ÑĢ":2659,"ÑĳÐ½Ð½ÑĭÐµ":2660,"ĠÐ³Ð¾Ð»ÑĥÐ±":2661,"ĠÐ²ÐµÑĢÑĪ":2662,"ĠÐ´ÑĢÑĥÐ³Ð°":2663,"ĠÐ»ÐµÑĤÐ¸ÑĤ":2664,"ĠÐ±Ð»Ð°Ð³Ð¾ÑĢÐ¾Ð´":2665,"ĠÐ²ÑĭÑģÐ¾Ðº":2666,"ĠÐĹÐµÐ¼Ð»Ñı":2667,"ĠÐ¸ÑģÐ¿ÑĥÐ³":2668,"ĠÐ½Ð¸ÐºÐ¾Ð³Ð´Ð°":2669,"ĠÐ¼Ð½Ð¾Ð¶":2670,"ĠÐ¡Ð¼ÐµÑĢÑĤÑĮ":2671,"ĠÐ²ÑģÑĤÑĢÐµÑĤ":2672,"Ð»Ð¾ÑģÑĮ":2673,"ĠÑģÐ¾ÑģÑĤ":2674,"ĠÑģÐ¾Ð¼Ð½":2675,"Ð¼ÑĥÑĢ":2676,"ÑħÐ°":2677,"ÐµÐ½Ð½ÑĥÑİ":2678,"Ð°Ð»ÑĤ":2679,"Ð¾Ð²ÑĭÐ¹":2680,"ĠÐ¼Ð¸Ð½ÑĥÑĤ":2681,"Ð½ÑĭÑĪ":2682,"Ð¸ÑĤÑĭ":2683,"Ð¸ÑĤÑĭÐ¹":2684,"Ð¾Ð¼Ð¸Ð½":2685,"ÐĺÑģÐ¿":2686,"ĠÑĢÐ¾Ð±":2687,"ĠÐ³ÑĥÑģÑĤ":2688,"ĠÐ¿ÑĢÐ¾Ð»":2689,"ĠÐ¿ÑĢÐ¾Ð³":2690,"ĠÐ¿ÑĢÐµÑģ":2691,"Ð¾Ð³Ñĥ":2692,"Ð°ÑĢÐ¾Ð¼":2693,"Ð¾Ð½Ñĭ":2694,"Ð¢Ð°":2695,"ÑĳÐ´":2696,"ĠÐµÑīÑĳ":2697,"ÐĶÐ²Ð°":2698,"ÐĶÐ°Ð±Ñĭ":2699,"ĠÐ¾ÑĤÑĢÐ°Ð´":2700,"ÐŁÑĢÐ¾Ð²":2701,"ĠÑħÐ²":2702,"ĠÐ¾Ð±Ð¼Ð°Ð½":2703,"ĠÐ²ÑĭÐ±":2704,"ĠÑģÐ¼Ð¸ÑĢ":2705,"ĠÐ±Ð»ÐµÑģÑĤ":2706,"ĠÐļÐ»Ð¸Ð¼":2707,"Ð¾Ð±ÑĢÐ°Ð¶":2708,"ĠÑįÑĤÐ¸Ñħ":2709,"ĠÐ²Ð¾Ð»ÑĪÐµÐ±":2710,"ĠÑĥÐ¼Ð¸ÑĢ":2711,"ÑĪÐµÐµ":2712,"ĠÐ¿Ð¾Ð²ÐµÐ»":2713,"ĠÐ¿ÑĢÐ¾Ñī":2714,"ĠÐ½Ð°Ð²ÐµÐº":2715,"Ð¸ÑīÐ°":2716,"ĠÐºÐ°ÑĢÑĤ":2717,"ĠÐ´Ð²ÑĥÑħ":2718,"ĠÐ´ÐµÑĤÐµÐ¹":2719,"ĠÐµÐ´Ð²Ð°":2720,"ĠÐ³ÐµÑĢÐ¾Ð¹":2721,"Ð¸ÑģÐº":2722,"ÑģÑĥÐ´":2723,"ÑĢÐ¾Ðº":2724,"ÑĢÐ¾Ñĩ":2725,"ÑĢÐµÐº":2726,"Ð½Ð¾Ð¶":2727,"Ð»Ð°Ð¶":2728,"ÑĭÐ·":2729,"Ð²ÐµÑĩ":2730,"ÑħÐ²Ð°ÑĤ":2731,"ĠÐ¸Ð±Ð¾":2732,"ĠÐ¼Ð¾ÑģÑĤ":2733,"ÐµÑĢÐµÐ³":2734,"ĠÐºÐ¾Ð³Ð¾":2735,"ĠÐºÑĥÑĢ":2736,"ĠÐ»ÐµÐ¶":2737,"Ð°Ð²ÑĪÐ¸Ð¹":2738,"Ð°Ð½Ñĥ":2739,"ÑīÐ¸Ðº":2740,"ĠÑĩÑĥÑĤÑĮ":2741,"Ð¾Ð½Ð¸":2742,"ĠÑģÑĤÑĭÐ´":2743,"Ð¸Ð²Ð°ÑĤÑĮ":2744,"ÑĳÐ³":2745,"Ð¸Ð¼ÑĭÑħ":2746,"ÐµÐ·Ð´Ð°":2747,"ÐºÐ°ÐµÑĤ":2748,"ÐŁÑĢÐ¸ÑĢ":2749,"Ð¸ÑĢÐµÐ¿":2750,"ÐĹÐ²":2751,"ĠÐ¾Ð±Ð¸Ð´":2752,"ÑģÐºÐ¾Ð¼":2753,"ÐłÐ°Ð±":2754,"ÐłÑĥÑģÐ»Ð°Ð½":2755,"ĠÐĶÐµÐ¼":2756,"ÑĳÐ½Ð½ÑĭÑħ":2757,"ĠÐ¿Ð¾ÑĢÐ¾Ð¹":2758,"ÑĦÐµÑĢ":2759,"ÐĺÐ·Ð±":2760,"ĠÑģÐ²ÐµÑĤÐ°":2761,"ĠÑĥÑĤÑĢÐ°":2762,"ĠÐ¿ÑĢÐ°Ð²ÐµÐ´":2763,"ĠÐ±Ð¾Ð»ÑĮÑĪ":2764,"Ð¡Ð¿Ð°Ñģ":2765,"ĠÐ¿ÐµÑģÐµÐ½":2766,"ĠÐ²Ð¾Ð¹Ñģ":2767,"ĠÐ²Ð¾Ð¹Ð½Ð°":2768,"ĠÐ´Ð¾Ð¼Ð°":2769,"ĠÐŁÑĢÐµÑģÑĤÐ¾Ð»":2770,"ĠÐ¸ÑģÐ¿ÑĭÑĤ":2771,"ĠÐ·Ð°ÑģÐ»":2772,"ĠÑħÐ¾ÑĤÑı":2773,"ĠÐ²Ð¾ÑģÑĤÐ¾ÑĢÐ³":2774,"ĠÐ·Ð¾Ð²ÐµÑĤ":2775,"ĠÐ¼ÑĥÐ·Ñĭ":2776,"ĠÑĤÑĢÐµÐ¿ÐµÑĤ":2777,"ĠÑģÐ¾ÑħÑĢÐ°Ð½":2778,").":2779,"ÑĶ":2780,"ÑĢÐµÐ·":2781,"Ð»ÑıÑĤÑĮ":2782,"ĠÑģÐ¾Ð¿":2783,"ĠÑģÐ¸Ñı":2784,"ĠÐ¿ÐµÐ½":2785,"ĠÐ¿Ð¾ÑģÐ¿":2786,"ĠÐ¿Ð¸Ñģ":2787,"ĠÐ½Ð°Ð±":2788,"ÑĩÐµÐ·":2789,"ĠÑĤÐµÐ¿":2790,"ĠÑĤÐ¾Ð¼Ñĥ":2791,"Ð¾Ð»Ð¾Ð´":2792,"ĠÐ¼ÐµÑģÑı":2793,"ĠÐ¼ÑıÑĤÐµÐ¶":2794,"ÐµÑĢÑħ":2795,"Ð¾ÑĢÐ°":2796,"ĠÐ·Ð°Ñħ":2797,"ĠÑĢÐ¾Ñī":2798,"ÐĴÐ¾Ñģ":2799,"ÐµÐ´Ð¾Ð¼":2800,"Ð°ÑĢÐµÐ¹":2801,"Ð½Ð¸ÐºÑĥ":2802,"Ð°Ð´Ð¸":2803,"Ð¢Ð²Ð¾Ð¹":2804,"ÐµÐ²ÐµÑĢ":2805,"ÑĳÑĪÑĮ":2806,"ĠÑģÐ²ÐµÑĢÑĪ":2807,"Ð½ÑĥÐ»Ð¸ÑģÑĮ":2808,"ĠÐ²ÑģÑİ":2809,"ĠÐ²ÑģÐµÐ³Ð´Ð°":2810,"ĠÐ¾Ð±Ñī":2811,"ÑģÑĤÐ²Ð¾Ð²Ð°Ð»":2812,"ÑĥÐ¼Ð°Ð»":2813,"ÑģÐºÐ¾Ð¼Ñĥ":2814,"ĠÐ¿Ð¾Ð»Ð¾Ð²":2815,"ĠÑģÐ¼ÑĥÑĤ":2816,"ĠÑģÐ¿ÐµÑĢÐ²Ð°":2817,"ÐĴÑģÐµÑħ":2818,"ĠÑģÑĤÑĢÑĥ":2819,"Ð½Ð¸ÐºÐ¾Ð¼":2820,"ĠÐľÐ¾ÑģÐº":2821,"ĠÐļÑĤÐ¾":2822,"ÑĥÑīÐµ":2823,"ĠÐ²Ð¸Ð´Ð½Ð¾":2824,"ÑıÐ´ÑĥÑī":2825,"ÐµÐ½Ð¸Ñİ":2826,"ĠÑģÐ¸Ð»Ñĥ":2827,"ĠÐ¿Ð¾ÑĤÐµÑĢ":2828,"ĠÐ·Ð°Ð¿ÑĢÐµÑĤ":2829,"ĠÐ¿ÐµÑĩÐ°Ð»Ð¸":2830,"ĠÐ½Ð¾Ð²ÑĭÐ¹":2831,"ĠÑħÐ¾Ð»Ð¼":2832,"ĠÐ¿Ð¾ÑĩÑĤ":2833,"ĠÑģÑĢÐµÐ´Ð¸":2834,"ĠÑħÐ¾ÑĩÐµÑĪÑĮ":2835,"ĠÐķÐ²Ð³ÐµÐ½Ð¸Ð¹":2836,"ĠÐ²Ð¼ÐµÑģÑĤÐµ":2837,"Ð°Ð·ÐµÐ¿Ð°":2838,"ĠÐ´Ð¸ÑĤÑı":2839,"ÑĭÐ½Ñı":2840,"ĠÑģÐ°Ð¼Ð¸":2841,"ĠÑģÑĥÑīÐµÑģÑĤÐ²":2842,"ĠÑģÑĥÑĢÐ¾Ð²":2843,"ĠÐ¿Ð»Ð°Ñĩ":2844,"ÐµÑĤÐµÑĢ":2845,"Ð¾Ð²Ð°Ñı":2846,"Ð¾Ð²ÑĭÑħ":2847,"ĠÐ±ÐµÐ¶Ð¸ÑĤ":2848,"ĠÐ±ÑĥÐ½ÑĤ":2849,"ÐµÑĢÐ½Ð¾":2850,"ĠÐºÐ»Ð°Ð´":2851,"Ð¸ÑĤÐµÐ»Ñı":2852,"ĠÐ³ÐµÐ½ÐµÑĢÐ°Ð»":2853,"ĠÐ¿ÑĢÐµÐ·ÑĢ":2854,"ÐĴÐµÑģÑĮ":2855,"Ð¡Ð¾Ð²":2856,"Ð¡Ð¾Ð±":2857,"Ð¡Ð²Ð¾Ð¹":2858,"Ð°Ð½Ð½Ð°Ñı":2859,"Ð½Ð¸ÑĨÑĥ":2860,"Ð°Ð´Ñĭ":2861,"Ð¾Ð½Ð¾Ñģ":2862,"ĠÐ¶Ð´ÐµÑĤ":2863,"ĠÐ¶ÐµÑĢÑĤÐ²":2864,"ÐĶÐ°Ð¹":2865,"Ð»Ð¸Ð¶":2866,"ÑĥÐ³Ð¸":2867,"ĠÐºÑĢÑĥÑĤ":2868,"ĠÑħÐ¸ÑĤÑĢ":2869,"ÐĹÐ°Ð´":2870,"Ð°Ð¹ÑģÑı":2871,"ÐĵÐ¾Ð²Ð¾ÑĢ":2872,"ĠÐ¡Ð²Ð¾":2873,"ĠÐ¡Ð°Ð»ÑĤ":2874,"ĠÑģÐºÑĥÑĩ":2875,"Ð½ÑıÐ³":2876,"ÐŀÑĤÐºÑĢ":2877,"ĠÑģÐ¿Ð¾ÑģÐ¾Ð±":2878,"ĠÐ°Ð´":2879,"ĠÐ½Ð°ÑĪÐ°":2880,"ÑĢÐ°Ð²Ð½":2881,"Ð¾ÑħÐ½Ð¾Ð²":2882,"Ð²ÐµÑĢÐ¶":2883,"ĠÐ½Ð¾ÑĩÑĮÑİ":2884,"ĠÐ¼Ð¾Ð³Ð»Ð°":2885,"ĠÑģÐ¸Ð»Ð°Ñħ":2886,"ĠÐ·Ð½Ð°ÐµÑĤ":2887,"ĠÐ´ÐµÑĤÐ¸":2888,"ĠÐºÑĢÐ¾Ð²Ð¸":2889,"ĠÐ´Ð¾Ð»Ð¶ÐµÐ½":2890,"ĠÐ²ÑĢÐ°Ð³Ð¾Ð²":2891,"ĠÐ¼ÑĭÑģÐ»ÑĮ":2892,"ĠÑģÐ¾Ð³Ð»Ð°Ñģ":2893,"ÐķÐ´Ð²Ð°":2894,"Ð¡ÑĢÐµÐ´ÑĮ":2895,"ĠÐ¿Ð°Ð¼ÑıÑĤ":2896,"Ð½ÐµÐ·Ð°Ð¿":2897,"ÑĤÐµÑģÑĮ":2898,"ÑĢÐ¸ÑģÑĤ":2899,"Ð½Ð°Ð»Ð°":2900,"Ð½Ð°Ð¶Ð´Ñĭ":2901,"Ð»Ð¾Ð¼":2902,"ĠÑģÐ½Ðµ":2903,"Ð²ÐµÐ¹":2904,"ĠÐ½Ð¸Ð²":2905,"ÑħÐ¾":2906,"ĠÐ´Ð°Ð¹":2907,"ĠÐ´Ð²ÐµÑĢ":2908,"ĠÐ´ÐµÑģÑı":2909,"ĠÐºÐ°Ð¿":2910,"ĠÐºÐ¸Ð¿":2911,"Ð¾ÑĢÐµ":2912,"Ð¾ÑĢÐ¶":2913,"ĠÐ·Ð²ÐµÑĢ":2914,"Ð°ÐºÐ°":2915,"Ð¾Ð³Ð¸":2916,"Ð¡Ð°ÑĪÐ°":2917,"Ð¾ÑģÐ°":2918,"Ð¸Ð²Ð°ÐµÑĤ":2919,"Ð¸Ð²ÑĪÐ¸Ð¹":2920,"ÑĥÐ¶Ðµ":2921,"ĠÐ±ÑĭÐ²":2922,"ÐŁÑĢÐ¸Ð±":2923,"Ð»Ð°ÑĪ":2924,"ĠÐºÑĢÐ°ÑĤ":2925,"ĠÐºÑĢÐ¾ÑĤ":2926,"Ð§Ñĥ":2927,"ÑģÑĤÐ²ÐµÐ½Ð½Ð¾Ð¹":2928,"ÐĿÐ°Ñĩ":2929,"ĠÐ·Ð°Ð¾Ð´Ð½Ð¾":2930,"ĠÐ¿ÑĢÐ¸ÑıÑĤ":2931,"ĠÐ²Ð¸Ð´ÐµÑĤÑĮ":2932,"Ð¸ÑĤÐµÐ»ÑĮÐ½Ð¾Ð¹":2933,"Ð¥Ð¾ÑĤÑı":2934,"ĠÐķÑĢ":2935,"ĠÐ·Ð²ÑĳÐ·Ð´":2936,"ÐļÑĢÐ¸Ñĩ":2937,"ÐŀÐ´Ð½Ð°":2938,"ĠÐ½ÐµÐ´Ð²Ð¸Ð¶":2939,"ĠÐ³Ð¾Ð»Ð¾Ð²Ð°":2940,"ĠÐ³Ð¾Ð»Ð¾Ð²Ð¾Ð¹":2941,"ĠÑģÐ¾Ð²ÑģÐµÐ¼":2942,"ĠÑĩÐµÑĢÐµÐ·":2943,"Ð½ÑİÑİ":2944,"ĠÑĩÑĥÐ´Ð¾":2945,"ÐĴÐ·Ð´":2946,"ĠÐ¾ÑĢÑĥÐ¶":2947,"ĠÑħÐ¾ÑĩÐµÑĤ":2948,"ÑİÑīÐ¸Ð¹":2949,"ĠÑģÐ¸Ð´Ð¸ÑĤ":2950,"ĠÑģÐ´ÐµÐ»":2951,"ĠÐºÑĢÐ¸ÑĩÐ¸ÑĤ":2952,"ĠÐ´Ð°Ð»ÐµÐºÐ¾":2953,"ĠÐ»Ð¸ÑĨÐ¾":2954,"Ð°ÑĦ":2955,"ÑĢÐµÑģÑĤ":2956,"Ð½ÑĳÐ¼":2957,"Ð»Ð°Ð¶Ð´":2958,"ĠÑģÑĥÐ¶Ð´":2959,"ĠÐ¿ÑĤ":2960,"ĠÐ¿Ð°Ñħ":2961,"ĠÐ²Ð¼Ð¸Ð³":2962,"ÑĩÐµÑģ":2963,"Ð¼Ð¸Ð»Ð°":2964,"ÑģÑĤÐ°":2965,"ÐµÐ½Ð½Ð¾Ð³Ð¾":2966,"ĠÐ¸Ð´ÑĥÑĤ":2967,"ĠÐ±ÐµÐ¶":2968,"ÐµÑĢÑĥÐ²":2969,"Ð¾ÑĢÐ±":2970,"ÐĿÐ¸Ñĩ":2971,"ĠÐ¿ÑĢÐ¸Ñħ":2972,"Ð¡Ð¸Ñı":2973,"Ð¿Ð¾Ð´":2974,"Ð½Ð¸ÑĨÐµ":2975,"ÐµÑģÐ°":2976,"ÐŀÐº":2977,"ÐļÐ¾Ð½":2978,"ĠÑģÑĤÐ°ÑĤÑĮ":2979,"ÐĶÐµÑĢÐµÐ²":2980,"Ð¾Ð¶Ñĥ":2981,"ÐµÐ½ÑĮÐºÐ¸Ð¹":2982,"ĠÑģÐ²Ð¾Ð´":2983,"Ð§ÐµÐ³Ð¾":2984,"Ð£Ð²":2985,"Ð£Ð²Ð¸Ð´":2986,"ĠÐ²ÑģÐºÐ¾ÑĢ":2987,"ĠÐ³ÑĢÑıÐ·":2988,"ÑĥÑĩÐ¸ÑĤ":2989,"ĠÐ¸Ð·Ð¼":2990,"ĠÑĤÑĢÐµÑĤ":2991,"ĠÑģÐ¼Ðµ":2992,"ĠÑģÐ¿ÑĢÐ¾Ñģ":2993,"ĠÐ¿ÐµÑĢÐµÐ²":2994,"ĠÐ°Ð½Ð³":2995,"ĠÐ±Ð»ÐµÑģÐº":2996,"ĠÐŀÐ»ÑĮ":2997,"ĠÐ½Ð°Ð´ÐµÐ¶":2998,"ÑģÑĤÑĢÐ¾":2999,"Ð¥Ð¾ÑĢ":3000,"Ð»Ð¸Ð²ÑĭÐ¹":3001,"ĠÑģÐµÑĢÐ´ÐµÑĩ":3002,"Ð¡ÐºÐ°Ð·":3003,"ĠÐ»ÑİÐ´ÑģÐºÐ¾Ð¹":3004,"ĠÐ¼ÑĥÐ¶Ð¸ÐºÐ¸":3005,"ĠÐ¾Ð³Ð¾Ð½ÑĮ":3006,"ĠÑģÐ¾Ð±Ð»Ð°Ð·":3007,"ĠÑģÐ»Ð°Ð²Ð°":3008,"ĠÐ³Ð¾Ð»Ð¾Ð²Ñĭ":3009,"ĠÑģÐ¾Ð²ÐµÑĤ":3010,"ĠÑĩÑĤÐ¾Ð±Ñĭ":3011,"ĠÐĹÐµÐ¼Ð»Ñİ":3012,"ĠÐ´Ð¾ÑĢÐ¾Ð³Ñĥ":3013,"ĠÑĢÐµÑĩÐ¸":3014,"ĠÐ¾Ð±ÑĬÑıÑĤ":3015,"ĠÐ¿Ð¾Ð¼ÐµÑīÐ¸Ðº":3016,"ÐµÑĢÑĥÐ²Ð¸Ð¼":3017,"ÐµÑıÐ½":3018,"ÑĢÐ¾Ð¹":3019,"ÑĢÑĥÐ´":3020,"Ð½ÐµÑĤÑģÑı":3021,"Ð»Ñĭ":3022,"Ð»ÑĭÑħ":3023,"ÑĥÑİÑĤ":3024,"ÑĮÑĳ":3025,"ĠÐ¿ÐµÐ²":3026,"ĠÐ¿Ð»Ñı":3027,"ĠÐ²Ð¸Ñħ":3028,"ÐµÑĤÐµÐ»ÑĮ":3029,"ĠÐ´Ð²Ð¸Ð¶":3030,"ĠÐ¸Ð½Ð¾Ð¹":3031,"Ð¾Ð²ÑĭÐµ":3032,"ĠÐºÐ¾Ð»ÑĮ":3033,"ĠÐºÐ°Ð±":3034,"Ð½ÑĭÐ½Ðµ":3035,"ÐµÐ»Ñİ":3036,"ĠÐ³Ð¾ÑģÑĥÐ´":3037,"ĠÐ¿ÑĢÐ¾ÑĩÑĮ":3038,"ÐĴÑĤÐ¾ÑĢ":3039,"Ð¡Ð½":3040,"Ð°Ð½ÐºÐ¸":3041,"Ð°Ð½Ð½ÑĭÐµ":3042,"ĠÑĩÑĥÐ¶Ð´":3043,"Ð¢Ð¾Ð»":3044,"Ð¾Ð·Ð²":3045,"ÐĶÐ¾Ð¼":3046,"ÑĥÑĪÐ¸":3047,"ÑĥÑĪÐºÐµ":3048,"ÐľÐµÑĩ":3049,"ÐĳÐ¾Ð»ÑĮ":3050,"ĠÐ¿Ð¾Ð´ÑĭÐ¼":3051,"ĠÐ²ÑĭÐ·":3052,"ĠÐ¡Ð¿":3053,"ĠÐ¿Ð¾Ð»Ð½Ð°":3054,"ÐķÑģÐ»Ð¸":3055,"ĠÐ·Ð°ÑĩÐµÐ¼":3056,"Ð¸ÐµÑħ":3057,"ĠÑģÐ¿ÑĢÐ°Ð²":3058,"ĠÐ¼Ð¾Ðµ":3059,"Ð¸ÑģÑĤÑĭÐ¹":3060,"ĠÐĵÐµÐµÐ½":3061,"ĠÐ¿Ð¾ÑĢÑĭ":3062,"ĠÐ¿Ð¾ÑĢÑıÐ´":3063,"ĠÐºÐ¾Ð½ÐµÑĨ":3064,"ĠÐ´ÑĢÑĥÐ³Ð¸Ñħ":3065,"ĠÐ¼Ð¾Ð³Ñĥ":3066,"ÐµÐ»Ð¾Ð²ÐµÑĩ":3067,"Ð¡Ð»ÑĥÑĩ":3068,"ĠÐ¿ÐµÑģÐ½Ñı":3069,"ĠÐ¿ÑĥÑģÑĤÑĭÐ½":3070,"ĠÐ£Ð¶":3071,"ĠÐ·Ð°ÑĤÐµÐ¼":3072,"ÑıÐ³Ñĩ":3073,"ĠÐ§ÐµÐ»Ð¾Ð²ÐµÐºÐ°":3074,"ĠÐ¼ÐµÐ´Ð»ÐµÐ½":3075,"ĠÐ½Ð°Ð·Ð°Ð´":3076,"ĠÑģÐ»Ð°Ð´Ð¾ÑģÑĤ":3077,"ĠÑĤÐ¾Ð»Ð¿Ð¾Ð¹":3078,"ĠÐ¿ÑĢÑıÐ¼Ð¾":3079,"ĠÐłÑĥÑģÐ¸":3080,"ĠÑĤÑİÑĢ":3081,"ĠÑĤÐ¾Ð²Ð°ÑĢÐ¸Ñī":3082,"ÑĤÐ°":3083,"ĠÑģÑĩÐ¸ÑĤ":3084,"ĠÐ¿ÑıÑĤÑĮ":3085,"ĠÐ¿Ð¸ÑģÑĮ":3086,"ĠÐ²ÑģÑĤÑĥÐ¿":3087,"Ð²Ð°ÑĤÑĮ":3088,"ÑĩÐ°":3089,"ĠÐ´Ð¾Ð³":3090,"ĠÐ¼ÐµÐ½ÑĮ":3091,"ĠÐ¼Ð°Ð»ÑĮ":3092,"Ð¾ÑĢÑĥÐ¶":3093,"Ð¾Ð´ÑĥÑĪ":3094,"ÐĿÐ¾Ñĩ":3095,"ÐĺÐ´ÐµÑĤ":3096,"ĠÑĢÐ¾Ð³":3097,"Ð°ÑĤÐµ":3098,"ÐŁÐµÑĩ":3099,"Ð°ÐºÐ¾Ð²":3100,"Ð¡ÑĩÐ°ÑģÑĤ":3101,"Ð¾ÑĤÐ½Ð¾":3102,"Ð³ÑĢÐ°":3103,"Ð½Ð¸Ð¶":3104,"ÐļÑĥÐ¿":3105,"Ð¢ÑĢÐ¸":3106,"Ð¸Ð²Ð¾Ð¹":3107,"ĠÐ¶Ð°Ð¶Ð´":3108,"Ð¾Ð¶ÐµÑĤ":3109,"Ð¸ÑħÐ¾Ð¹":3110,"ÐŁÑĢÐ¸Ð´":3111,"ÐŁÑĢÐ¾ÑĪ":3112,"ÐŁÑĢÐµÐºÑĢÐ°Ñģ":3113,"ĠÐºÑĢÑĥÐ¶":3114,"ÐĳÐµÐ´":3115,"ÐĳÐ°ÑĢ":3116,"ÐĹÐ°Ñģ":3117,"Ð¾Ð¿ÑĤ":3118,"ĠÐ³ÑĢÐ°Ð´":3119,"ĠÐ¿Ð¾Ð´ÑĥÐ¼":3120,"ĠÐ¿Ð¾Ð»Ð´":3121,"ÐłÐµÑĪ":3122,"ĠÐĴÐ»Ð°Ñģ":3123,"ÐŀÐ½ÐµÐ³Ð¸Ð½":3124,"ĠÑĢÑĥÐºÐ°Ñħ":3125,"ĠÑģÐµÑĢÐ´ÑĨÐµÐ¼":3126,"ĠÐ¼Ð¸ÑĢÐµ":3127,"ĠÐ¾Ð¿ÑĥÑģÑĤ":3128,"ĠÐ·Ð²ÑĥÐº":3129,"Ð»ÐµÐ½Ð°":3130,"ĠÑĤÐ²Ð¾ÐµÐ³Ð¾":3131,"ĠÐ·Ð°Ð±Ð¾ÑĤ":3132,"ĠÐ½Ð°ÑĢÑıÐ´":3133,"ĠÐºÑĢÐ°ÑģÐ°Ð²":3134,"ĠÐĿÐµÐ±ÐµÑģÐ°":3135,"ĠÐ½Ð¾Ð²Ð¾Ð¹":3136,"ĠÐ·Ð½Ð°ÐµÑĪÑĮ":3137,"ĠÐ¾Ð±ÑĢÐµÑĤ":3138,"ĠÐ³Ð»ÑĥÐ±Ð¾Ðº":3139,"ĠÐ³Ð»ÑĥÐ±Ð¾ÐºÐ¾":3140,"ĠÐ±Ð¾Ñı":3141,"ĠÑĤÐ²Ð¾Ñİ":3142,"ĠÑĥÑģÑĤÐ°Ð»":3143,"ĠÐ²Ð»Ð°ÑģÑĤ":3144,"Ð°ÑİÑīÐ¸Ð¹":3145,"ĠÑħÐ¾ÑĢÐ¾ÑĪ":3146,"Ð½Ð°ÐºÐ¾Ð¼":3147,"ĠÐ´Ð°Ð»ÑĮÑĪÐµ":3148,"ĠÐĴÑĢÐ°Ð³Ð°":3149,"ÐĹÐ°ÑĤÐ¾":3150,"ĠÑıÐ·ÑĭÐº":3151,"ĠÐ¿Ð¾Ð·Ð´Ð½Ð¾":3152,"ÐĵÐ»Ð°Ð²Ð°":3153,"ĠÐ¿ÑĮÑı":3154,"ĠÐ²Ð°Ñħ":3155,"ĠÐ²Ð¸Ð½Ð¾Ð²":3156,"Ð²Ð°ÑĢ":3157,"ĠÐ½Ð°ÑĤ":3158,"ÐµÐ½Ð¸ÑĤ":3159,"ÐµÐ½Ð½Ð¾Ðµ":3160,"ĠÐ¾ÑģÐ»":3161,"ĠÐ´Ð¾Ð¿":3162,"ĠÐ±ÑĥÐ¹":3163,"ĠÐ¼Ð¾Ð½":3164,"ÐµÐ»Ð¾ÑģÑĮ":3165,"ĠÐ·ÑĢ":3166,"ÐĺÑģÐº":3167,"ĠÑĢÐ°ÑĤÑĮ":3168,"ĠÑĢÐ°Ð¹":3169,"ĠÐ¿ÑĢÐ¾ÑģÐ»Ð°Ð²":3170,"ÐĴÐ°Ð¼":3171,"Ð¡Ð²ÐµÑĤ":3172,"ÑĨÐµÐ»":3173,"Ð³Ñĥ":3174,"Ð¢Ð¾Ð³Ð¾":3175,"ÐĶÐµÐ²":3176,"Ð¾Ð¶ÐµÑģÑĤÐ²":3177,"ĠÐ¾ÑĤÑĨÐ°":3178,"Ð½ÑĥÐ»Ð¾":3179,"ÐŁÑĢÐ¾Ñī":3180,"ÐľÐ°ÑĢÐ¸Ñı":3181,"ÐĹÐ°Ð³":3182,"ĠÐ³ÑĢÐµÐ¼":3183,"ĠÐ¿Ð¾Ð´ÑĢÑĥÐ³":3184,"ĠÐ¸Ð·Ð²":3185,"ĠÑģÐºÐ°ÑĤ":3186,"ÐķÑģÑĤÑĮ":3187,"ĠÐ¢Ð²Ð¾":3188,"ĠÑģÐ¼Ð¾Ð»Ðº":3189,"ĠÐ»Ð¸ÑĨÐ°":3190,"ĠÐ¿Ð»Ð¾Ð´Ñĭ":3191,"ĠÐĶÐ°":3192,"ĠÐ»ÑİÐ±Ð¸Ð»":3193,"Ð¡ÑĤÑĢÐµÐ¼":3194,"ĠÐľÐ¾":3195,"ĠÐľÐ¸ÑħÐ°":3196,"ĠÐ½Ð°ÑģÐ»Ð°Ð¶Ð´":3197,"ĠÐ²Ð¾Ð»Ð½Ñĭ":3198,"ĠÐ½ÐµÐ¼ÐµÑĨ":3199,"ĠÐ²Ð¾Ð¸Ð½":3200,"ĠÐ²Ð´Ð¾ÑħÐ½Ð¾Ð²":3201,"ĠÐ¾Ð³Ð½ÐµÐ¼":3202,"ĠÐ¾ÑģÐ²":3203,"ĠÐ¾ÑģÐ¾Ð±":3204,"ĠÐ§ÐµÑĢ":3205,"ĠÐºÐ¾Ð»ÐµÑģ":3206,"ĠÐ¼Ð¾Ð¶Ð½Ð¾":3207,"ĠÐ¿ÐµÑģÐ½Ñİ":3208,"ĠÐ²ÐµÑĩÐ½Ð¾":3209,"ĠÐ·Ð°Ð²ÑĤ":3210,"ĠÐ´Ð¾Ð±ÑĢÑĭÐ¹":3211,"ĠÑģÑĤÐ¾ÑıÐ»":3212,"ĠÑģÑĭÐ½Ð°":3213,"ĠÐºÐ¾ÑĤÐ¾ÑĢÑĭÑħ":3214,"ĠÐ²ÐµÐ´ÑĮ":3215,"ĠÐ¥Ð°":3216,"ĠÐ½Ð¸ÐºÑĤÐ¾":3217,"ĠÑģÐ»ÑĭÑĪÐ¸ÑĤ":3218,"ĠÑĤÐ¾ÑĢÐ¾Ð¿":3219,"ĠÑģÑĥÐ´ÑĮÐ±Ð°":3220,"ĠÐ²Ð¾Ð¿ÑĢÐ¾Ñģ":3221,"ÐŁÐ¾ÑĢÐ°":3222,"ĠÐĶÑĥÑħÐ¾Ð²":3223,"ĠÐ¸ÑģÑĤÐ¸Ð½":3224,"Ð¢ÑĢÑĥÐ´":3225,"ĠÑģÐ²ÑıÑĤÐ¾Ð¹":3226,"ĠÐ¿ÑĢÐ°Ð·Ð´Ð½Ð¸Ðº":3227,"ÐĴÐµÐ»Ð¸Ðº":3228,"ÐĿÐ°ÑĢÐ¾Ð´":3229,"ÐĿÐ¸ÐºÑĤÐ¾":3230,"ĠÐ½ÐµÐ½Ð°Ð²Ð¸ÑģÑĤ":3231,"ĠÐĹÐ¼Ð¸Ð¹":3232,"ÑĢÑħÐ°Ð½Ð³ÐµÐ»":3233,"?\"":3234,"Ð©":3235,"ÑĤÐ°ÑĢ":3236,"Ð¸ÑģÐ»":3237,"Ð»Ð°ÑĤ":3238,"ĠÑģÐ½Ð°":3239,"ĠÑģÐ¾Ð¶":3240,"ĠÐ¿Ñģ":3241,"ÐºÐ°Ðº":3242,"Ð¼Ð¾":3243,"Ð¼Ð¿":3244,"ÐµÐ½Ð¾Ðº":3245,"Ð¾Ð»Ñĩ":3246,"Ð¾Ð»Ð¾Ñģ":3247,"ĠÐ´Ð¾Ñĩ":3248,"ĠÐ±Ð¾Ð»Ð¾ÑĤ":3249,"ĠÐ¼Ñĩ":3250,"ĠÐ¼ÑĥÐº":3251,"ĠÐºÐ¾Ð²Ð°ÑĢ":3252,"Ð¾Ð´ÑĢ":3253,"ĠÐ·Ð»Ð¾":3254,"ĠÐ³ÐµÑĤ":3255,"ÐŁÑĥÑģÐºÐ°Ð¹":3256,"Ð¡Ð¾Ð»":3257,"Ð°Ð½Ñı":3258,"ÑĤÐ¾Ñĩ":3259,"ÑīÑĥ":3260,"ÑīÐ¸Ñħ":3261,"ÐŀÐ¹":3262,"ĠÑģÑĤÐ°Ð»Ð°":3263,"ĠÐ¶Ð°Ð»ÑĮ":3264,"ÐµÑģÑĤÑĢ":3265,"ĠÐµÑģÑĤ":3266,"Ð»Ð¸ÑĪ":3267,"ĠÑģÐ²Ð¸ÑģÑĤ":3268,"ĠÑģÐ²ÑıÑī":3269,"Ð»ÑıÑı":3270,"ÐľÐ½Ð¾Ð³Ð¾":3271,"ÐĹÐ´":3272,"ĠÐ¾Ð±Ð°":3273,"ÐµÐ»ÑĮÐµ":3274,"ÐµÑĪÐ½Ð¾":3275,"Ð´Ð°ÐµÑĤ":3276,"ĠÐ¡Ð²ÑıÑĤ":3277,"ÐĽÑĥÑĩ":3278,"ÐµÑħÐ°Ð»":3279,"ĠÐ±ÐµÐ·Ð¼ÐµÑĢ":3280,"ÐĴÑģÐµÐ³Ð´Ð°":3281,"ĠÐ¼Ð¾Ð»Ð¸ÑĤ":3282,"ĠÐ¿ÑĢÐ¸Ð³":3283,"Ð¡ÑĤÐ°Ð»":3284,"ĠÐľÐ½Ðµ":3285,"Ð°ÑĪÐµ":3286,"ÐŁÐ¾Ð´Ð¾Ð±Ð½Ð¾":3287,"ĠÐļÐ¸ÐµÐ²":3288,"ĠÑĢÐ°ÑģÐº":3289,"ĠÐ±ÑĥÐ´ÐµÑĪÑĮ":3290,"ĠÑĢÑĥÐºÐ°":3291,"ĠÐ¿ÑĢÐµÐ´ÐµÐ»":3292,"ĠÐ¿ÑĢÐµÐ´Ð¿":3293,"ĠÑĢÐ¾Ð´Ð½Ð°Ñı":3294,"ĠÐ·Ð²ÑĥÐºÐ¸":3295,"Ð»ÐµÐ½Ñĭ":3296,"ĠÐ¿Ð¾Ð²ÑĤÐ¾ÑĢ":3297,"ĠÐĺÐ·":3298,"ĠÐ¼Ð¸Ð»ÑĭÐ¹":3299,"ĠÐĽÐµÐ½ÑģÐºÐ¸Ð¹":3300,"ĠÐ´ÑĥÐ¼Ð°Ð»":3301,"ÐłÐ°Ð·Ð´":3302,"ĠÐ²ÑĢÐµÐ¼ÐµÐ½Ð¸":3303,"ĠÑģÑĩÐ°ÑģÑĤÑĮÐµ":3304,"ĠÐ¸ÑģÐºÑĥÑģ":3305,"ĠÐ¶ÐµÐ»ÐµÐ·":3306,"ĠÑĤÐ¾ÑĤÑĩÐ°Ñģ":3307,"ĠÐ´Ð¾ÑĢÐ¾Ð³Ð¸":3308,"ĠÑĨÐ²ÐµÑĤÑĭ":3309,"ÐĴÐ¾Ð·Ð¼Ð¾Ð¶Ð½Ð¾":3310,"Ð°ÑİÑīÐ¸Ñħ":3311,"ĠÐ²Ð¾Ð·Ð²ÑĢÐ°Ñī":3312,"ÑĭÑĢÑĮ":3313,"ĠÑħÑĢÐ°Ð¼":3314,"ĠÑĢÐ°Ð·Ð´ÐµÐ»":3315,"ĠÐ¿Ð¾ÑģÐ»ÐµÐ´Ð½Ð¸Ð¹":3316,"ĠÑģÐ¾Ð·ÐµÑĢ":3317,"ĠÐ¿ÑĢÐ¸Ð±Ð»Ð¸Ð¶":3318,"ĠÐ»Ð°ÑģÐºÐ¾Ð²":3319,"ĠÐ¼Ð³Ð½Ð¾Ð²":3320,"ĠÐ²Ð¾Ð²ÑģÐµ":3321,"ÐµÑİÑĤ":3322,"Ð¸ÑĨÑĥ":3323,"ÑĢÑĥÐ±":3324,"Ð½Ð°ÑĤ":3325,"ÑĭÐ½Ð¸":3326,"ĠÐ²Ð¸Ð½":3327,"ĠÐ²Ð½Ð¸Ð·":3328,"Ð²Ð¾Ñİ":3329,"Ð¼Ð¸ÑĢ":3330,"ĠÑĤÑĳÐ¼":3331,"ĠÑĤÑıÐ³":3332,"ĠÐ´Ñĥ":3333,"Ð¾Ð²ÐµÐ¹":3334,"ĠÐ¼ÐµÑĤ":3335,"Ð¾ÑĢÐ¾Ð¼":3336,"ĠÐ·Ð°Ð¶":3337,"ĠÐ³ÑĥÐ»Ñı":3338,"ĠÐ¿ÑĢÐ¾ÑĢ":3339,"ĠÐ¿ÑĢÐµÐ·":3340,"ÐŁÐ¾Ñħ":3341,"ÐĴÐµÐ´ÑĮ":3342,"Ð¡ÑĥÐ´ÑĮÐ±":3343,"Ð±ÐµÐ¶":3344,"Ð¾ÑĤÐ¾Ð¼":3345,"Ð³Ðµ":3346,"ĠÐ»ÐµÐ´":3347,"ĠÐ»ÑĥÐºÐ°Ð²":3348,"Ð°ÑĢÑİ":3349,"Ð°ÑĢÐ¾Ð²":3350,"ÐŀÑħ":3351,"Ð°Ð·ÑĥÐ¼":3352,"ÐļÐ¾Ð»ÑĮ":3353,"ĠÑģÑĤÐ°Ð»Ð¸":3354,"ĠÐ¶ÐµÐ½Ñĭ":3355,"ÑĳÐ¶":3356,"ÐĶÐ¾Ð±ÑĢ":3357,"ÐĶÐµÑĢÐ¶":3358,"Ð¾ÑĩÐ¸Ð»":3359,"ĠÑģÐ²ÐµÐº":3360,"Ð½ÑĥÑģÑĮ":3361,"Ð»ÑıÐµÑĤ":3362,"ÐľÐ°Ð·ÐµÐ¿Ð°":3363,"Ð£ÑģÐ»":3364,"Ð£ÐºÑĢ":3365,"ĠÐ¾Ð±Ð¸ÑĤ":3366,"ÑģÑĤÐ²Ð¾Ð²Ð°ÑĤÑĮ":3367,"ÑĥÑĩÐ¸Ð»":3368,"ĠÐ¿Ð¾ÐµÑĤ":3369,"ĠÐ¿Ð¾ÑħÐ¾Ð´":3370,"ĠÑĢÐ°Ð·Ð²Ðµ":3371,"ĠÑĢÐ°Ð·Ð»Ð¸Ñĩ":3372,"ĠÐ¿Ð¾Ð»ÐµÑĤ":3373,"ĠÐ¿Ð¾Ð»Ð¾Ñģ":3374,"ĠÐ¿Ð¾Ð»ÐµÐ¹":3375,"ĠÐĴÑĢÐ°ÑĤ":3376,"Ð²Ð¾Ðµ":3377,"ĠÑģÐ¿Ð¸ÑĤ":3378,"ĠÐŁÐ¾":3379,"ĠÐ¿ÐµÑĢÐµÑģ":3380,"Ð°Ð»ÑĮÐ½ÑĭÐ¹":3381,"Ð°Ð»ÑĮÐ½Ð¾Ð¹":3382,"ĠÐ±ÑĢÐ°ÑĤÑĮÑı":3383,"ÑģÑĤÑĢÐµÐ¼":3384,"ĠÑģÑĤÐ°ÑĢÑĥÑħÐ°":3385,"ÑĥÑīÐ¸Ñħ":3386,"ÐµÐ½ÑĮÑıÑħ":3387,"ĠÐ²ÐµÑĢÑħ":3388,"ĠÐłÑĥÑģÐ»Ð°Ð½":3389,"ĠÐ·Ð²ÑĥÑĩ":3390,"ĠÐ¼Ð¾Ð³Ð»Ð¸":3391,"Ð¡ÐºÐ¾ÑĢ":3392,"Ð¡ÐºÐ²Ð¾Ð·ÑĮ":3393,"ĠÑĤÐ²Ð¾Ð¸":3394,"ĠÐ±ÐµÑģÐµÐ´":3395,"ĠÐ·Ð»Ð°ÑĤ":3396,"ĠÐĳÐ¾Ð³Ñĥ":3397,"ÐŁÐ¾ÐºÐ¾ÑĢ":3398,"ĠÐ»ÐµÑģÐ°":3399,"ĠÐ²Ð¾Ð¹Ð½Ñĭ":3400,"ĠÑĢÐ°Ð´Ð¾ÑģÑĤÑĮ":3401,"ĠÐ¿ÑĢÐ¸Ð²ÐµÑĤ":3402,"ĠÑĥÐ·Ð½Ð°":3403,"ĠÑģÐºÐ¾ÑĢÐµÐ¹":3404,"ĠÐ´Ð²Ðµ":3405,"ĠÐ¥ÐµÑĢÑĥÐ²Ð¸Ð¼":3406,"Ð¡Ð²Ð¾Ð±Ð¾Ð´":3407,"ĠÑīÐµÐ´":3408,"ĠÐ±Ð¾ÐµÑĨ":3409,"Ð¦Ð°ÑĢÑĮ":3410,"ĠÐ¼Ð¾Ð»ÑĩÐ°":3411,"ĠÐĲÐ½Ð³ÐµÐ»Ð¾Ð²":3412,"ĠÐ´Ð¾ÑģÑĤÐ¾Ð¹":3413,"Ð¾Ð¹Ð´ÐµÐ¼":3414,"Ð½Ð°ÑĩÐ°Ð»Ð°":3415,"ĠÑħÐ»Ð¾Ð¿":3416,"ĠÐºÐ°Ð·Ð½ÑĮ":3417,"Ð¡ÑĤÐ¾Ð¸ÑĤ":3418,"ĠÑĢÑĥÐ±ÐµÐ¶":3419,"ĠÐ¾ÑģÑĤÑĢÐ¾Ð²":3420,"ÐµÑĢÐ²ÑĭÐµ":3421,"ĠÐ´ÐµÐ´ÑĥÑĪÐºÐ°":3422,"ĠÑĤÑĥÐ¼Ð°Ð½":3423,"ĠÐ¸Ð½Ð¾Ð³Ð´Ð°":3424,"ĠÐ²ÑģÐºÐ¾ÑĢÐµ":3425,"Ð¾ÑıÐ½":3426,"Ð¸Ð½ÑĭÐ¹":3427,"Ð¸ÑĦ":3428,"Ð¸Ð½Ð¾Ñĩ":3429,"ÑĢÐ¾ÑĪ":3430,"Ð½Ð°Ð½ÑĮÐµ":3431,"Ð»Ð¾Ð´":3432,"Ð»Ð¾ÑĤ":3433,"ĠÑģÐ¸Ð»Ð°":3434,"ĠÑģÐµÐ³Ð¾Ð´Ð½Ñı":3435,"ĠÐ¿ÑĭÑĤ":3436,"ĠÐ²Ð¾Ð¶Ð´":3437,"ÑĪÐ¸Ð±":3438,"ÐµÐ½Ñĩ":3439,"ĠÐ¾Ð¼":3440,"Ð¾Ð»Ð½Ðµ":3441,"ĠÐ¼Ð°ÑĪ":3442,"ĠÐºÐ»ÑİÑĩ":3443,"ÐµÐ»Ð¾Ð¼":3444,"Ð¾Ð´Ð¸":3445,"ĠÐ·Ð¾Ð»":3446,"ĠÑĢÐ¾Ð¼":3447,"ĠÑĢÐ¾Ð¶":3448,"ÐŁÐµÑģ":3449,"Ð¡Ð¾Ð³":3450,"Ð±Ñĥ":3451,"Ð°Ð¼ÐµÐ½":3452,"Ð³Ð½Ð¾Ð²":3453,"Ð³Ð»Ð°Ñģ":3454,"ĠÐ»Ð¸ÑĢ":3455,"Ð°Ð½Ð½Ð¾Ðµ":3456,"Ð°Ð½Ð½ÑĥÑİ":3457,"Ð½Ð¸Ð½":3458,"ĠÑĩÐ°ÑĢ":3459,"ĠÑĩÐ°Ð¹":3460,"ÐļÑĢÑĥÐ³":3461,"Ð¸Ð²Ð°Ñı":3462,"Ð½Ð°Ñħ":3463,"ÐµÐ²Ð°Ð»":3464,"ÐµÑģÑĤÑĮÑİ":3465,"ĠÐµÐ¶":3466,"ĠÑĥÐ»Ð¸":3467,"ÐµÐ½ÑĮÐºÐ¸":3468,"ĠÐ¾ÑĤÐ²ÐµÑĢÐ³":3469,"ÐŁÑĢÐ¾Ðº":3470,"ÐľÐ³Ð½Ð¾Ð²":3471,"Ð½ÐµÑĪÑĮ":3472,"ÐĹÐ¾Ð²":3473,"Ð°Ð¶ÐµÑĤÑģÑı":3474,"Ð£Ð²Ñĭ":3475,"ĠÐ¾Ð±Ð½":3476,"ÑģÑĤÐ²ÑĥÐµÑĤ":3477,"Ð°Ð±ÑĢ":3478,"ÐµÑĪÐµÐ½":3479,"ĠÐ³ÑĢÐ°Ð½":3480,"ĠÐ¿Ð¾Ð´ÑĬ":3481,"ÐłÐ°ÑģÑĤ":3482,"ÐłÐ°Ð²Ð½Ð¾":3483,"Ð°ÑģÑĤÐ¸":3484,"ĠÑĤÑĢÐ¾Ð¿":3485,"Ð¸Ð·Ð½":3486,"ÐĴÑģÐµÐ¼":3487,"ĠÐ¿ÐµÑĢÐµÐ¼":3488,"ĠÐ¿ÐµÑĢÐµÐ¿":3489,"ĠÐ²Ð¾Ð·Ð¼Ð¾Ð¶Ð½Ð¾":3490,"ĠÐ³Ð»ÑĥÑĪÐ¸":3491,"ĠÑģÑĤÑĢÐ¾":3492,"ĠÐ¿ÑĢÐ¸ÑģÑĤ":3493,"ĠÐ±Ð»ÐµÑģ":3494,"ĠÐ½Ð°ÑĪÐµ":3495,"ĠÑģÑĤÐ°ÑĢÑĥÑħ":3496,"ĠÐ¿Ð¾ÑĢÑĤ":3497,"ĠÑįÑĤÐ¸Ð¼":3498,"Ð»ÑİÑģÑĮ":3499,"Ð¥ÑĢÐ°Ð½":3500,"ĠÐ´ÑĢÑĥÐ³Ñĥ":3501,"ĠÐķÑģÐ»Ð¸":3502,"ĠÐ¾Ð¿Ð°Ñģ":3503,"Ð¡ÐºÐ°Ð¶Ð¸":3504,"ĠÐĺÐ³Ð¾ÑĢ":3505,"ÐµÑģÑĤÐ²Ð¾Ð¼":3506,"ĠÐ¼ÑĥÐ¶Ð°":3507,"ĠÐ´ÐµÐ²Ñĭ":3508,"ĠÑĢÐ°Ð´Ð¾ÑģÑĤÐ¸":3509,"ĠÐ³Ð¾Ð²Ð¾ÑĢÐ¸Ð»":3510,"ĠÐŀÐ½ÐµÐ³Ð¸Ð½":3511,"Ð¡Ð²ÑıÑĤ":3512,"ĠÐ´ÐµÐ»Ð°ÑĤÑĮ":3513,"Ð¸ÑĨÐµÐ¹":3514,"ÐĵÑĢÐ¾Ð·":3515,"ĠÑģÑĤÐ¾ÑĢÐ¾Ð½Ðµ":3516,"ĠÑĢÑıÐ´Ð¾Ð¼":3517,"ĠÐ·Ð°Ð´ÑĥÐ¼":3518,"ĠÑĩÑĥÐ²ÑģÑĤÐ²Ð°":3519,"ÐŁÐ¾Ð¼ÐµÑī":3520,"ĠÐĿÐµÐ±Ð°":3521,"ĠÑĪÐ¸ÑĢÐ¾Ðº":3522,"ÐŁÑĥÑģÑĤÑĮ":3523,"ĠÑģÐ¾ÐºÑĢÑĥÑĪ":3524,"ĠÐ¿ÑĢÐ¾Ð´Ð¾Ð»Ð¶":3525,"ĠÑģÐ¾Ð²ÐµÑĢÑĪÐµÐ½":3526,"ÐĶÐ¾Ð²Ð¾Ð»ÑĮÐ½Ð¾":3527,"Ð§ÐµÑĢÐµÐ·":3528,"ĠÑģÐ¾Ð±Ð»Ð°Ð·Ð½":3529,"Ð¼Ð¿Ð¸ÑĢ":3530,"Ð¾Ð¸Ð½":3531,"ÑĢÑıÑĤ":3532,"ÑĥÐ½Ð°":3533,"ÑĮÑĤÐµ":3534,"ÑıÑı":3535,"ĠÐ¿ÑĥÑĩ":3536,"ĠÐ½Ñı":3537,"ĠÐ½ÑĢÐ°Ð²":3538,"ĠÐ½ÐµÐ±Ðµ":3539,"ÑĩÑĥ":3540,"ÐµÐ½Ñĥ":3541,"ĠÑĤÐµÐº":3542,"Ð¾Ð»Ðµ":3543,"ĠÐ¼Ð¾Ð»ÑĮ":3544,"Ð¾ÑĢÐ¾ÑĤ":3545,"ĠÐ·ÐµÐ»ÐµÐ½":3546,"ÐĺÑģ":3547,"ÐµÐ¼ÑĮ":3548,"ĠÐ³Ð¸Ð¼":3549,"ĠÐ³Ð¾Ð´Ð°":3550,"ÐĴÐµÐ»Ð¸":3551,"Ð°ÐºÐ¸":3552,"Ð³Ð»Ñı":3553,"Ð°Ð²ÑĪÐ¸ÑģÑĮ":3554,"Ð°Ð½Ð½Ð¾":3555,"Ð°Ð½Ð½ÑĭÐ¼":3556,"ĠÐ½ÐµÐ¾Ð±":3557,"Ð½Ð¸ÑģÑĮ":3558,"Ð¾Ð±Ñī":3559,"ĠÐ¶Ð¸Ð»Ð¸":3560,"ĠÐ¶ÐµÑĢÑĤ":3561,"Ð¸Ð¼Ð¸ÑĢ":3562,"ÐĶÐ¾Ð±":3563,"Ð¾ÑĩÐ°Ð¹":3564,"ĠÑıÐ´":3565,"ÑĥÐ³Ð°":3566,"ÐŁÑĢÐ¾Ñħ":3567,"ÐŁÑĢÐ¸Ñģ":3568,"Ð§Ð¸ÑĤ":3569,"ĠÑħÑĥÐ¶Ðµ":3570,"ÐľÐ¸ÑĢ":3571,"ĠÑģÐºÐ¾Ð»ÑĮÐºÐ¾":3572,"Ð¸ÑĩÑĮ":3573,"Ð¸ÑĩÐ°Ð»":3574,"ÐĽÐµÐ³":3575,"ĠÐ³Ð¾ÑĢÐ¸ÑĤ":3576,"ĠÑģÐ¼Ð¾Ð»":3577,"ĠÑĨÐµÐ»ÑĭÐ¹":3578,"ÐµÐ»Ð¸ÑģÑĮ":3579,"Ð¾ÑĪÐµÐ»":3580,"ĠÐ¼Ð¾ÐµÐ³Ð¾":3581,"ĠÐ±ÑĢÐµÐ³":3582,"ĠÐ½Ð°ÑĪÑĥ":3583,"ĠÑģÑĤÐ°ÑĢÐ¸Ð½":3584,"Ð²ÐµÑĢÑħ":3585,"ĠÐ²Ð¸Ð´Ð¸ÑĪÑĮ":3586,"Ð¸ÑĤÐµÐ»ÑĮÐ½ÑĭÑħ":3587,"ĠÐłÐ°Ñİ":3588,"ĠÑģÑĤÑĢÐ°ÑģÑĤÐ¸":3589,"ĠÐ·Ð²ÐµÐ·Ð´Ð°":3590,"ĠÐ¸Ð¼Ñı":3591,"ÑıÐ»Ð°ÑģÑĮ":3592,"Ð¸Ð±Ð¾":3593,"ÐŀÐ±ÑĬ":3594,"ÑĩÐ¸ÐºÐ¸":3595,"ÑĩÐ¸ÑģÐ»":3596,"Ð¡Ð»ÑĭÑĪ":3597,"ĠÐ±Ð»Ð°Ð³Ð¾ÑģÐ»Ð¾Ð²":3598,"ĠÐ¾ÑģÐµÐ½":3599,"ĠÐ·Ð°Ð±Ð°Ð²":3600,"Ð¡Ð¼Ð¸ÑĢ":3601,"ĠÐ·Ð°ÐºÑĢ":3602,"ĠÐŁÑĢÐ¸ÑĢ":3603,"ĠÐ·Ð°Ð²Ð¸ÑģÑĤ":3604,"ĠÐ·Ð°Ð¼ÐµÑĤ":3605,"ĠÑģÑĩÐ°ÑģÑĤÑĮÑı":3606,"Ð§ÑĤÐ¾Ð±Ñĭ":3607,"ĠÐºÐ¾ÑĤÐ¾ÑĢÑĭÐ¹":3608,"ÐµÑĢÐ¿ÐµÐ»":3609,"ĠÐ¿Ð¾Ð·Ð¾ÑĢ":3610,"ĠÐ±Ð»Ð¸ÑģÑĤ":3611,"ÐłÐ°ÑģÐ¿":3612,"ĠÐ´Ð¾Ð»Ð¶Ð½Ñĭ":3613,"ĠÐ¼ÐµÑģÑĤÐ¾":3614,"ÐŀÐ¿Ð°Ñģ":3615,"ĠÐ²Ð¾Ð·Ð²ÑĢÐ°ÑĤ":3616,"ĠÐ¾ÑĤÐ´Ð°Ð»":3617,"ÑĭÑĢÐµ":3618,"ĠÑģÐºÐ°Ð·Ð°ÑĤÑĮ":3619,"ĠÑĢÐ°ÑģÑģÐ²ÐµÑĤ":3620,"ĠÐ³ÑĥÐ±ÐµÑĢ":3621,"ĠÑĤÑĥÑĩÐ¸":3622,"ĠÑģÐµÐ¹ÑĩÐ°Ñģ":3623,"ĠÑıÐ·Ñĭ":3624,"ĠÐ²Ð¿ÐµÑĢÐµÐ´Ð¸":3625,"ĠÐ¾Ð¶Ð¸Ð´":3626,"ĠÐ·Ð´Ð¾ÑĢÐ¾Ð²":3627,"ĠÐ¼Ð¾ÑīÑĮ":3628,"ÐľÑĥÐ¶Ð¸Ðº":3629,"ĠÐºÑĢÐµÑģÑĤÑĮÑıÐ½Ð¸Ð½Ð°":3630,"ĠÑģÑĤÑĢÐ°ÑģÑĤÐµÐ¹":3631,"Ð¡Ð¼ÐµÑĢÑĤÑĮ":3632,"Ð¸Ð¾Ð½":3633,"ÑĢÑĥÑĤ":3634,"ÑĢÐ°Ð¶Ð´":3635,"ÑĢÐ¾ÑĤÐ¸Ð²":3636,"Ð½ÐµÐ¼Ñĥ":3637,"Ð»Ñĳ":3638,"Ð»ÐµÐ±":3639,"Ð»ÐµÑĩÑĮ":3640,"ÑĥÐºÑĥ":3641,"ÑĮÐµÑĤÑģÑı":3642,"ĠÑģÑĥÑħ":3643,"ĠÑģÐµÐ²ÐµÑĢ":3644,"ĠÐ¿ÑĥÐ³":3645,"ĠÐ¿Ð»Ð°":3646,"ĠÐ¿ÑĥÑīÐµ":3647,"Ð²Ð¸Ð½":3648,"Ð²ÐµÑĢÐ´":3649,"ĠÐ½Ð°Ð»":3650,"ÑĩÐ°Ð¹":3651,"Ð¾Ð²Ñĭ":3652,"ĠÐ¼Ð°Ñħ":3653,"ĠÐºÑĥÐ´":3654,"ĠÐºÐ¾Ð¼Ñĥ":3655,"Ð¸ÑĤÐµÑģÑĮ":3656,"ĠÑĢÑĭ":3657,"ĠÑĢÐ¾Ð²":3658,"ĠÐ³Ð°Ð»":3659,"ĠÐ¿ÑĢÐµÑģÑĤÐ¾Ð»":3660,"ÐĴÐ¾ÑģÑĤ":3661,"Ð¿ÐµÑĢ":3662,"ĠÐ»Ð°Ð¿":3663,"ÐµÐ´ÐµÑĤ":3664,"Ð¾ÑģÐµÑĢÐ´":3665,"ÐµÑģÑģ":3666,"ÐŀÐ½Ð¾":3667,"ÐļÐ¾":3668,"ÐµÐ²Ð°":3669,"ÐµÐ²Ð°ÐµÑĤ":3670,"Ð¾Ð·ÑĢ":3671,"ĠÐµÐ´ÐµÑĤ":3672,"ÐĶÐ°Ð²":3673,"ÐĶÐ¾Ñģ":3674,"ÐĶÑĥÑħ":3675,"ÐĶÐ²Ðµ":3676,"Ð¾ÑĩÑĥÐ±":3677,"ÑĥÐ¶Ñĥ":3678,"ĠÑģÐ²ÑıÐ·":3679,"ÐŁÑĢÐ¸Ð½":3680,"ÐŁÑĢÐ¸Ð¼":3681,"ÐŁÑĢÐ¾ÑģÑĤÐ¸":3682,"ÑĥÑĪÐºÐ¾Ð¹":3683,"ĠÑģÐ»ÑĥÑħ":3684,"ÐľÐ¾ÑĢ":3685,"Ð¾Ð»ÑĮÐºÑĥ":3686,"ĠÐ¿Ð¾Ñī":3687,"ĠÐºÐ°ÐºÐ°Ñı":3688,"ĠÐ¡Ð¸Ð»":3689,"ÑĮÑıÑħ":3690,"ĠÐ»ÑİÑĤ":3691,"ĠÑģÐ¼ÐµÐ»":3692,"ÐĴÑģÐµÐ²ÑĭÑĪ":3693,"ĠÐ¿ÑĢÐ¸ÑİÑĤ":3694,"ĠÐŀÐ´":3695,"ĠÐ»ÑİÐ±Ð¸Ð¼":3696,"Ð¸ÑĪÑĮÑģÑı":3697,"ĠÐĵÐ²Ð¸Ð´":3698,"ĠÐ¿Ð¾ÐºÑĢÑĭÑĤ":3699,"ÑĳÐ½Ð½Ð¾Ð¹":3700,"ÑĳÐ½Ð½ÑĭÐ¼":3701,"ĠÐ¿Ð¾ÑĢÑĥ":3702,"ĠÐ²ÑĢÐ°Ð¶":3703,"ĠÐ±ÑĥÐ´ÑĮ":3704,"ĠÐ±ÑĥÐ´ÑĥÑĤ":3705,"ÐµÑīÑĥÑĤ":3706,"ĠÐºÐ¾Ð½ÐµÐ¹":3707,"ĠÑĢÐ¾Ð´Ð½ÑĭÐµ":3708,"ĠÐłÐ¾ÑģÑģ":3709,"Ð°ÑİÑģÑĮ":3710,"ĠÑĥÑĤÐµÑĪ":3711,"ĠÑĤÐ²Ð¾Ð¸Ð¼":3712,"ÑĢÑıÑģ":3713,"ĠÐ²Ð¿ÑĢÐ°Ð²":3714,"ĠÐ¿Ð¾Ð³ÑĥÐ±":3715,"ĠÐ±Ð¾Ð³Ð¾Ð¼":3716,"ĠÐ»ÐµÑģÐ½Ð¾Ð¹":3717,"ĠÐ¿ÑĢÐ¾ÑģÑĤÑĢÐ°Ð½":3718,"ĠÐ³Ð»Ð°Ð·Ð°Ñħ":3719,"ĠÑĥÐ¿Ð¾":3720,"ĠÑĩÐ°ÑģÑĭ":3721,"ĠÐ¿Ð°ÑĢÐµÐ½ÑĮ":3722,"ĠÐ½Ð°ÐºÐ°Ð·":3723,"ĠÐ·Ð¾Ð»Ð¾ÑĤÐ¾Ð¹":3724,"ĠÑģÐµÐ¼ÑĮÑı":3725,"Ð°Ð»ÐµÐºÐ°":3726,"ĠÐ´Ð²Ð¾ÑĢÑıÐ½":3727,"ĠÐ´Ð¸Ð²Ð¾":3728,"ĠÐĲÐ½Ð³ÐµÐ»ÑĮ":3729,"ÐĳÐµÑģÐ¿":3730,"ÑİÑīÐ¸Ñħ":3731,"ĠÑģÐºÐ°Ð·Ð°Ð»Ð°":3732,"ĠÐŃÐ´ÐµÐ¼":3733,"Ð¡Ð²Ð¾Ð¸":3734,"ÐļÑĢÐµÑģÑĤÑĮÑıÐ½":3735,"ĠÐ²ÑģÐ¿Ð¾Ð¼Ð½":3736,"ĠÐºÑĢÐµÐ¿ÐºÐ¾":3737,"ĠÐĵÑĢÐ¸ÑĪ":3738,"Ð½ÑıÐ»ÑģÑı":3739,"Ð½ÑıÐ³Ð¸Ð½Ñı":3740,"ĠÐķÑĢÐ¼Ð¸Ð»":3741,"Ð¢Ð¾Ð»Ð¿":3742,"ÑģÑİ":3743,"Ð½Ð¾Ð³":3744,"Ð½Ð°Ð´":3745,"Ð½Ð¾Ðº":3746,"Ð½Ð°Ð¹":3747,"Ð½Ð°Ð½ÑĮÑı":3748,"ÑĭÑģÐº":3749,"ĠÑģÐ¸Ð½":3750,"ĠÑģÑĥÑī":3751,"ĠÑģÑİÐ´Ð°":3752,"ĠÐ¿Ð¸ÑĤ":3753,"ĠÐ²Ð¾Ð½":3754,"ĠÐ²Ð¾ÑģÐ»ÐµÐ´":3755,"ĠÐ²Ð»ÑİÐ±":3756,"Ð¼ÐµÑĪ":3757,"Ð¾Ð¹Ð´ÐµÑĤ":3758,"Ð¾Ð»ÐµÐ·":3759,"ĠÐ´Ð²ÐµÑĢÑĮ":3760,"ĠÐ´ÐµÐ¹ÑģÑĤÐ²":3761,"Ð¾Ð²ÑĭÐ¼":3762,"ĠÐ±Ð°ÑĤ":3763,"ĠÐ±ÑĥÐ»":3764,"ÐµÑĢÐµÐ¶":3765,"ĠÐºÐ¾Ð·":3766,"Ð¾Ð´ÑıÑĤ":3767,"ĠÐ¿ÑĢÐµ":3768,"ÐĴÐ¾Ð·Ð´":3769,"Ð½Ð¾ÑĪ":3770,"Ð¡ÑĭÐ½":3771,"ÑĨÐ°Ð¼":3772,"Ð³Ð»Ð°Ð²":3773,"Ð°ÑĢÐ¸ÑħÐ¾Ð¹":3774,"ĠÐ½ÐµÑģÐº":3775,"ĠÑĩÐ¸Ñģ":3776,"ĠÑĩÐµÐ¼Ñĥ":3777,"ĠÑĩÑĳÑĢ":3778,"ĠÑģÑĤÐ¾Ð¹":3779,"ĠÑģÑĤÐ°Ð²":3780,"ĠÐ¶ÑĢÐµÐ±":3781,"ÐĶÐ²":3782,"ÐĶÐ¸Ð²":3783,"Ð¾ÑĩÐµÑĤ":3784,"ĠÑıÐ¼":3785,"ÐµÑĩÐ½ÑĭÐ¹":3786,"ĠÐºÑĢÐ°Ñİ":3787,"ÐµÐºÐ°":3788,"ÐĹÐ½Ð°":3789,"Ð°Ð¶Ñĥ":3790,"ÐĵÐ»Ð°Ð·":3791,"ÑĢÐ°Ñħ":3792,"ĠÐ³ÑĢÐ°Ð¼":3793,"ĠÐ³ÑĢÑıÐ´ÑĥÑī":3794,"ĠÐ¿Ð¾Ð´Ð²Ð¸Ð³":3795,"ĠÐ²ÑĭÑĪÐµ":3796,"ĠÑĪÑĤ":3797,"Ð½ÑıÐ»Ð°":3798,"ĠÑģÐ¼ÑĥÑī":3799,"ĠÐŁÐ¾Ð»":3800,"ĠÐ¿Ð»ÑĭÐ²":3801,"ĠÐ¾Ð´Ð½Ñĥ":3802,"ĠÐ¾Ð´Ð½Ð¸Ð¼":3803,"ĠÐĲÐ´Ð°":3804,"ÑĭÐ²Ð°Ñı":3805,"ÑĭÐ²Ð°Ð»Ð¾":3806,"ĠÐŀÐ±":3807,"Ð½Ð¸ÐºÐ°Ð¼":3808,"ĠÐ½Ð°Ð´Ð¾Ð±Ð½Ð¾":3809,"Ð¾ÑħÐ½ÑĥÑĤÑĮ":3810,"ĠÑĢÐ°ÑģÑģÐº":3811,"ĠÐ±ÑĥÐ´ÐµÐ¼":3812,"ĠÐ¿ÑĢÐµÐ´Ð¼ÐµÑĤ":3813,"ĠÐ²ÐµÑĢÐ½Ð¾":3814,"ĠÐ²Ð¾Ð»Ð¾Ñģ":3815,"ĠÑģÐ²ÐµÑĤÑĥ":3816,"ĠÐķÐ²Ñĥ":3817,"ĠÐ¿Ð¾Ð¼Ð½Ñİ":3818,"Ð¡ÐºÐ¾Ð»ÑĮÐºÐ¾":3819,"ĠÑĥÑĤÑĢÐ°ÑĤ":3820,"ÐŀÐ±ÑĪÐ¸ÑĢ":3821,"Ð¡Ð»ÑĥÐ¶":3822,"ĠÐ¾Ð³ÑĢÐ¾Ð¼":3823,"ĠÐ±ÐµÐ´Ñĥ":3824,"ĠÐ¼Ð¾ÑĢÑİ":3825,"ÑĢÐ¸Ð¸Ð»":3826,"ĠÑĥÐ´ÐµÐ»":3827,"Ð¡Ð¿Ð¾ÑģÐ¾Ð±":3828,"ĠÐºÐ¾Ð»Ð¾Ñģ":3829,"ĠÐºÑĢÐ°ÑģÐ¾ÑĤÑĭ":3830,"ĠÐ²Ð¾Ð´Ñĭ":3831,"Ð¡Ð¼Ð¾ÑĤÑĢ":3832,"ĠÐ±Ð°ÑĢÐ¸Ð½Ð°":3833,"ĠÐ´Ð¾ÑĢÐ¾Ð¶":3834,"ÐŃÑħ":3835,"ĠÐ¿ÑĥÑģÑĤÑĭÐ½Ðµ":3836,"ĠÐ½Ð°Ð²ÑģÑĤÑĢÐµÑĩÑĥ":3837,"ĠÐ¿Ð¾ÑģÑĤÑĥÐ¿":3838,"ĠÐºÐ¾ÑĢÐ¼":3839,"ĠÐ½Ð°Ð¿ÑĢÐ°Ð²":3840,"ĠÐĳÐ¾Ð¶ÑĮ":3841,"ĠÑģÑĭÐ½Ð¾Ð²":3842,"ĠÐ´ÐµÑĢÐµÐ²Ð½Ðµ":3843,"ĠÑĩÑĥÐ´ÐµÑģ":3844,"ĠÐ¾ÑĩÐµÐ½ÑĮ":3845,"Ð¦Ð²ÐµÑĤ":3846,"ÑĢÑĭÐ³":3847,"ĠÑģÐ¾Ð»Ð½ÑĭÑĪ":3848,"ĠÐºÐ»ÑĥÐ±":3849,"ĠÑģÑĤÐ¾ÑĢÐ¾Ð½Ñĭ":3850,"ĠÐ²ÑĭÑĪÐµÐ»":3851,"ĠÐ²Ð¾Ð·Ð´ÑĥÑħÐµ":3852,"ĠÐ±Ð¾Ð»ÐµÐµ":3853,"ĠÑģÐ¾Ð·Ð´Ð°Ð»":3854,"ĠÐ´ÑĢÑĥÐ·ÐµÐ¹":3855,"ÐĴÐµÐ»Ð¸Ñĩ":3856,"ĠÑģÐ¸Ð»ÑĮÐ½ÐµÐ¹":3857,"Ð½Ð¸ÑĨÐµÐ¹":3858,"ĠÐ³Ð¾ÑģÑĤÐµÐ¹":3859,"ĠÐ±Ð»Ð°Ð³Ð¾Ð´Ð°ÑĢ":3860,"Ð¡ÑĢÐµÐ´Ð¸":3861,"ÐĹÐ°ÐºÐ¾Ð½":3862,"ĠÐºÐ½ÑıÐ·Ñı":3863,"ĠÑħÐ¾Ð·ÑıÐ¹":3864,"ĠÐ¾ÑģÐºÐ¾ÑĢÐ±":3865,"ĠÐ·Ð»Ð¾Ð´ÐµÐ¹":3866,"ĠÐ²Ð¾Ð¹ÑģÐºÐ°":3867,"Ð½ÐµÐ·Ð°Ð¿Ð½Ð¾":3868,"ĠÐľÐ¸ÑħÐ°Ð¸Ð»":3869,"Ð¼Ð¿Ð¸ÑĢÐµÐ¹":3870,"ÑĤÐ¾Ð¼":3871,"Ð½ÑıÑĤ":3872,"Ð½Ð°Ð»Ð¸":3873,"Ð½ÑĳÑĤ":3874,"ÑĥÐ»ÑĮ":3875,"ÑĮÐµÐ²":3876,"ÑĮÑİÑĤ":3877,"ÑıÑĩ":3878,"ÑıÐ½ÑĥÐ»":3879,"ĠÑģÐ³":3880,"ĠÑģÐ°Ð±":3881,"ĠÑģÐ°Ð¿":3882,"ĠÑģÑĢÐ°Ð²Ð½":3883,"ĠÐ¿Ð¸Ð»":3884,"ĠÐ¿Ð°Ð»ÑĮ":3885,"ĠÐ²ÑĮÑİ":3886,"ĠÐ²ÐµÑģÑĤÑĮ":3887,"Ð²Ð¾Ð»ÑĮ":3888,"Ð¼Ð¸ÑģÑĤ":3889,"Ð¼ÐµÑı":3890,"ĠÑĤÑīÐµÑĤ":3891,"ĠÐ´ÐµÐ½":3892,"ĠÐ´Ð¾Ð¼Ñĥ":3893,"Ð¾Ð²Ð°Ð»Ð¸":3894,"Ð¾Ð²ÐµÑī":3895,"ĠÐ¼Ð¾Ð´":3896,"ÐµÑĢÑĥ":3897,"Ð¸ÑĤÐµÑĢ":3898,"Ð¸Ð»Ð¸Ð¹":3899,"ÐĿÐ°Ðº":3900,"ÐĿÐ¸Ð·":3901,"ĠÐ·Ð½Ð¾Ð¹":3902,"ĠÐ·Ð»Ð°":3903,"ĠÐ·Ð²ÐµÑĢÑĮ":3904,"ĠÑĢÐ°Ð½Ð¾":3905,"ĠÐ³Ð¾Ð´Ñĭ":3906,"ÐĴÑģÑĤ":3907,"Ð¡ÐµÐ¹":3908,"Ð±Ð¾Ð¹":3909,"Ð¿ÑĢ":3910,"ÑĨÐ²ÐµÑĤ":3911,"Ð°Ð´Ñĥ":3912,"Ð°Ð´ÑĮÐ±":3913,"ÐļÐ°Ð·Ð°Ð»Ð¾ÑģÑĮ":3914,"Ð¶Ñĥ":3915,"Ð¾ÑĩÐµÐº":3916,"ÐµÑĩÐºÐ¾":3917,"ĠÑģÐ²Ð¸Ð´":3918,"ÐŁÑĢÐ°Ð²":3919,"ÐŁÑĢÐ¸Ð¿":3920,"ÐľÐ»Ð°Ð´":3921,"ÐĳÐ¾Ð¶ÐµÑģÑĤÐ²":3922,"ÐĹÐ°ÑĢ":3923,"Ð£Ð»ÑĭÐ±":3924,"ĠÐ¾Ð±Ð¾":3925,"Ð¸ÐºÐ¾Ð¼":3926,"ÑĥÑĩÐ¸Ðµ":3927,"ĠÐ¸Ð·Ð²ÐµÑģÑĤ":3928,"ĠÐĿÐµÐ±Ðµ":3929,"ĠÑģÐºÐ¾ÑĤ":3930,"ĠÐ¿Ð¾Ð»Ñĥ":3931,"ĠÐ¿Ð¾Ð»Ð½ÑĭÐ¹":3932,"ÐłÑĥÑģ":3933,"Ð°Ð»Ð°ÑĪ":3934,"ÑĭÑħÐ°Ð»":3935,"ĠÑĤÑĢÐ¸Ð´":3936,"ÐķÑīÑĳ":3937,"ĠÐ¢Ð°ÑĤÑĮÑı":3938,"ÐŀÑĤÐ´":3939,"ĠÑģÐ¿Ð°ÑĤÑĮ":3940,"ĠÐ¿Ð»Ð°ÑĤ":3941,"ĠÐ²Ð¾Ð·Ð½ÐµÑģ":3942,"ÑĭÐ²Ð°ÑİÑĤ":3943,"Ð¾ÑĪÐ»Ð°":3944,"ĠÐ¼Ð¾Ð¸Ð¼":3945,"ĠÐ¿Ð¾ÐºÐ°Ð·":3946,"ĠÐľÐ¾Ð¹":3947,"ĠÐ²ÑĢÐ°Ð¶Ð´":3948,"ÐµÑĪÑĮÑģÑı":3949,"ÐµÑīÐµÑĤ":3950,"ÑĦÐµ":3951,"ÑĦÐ¸Ð¼":3952,"ĠÑģÐ°Ð¼Ð¾Ð¹":3953,"ĠÐ½Ð¾ÑĩÐ½Ð¾Ð¹":3954,"Ð¡ÐºÐ»Ð¾Ð½":3955,"ĠÐ·ÐµÐ¼Ð½Ð¾Ð¹":3956,"ĠÐ¸Ð¼Ð¸":3957,"ÑħÐ¾Ð´Ñı":3958,"ĠÑĥÑĤÑĢÐ¾":3959,"Ð»ÐµÐ½Ð½Ð¾Ð¹":3960,"Ð»ÐµÐ½Ð½ÑĭÑħ":3961,"ĠÐ»ÑİÐ´ÑıÐ¼":3962,"ĠÐ¿ÑĢÐ°Ð²Ð´Ð°":3963,"ÑĢÐ°Ð½ÑĨ":3964,"ÑĩÐ¸ÐºÐ°":3965,"Ð¡Ð»ÐµÐ·":3966,"ĠÐ¼Ð¸Ð»Ð¾Ð¹":3967,"ĠÐ½Ð°ÑĢÐ¾Ð´Ñĥ":3968,"ĠÐ½ÐµÐ²ÐµÐ´Ð¾Ð¼":3969,"ĠÐ´ÐµÐ²Ð°":3970,"ĠÐ·Ð½Ð°ÑĩÐ¸ÑĤ":3971,"ĠÐºÐ¾ÑĢÐ°Ð±":3972,"ĠÐĹÐµÐ¼Ð»Ð¸":3973,"ĠÐºÐ¾ÑĤÐ¾ÑĢÐ¾Ð¹":3974,"ÐĽÑİÐ±Ð¾Ð²ÑĮ":3975,"Ð¾ÑģÐºÐ»Ð¾Ð½":3976,"ĠÐºÑĢÑĥÐ³Ñĥ":3977,"ĠÐ¾ÑĩÐµÐ¹":3978,"ĠÐ½Ð¸ÐºÐ°Ðº":3979,"ĠÐ´Ð¸Ð²Ð½ÑĭÐ¹":3980,"ĠÐ½Ð°Ð³ÑĢÐ°Ð´":3981,"ĠÐĴÑģÐµÐ¼":3982,"ĠÑĢÐµÐºÐ¸":3983,"ĠÐ½Ð°Ð·Ð½Ð°Ñĩ":3984,"ĠÑģÑĤÑĢÐ°ÑħÐ°":3985,"ÐĿÐ°Ð¿ÑĢÐ°ÑģÐ½Ð¾":3986,"ĠÐ¾Ð·Ð°ÑĢ":3987,"ĠÐ¼Ð°ÑĤÐµÑĢÐ¸":3988,"ĠÐ²ÐµÐ»Ð¸ÐºÐ¸Ð¹":3989,"ÐĶÐ¾Ð»Ð¶":3990,"ĠÐĵÑĢÐµÑħ":3991,"ĠÐ½ÑĥÐ¶Ð½Ð¾":3992,"Ð»Ð¸Ð·Ð¸":3993,"ĠÐ»ÑĥÐ½Ð°":3994,"ĠÐ³Ð¾ÑĢÑıÑĩ":3995,"ĠÑģÐ»ÑĥÑĩÐ°Ð¹":3996,"ÐŁÐ¾ÑģÐ»ÑĥÑĪ":3997,"ĠÑĤÑĭÑģÑıÑĩ":3998,"ĠÐ§ÐµÑĢÐ½Ð¾Ð¼":3999,"ĠÐĵÐ²Ð¸Ð´Ð¾Ð½":4000,"ÑĤÐ¾Ð¶":4001,"Ð¸ÐµÐ¹":4002,"Ð½Ð°Ð´ÑĨÐ°ÑĤÑĮ":4003,"ÑĥÐ»Ð¸":4004,"ÑĮÐ¼Ñĥ":4005,"ÑĮÐ¼Ð¸":4006,"ĠÑģÐ¾Ð´":4007,"ĠÑģÑĦÐµÑĢ":4008,"ĠÐ¿Ð°Ñģ":4009,"ĠÐ¿Ð¸ÑĤÑĮ":4010,"ĠÐ¿Ð¸ÑĪ":4011,"ĠÐ¿Ð°ÑģÑĤ":4012,"ĠÐ¿Ð¸Ñī":4013,"ĠÐ²Ð¸":4014,"ĠÐ²ÐµÑĪ":4015,"ĠÐ²Ð°Ð¼Ð¸":4016,"ĠÐ²Ð¸Ð½Ð°":4017,"ĠÐ½Ñĥ":4018,"ÐµÐ½ÐºÐ°":4019,"Ð¾Ð¹ÑĤÐ¸":4020,"ÐµÑĤÑĭ":4021,"ĠÐ´Ð»":4022,"ÐµÑĢÑĳÐ´":4023,"ĠÐºÐµÐ¼":4024,"ĠÐºÑĥÐ¼":4025,"Ð¸ÑĤÐ°":4026,"Ð¾Ð´Ð¸Ð»":4027,"Ð¾Ð´Ð¾Ð±":4028,"Ð¾Ð¼Ðº":4029,"ÐĿÐµÐ±":4030,"ÐĺÐ´ÑĥÑĤ":4031,"ĠÑĢÐ°ÑĤ":4032,"ĠÐ³Ð»Ñı":4033,"ĠÐ³Ð°ÑĢÐ¼":4034,"ĠÐ¿ÑĢÐµÐ³":4035,"ĠÐ¿ÑĢÐ¸ÐµÑħ":4036,"ÐĴÐº":4037,"ÐĴÐ½Ð¸Ð¼":4038,"ÐĴÐµÑĤÐµÑĢ":4039,"Ð¡Ð¾Ñģ":4040,"Ð±Ð»Ð¸Ð·Ð¸":4041,"ĠÐ»ÐµÐ½":4042,"Ð°ÑĢÑħ":4043,"Ð°ÑĢÐ»Ð°":4044,"Ð¸Ð½Ð¾Ð¼":4045,"Ð¸Ð½ÑģÑĤÐ²ÐµÐ½":4046,"ĠÑģÑĤÐ¾Ð¿":4047,"Ð¾ÐºÐ¸":4048,"ĠÐ¶ÑĥÑĢ":4049,"ÑĥÑĤÑģÑĤÐ²":4050,"ÑĥÑĤÑĢÑĥ":4051,"ÐµÐ²Ð¾":4052,"ÐµÐ±ÐµÐ´ÑĮ":4053,"Ð»Ð¸ÑģÑĤ":4054,"ÑıÑĤÐ°":4055,"ÐµÐ³Ð¸":4056,"ÐµÐ½ÑĮÐºÐ¾":4057,"ĠÐ¾ÑĤÑĤ":4058,"ĠÐ¾ÑĤÑģÑĤÑĥÐ¿":4059,"Ð§ÐµÑĤ":4060,"ĠÑģÐ»ÐµÐ¿":4061,"ĠÐ²ÑģÐ»ÐµÐ´":4062,"ÐĵÐµÑĢ":4063,"ÐĵÐ»ÑĥÐ±":4064,"ĠÐ³ÑĢÑĥÐ±":4065,"ĠÐ¿Ð¾Ð´Ð¿":4066,"ĠÑĪÐµÑģÑĤ":4067,"ĠÑĪÐ»Ð¸":4068,"ĠÑĪÐ»ÐµÐ¼":4069,"ĠÐĿÐµÐ²":4070,"ĠÐ¿Ð¾Ð»ÐºÐ¸":4071,"ĠÐ¿Ð¾Ð»Ð¾Ð¶":4072,"ĠÐ¢Ð°ÑĤÑĮÑıÐ½Ð°":4073,"ÐŀÑĤÐ²":4074,"ĠÐ±ÐµÐ·Ð·":4075,"ĠÑĨÐµÐ»ÑĮ":4076,"ĠÑĤÐ°ÐºÐ¸Ð¼":4077,"ĠÐ¾Ð´Ð¸Ð½Ð¾Ñĩ":4078,"ÑĭÐ²Ð°Ð¹":4079,"ĠÐ¿ÑĢÐ¸ÑģÐ»":4080,"ĠÐ»ÑİÐ±Ð¸ÑĤ":4081,"ĠÐ»ÑİÐ±Ð»Ñİ":4082,"ĠÑģÐ²Ð¾ÐµÐ³Ð¾":4083,"ĠÑģÑĤÐ°ÑĢÐ¾ÑģÑĤ":4084,"Ð»ÑİÐ´":4085,"ĠÐ²ÐµÑĢÐ½ÑĭÐ¹":4086,"ÑīÐµÐµ":4087,"ĠÑģÐ°Ð¼Ð¾Ð¼":4088,"ĠÐ´ÑĢÑĥÐ³Ð¸Ðµ":4089,"Ð»ÑıÐ´ÐµÐ»":4090,"Ð°Ð»Ð¾ÑģÑı":4091,"ĠÐ±ÐµÐ´Ð½Ð°Ñı":4092,"ĠÐ¶Ð¸Ð·Ð½":4093,"ÑĢÐ¸Ð¿":4094,"ĠÑģÐ¾Ð±ÑģÑĤÐ²ÐµÐ½":4095,"ĠÐ·Ð°Ð±Ð²":4096,"ĠÐ¼Ð¸Ð»ÑĭÐµ":4097,"ĠÐºÐ¾Ð»Ð¾Ðº":4098,"ÐŁÐ¾ÐºÑĥÐ´Ð°":4099,"ĠÐ´ÑĥÐ¼Ð°ÑĤÑĮ":4100,"ĠÐ²Ð¾Ð´Ð°":4101,"ĠÐ²ÐµÑĩÐ½ÑĭÐ¹":4102,"ĠÐ³Ð¾Ð»Ð¾Ð²Ð¾Ñİ":4103,"ĠÐ¿ÑĢÐ¾ÑģÑĤÐ¾":4104,"ĠÑĢÐ°Ð´Ð¸":4105,"ĠÐ²ÑĭÑģÐ¾ÐºÐ¾":4106,"ĠÐ¿ÑĥÑģÑĤÑĮ":4107,"ĠÐ¿Ð¾ÑģÑĤÐ¸Ð³":4108,"ĠÐ¿ÑĢÐ¸Ð²ÑĭÑĩ":4109,"ĠÐ¿Ð¾ÑĩÐµÐ¼Ñĥ":4110,"ĠÑĥÐ±Ð¾Ð³":4111,"ĠÐ½Ð°ÑĩÐ¸Ð½":4112,"ĠÑģÑĤÑĢÐ°ÑĪÐ½ÑĭÐ¹":4113,"ÐĽÑİÐ±Ð²Ð¸":4114,"ĠÐ±Ð¾ÑıÐ·":4115,"ĠÐ¿Ð¾Ð·Ð°Ð±":4116,"ĠÐ²ÑģÑıÐºÐ¸Ð¹":4117,"Ð¸Ð»Ð¾ÑģÑı":4118,"ĠÐ´Ð¾Ð»Ð¶Ð½Ð°":4119,"ĠÐµÐ´Ð¸Ð½ÑĭÐ¹":4120,"ĠÐ²Ð¾ÑģÑħ":4121,"ĠÑħÐ¾ÑĤÐµÐ»":4122,"ĠÑħÐ¾ÑĢÐ¾ÑĪÐ¾":4123,"ĠÐ²Ð¾Ð¿Ð»Ð¾Ñī":4124,"Ð¡Ð°Ð¼Ð°":4125,"ĠÐ¼ÐµÑĢÐ·":4126,"ÐĶÐ¾ÑģÑĤÐ¾Ð¹":4127,"ĠÑĤÐ¾ÑģÐºÐ¾Ð¹":4128,"ĠÐ¿Ð¾ÑĪÐµÐ»":4129,"ĠÐ¸ÑģÑĩÐµÐ·":4130,"ĠÐ¶Ð´Ð°Ð»":4131,"ĠÐ·Ð°Ð½Ð¸Ð¼":4132,"ÐĴÐ¿ÐµÑĢÐµÐ´":4133,"ÐŁÐ¾Ð³Ð¸Ð±":4134,"ĠÑĤÐµÑĢÐ·":4135,"ĠÐ±Ð»Ð°Ð¶ÐµÐ½ÑģÑĤÐ²Ð¾":4136,"ĠÐ¾Ð¶Ð¸Ð²":4137,"ÐĳÑĥÐ´ÐµÑĤ":4138,"ĠÑĤÑĮÐ¼Ðµ":4139,"ĠÑĥÐ»ÑĭÐ±ÐºÐ¾Ð¹":4140,"ĠÐ¿Ð°Ð¼ÑıÑĤÑĮ":4141,"ĠÑģÐºÐ°Ð¶Ñĥ":4142,"ĠÑģÐ¾Ð»Ð½ÑĨÐ°":4143,"ĠÐ²ÐºÑĥÑĪ":4144,"ĠÐ¿ÑĢÐ¾Ð½Ð¸Ðº":4145,"ÐŀÑĤÐºÑĥÐ´Ð°":4146,"ĠÑĥÑĤÑĢÐµÐ½Ð½ÐµÐ¹":4147,"ĠÐĽÑİÐ´Ð¼Ð¸Ð»":4148,"ÐĵÐ¾Ð²Ð¾ÑĢÐ¸ÑĤ":4149,"ĠÐ³Ð¾ÑģÑĥÐ´Ð°ÑĢ":4150,"ĠÐ¼ÐµÐ´Ð»ÐµÐ½Ð½Ð¾":4151,"ĠÑģÐ¾Ð·ÐµÑĢÑĨ":4152,"ÐŁÐ¾Ð¼ÐµÑīÐ¸Ðº":4153,"ÑģÑİÐ´Ñĥ":4154,"ÑĢÐ°Ð½ÑĨÑĥÐ·":4155,"ÑĢÐµÐ¿":4156,"Ð»ÑĥÑħ":4157,"Ð»ÐµÑĨ":4158,"Ð»ÑĳÐ½":4159,"ĠÑģÐ¾ÑĤ":4160,"ĠÑģÑĩÐµÑĤ":4161,"ĠÐ¿Ð»Ð¾Ñī":4162,"ĠÐ²Ð½ÐµÐ¼":4163,"ĠÐ²ÐµÐ·Ð´Ðµ":4164,"ĠÐ½ÐµÐ»":4165,"ÑĩÐ¾Ð½":4166,"ĠÐ¾ÐºÐµ":4167,"ĠÐ´Ð¾Ð·":4168,"ĠÐ±Ð¾Ðº":4169,"ĠÐ¼ÐµÑĪ":4170,"ÐµÐ¼Ñĩ":4171,"ĠÑĢÑĥÐ¼Ñı":4172,"Ð°ÑĤÑģÑı":4173,"ĠÐ¿ÑĢÐµÐ±":4174,"Ð·ÐµÐ¼":4175,"Ð¡ÑĥÐ´":4176,"Ð¡ÐµÐ±Ñı":4177,"Ð±ÑĥÑĢ":4178,"Ð¿Ð¿":4179,"Ð°Ð¼Ð¿":4180,"ĠÐ»Ð°Ð²":4181,"ĠÐ»ÐµÑģÑĤ":4182,"Ð°Ð²ÑĪÐ¸Ñħ":4183,"Ð½Ð¸Ð¸":4184,"ĠÑĩÐµÑĢÐµÐ´":4185,"ĠÑĩÐ¸Ð½Ð¾Ð²":4186,"ÐŀÑĩ":4187,"Ð¾Ð½ÑıÑĤ":4188,"ÐļÐ¾Ð³Ð¾":4189,"ÐļÑĥÑĢ":4190,"ĠÑģÑĤÐ°Ð´":4191,"Ð¸Ð¼ÑĭÐ¼":4192,"ĠÐµÑħ":4193,"ÐĶÐµÑĤ":4194,"ĠÑĥÑĩÐ°ÑģÑĤ":4195,"ĠÑĥÑģÑĤÑĢÐµÐ¼":4196,"Ð¶ÐµÑĤ":4197,"Ð¾ÑĩÐ¸":4198,"ĠÑģÐ²ÐµÑĢ":4199,"ĠÑģÐ²Ð¸ÑĢÐµÐ¿":4200,"ÐŁÑĢÐ¾Ð¿":4201,"ÐľÐ¸Ð»":4202,"ÐľÐ°ÑĤ":4203,"ÐĳÐµÐ»":4204,"ÐĹÐ°ÑģÑĤ":4205,"ĠÐ²ÑģÐº":4206,"Ð¸ÐºÐµ":4207,"ÐĵÑĢÐ¾Ð¼":4208,"ĠÐ²ÑĭÐ²":4209,"ĠÑĪÐµÐ²":4210,"ĠÐ¡Ð°ÑĪÐ°":4211,"ĠÐĿÐ¸Ðº":4212,"ĠÑĤÑĢÑĥÐ´Ð°":4213,"ĠÐĴÐ¾Ð»":4214,"ĠÐĴÐ°Ñģ":4215,"ĠÐ¿ÐµÑĢÐµÑģÑĤ":4216,"ĠÐ²Ð¾Ð·ÑĮÐ¼":4217,"ÑĭÑĪÐµ":4218,"ĠÑģÐ²Ð¾Ðµ":4219,"ĠÐľÑĭ":4220,"ÑģÑĤÑĢÐµÐ±":4221,"Ð°ÑĪÑĥ":4222,"ĠÐļÐ¾ÑĩÑĥÐ±":4223,"Ð¢Ð°ÐºÐ°Ñı":4224,"ĠÐ½Ð°ÑģÐ»ÐµÐ´":4225,"ÐºÑĢÐµÑģ":4226,"ĠÐ²ÐµÑĢÑģÑĤ":4227,"ĠÐĹÐ»Ð°":4228,"ÐŁÐ¾ÑįÑĤ":4229,"ĠÑģÐ°Ð¼ÑĭÐ¹":4230,"Ð»Ð¸Ð²Ð°Ñı":4231,"ĠÐłÑĥÑģÑĮ":4232,"ĠÑģÐµÑĢÐ´ÑĨÑĥ":4233,"ÑĢÐµÐ´ÐµÐ»":4234,"ĠÐ²Ð´Ð°Ð»Ð¸":4235,"ĠÐ¿Ð¾Ð²ÐµÑĢ":4236,"ÑıÑīÐµÐ³Ð¾":4237,"ĠÐ·Ð½Ð°Ð¼":4238,"ĠÐ·Ð½Ð°Ð»Ð°":4239,"ĠÐ¼ÑĥÐ¶Ð¸ÐºÐ¾Ð²":4240,"ĠÐ±ÐµÐ´Ð½ÑĭÐ¹":4241,"ĠÑĨÐ°ÑĢÑı":4242,"ĠÑģÐ¾Ð±Ð¾Ñİ":4243,"ĠÑģÐ¾Ð±ÑģÑĤÐ²ÐµÐ½Ð½Ð¾Ð¹":4244,"ĠÐ²Ð¿Ð¾Ð»Ð½Ðµ":4245,"ĠÐ¼Ð¾Ð»Ð¾Ð´ÑĭÑħ":4246,"ĠÑĥÐ³Ð¾Ð»":4247,"ĠÐ¯ÐºÐ¾Ð²":4248,"ĠÐ³Ð»ÑıÐ´ÑıÑĤ":4249,"ĠÐ¸ÑģÐ¿Ð¾Ð»Ð½":4250,"ĠÑģÑĤÑĢÐ°ÑĪÐ½Ð¾":4251,"ĠÐ·Ð¾Ð»Ð¾ÑĤÐ¾Ð¼":4252,"ĠÐ¿Ð¾Ð½ÑıÑĤÑĮ":4253,"ĠÑīÐµÐº":4254,"ĠÐ´Ð¾ÑĢÐ¾Ð³Ð°":4255,"Ð°ÑĤÐµÐ»ÑĮÐ½Ð¾":4256,"ĠÑģÑĤÐ°Ð½Ð¾Ð²":4257,"ĠÐ²Ð°ÑĪÐ¸":4258,"ĠÐ¡Ð°ÑĤÐ°Ð½Ñĭ":4259,"ĠÐ´Ð¾Ð»Ð¶Ð½Ð¾":4260,"ĠÐ±ÐµÑĢÐµÐ³Ð¾Ð²":4261,"ĠÑĢÑĥÑģÑģÐºÐ¸Ðµ":4262,"ĠÐ¿ÑĢÐ¸Ð½ÐµÑģ":4263,"ÐĶÑĢÑĥÐ³Ð¾Ð¹":4264,"ĠÑĩÐ°ÑģÑĤÑĮ":4265,"ĠÐ±Ð¾Ð»Ðµ":4266,"ĠÑĢÐ°Ð²Ð½":4267,"ĠÐ³ÐµÑĢÐ¾Ñı":4268,"ĠÐ·Ð°ÑģÑĤÐ°Ð²":4269,"ĠÐ±ÑĭÑģÑĤÑĢÐ¾":4270,"ĠÐ½ÐµÐºÐ¾Ð³Ð´Ð°":4271,"ĠÐ±Ð¸ÑĤÐ²Ñĭ":4272,"ĠÑĢÐ¾ÐºÐ¾Ð²Ð¾Ð¹":4273,"ĠÐ¿Ð¾ÑįÑĤÐ°":4274,"ĠÑĤÑĢÐµÐ²Ð¾Ð¶":4275,"ÐĴÐ¾Ð»ÑĪÐµÐ±":4276,"ĠÐ»ÑİÐ±Ð¾Ð²ÑĮÑİ":4277,"ĠÐ½Ð°Ð´ÐµÐ¶Ð´Ñĭ":4278,"ĠÑħÐ²Ð¾ÑģÑĤ":4279,"ĠÐ¼ÐµÑģÑıÑĨ":4280,"ĠÐ¡Ð°Ð»ÑĤÐ°Ð½":4281,"ĠÐ·Ð°Ð²ÑĤÑĢÐ°":4282,"ĠÐ³ÐµÑĤÐ¼Ð°Ð½":4283,"ÑĢÐ¾Ð¶":4284,"Ð½ÑĳÑģ":4285,"Ð»Ð¸Ð»":4286,"Ð»Ð¾Ð±":4287,"Ð»ÑĭÐµ":4288,"Ð»ÑĳÐº":4289,"ÑĭÑĤÐ¾":4290,"ÑĭÑĢÑı":4291,"ÑıÐº":4292,"ÑıÑĤÐ¾":4293,"ĠÑģÑĥÑĪ":4294,"ĠÑģÐ¸ÑĢ":4295,"ĠÑģÐµÐ»Ð¾":4296,"ĠÑģÑĬ":4297,"ĠÐ¿ÐµÑĪ":4298,"ĠÐ¿Ð¾Ð»ÑĮÐ·":4299,"ĠÐ²Ð¾ÑĢÐ¾Ð½":4300,"ĠÐ½ÐµÐ·ÑĢ":4301,"ÑĪÐµÐ¼Ñĥ":4302,"ÐµÐ½ÑĭÐ¹":4303,"ĠÐ¾ÑĤÐ¾":4304,"ĠÐ´Ð¾Ð½":4305,"ĠÐ´Ð¸ÐºÐ¸":4306,"Ð¾Ð²Ð¾":4307,"ĠÐ¼Ð¸Ð½Ñĥ":4308,"ĠÐ¼ÑĥÐºÐ¸":4309,"ÐµÑĢÐºÐ¾Ð²":4310,"Ð¾ÑĢÐ²":4311,"ÐµÐ»ÐµÐ½Ð½Ð¾Ð¹":4312,"Ð¸ÑĤÐµÐ»ÐµÐ¹":4313,"ĠÐ·ÐµÑĢÐº":4314,"ÐĺÑģÑĤ":4315,"ÐĺÐ³ÑĢ":4316,"ÐĺÐĿÐ¯":4317,"ÐµÐ¼ÑģÑı":4318,"ÐµÐ¼Ð»ÐµÑĤ":4319,"ĠÑĢÐµÐ´":4320,"ĠÑĢÐ¾Ð¿":4321,"ĠÑĢÑĭÐ´":4322,"ĠÐ¿ÑĢÐ¾Ð²Ð¾ÑĢ":4323,"ĠÐ¿ÑĢÐ¾Ð¹Ð´":4324,"ÐŁÐ¾Ð¹":4325,"ÐŁÐ¸ÑĤ":4326,"ÐŁÐ°Ð´":4327,"ÐŁÐ¾ÑģÐº":4328,"Ð¡Ñĭ":4329,"Ð¡Ð°Ð´":4330,"Ð¡ÑĥÑĢÐ¾Ð²":4331,"Ð±Ð°":4332,"Ð±Ð¾Ð¼":4333,"Ð±Ð°ÑĤ":4334,"ÑĨÐµÐ½":4335,"Ð¾ÑĤÐµÐ»":4336,"Ð°Ð¼ÐµÑģÑĤ":4337,"ĠÐ»Ð¾Ð±":4338,"Ð°Ð²Ð½ÑĭÐ¹":4339,"Ð°Ð½Ð¾Ð¼":4340,"ĠÑĩÐµÐ¹":4341,"ÐµÑģÐ¸Ð»ÑĮ":4342,"Ð¸Ð½ÐºÐ¸":4343,"ÐļÐ¾Ñģ":4344,"ÐļÐ»Ñı":4345,"ÐļÐĿÐ¯":4346,"ĠÑģÑĤÐµÐ·":4347,"ĠÐ½Ð°ÑģÑĤÑĥÐ¿":4348,"Ð¾Ð±Ð¾Ð¹":4349,"ÑĥÐ´Ð¾Ð²Ð°":4350,"Ð¸Ð²Ð°":4351,"ĠÐ¶ÐµÐ½Ð°":4352,"ÑĥÑĤÐºÐ¸":4353,"ÐµÐ²Ð½Ð°":4354,"ÐĶÐ²Ð¾ÑĢ":4355,"ĠÑĥÐ²ÐµÑĢ":4356,"Ð¾ÑĩÐ½ÑĭÐ¹":4357,"ÐºÐ°ÑİÑĤ":4358,"ĠÐ¾ÑĤÑģ":4359,"ĠÐ¾ÑĤÐ²Ð¾ÑĢ":4360,"ÐµÐºÐ»Ð¾Ð½":4361,"Ð»ÑıÐµÑĤÑģÑı":4362,"ÐľÐ°ÑĤÑĮ":4363,"ÐĳÐ¾":4364,"ÐĳÑĥÑĢ":4365,"Ð°Ð¶ÐµÑĤ":4366,"Ð£Ð³ÑĢ":4367,"ÐĲÐ¹":4368,"ÐĵÐĺÐĿÐ¯":4369,"ÐµÐ»ÑĮÑı":4370,"ÐµÐ»ÑĮÑī":4371,"ĠÐ¿Ð¾Ð´Ð²":4372,"ĠÐ¿Ð¾Ð´ÑĩÐ¸Ð½":4373,"ĠÑĪÐ»Ð°":4374,"ĠÐ¡Ð°Ð²":4375,"ĠÐ¡ÐµÑĢÐ°":4376,"ĠÐ¡ÐµÑĢÐ³":4377,"ĠÑģÐºÐ¾Ð»ÑĮ":4378,"Ð¸ÑĪÐºÐ¸":4379,"ĠÐ¿Ð¾Ð»Ð¾Ð½":4380,"ĠÐ¿Ð¾Ð»ÑİÐ±":4381,"ĠÐĴÐ»Ð°Ð´":4382,"ĠÐĴÐ¾Ð¶Ð´":4383,"ÐĽÐµÑģ":4384,"ÐĽÐ¸ÑĨ":4385,"ĠÑģÐ¼ÐµÑĪ":4386,"ĠÐŁÐ¾Ð´":4387,"ĠÐ»Ð¸ÑĨÐ¾Ð¼":4388,"ĠÐ²Ð·Ð²":4389,"ĠÐ¼Ð¾Ð»ÑĩÐ¸ÑĤ":4390,"ĠÐ°ÑĢÐ¾Ð¼":4391,"Ð¸ÑıÑħ":4392,"Ð¾ÑĪÐ»Ð¸ÑģÑĮ":4393,"ĠÐĶÐ¾Ð±ÑĢ":4394,"Ð¡ÑĤÑĢÐ°Ð´":4395,"ĠÑģÐ²Ð¾ÐµÐ¼":4396,"ÑĳÐ½Ð½Ð¾Ðµ":4397,"ÐŁÐ¾Ð´ÑĥÐ¼":4398,"ĠÐ²ÑĢÐµÐ´":4399,"ĠÐ²Ð¸Ð´Ñĥ":4400,"Ð»Ð¸Ð²Ð¾Ð¹":4401,"ĠÐ´ÑĢÑĥÐ³Ð¾Ð¼":4402,"ĠÐłÐ°Ñı":4403,"ĠÑģÑĤÑĢÐ°ÑģÑĤÑĮ":4404,"ĠÑĥÑĤÑĢÐ¾Ð¼":4405,"ÐµÑģÑĤÐ²Ðµ":4406,"ĠÐ¾Ð³Ð½":4407,"ĠÐ¾Ð³Ð½Ñı":4408,"ĠÐ±ÐµÑģÐºÐ¾Ð½":4409,"ĠÑģÐ»Ð°Ð²Ð¾Ð¹":4410,"ĠÐ±Ð¾Ð»ÑĮÑĪÐ°Ñı":4411,"ÐŀÐ´Ð½Ð¾":4412,"ÐŁÐ¾ÐºÐ»Ð¾Ð½":4413,"ĠÐ½ÐµÐ²Ð·":4414,"ĠÐ½ÐµÐ²Ð¸Ð½":4415,"ĠÐ½ÐµÐ´Ð¾ÑģÑĤ":4416,"ĠÐ±Ð°ÑĢÐ¸Ð½Ñĥ":4417,"ĠÐ·Ð°Ð²Ð¸Ð´":4418,"ĠÐ¿ÐµÑĩÐ°Ð»":4419,"ĠÐ¿Ð¾Ð¿ÑĢÐ°Ð²":4420,"ĠÐ²ÑĭÑģÐ¾ÑĤÑĭ":4421,"ÐĳÐµÐ·Ð¼ÐµÑĢ":4422,"ĠÐ²ÐµÑĤÐ²ÐµÐ¹":4423,"ĠÐ²Ð¾ÑĤÑĩ":4424,"Ð¨Ð¸ÑĢ":4425,"ĠÐ½ÐµÐ±Ð¾Ñģ":4426,"ĠÐ½Ð¾Ð³Ð°Ð¼":4427,"ĠÑīÐ¸ÑĤ":4428,"ĠÐ´Ð¾ÑĢÐ¾Ð³Ðµ":4429,"ĠÑģÑĢÐ°Ð·":4430,"ĠÑģÑĢÐ°Ð¶":4431,"ĠÐºÐ°Ð¶Ð´ÑĭÐ¼":4432,"ĠÐ´Ð²Ð¾ÑĢÐ°":4433,"ĠÐ½Ð¸ÐºÐ¾Ð³Ð¾":4434,"ĠÐ±Ð»Ð¸Ð¶":4435,"ĠÑģÑĤÐ°Ð½ÐµÑĤ":4436,"ĠÐºÐ»ÐµÐ²":4437,"ĠÐĴÑģÐµ":4438,"ĠÑģÐµÐ´Ð¾Ð¹":4439,"ĠÑģÐ½ÐµÐ³Ñĥ":4440,"ĠÑĢÐµÑĩÐµÐ¹":4441,"ĠÐ¤ÐµÐ´":4442,"ĠÐ¼ÐµÑĢÐµ":4443,"ÐºÐ¾ÑĢÐµÐ¹":4444,"ĠÐ´Ð¾Ð²Ð¾Ð»ÑĮ":4445,"ÑĢÐ¾Ð½ÑĤ":4446,"ÑĳÑĢÑĤ":4447,"ĠÐ¿Ð¾ÑĪÐ»Ð°":4448,"ĠÐ´Ð¾ÑģÐµÐ»ÑĮ":4449,"Ð¢Ð²Ð¾Ð¸":4450,"ĠÑĩÐµÐ»Ð¾Ð²ÐµÐºÐ°":4451,"ĠÐ¼Ð°ÑĤÐµÑĢ":4452,"ĠÑĢÑĭÐ±ÐºÐ°":4453,"ĠÐ¦Ð°ÑĢÑĮ":4454,"ĠÐ¿ÑĢÐ¾Ð±ÑĥÐ´":4455,"ĠÑĤÐµÑĢÐµÐ¼":4456,"Ð£ÑĤÑĢÐ°ÑĤ":4457,"ĠÐ¿ÑĤÐ¸ÑĨÑĭ":4458,"ÐļÐ¾Ð»Ð¸":4459,"ĠÑĤÑĮÐ¼Ñĭ":4460,"ĠÐ¾Ð±Ð»Ð°ÐºÐ°":4461,"ÐŁÑĢÐ¸ÑĪÐµÐ»":4462,"ĠÑĥÐ¼ÐµÑĢÐµÑĤÑĮ":4463,"ÐĶÑĢÑĥÐ·":4464,"ĠÐ·Ð²ÐµÐ·Ð´Ñĭ":4465,"ĠÐ¼Ð½Ð¾Ð¶ÐµÑģÑĤÐ²Ð¾":4466,"ĠÐ±ÑĭÐ²Ð°Ð»Ð¾":4467,"ĠÑĤÑĢÐµÑĤÐ¸Ð¹":4468,"ÐĳÐ°ÑĢÐ¸Ð½":4469,"Ð°ÑĢÐ»Ð°ÑĦ":4470,"ÐļÐĿÐ¯ÐĵÐĺÐĿÐ¯":4471,"Ð°ÑīÐµ":4472,"Ð¸ÑĨÐµ":4473,"ÑģÐµÐ³Ð´Ð°":4474,"ÑĢÐ¾Ð·":4475,"ÑĢÑĥÐ·":4476,"Ð½Ð¸ÑĤ":4477,"Ð½ÑĮÐµ":4478,"ÑĭÐ»Ð¾":4479,"ÑıÐ½Ð¾Ð¹":4480,"ĠÑģÑĥÐµÑĤ":4481,"ĠÑģÑħÐ²Ð°ÑĤ":4482,"ĠÐ¿ÐµÐ»":4483,"ĠÐ¿ÐµÑħ":4484,"ĠÐ²Ð»Ð°Ð¶":4485,"Ð´ÑĢÑĥÐ³":4486,"ĠÑĤÐ¾Ð½":4487,"Ð¾Ð»Ð¾Ð¼":4488,"ĠÐ´Ð°ÑģÑĤ":4489,"ĠÐ´ÑĭÑħ":4490,"ĠÐ´ÑıÐ´":4491,"Ð¾Ð²Ð¾Ð¼":4492,"ĠÐ±ÐµÐ¶Ð°Ð»":4493,"ĠÐ¼ÑĥÐ´":4494,"ĠÐºÐ»Ð¸":4495,"Ð¸ÑĤÐµÐ»Ð¸":4496,"Ð¾Ð´Ð¾Ð¹":4497,"ÐĿÐ¾Ñģ":4498,"ÐĿÐ°Ð·":4499,"ÐĿÐ°Ð³":4500,"ÐĿÐ¾ÑĩÑĮ":4501,"ÐĺÐ´":4502,"ÐŁÐ°ÑĢ":4503,"ÐĴÐ¾ÑģÐ¿":4504,"Ð±Ð»":4505,"Ð¾ÑĤÑĢÐ¸":4506,"ĠÐ»Ð¸Ñĩ":4507,"ÑīÐ¸Ðµ":4508,"ĠÑĩÐµÐ»Ð¾Ð²ÐµÑĩ":4509,"ÐµÑģÐºÐ¸Ð¹":4510,"Ð¾Ð½Ðµ":4511,"ÐļÐ°ÑĢ":4512,"ÐļÐ¸Ð¿":4513,"ÐļÐ½ÑıÐ¶":4514,"ĠÑģÑĤÐ²Ð¾Ð»":4515,"ĠÐ½Ð°Ñħ":4516,"Ð¢ÑĥÐ´Ð°":4517,"Ð¢ÑıÐ¶":4518,"ÑĥÐ´ÐµÑĤ":4519,"ĠÐ¶Ð°Ð´Ð½Ð¾":4520,"Ð¸Ð¼Ð°":4521,"ĠÑĥÐµÐ´Ð¸Ð½":4522,"ÐµÐ·Ð°ÑĢ":4523,"Ð¾ÑĩÐ¸ÑĤ":4524,"ÐµÑĩÐºÐ°":4525,"ÐŁÑĢÐ¾Ð·":4526,"ÐŁÑĢÐ¸Ðº":4527,"ĠÐºÑĢÑĥÑĩ":4528,"ĠÐºÑĢÑĭÐ»Ð°":4529,"ĠÑģÐ»Ð¾Ð¶":4530,"Ð¾Ð³Ð¾Ñİ":4531,"ÐľÐ¾Ð¶ÐµÑĤ":4532,"Ð½ÐµÐµÑĤ":4533,"ÐĳÑĥÐ´ÑĮ":4534,"ÐĳÑĭÐ²Ð°Ð»Ð¾":4535,"ÐĵÑĢÐµÐ¼":4536,"ÑĥÑĩÐ¸Ñħ":4537,"ĠÐ¡Ðº":4538,"ĠÐ¡Ð¾Ð»Ð½":4539,"ĠÑģÐºÑĢÐ¾Ð¼":4540,"ÐĿÐ°ÑģÑĤ":4541,"Ð¾ÑİÑĤ":4542,"ĠÑĢÐ°Ð·Ð¾Ð¼":4543,"ĠÐ¿Ð¾Ð»Ð°Ð³":4544,"ÐłÐµÐ±":4545,"ĠÐ¢Ð²Ð¾Ð¹":4546,"ĠÐ·Ð°ÑĪ":4547,"ÐŀÑĤÐ¿":4548,"ĠÑįÑĦÐ¸ÑĢ":4549,"ĠÐŁÐ¾ÑģÐ»ÐµÐ´":4550,"Ð»Ð¾Ñħ":4551,"ĠÐ±ÐµÐ·Ð¼Ð¾Ð»Ð²":4552,"ĠÑĨÐµÐ»Ð¸":4553,"ĠÑĤÐ°ÐºÐ¶Ðµ":4554,"ÑĥÑģÑĤÑĮ":4555,"ĠÐ¿Ð»ÐµÐ¼":4556,"ĠÐ²Ð¾Ð·Ð·":4557,"ĠÐ¾Ð´Ð½Ð°ÐºÐ¾":4558,"Ð°Ð»ÑĮÐ½Ð¾":4559,"ĠÐ±ÑĢÐ¾Ð´Ð¸ÑĤ":4560,"Ð¸ÑģÑĤÐ¾Ð¹":4561,"ĠÐĶÐµÐ½ÑĮ":4562,"ĠÐ»ÑİÐ±Ð¸ÑĤÑĮ":4563,"ĠÐĵÐ°Ð²":4564,"ĠÐ´ÑĢÐ¾Ð²":4565,"ĠÐ²ÑĢÐ°ÑĤ":4566,"ĠÑįÑĤÐ¾Ð³Ð¾":4567,"ĠÐ¿ÑĢÐµÐ´ÑģÑĤ":4568,"Ð¸Ð½ÑĥÐ»Ð¸ÑģÑĮ":4569,"ĠÐĹÐ°":4570,"ĠÐ²Ð¾Ð»Ð½Ñĥ":4571,"Ð¸ÑĤÐµÐ»ÑĮÐ½ÑĭÐ¼":4572,"ĠÑĢÐ¾Ð´Ð°":4573,"ĠÑĢÐ¾Ð´Ð¸Ð¼":4574,"ĠÐłÐ°Ð·":4575,"ĠÐ¿Ð¾Ð¼Ð¾ÑĩÑĮ":4576,"ÐµÑĤÑĮÑģÑı":4577,"ÐĸÐ¸Ð·":4578,"ĠÐ¿ÑĢÐ°Ð²Ð°":4579,"ĠÐ¿ÑĢÐ°Ð²ÑĭÐ¹":4580,"ĠÐ±Ð»Ð°Ð³Ð¾":4581,"ĠÐ¶Ð¸Ð²ÑĭÐµ":4582,"ĠÐ¾ÑģÐ½Ð¾Ð²":4583,"ĠÐ·Ð°Ð±ÑĭÐ»":4584,"ÑĢÑıÐ¶":4585,"ĠÐĳÐ¾Ð³Ð¾Ð¼":4586,"ĠÐ¼Ð¸Ð»Ð¾ÑģÐµÑĢÐ´":4587,"Ð¡Ð¿ÑĢÐ¾Ñģ":4588,"ÑĢÐ°ÑģÑģÑĥÐ´":4589,"ĠÐ±Ð¾Ð³Ð¾Ð²":4590,"ĠÐ²Ð¾Ð¹Ð½Ñĥ":4591,"ĠÐ´ÑĥÐ¼Ð°Ð»Ð°":4592,"Ð£Ð¶Ð°Ñģ":4593,"ĠÐ²Ð¾Ð´Ð¾Ð¹":4594,"ĠÐ¼Ð¾Ð»Ð¾Ð´ÑĭÐµ":4595,"ĠÐ¿ÑĢÐ¾ÑģÑĤÐ¾Ð¹":4596,"ĠÐ½Ð¾Ð²ÑĭÐµ":4597,"ĠÐ³Ð¾Ð²Ð¾ÑĢÑıÑĤ":4598,"ÐłÐ°Ð·Ð²":4599,"ĠÑĥÐ¿Ð°Ð»":4600,"ĠÐ±ÐµÑĢÐµÑĤ":4601,"ÑĥÐ²ÑģÑĤÐ²":4602,"Ð½ÑĥÑĤÑĮÑģÑı":4603,"Ð¸Ð»ÑĮÐ½Ð¾":4604,"ĠÑĢÐ°Ð±Ð°":4605,"ĠÐ¶ÐµÐ½Ð¸Ñħ":4606,"ĠÑģÑĭÐ½Ñĭ":4607,"Ð¾ÑĤÑĢÐµÐ±":4608,"ĠÐ¸ÑģÐºÑĥÐ¿":4609,"ĠÑĤÐ¾Ð»ÐºÑĥ":4610,"ĠÐ³ÑĢÐ¾Ð·Ð½ÑĭÐ¹":4611,"ĠÐ·Ð¾Ð»Ð¾ÑĤÐ¾":4612,"ĠÐ·Ð¾Ð»Ð¾ÑĤÑĭÐµ":4613,"ĠÐ³Ð»ÑĥÐ±Ð¸Ð½Ðµ":4614,"Ð¡Ð²Ð¾Ð±":4615,"ĠÐºÐ°Ð¶Ð´Ð¾Ð³Ð¾":4616,"Ð¦ÐµÐ»":4617,"ĠÑĤÐ²Ð°ÑĢ":4618,"ÐĴÐ¾Ð·Ð½Ð¸Ðº":4619,"ĠÐ±Ð»Ð¸Ð¶Ðµ":4620,"ĠÑĥÑģÑĤÐ°":4621,"ĠÐ¼Ð°Ð»ÑĭÐ¹":4622,"ĠÐ¾ÑĢÐ´":4623,"ĠÐ¼Ð¾Ð»ÑĩÐ°Ð½ÑĮÐµ":4624,"ĠÐ²Ð¾ÑģÑģ":4625,"ĠÐ²Ð¾ÑģÐºÑĢÐµÑģ":4626,"ĠÐ±ÑĥÑĢÑı":4627,"ĠÐ³Ð¾Ð»Ð¾ÑģÐ¾Ð¼":4628,"ĠÐ¿ÑĢÐ¸Ð·ÑĢÐ°Ðº":4629,"ĠÑģÑĥÐ´ÑĮÐ±Ñĥ":4630,"ĠÐŀÑĤÑĨÐ°":4631,"ĠÐŀÑĤÐµÑĨ":4632,"ÐļÐ¾ÑĤÐ¾ÑĢÑĭÐ¹":4633,"ĠÐĶÑĥÑħÐ¸":4634,"ĠÑĢÐ°Ð²Ð½Ð¸":4635,"Ð¼ÑĭÑģÐ»":4636,"ĠÐ³ÑĢÐ¾Ð±Ð°":4637,"ĠÐ¿ÑĢÐ¸Ð¼ÐµÑĢ":4638,"ÐĹÐ°ÑĤÐµÐ¼":4639,"ĠÐ¾ÑĤÐºÑĢÑĭÑĤ":4640,"ĠÐ³Ð¾ÑģÐ¿Ð¾Ð´Ð°":4641,"ĠÐ²ÑģÐ¿ÑĭÑħ":4642,"ĠÐºÐ°Ð¼ÐµÐ½ÑĮ":4643,"ĠÐ³Ð»Ð°Ð²Ñĥ":4644,"ÐĵÐ»ÑıÐ´Ð¸":4645,"ĠÑĩÐµÑĢÑĤÑĭ":4646,"ĠÐ¼Ð³Ð»Ðµ":4647,"ĠÐ¿ÑĢÐ¸ÑĪÐµÐ»":4648,"ĠÑĥÑģÐ»ÑĭÑĪ":4649,"ĠÑģÑĤÑĢÐµÐ¼ÑıÑģÑĮ":4650,"ĠÐ»ÑĥÐ³Ð°":4651,"ĠÐ¿ÑĤÐ¸ÑĨ":4652,"ÐŀÐ³ÑĢÐ¾Ð¼":4653,"ĠÐ²ÐµÐ»Ð¸ÑĩÐ°Ð²":4654,"ĠÐ¾ÑĤÑĩÐ°ÑıÐ½":4655,"ĠÐ¸Ð·Ð´Ð°Ð»ÐµÐºÐ°":4656,"ĠÐ³Ð¸Ð±ÐµÐ»ÑĮ":4657,"ĠÐ¿ÑĢÐ¾ÑħÐ»Ð°Ð´":4658,"ĠÐ¾Ð²ÑĢÐ°Ð³":4659,"Ð»ÑıÐ»ÑģÑı":4660,"ÐĶÐ¾ÑĢÐ¾Ð³Ð°":4661,"ĠÐ´Ð¾ÐºÐ°Ð·":4662,"ĠÐ¿ÑĢÐµÐ»ÐµÑģÑĤ":4663,"ĠÐ¡ÑĭÐ½Ð°":4664,"ĠÐĶÑĢÐµÐ²Ð°":4665,"ÑĢÐ¾ÑĩÐµÐ¼":4666,"ĠÐ´ÐµÑģÑıÑĤÑĮ":4667,"Ð¥Ð¾ÑĢÐ¾ÑĪÐ¾":4668,"ĠÑĤÑİÑĢÑĮÐ¼":4669,"ĠÑģÐºÐ°ÑĤÐµÑĢÑĤ":4670,"Ð»Ð¸ÑĪÐºÐ¾Ð¼":4671,"ÐļÑĢÑĥÐ³Ð¾Ð¼":4672,"ĠÐ¡ÐµÑĢÐ°ÑĦÐ¸Ð¼":4673,"ĠÐ½ÐµÐ±Ð¾ÑģÐ²Ð¾Ð´":4674,".âĢĶ":4675,"ÐµÐµÑĪÑĮ":4676,"ÑĤÐ¾Ð²":4677,"Ð¸Ð½Ð¾Ñİ":4678,"ÑĢÐ¾Ð²ÑĮ":4679,"ĠÑģÑģ":4680,"ĠÑģÑĩ":4681,"ĠÑģÐµÐ½":4682,"ĠÑģÐµÑĤ":4683,"ĠÑģÐ¶":4684,"ĠÑģÐµÐ»ÑĮ":4685,"ĠÑģÐ¾Ñİ":4686,"ĠÑģÑħÐ¾Ð´":4687,"ĠÑģÑĥÐ»":4688,"ĠÑģÐ»Ð¸ÑĪÐºÐ¾Ð¼":4689,"ĠÐ¿ÑĮÐµÑĤ":4690,"ĠÐ½ÑĥÐ¶Ð´":4691,"ÐµÐ½ÐºÐ¸":4692,"ĠÑĤÐµÐ»Ð°":4693,"ÐµÑĤÐµÐ»":4694,"Ð¾Ð»Ð°":4695,"ĠÐ´Ð°ÑĤÑĮ":4696,"ĠÐ¸Ð³ÑĢÐ°":4697,"ĠÐ¸ÑģÑĤÑĢÐµÐ±":4698,"Ð¾Ð²Ñī":4699,"ĠÐ±Ð°Ð±Ñĭ":4700,"ĠÐ¼ÐµÐ»":4701,"ĠÐ¼Ð¸Ð½ÑĥÐ²":4702,"ĠÐºÐ°Ð½":4703,"ĠÐºÐ°Ñģ":4704,"ĠÐºÑĥÑī":4705,"ĠÐºÐ°Ñĩ":4706,"ĠÐºÐ°Ð·Ð°Ð»Ð¾ÑģÑĮ":4707,"ĠÐºÐ°Ð¶ÐµÑĤÑģÑı":4708,"Ð¾ÑĢÑĥ":4709,"Ð¸ÑĤÐ¾Ð¹":4710,"Ð¾Ð¼Ð°Ð½":4711,"ĠÐ·Ð¾ÑĢ":4712,"ÐµÐ¼ÑĥÐ´ÑĢ":4713,"ĠÐ¿ÑĢÑĭÐ³":4714,"ÐŁÐ¾ÑģÐ¿":4715,"Ð°ÐºÐ¾Ð¼":4716,"Ð¡Ð´":4717,"Ð¡ÐµÐ¼":4718,"Ð¡Ð»Ð°Ð´":4719,"Ð¡ÐµÐ³Ð¾Ð´Ð½Ñı":4720,"ÑĨÐ¾":4721,"ÑĨÐ°ÑĢ":4722,"Ð³Ð¾Ð´":4723,"ĠÐ»Ð¾Ð¼":4724,"ĠÐ»ÐµÐ²":4725,"ÐµÐ´Ð»Ð¸Ð²":4726,"Ð°Ð²ÑĪÐ¸":4727,"Ð°Ð´ÐºÐ¾Ð¹":4728,"ÐµÑģÐµÐ»":4729,"ÐµÑģÐºÐ¾Ð¹":4730,"Ð¸Ð½Ð°Ð¼Ð¸":4731,"Ð¾Ð½Ð½ÑĭÐ¹":4732,"ÐļÐ½ÑıÐ³Ð¸Ð½Ñı":4733,"ĠÑģÑĤÐµÐº":4734,"ĠÑģÑĤÐ¾Ð»ÑĮÐºÐ¾":4735,"Ð¢Ð¾Ð¹":4736,"Ð¢Ð¸Ñħ":4737,"ÑĥÐ´Ð¸ÑĤ":4738,"Ð¸Ð²Ð°Ð¹":4739,"Ð½Ð°ÑĩÐµ":4740,"ÐĶÐµÐ½ÑĮ":4741,"ĠÑĥÐºÐ¾ÑĢ":4742,"Ð¾ÑĩÐºÐ¾Ð¹":4743,"Ð¾ÑĩÐºÐµ":4744,"ÐºÐ°ÐµÑĤÑģÑı":4745,"ÑĥÐ¶Ð¸":4746,"ĠÐ¾ÑĤÑĨÐ¾Ð¼":4747,"ĠÐ¾ÑĤÑĨÐ¾Ð²":4748,"ÐŁÑĢÐ¾Ð³":4749,"ÐŁÑĢÐ¾Ð½":4750,"ÐŁÑĢÐ¸ÑģÑĤ":4751,"ĠÐºÑĢÐ¾Ð¼":4752,"ĠÑħÐ²Ð¾ÑĢ":4753,"ÐľÐµÐ´":4754,"ÐľÐ¸Ð¼Ð¾":4755,"Ð¾Ð»ÑĮÐ½ÑĭÐ¹":4756,"ÐĳÐ¾ÑĢ":4757,"ÐµÐ¶Ð½Ð¾":4758,"ÐµÐ¶Ð°Ð»Ð¸":4759,"ĠÐ¾Ð±Ð²":4760,"ĠÐ¾Ð±Ð»ÐµÐ³":4761,"ĠÐ¿Ð¾Ð´Ð°ÑĢ":4762,"ĠÐ²ÑĭÑħÐ¾Ð´":4763,"ĠÐºÐ°ÐºÐ¾Ðµ":4764,"ĠÐ¡Ð°Ð¼":4765,"ÑĮÑıÐ½":4766,"ÑĮÑıÐ¼":4767,"ĠÑģÐºÑĢÑĭÐ»":4768,"ĠÑĢÐ°Ð·Ð¼":4769,"ĠÑĤÑĢÐµÐ±":4770,"ĠÑĤÑĢÐµÑī":4771,"ĠÑĤÑĢÐµÑĤÑĮ":4772,"ĠÐĴÑĭ":4773,"Ð¸Ð»Ð¸Ð¿Ð¿":4774,"ĠÐ¢ÐµÐ±Ðµ":4775,"ĠÐ¢Ð°Ð½Ñı":4776,"ĠÑģÐ¼ÑıÑĤ":4777,"ÐµÑħÐ°Ð»Ð¸":4778,"Ð»Ð¾ÑĪ":4779,"ĠÐ²Ð·ÑıÐ»":4780,"ÐĴÑģÐµÐ³Ð¾":4781,"ÑĥÑģÑĤÐ¸Ð»":4782,"ĠÐ¿ÐµÑĢÑģÑĤ":4783,"ĠÐ¾Ð´Ð¾Ð»":4784,"ĠÐĲÐ»":4785,"ĠÐĲÐ´Ñĥ":4786,"ĠÐ±ÑĢÐ¾Ð´":4787,"ĠÐ±ÑĢÐµÐ´":4788,"ĠÐĵÐ´Ðµ":4789,"Ð¡ÑĤÑĥÐ¿":4790,"ĠÐľÐ°ÑĤ":4791,"ĠÐľÐµÐ¶":4792,"ĠÐľÑĥÐ·":4793,"ĠÐ½Ð°ÑĪÐ¸Ð¼":4794,"ĠÑģÑĤÐ°ÑĢÐ¸ÐºÐ°":4795,"ĠÑĢÐ°ÑģÑģÑĤ":4796,"Ð¸Ð³Ð¾ÑĢ":4797,"ĠÑģÐ°Ð¼Ð¾Ð³Ð¾":4798,"ĠÐ½ÐµÑĤÑĥ":4799,"ĠÐºÐ¾Ð½Ðµ":4800,"ĠÑģÑĤÑĢÐ°Ð½Ñĭ":4801,"ĠÐ½Ð¾ÑĩÐ»ÐµÐ³":4802,"ÐĸÐ°Ð»":4803,"ÐĸÐµÐ½Ð°":4804,"ĠÐ¿Ð¾Ð²ÐµÐ´":4805,"ĠÑĨÐ°ÑĢÑģÑĤÐ²Ð¾":4806,"ĠÐ¼Ð¸Ð»Ð¾ÑģÑĤÐ¸":4807,"ĠÑĥÐ´ÐµÑĢÐ¶":4808,"Ð¡Ð¿ÐµÑĪ":4809,"ĠÐ¿Ð¾Ð³ÑĢÑĥÐ¶":4810,"Ð½ÑĮÐµÐ¼":4811,"ĠÐ¿Ð¾ÑģÑĢÐµÐ´":4812,"ĠÐ·Ð°Ð²ÐµÑĢÑĪ":4813,"ĠÑģÐ½ÐµÐ¶":4814,"ĠÐ¿Ð¾Ð¿Ð°Ð´":4815,"ĠÐ·Ð°Ð¼ÐµÑĩ":4816,"ÐĳÐµÐ·Ð¼Ð¾Ð»Ð²":4817,"ĠÐ½Ð°Ð²ÑģÐµÐ³Ð´Ð°":4818,"ĠÑĥÐ¿ÑĢÐ°Ð²":4819,"ĠÐ¿Ð¾ÑģÑĤÐ°Ð²":4820,"ĠÐ²ÐµÐ»Ð¸ÑĤ":4821,"ĠÐ¿ÑĢÐ¸Ð²ÑĭÐº":4822,"ĠÐ»ÑĥÑĩÐµÐ¹":4823,"ĠÐĳÐ¾Ð¶ÐµÑģÑĤÐ²Ð°":4824,"ĠÑĤÑĢÑĥÐ´Ð½Ð¾":4825,"ĠÐ¸ÑģÐºÑĥÑĪ":4826,"ĠÐ½Ð°ÐºÐ»Ð¾Ð½":4827,"ĠÑĥÐ±Ð¸ÑĤ":4828,"ĠÐ³Ð»ÑıÐ´ÐµÐ»":4829,"ĠÐ²Ð¾Ð·Ð´Ð²Ð¸Ð³":4830,"ĠÐ¾ÑģÑĤÐ°Ð»ÑĮ":4831,"ĠÐ¾ÑģÑĤÐ¾ÑĢÐ¾Ð¶":4832,"ĠÐ´Ð¾ÑĢÐ¾Ð³Ð¾Ð¹":4833,"ÐĴÐ·Ð³Ð»Ñı":4834,"Ð°Ð»ÐµÐºÐ¾":4835,"Ð°Ð»ÐµÐºÐµ":4836,"ĠÑĥÑģÑĭ":4837,"ĠÐ³Ð¾ÑĢÐ´ÑĭÐ¹":4838,"ÐłÐ°ÑģÑģ":4839,"ÐłÐ°ÑģÑģÐºÐ°Ð·":4840,"ĠÐ´Ð¾ÑģÑĤÐ¸Ð³":4841,"ĠÐ²Ð·Ð´ÑĭÑħ":4842,"ĠÐ±ÐµÑĢÐµÐ³Ñĥ":4843,"ĠÐ½ÐµÐ¶Ð½Ð¾Ð¹":4844,"ĠÑģÑĥÐ´ÑĮÐ±Ðµ":4845,"ĠÐ¾ÑĤÐ´ÑĭÑħ":4846,"ĠÑĢÐµÐºÐ°":4847,"ĠÑħÑĢÐµÐ±":4848,"ĠÑħÑĢÐ°Ð±ÑĢ":4849,"ĠÐºÑĢÑĭÐ»ÑĮ":4850,"ĠÐ¾Ð±ÑĬÑıÐ²":4851,"ĠÐ¢Ð²Ð¾ÑĢÑĨÐ¾Ð¼":4852,"Ð¡Ð²Ð¾Ð¸Ñħ":4853,"Ð¡ÑĤÐ¾ÑıÐ»":4854,"ĠÐ¿Ð¾Ð¶Ð°Ð»":4855,"ĠÑĢÐ¾ÑģÐºÐ¾ÑĪ":4856,"ĠÐ¦Ð°ÑĢ":4857,"ÐĵÐ»ÑıÐ´Ð¸ÑĤ":4858,"ÐĽÐµÑĤÐ¸ÑĤ":4859,"ĠÑģÐ¾ÑĤÐ²Ð¾ÑĢÑĳÐ½":4860,"ÑĭÑģÐµÐ»":4861,"ĠÐĲÐ½Ð³ÐµÐ»Ñĭ":4862,"ĠÐ½Ð°Ð¹ÑĤÐ¸":4863,"ĠÑĩÑĥÐ¶Ð¾Ð¹":4864,"ĠÐ¡Ð¼ÐµÑĢÑĤÐ¸":4865,"ĠÐ½ÐµÑĩÐµÐ³Ð¾":4866,"ĠÐ¾ÑĤÐ²ÐµÑĩÐ°Ð»":4867,"ĠÐ½ÐµÐ½Ð°Ð²Ð¸Ð´":4868,"ĠÑģÐ¼Ð¾ÑĤÑĢÐ¸ÑĤ":4869,"ĠÐ¸Ð´ÑĤÐ¸":4870,"Ð¡Ð²ÐµÑĢÑĪ":4871,"Ð¡Ð¸Ð´Ð¸ÑĤ":4872,"ĠÑģÐ¿Ð¾ÐºÐ¾Ð¹Ð½Ð¾":4873,"ÐĴÑĭÑģÐ¾Ðº":4874,"Ð£Ð´Ð°ÑĢ":4875,"ĠÑĢÐ°Ð´Ð¾ÑģÑĤÐ½Ð¾":4876,"ÐĳÐµÑģÑģÐ¼ÐµÑĢÑĤ":4877,"ÐĹÐ°Ð´ÑĥÐ¼":4878,"Ð¡Ð½ÐµÐ³":4879,"Ð¡ÑĩÐ°ÑģÑĤÐ»Ð¸Ð²":4880,"ĠÑīÐµÐ´ÑĢ":4881,"ĠÐµÐ¶ÐµÐ»Ð¸":4882,"ĠÐ²Ð¿ÑĢÐ°Ð²Ðµ":4883,"ĠÑĢÐ°Ð²Ð½Ð¾Ð´ÑĥÑĪ":4884,"ÐĽÐ¸ÑĨÐ¾":4885,"ĠÐ°ÑĢÐ¾Ð¼Ð°ÑĤ":4886,"ĠÐ®":4887,"Ð¾Ð¸":4888,"ÑĤÑı":4889,"ÑĤÐ¾Ð¹":4890,"Ð¸Ð½Ð¸":4891,"Ð¸ÐºÐ¸Ð¹":4892,"ÑĢÐ°ÑĤÑĮ":4893,"Ð»ÐµÐ¶":4894,"Ð»ÐµÐ½ÑĮÐµÐ¼":4895,"ÑĥÐºÐ¾Ð²":4896,"ÑĭÐ¶":4897,"ÑıÐ±":4898,"ĠÑģÐ½Ð¾Ð¼":4899,"ĠÐ¿ÐµÑĤ":4900,"ĠÐ¿ÐµÑī":4901,"ĠÐ¿ÐµÑģÑĤÑĢ":4902,"ÐºÐ½ÑĥÐ»":4903,"ĠÐ²ÑĤ":4904,"ĠÐ²Ð½Ðµ":4905,"ĠÐ²ÐµÑĢÑĤ":4906,"ĠÐ²Ð»ÐµÐº":4907,"Ð´ÑĮ":4908,"Ð¼ÐµÐ½Ð½ÑĭÐ¹":4909,"ÑģÑĤÐ°ÑĢ":4910,"ÐµÐ½Ð¾Ð¹":4911,"ĠÑĤÐµÐ½":4912,"ĠÑĤÐºÐ°Ñĩ":4913,"Ð¾Ð»ÑİÐ±":4914,"ĠÐ±ÐµÑĪÐµÐ½":4915,"ĠÐ¼Ð¸Ð½":4916,"ÐµÑĢÐµÑĩÑĮ":4917,"ĠÐºÐ»Ñı":4918,"ĠÐºÐ¸Ñģ":4919,"Ð¾ÑĢÐµÑĩ":4920,"Ð¾ÑĢÐ¾Ð¿":4921,"ÐµÐ»ÐµÐ¼":4922,"ĠÐ·ÑĢÑı":4923,"ÐĺÐ´Ð¸":4924,"ÐµÐ¼Ð¾Ð½":4925,"ÐŁÐ¾Ð¶":4926,"ÐĴÑĭÑħ":4927,"Ð¾Ð³ÑĥÑī":4928,"Ð¡ÐµÐ´":4929,"Ð¡Ð¾Ðº":4930,"Ð¡ÐºÑĢ":4931,"Ð¡Ð¾Ð¼Ð½":4932,"Ð¡ÑİÐ´Ð°":4933,"ÑĨÐµÐ¿":4934,"Ð³Ð¾Ð¹":4935,"Ð³Ð»Ð°ÑĪ":4936,"ĠÐ»Ð¶":4937,"ĠÐ»Ð¸Ñħ":4938,"Ð°Ð²Ð°Ð»":4939,"Ð°Ð²Ð¸Ð´":4940,"Ð°Ð½Ð¾Ð¹":4941,"ĠÑĩÐ¸ÑģÐ»":4942,"ÐµÑģÐ»Ð°Ð²":4943,"Ð°Ð·ÑĥÑĢ":4944,"ÑĥÐ´Ñĥ":4945,"ĠÐ¶Ð°Ð´":4946,"ÐµÑģÑĤÐ¾Ñĩ":4947,"ĠÑĥÐ¹":4948,"ĠÑĥÑģÑĤÑĥÐ¿":4949,"Ð¾ÑĩÐµÐ½":4950,"ÐµÑĩÐ°ÑĤ":4951,"ĠÐ¾ÑĤÐ²ÐµÑĢ":4952,"Ð½ÑĥÑĪ":4953,"Ð»ÑıÐ¿":4954,"ÐľÐµÐ»ÑĮ":4955,"ÐľÐ¾Ñı":4956,"ÐµÐ¶Ð´Ðµ":4957,"Ð¸ÑĢÐ°ÑĤÑĮ":4958,"Ð¸ÑĢÐ°ÐµÑĤ":4959,"Ð°Ð¶ÐµÐ½Ð½ÑĭÐ¹":4960,"ĠÐ²ÑģÐºÑĢ":4961,"ĠÐ³ÑĢÑĥÐ·":4962,"ĠÐ³ÑĢÐ°Ð¶Ð´":4963,"Ð°ÑħÐ¾Ð¼":4964,"ĠÐ¿Ð¾Ð»Ñİ":4965,"Ð½ÑıÐ¼":4966,"ÐłÐµÐ²":4967,"ĠÑĤÑĢÐµÑħ":4968,"ĠÐ¢Ð°Ð¼":4969,"ĠÐ¢ÑĢÐ¾Ð½":4970,"ÐĽÐ¸ÑĪ":4971,"ĠÐŁÑĢÐµÐ´":4972,"ĠÐ±ÐµÐ·Ð¼":4973,"ĠÑĤÐ°ÐºÐ¸Ðµ":4974,"ĠÑĤÐ°ÐºÐ¾Ðµ":4975,"ĠÐ²Ð·Ð¼Ð°Ñħ":4976,"ÐĴÑģÐ¿":4977,"ĠÐ¿ÐµÑĢÐµÐ½":4978,"ĠÐ¿Ð»ÐµÑĤ":4979,"ĠÐ¾Ð´Ð½Ð¸":4980,"ĠÐ¾Ð´Ð½Ð¾Ð³Ð¾":4981,"ĠÐ¾Ð´Ð½Ð°Ð¶Ð´Ñĭ":4982,"ĠÐĲÐ³":4983,"ĠÐĲÑĢÑħÐ°Ð½Ð³ÐµÐ»":4984,"Ð¸ÑģÑĤÐ¸Ð½Ñĥ":4985,"ĠÐ»ÑİÐ±Ñı":4986,"ĠÐĵÑĥÐ±":4987,"ĠÑģÐ²Ð¾ÑĳÐ¼":4988,"ĠÐľÐ°ÑĢÐ¸Ñı":4989,"ÑĢÐ°Ð²Ð´":4990,"ĠÑģÑĤÐ°ÑĢÐ¾Ð¹":4991,"ĠÐ¿Ð¾ÑĢÐ°Ð·":4992,"ĠÐ½Ð°ÑģÐº":4993,"ÑĥÑīÐµÐ¹":4994,"ĠÐ²ÐµÑĢÐ½Ð¾ÑģÑĤÑĮ":4995,"ĠÑĥÐ¼Ð¸Ð»":4996,"ĠÐ´ÑĥÑĪÐ¾Ñİ":4997,"ĠÐķÐ²Ñĭ":4998,"ĠÐ¼Ð¸ÑĢÑĥ":4999,"ÑĢÐµÐ´ÑĮ":5000,"ĠÑĥÑĤÐ¾Ð»":5001,"ĠÐ¿Ð¾ÑĤÐ¾Ðº":5002,"ÐļÑĢÑĭÐ»":5003,"ÑĢÐ°ÑĤÐ½Ð¾":5004,"ĠÐ±ÐµÐ´Ñĭ":5005,"ĠÐ¼Ð¾ÑĢÐµÐ¼":5006,"ÑĢÐ¸ÑıÑĤ":5007,"ĠÑĨÐ°ÑĢÑİ":5008,"ĠÐ·Ð°Ð±ÑĭÑĤÑĮ":5009,"ÐŀÐ´Ð½Ð°Ð¶Ð´Ñĭ":5010,"ĠÐ¿ÐµÑģÐ½ÑĮ":5011,"ĠÑģÐ¾Ð¾Ð±Ñī":5012,"ĠÐ¿Ð¾ÑģÐºÐ¾ÑĢÐµÐ¹":5013,"ĠÐ½ÐµÐ²ÐµÑģÑĤ":5014,"ĠÐ·Ð°Ð²ÐµÑĤ":5015,"ĠÐ½Ð¾Ð²ÑĭÑħ":5016,"ĠÐºÐ¾ÑĢÐ¾ÑĤ":5017,"ĠÐ²ÐµÐ»ÐµÐ»":5018,"ĠÐ¾Ð±ÑĢÐµÑģÑĤÐ¸":5019,"ĠÑĤÑĢÑĥÐ´Ñĭ":5020,"ĠÐ¶ÐµÐ½Ðµ":5021,"ĠÐ¶ÐµÐ½Ñĥ":5022,"ĠÑĦÐ¾Ð½":5023,"ĠÐ´ÐµÑĢÐµÐ²Ð½Ñİ":5024,"ĠÐ²ÐµÐ´ÐµÑĤ":5025,"ĠÐ³Ð»ÑıÐ´Ð¸":5026,"ĠÐ´Ð²Ð°Ð´ÑĨÐ°ÑĤÑĮ":5027,"ĠÑĪÑĥÐ¼Ð¸ÑĤ":5028,"ĠÐ³Ð»ÑĥÐ±Ð¾ÐºÐ¾Ð¹":5029,"ĠÐ¾ÑģÑĤÐ°Ð½Ð¾Ð²":5030,"ĠÐ½ÐµÑģÐ¼ÐµÑĤ":5031,"ĠÐ´ÐµÐ»Ðµ":5032,"ĠÐºÑĢÐ¾Ð²ÑĮÑİ":5033,"ĠÐ½Ð¸ÑĩÐµÐ¼":5034,"ĠÐ²Ð»Ð°ÑģÑĤÐ¸":5035,"ĠÐ²ÑģÐµÐ¼Ð¸":5036,"ĠÐ±ÐµÐ»Ð¾Ð¹":5037,"ĠÐ¾ÑĤÐ²Ð°Ð¶":5038,"ĠÐ·Ð°ÑĢÑı":5039,"ĠÐ¿ÑĥÑĤÐµÐ¼":5040,"ÑİÑīÐµÐ¹":5041,"ĠÑĤÑıÐ¶ÐµÐ»Ð¾":5042,"ĠÑħÐ¾ÑĤÑıÑĤ":5043,"ĠÐ½ÐµÐ¶Ð½Ð¾":5044,"ĠÐĴÑģÐµÐ²ÑĭÑĪ":5045,"ĠÐ¿ÑĢÐ¸Ð·ÑĭÐ²":5046,"ĠÐ¾ÑĤÐ´Ð¾ÑħÐ½ÑĥÑĤÑĮ":5047,"ĠÐ²ÑĭÑĪÐ¸Ð½Ñĭ":5048,"ĠÐ±ÐµÐ·Ð´Ð½Ñĥ":5049,"ĠÐ¼Ð¾Ð»Ð²Ð¸Ð»Ð°":5050,"ĠÐ´Ð¾Ð²Ð¾Ð»ÑĮÐ½Ð¾":5051,"ÐĿÐ°Ð¿ÑĢÐ°Ð²":5052,"ÐĶÐ¾ÑģÑĤÐ¸Ð³":5053,"ĠÐ¿Ð¾Ð¶Ð°ÑĢ":5054,"ĠÐ²ÐµÐ½ÐµÑĨ":5055,"ĠÑĤÐ¾ÑģÐºÐ¸":5056,"ĠÑĤÐ¾ÑģÐºÑĥ":5057,"ĠÐ¾ÑħÐ¾ÑĤ":5058,"ĠÐ²Ð¾ÑģÑĤÐ¾Ðº":5059,"Ð½Ð¾ÑģÐ¸ÑĤ":5060,"ÐľÐµÐ¶Ð´Ñĥ":5061,"ĠÐ¿ÑĢÐµÐºÑĢÐ°ÑģÐ½ÑĭÐ¹":5062,"ÑĢÐ°Ð·Ð¸Ð»":5063,"ĠÐ½ÐµÐºÐ¸Ð¹":5064,"ĠÐ¼ÑĢÐ°ÑĩÐ½ÑĭÐ¹":5065,"ÐĹÐµÐ¼Ð»Ñı":5066,"ĠÐ±Ð»Ð°Ð³Ð¾Ð´Ð°ÑĤ":5067,"ĠÑĥÐºÐ°Ð·":5068,"ĠÐ´ÑĢÐµÐ¼Ð»ÐµÑĤ":5069,"ĠÐ½Ð°Ð¹Ð´":5070,"ĠÐ¿ÑĤÐ¸ÑĨÐ°":5071,"ĠÐ¼ÑĢÐ°ÐºÐµ":5072,"ĠÑĩÐµÑĤÑĭÑĢÐµ":5073,"ĠÑĤÑĢÐµÐ²Ð¾Ð³":5074,"ĠÑģÐ¿ÐµÑĪÐ¸ÑĤ":5075,"ĠÑĤÑĭÑģÑıÑĩÐ¸":5076,"ÐĶÑĢÐ¾Ð¶":5077,"ĠÐĽÑİÐ´Ð¼Ð¸Ð»Ð°":5078,"ĠÑģÐ¾Ð¼Ð½ÐµÐ½ÑĮÑı":5079,"ÐŁÑĢÐ¸ÑĢÐ¾Ð´Ð°":5080,"Ð°ÑĦÐ°":5081,"ĠÑģÑĥÐ¶Ð´ÐµÐ½Ð¾":5082,"ÐĶÐ¾Ð¼Ð¾Ð¹":5083,"ĠÐ¡Ð¿Ð°Ñģ":5084,"ĠÐ¥Ð°Ð¾Ñģ":5085,"ĠÐ½ÑıÐ½Ñı":5086,"ĠÐ¶ÑĢÐµÐ±Ð¸Ð¹":5087,"ĠÐ§ÐµÑĢÐ½Ð¾Ð¼Ð¾ÑĢ":5088,"ĠÐĴÐ°ÑģÐ¸Ð»Ð¸Ð¹":5089,"ÑģÐ°":5090,"Ð»ÑİÑĤ":5091,"ĠÑģÐµÐ»Ð°":5092,"ĠÑģÐ¸Ð½Ðµ":5093,"ĠÐ¿ÑĥÑħ":5094,"ĠÐ¿ÑĭÐ»Ð°":5095,"ĠÐ¿ÑĥÑģÐºÐ°Ð¹":5096,"ĠÐ²Ð½ÑĥÑĤ":5097,"ĠÐ²ÑħÐ¾Ð´Ð¸ÑĤ":5098,"ĠÐ²Ð±Ð»Ð¸Ð·Ð¸":5099,"Ð²ÑıÑī":5100,"ÑĩÐ°Ð»ÑģÑı":5101,"Ð¼Ð°Ð·":5102,"Ð¼ÑĥÑĤ":5103,"ÑĪÐ¸Ð¼Ð¸":5104,"ĠÑĤÐµÑĪ":5105,"ĠÐ¾Ñī":5106,"ĠÐ¾ÐºÐ¾ÑĪ":5107,"Ð°Ð»Ðµ":5108,"ĠÐ´Ð¾Ð»ÑĮ":5109,"ĠÐ´Ð°Ð»Ð¸":5110,"ĠÐ±Ð¸ÑĤÑĮ":5111,"ĠÐ±Ð¾Ð´ÑĢ":5112,"ĠÐ¼Ð°Ð½":5113,"ĠÐ¼ÐµÑģÑĤÑĮ":5114,"ĠÐ¼ÑıÐ³":5115,"ĠÐºÐ²":5116,"Ð¾Ð´Ð¾Ð¼":5117,"ÐĿÑĥÐ¶":5118,"ÐĿÐ°Ñħ":5119,"ĠÐ·Ð°Ð·":5120,"ĠÑĢÐ¶":5121,"ĠÐ³Ð°Ð´":5122,"ÐŁÐ¸ÑģÑĮ":5123,"ÐĴÐµÐ´":5124,"ÐĴÐ»Ð°Ñģ":5125,"ÐĴÐ¼ÐµÑģÑĤ":5126,"Ð°ÐºÑĥ":5127,"Ð¡Ð±":5128,"Ð¡Ð¾Ð¿":5129,"Ð¡Ð²Ð¸Ð´":5130,"Ð¡ÑĢÐ°Ð¶":5131,"ÑĨÐ°Ð¼Ð¸":5132,"Ð³Ð¾ÑĤÐ½Ð¾":5133,"ĠÐ»Ð¾Ð¶Ðµ":5134,"ÐµÐ´Ð¸":5135,"Ð°Ð½Ð¸Ð½":5136,"Ð°ÑģÐº":5137,"ÑĤÐ¾Ñİ":5138,"ĠÐ½ÐµÐ¸Ñģ":5139,"Ð½Ð¸ÑĪÑĮ":5140,"ÐµÑģÐ½":5141,"ÐŀÐ·":5142,"ÐŀÐºÑĢ":5143,"Ð¸Ð½Ð°Ð¼":5144,"ĠÐ½Ð°ÑħÐ¾Ð´":5145,"Ð¢Ð¾Ð¼Ñĥ":5146,"Ð¸Ð²ÑĭÐµ":5147,"ĠÐ¶ÐµÐ¼Ñĩ":5148,"ĠÐµÐ»":5149,"Ð¾ÑĩÑĥ":5150,"ÐºÐ°ÑıÐ½":5151,"ÐµÐ½ÑĮÐ¸":5152,"ÑĥÐ³Ñĥ":5153,"ÐŁÑĢÐ¾Ð¼":5154,"ĠÐºÑĢÑĥÐ¿":5155,"Ð§Ð°Ñģ":5156,"ĠÑħÐ¾Ð´Ð¸ÑĤ":5157,"Ð»ÑıÑħ":5158,"ÐľÑĥÑĩ":5159,"ÐĳÑĢ":5160,"ÐĳÐ¾Ð¹":5161,"ÐĳÐ»Ð¸Ð·":5162,"ÐµÐ¶Ð°Ð»Ð°":5163,"Ð¸ÑĢÐ°Ñı":5164,"ÐĿÐµÐ¸ÑģÑĤ":5165,"Ð£Ð¹":5166,"ĠÐ²ÑģÑĶ":5167,"ĠÐ¾Ð±ÐµÑī":5168,"ĠÐ¾Ð±ÑıÐ·":5169,"ĠÐ¾Ð±ÑĭÑĩ":5170,"ÑģÑĤÐ²ÐµÐ½Ð½Ð¾":5171,"ÑģÑĤÐ²ÑĥÑı":5172,"Ð°Ð±Ð¾ÑĤ":5173,"Ð°Ð³Ñĥ":5174,"ĠÐ³ÑĢÐµÐ±":5175,"ĠÐ³ÑĢÐ¾ÑĪ":5176,"ĠÐ¿Ð¾Ð´Ð´":5177,"ĠÐ¿Ð¾Ð´Ð¾Ð±Ð½Ð¾":5178,"ÑĥÑĩÐ°Ñı":5179,"ĠÐ¿Ð¾ÑİÑĤ":5180,"ĠÑĪÐ»ÑıÐ¿":5181,"ĠÐ¡ÑĥÐ´":5182,"ĠÑĢÐ°Ð·Ð¾ÑĢ":5183,"ĠÐ¿Ð¾Ð»Ð½Ñĭ":5184,"ĠÐ¿Ð¾Ð»Ð·":5185,"ÐłÐ¾Ñģ":5186,"ÐļÐ°ÐºÐ°Ñı":5187,"ÐļÐ°ÐºÐ¾Ðµ":5188,"ĠÐ³Ð¾ÑĢÑĥ":5189,"ÐµÑħÐ¸":5190,"ĠÐ»Ð¸ÑĨÐµ":5191,"ĠÑĨÐµÑĢÐº":5192,"ĠÑĨÐµÑĢÐºÐ¾Ð²":5193,"ÑĥÑİÑī":5194,"ĠÐ¿Ð»ÐµÐ¼Ñı":5195,"ĠÐ²Ð¾Ð·Ð½Ð¸Ðº":5196,"ĠÐ¾Ð´Ð°ÑĢ":5197,"ĠÐŀÐ½Ð¸":5198,"ÑģÐ»Ð°Ð²":5199,"Ð¾ÑĪÐ»Ð¸":5200,"Ð¸ÑģÑĤÑĭÑħ":5201,"Ð¸ÑģÑĤÑĭÐµ":5202,"ĠÐ»ÑİÐ±Ð¾Ð¹":5203,"ĠÐ»ÑİÐ±ÐµÐ·":5204,"Ð¡ÑĤÑĢÑĥ":5205,"ÑĥÐ·Ð´":5206,"ĠÑĢÑĥÐºÐµ":5207,"ÐµÑīÐ°Ñı":5208,"ĠÐ´Ð¾Ð»Ð¸Ð½Ñĭ":5209,"ĠÐ²Ð¸Ð´Ð°Ð»":5210,"ĠÐ¿ÑĢÐµÐ´ÑģÑĤÐ°Ð²":5211,"ĠÐ¿ÑĢÐµÐ´Ð»Ð°Ð³":5212,"ĠÐĹÐ´ÐµÑģÑĮ":5213,"ĠÐ²Ð¾Ð»Ð¸":5214,"ĠÑĥÐ¼Ð°":5215,"ĠÑĥÐ¼ÐµÐ»":5216,"ĠÑĥÐ¼Ð¾Ð»Ðº":5217,"ĠÐķÐ¼Ñĥ":5218,"Ð¡ÐºÐ°Ð¶":5219,"ĠÑģÐ»Ð¾Ð²Ð¾Ð¼":5220,"ĠÑĥÑĤÐ¾Ð¼":5221,"Ð»ÐµÐ½Ð½ÑĭÐµ":5222,"ÑıÑīÐ¸Ð¼":5223,"ĠÐ¿ÑĢÐ°Ð²Ð´Ñĥ":5224,"ÑıÐ½ÑĥÑĤ":5225,"ĠÐ·Ð½Ð°Ð»Ð¸":5226,"ÑĩÐ¸Ð½Ñĭ":5227,"ĠÐ»ÐµÑĤÐ¾":5228,"ÑĭÐ½ÐµÑĤ":5229,"ĠÑĤÐ²Ð¾Ðµ":5230,"ĠÐ±ÐµÑģÑģÑĤ":5231,"Ð½Ð¸Ð¼Ð°ÐµÑĤ":5232,"ĠÑģÐ»Ð°Ð²Ðµ":5233,"ÐŀÐ´Ð½Ð¸":5234,"ÑĢÑıÑħ":5235,"ÑĢÑıÐ³":5236,"ĠÐ²Ð¿ÐµÑĢÐ²ÑĭÐµ":5237,"ĠÐ·Ð»Ð¾Ð¹":5238,"ĠÑĥÐ´Ð¸Ð²":5239,"ĠÐ±Ð¾Ð³Ñĥ":5240,"ĠÐ»ÐµÑģÐ¾Ð²":5241,"ĠÐ²Ð¾Ð¹ÑģÐº":5242,"ĠÐ´ÑĥÐ¼Ñĭ":5243,"Ð¡Ð¼Ðµ":5244,"ĠÐ¼Ð¾Ð»Ð¾Ð´Ð°Ñı":5245,"ĠÐ·Ð°Ð¿Ð°Ñģ":5246,"ĠÐ·Ð°Ð¿Ð»Ð°Ðº":5247,"ĠÐ·Ð°ÐºÐ°ÑĤ":5248,"ĠÑģÐ½Ð¾Ð¿":5249,"ĠÐ²ÑĭÑģÐ¾ÐºÐ¾Ð¹":5250,"ĠÐ¿ÑĥÑģÑĤÐ¾Ð¹":5251,"Ð»ÐµÑĤÐµÐ»":5252,"ĠÐ³Ð¾Ð²Ð¾ÑĢÐ¸ÑĤÑĮ":5253,"ÐłÐ°Ð·Ð±":5254,"ĠÐ»ÑĥÑĩÐµÐ·Ð°ÑĢ":5255,"ĠÐ¾Ð±ÑĢÐµÑĩ":5256,"Ð¨Ð»Ð¸":5257,"ĠÐ¿Ð¾Ð±ÐµÐ¶Ð´":5258,"ĠÐ¿Ð¾ÑĩÑĤÐ¸":5259,"ĠÐ½ÐµÐ±Ð°":5260,"ĠÐ½ÐµÐ±Ð¾Ð¼":5261,"ĠÐ½ÐµÐ±ÑĢÐµÐ¶":5262,"ĠÐºÐ¾ÑĤÐ¾ÑĢÑĭÐ¼":5263,"ĠÐ´ÐµÑĢÐµÐ²Ð¾":5264,"ĠÐ³Ð»ÑıÐ´ÐµÑĤÑĮ":5265,"ĠÐ¿ÐµÑĢÐ²ÑĭÐ¼":5266,"Ð½ÑĥÐ²ÑĪÐ¸ÑģÑĮ":5267,"ĠÑģÐ»ÐµÐ·Ð°Ð¼Ð¸":5268,"ĠÐ²Ð¾Ð·Ð´ÑĥÑĪ":5269,"ĠÐ·Ð¾Ð»Ð¾ÑĤÑĭÑħ":5270,"Ð¡Ð²ÐµÐº":5271,"ĠÑĤÐ²Ð°ÑĢÐµÐ¹":5272,"ĠÐ±Ð¾Ð¹ÑĨÑĭ":5273,"ĠÑģÑĤÐ°Ð½Ñĥ":5274,"ÐŁÑĢÐ¸ÑıÑĤ":5275,"ĠÐ¾ÐºÐ½Ð¾":5276,"ĠÐºÐ»ÑıÑĤ":5277,"ĠÐ½ÐµÐ±ÐµÑģÐ½Ð¾Ð¹":5278,"ĠÐ¸Ð·Ð±ÑĢÐ°Ð½":5279,"ĠÐ²Ð¾Ð·Ð²ÑĭÑĪ":5280,"ĠÐ±ÐµÑĢÐµÐ³Ð°":5281,"ĠÑİÐ½Ð¾ÑģÑĤÐ¸":5282,"ĠÐŃÐ¼Ð¿Ð¸ÑĢÐµÐ¹":5283,"ĠÑĢÑıÐ´Ñĭ":5284,"ĠÑıÑĢÐ¾ÑģÑĤ":5285,"ĠÐºÐ°Ð·Ð½Ð¸":5286,"ĠÐ¢Ð²Ð¾ÑĢÐµÑĨ":5287,"ĠÑĩÑĥÐ²ÑģÑĤÐ²Ð¾":5288,"ÐĶÑĢÑĥÐ³Ð¸Ðµ":5289,"ĠÑĪÐ°Ð³Ð¾Ð¼":5290,"ĠÑģÑĥÐ´Ð¸ÑĤÑĮ":5291,"ÐŀÑģÐ¾Ð±":5292,"ĠÐ¿ÑĢÐ¾Ð²Ð¾Ð·":5293,"ĠÐ¾ÑĤÐºÑĢÑĭÐ»":5294,"ĠÐ¿Ð¾Ð¼ÐµÑīÐ¸Ñĩ":5295,"ĠÑģÐ»ÑĥÐ¶Ð¸ÑĤÑĮ":5296,"ĠÐ¸ÑģÑħÐ¾Ð´":5297,"ĠÐ¾ÑģÑĤÑĢÐ¾Ð²Ð°":5298,"ÐļÐ¾ÑĢÐ°Ð±":5299,"ÐĶÐ¾Ð»Ð³Ð¾":5300,"ĠÑĥÐ³ÑĢÐ¾Ð·":5301,"ÐĳÐ»Ð°Ð³Ð¾":5302,"ÐĳÐ»Ð°Ð³Ð¾ÑģÐ»Ð¾Ð²":5303,"ĠÐ¿ÑĢÐµÐ²Ð¾Ñģ":5304,"ĠÑĢÐ°Ð·Ð±Ð¾Ð¹":5305,"ĠÑĤÐ¾Ð¿Ð¾ÑĢ":5306,"ĠÐºÑĢÐ¸ÐºÐ¾Ð¼":5307,"ÐĵÐ¾ÑģÐ¿Ð¾Ð´ÑĮ":5308,"ĠÑĤÐµÐ»ÐµÐ³":5309,"ĠÑĥÐºÑĢÐ°ÑĪ":5310,"ĠÐ¿ÑĢÐ¸ÑģÑĥÑĤÑģÑĤÐ²":5311,"ĠÐ²Ð¾Ð²ÐµÐº":5312,"ĠÑħÐ¾Ð·ÑıÐ¸Ð½":5313,"ĠÑĪÐ°Ð¿ÐºÑĥ":5314,"ÐĴÐ»Ð°Ð´Ñĭ":5315,"ÐĴÐ»Ð°Ð´Ð¸Ð¼Ð¸ÑĢ":5316,"ĠÐ²ÐºÑĢÑĥÐ³":5317,"Ð¼Ð¾ÑĤÑĢÐµÐ»":5318,"Ð¸Ð½ÑģÑĤÐ²ÐµÐ½Ð½ÑĭÐ¹":5319,"ĠÐ²Ð½ÑĥÑĪ":5320,"ĠÐ½ÐµÐ¸Ð·Ð²ÐµÑģÑĤ":5321,"ĠÐ´ÑĥÑĢÐ°Ðº":5322,"ĠÑģÐ¾ÑģÑĤÐ°Ð²":5323,"ĠÐ±Ð»ÐµÑģÑĤÐ¸ÑĤ":5324,"ĠÐ¿Ð¾ÑģÐ¿ÐµÑĪ":5325,"ĠÑĢÐ¾ÑīÐ¸":5326,"ÐļÑĢÐ¸ÑĩÐ¸ÑĤ":5327,"ĠÐ¿ÑĤÐµÐ½":5328,"ĠÐ°Ð½Ð³ÐµÐ»":5329,"ĠÐ¿Ð»ÑıÑģ":5330,"ĠÐ¾ÑģÐ»ÐµÐ¿":5331,"ĠÐ¼ÑĩÐ¸ÑĤÑģÑı":5332,"ÐľÐ³Ð½Ð¾Ð²ÐµÐ½Ð½Ð¾":5333,"ĠÑĩÐ¸ÑģÐ»Ð°":5334,"ÐĶÐ¾Ð»Ð¶Ð½Ð¾":5335,"ĠÐ¶Ð¸Ð·Ð½ÑĮÑİ":5336,"ĠÐ²Ð½ÐµÐ¼Ð»ÐµÑĤ":5337,"ĠÐ½ÑĥÐ¶Ð´Ñĭ":5338,"ĠÑĤÐºÐ°ÑĩÐ¸ÑħÐ°":5339,"!)":5340,"Ìģ":5341,"Ġ.":5342,"Ð°Ð¸Ð¼":5343,"ÑĢÐ¾ÑģÑĤ":5344,"ÑĢÑĳÐº":5345,"ÑĢÐµÐºÐ¸":5346,"Ð½Ð°Ð½":5347,"Ð»ÑĳÐ½Ð½ÑĭÐ¹":5348,"ÑĥÐ½Ñĭ":5349,"ĠÑģÐ°Ð½":5350,"ĠÑģÐ¸Ñħ":5351,"ĠÐ¿Ð°Ð»Ð°":5352,"ĠÐ¿ÑĭÐ»Ð¸":5353,"ÐºÐ°Ð·":5354,"ÐºÐ°Ð»Ð¸":5355,"ĠÐ²Ñĩ":5356,"ĠÐ²Ð²ÐµÑĢÑħ":5357,"Ð´Ð¾Ð¼":5358,"ÑĪÐµÐ¼":5359,"ÑĪÐºÐ¸":5360,"ĠÑĤÐµÑĩ":5361,"Ð¾Ð»ÐµÐ¿":5362,"ĠÐ´Ð¾Ð¶":5363,"ĠÐ´ÑĮÑı":5364,"ĠÐ´Ð½ÐµÐ¼":5365,"ĠÐ¸Ð½Ð°ÑĩÐµ":5366,"ĠÐ±ÑĢÐ°Ñĩ":5367,"ĠÐ±Ð¾Ð¶Ðµ":5368,"ĠÐ¼ÐµÑĢÑĤ":5369,"ÐµÑĢÐµÐ½":5370,"Ð¾ÑĢÐ½Ð¾":5371,"ÐµÐ»Ð°ÑģÑĮ":5372,"Ð¾Ð´ÐµÑĢÐ¶":5373,"ÐĿÐµÐº":5374,"ĠÑĢÐ²":5375,"ĠÑĢÑĥÐ³":5376,"ĠÐ³Ð½":5377,"ÐŁÐ°Ð»":5378,"ÐĴÐ°Ñģ":5379,"ÐĴÑģÐº":5380,"ÐĴÐ¾ÐºÑĢÑĥÐ³":5381,"ÐĴÐµÐ·Ð´Ðµ":5382,"Ð¡Ð¾ÑĢ":5383,"Ð¡Ð¾Ð·":5384,"Ð±Ð¾Ð¶":5385,"ÑģÑıÑģÑĮ":5386,"Ð¿ÑĢÐµÐ¶":5387,"ÑĨÐ°Ñħ":5388,"Ð°Ð¼Ð°ÑĤ":5389,"ĠÐ»ÐµÐ¶Ð°Ð»":5390,"ÐµÐ´Ñĭ":5391,"ÐµÐ´Ð»Ñı":5392,"Ð°Ð½Ð½Ð¾Ð³Ð¾":5393,"Ð°ÑĢÑıÐ´":5394,"ĠÑĩÐµÑĪ":5395,"ĠÑĩÐ°ÑĪ":5396,"ĠÑĩÐ°ÑīÐµ":5397,"Ð°Ð´Ð¸Ð»":5398,"Ð°Ð´ÑĥÑĤ":5399,"ÐµÑģÐºÐ¸":5400,"ÐŀÑĢ":5401,"Ð¾Ð½Ð¾Ð¼":5402,"ÐļÐ°Ð·":5403,"ĠÑģÑĤÐµÐ½Ñĭ":5404,"ĠÑģÑĤÐ¾ÑĢÐ¾Ð¶":5405,"Ð¢Ðµ":5406,"Ð¢ÐµÐ»":5407,"Ð¢Ð¾Ð¼":5408,"Ð¢Ð¾Ñģ":5409,"Ð¢ÑĢÐµÐ²":5410,"Ð¾ÐºÐ¾Ð¼":5411,"Ð¸Ð²ÑĭÑħ":5412,"ĠÐ¶Ð³":5413,"Ð¸Ð¼ÑĭÐµ":5414,"ÐµÐ±ÑĢ":5415,"ÐĶÐµÐ»":5416,"ÐĶÐ°ÑĢ":5417,"ÐĶÑĥÐ¼":5418,"ĠÑĥÑħ":5419,"ĠÑĥÑī":5420,"Ð¾Ð¶Ð¶":5421,"ÐµÐ·Ñĭ":5422,"ÐµÑĩÐ½Ð¾Ð¹":5423,"ÐµÑĩÐ½ÑĭÑħ":5424,"ÐµÑĩÐºÑĥ":5425,"ÑĥÐ¶ÑĤÐ¾":5426,"ĠÑģÐ²ÐµÑĢÐº":5427,"ĠÐ¾ÑĤÐ¼":5428,"ĠÐ¾ÑĤÑĨÑĥ":5429,"Ð½ÑĥÑģ":5430,"ÐŁÑĢÐµÑģÑĤÐ¾Ð»":5431,"ÐŁÑĢÐµÐ·ÑĢ":5432,"ĠÐºÑĢÑĭÑĪ":5433,"ÐµÐºÑĢÐµÑģÑĤ":5434,"ÐľÐ¾Ñİ":5435,"Ð½ÐµÑİ":5436,"Ð½ÐµÑĨ":5437,"ÐĳÐµÑĢ":5438,"ÐĳÐµÐ³":5439,"ÐĳÑĢÐ¾Ð´":5440,"ÐĹÐ¾Ð»Ð¾ÑĤ":5441,"Ð¸Ð´Ñĭ":5442,"Ð£Ñĩ":5443,"ÐĲÑĢ":5444,"ĠÐ¾Ð±ÐµÐ´":5445,"ĠÐ¾Ð±Ð¸ÑĤÐµÐ»ÑĮ":5446,"ĠÐ¾Ð±Ð»Ð¸Ñĩ":5447,"ĠÐ¾Ð±ÑĢÐ°Ñī":5448,"Ð°Ð¹ÑĤÐµÑģÑĮ":5449,"ÑģÑĤÐ²Ð¸Ðµ":5450,"ÐĵÑĥÐ»Ñı":5451,"ÐĵÐµÐ½ÐµÑĢÐ°Ð»":5452,"ĠÐ³ÑĢÐ¸Ð±":5453,"ĠÐ¿Ð¾Ð´Ð±":5454,"ĠÐ¿Ð¾Ð´Ð°Ð²":5455,"ÑĥÑĩÐ¸":5456,"ÑĥÑĩÐ°Ð»":5457,"ĠÐ¿Ð¾Ñį":5458,"ĠÐ²ÑĭÑĤ":5459,"ĠÐ¡Ð²ÐµÑĤ":5460,"ĠÑģÐºÐ¾Ð»ÑĮÐ·":5461,"ÑĥÐ¿ÑĢ":5462,"ĠÑĢÐ°Ð·Ð»":5463,"ĠÑĢÐ°Ð·ÑĬ":5464,"ĠÑĢÐ°Ð·ÑĢÐµÑĪ":5465,"ĠÐ¿Ð¾Ð»ÑĥÑģ":5466,"ĠÑĤÑĢÐ¾Ð¹":5467,"ÐķÐ´Ð¸":5468,"ĠÐ¢ÐµÐ±Ñı":5469,"ÐŀÑĤÑģ":5470,"ÐŀÑĤÑĩ":5471,"ÐŀÑĤÐ¼":5472,"ÐŀÑĤÐ½ÑĭÐ½Ðµ":5473,"ĠÐ³Ð¾ÑĢÑİ":5474,"ĠÐ³Ð¾ÑĢÐ¾Ð´Ð°":5475,"ĠÑģÐ¿Ð»ÐµÑĤ":5476,"ĠÐ±ÐµÐ·Ð²ÐµÑģÑĤ":5477,"ĠÐ±ÐµÐ·ÑĢÐ°ÑģÑģÑĥÐ´":5478,"ĠÐ²Ð·ÑıÑĤÑĮ":5479,"ĠÐĳÐ°Ð±":5480,"ĠÐ¼Ð¾ÐµÐ¼":5481,"ĠÐ±ÑĢÐ°Ð½":5482,"Ð¡ÑĤÑĢÐ°ÑĪ":5483,"ĠÑģÐ²Ð¾ÐµÐ¼Ñĥ":5484,"ÑĭÐ»ÑĮ":5485,"ĠÐ´ÑĢÐ¾Ð³":5486,"ĠÐļÐ°ÑĤ":5487,"ĠÐ½Ð°ÑĪÐµÐ¼Ñĥ":5488,"ÑĢÐ°Ð²Ð°":5489,"ÑĭÑĤÐ°":5490,"ÑĭÑĤÑĭÐ¹":5491,"ĠÑĢÑĥÐºÐ¾Ñİ":5492,"ĠÐ¿ÑĢÐµÐ´Ð¾":5493,"ĠÐ¿ÑĢÐµÐ´Ð¾ÑģÑĤ":5494,"ĠÐĹÐ»Ð¾":5495,"Ð¥Ð¾Ð»":5496,"ĠÑĥÐ¼Ðµ":5497,"ĠÑģÐ²ÐµÑĤÐ¸Ð»":5498,"ĠÐ¼Ð¸ÑĢÐ¾Ð¼":5499,"ĠÐ½ÐµÐ¼Ð¾Ð¹":5500,"ĠÐ¾Ð¿Ð¸Ñģ":5501,"ĠÐ½Ð¾ÑĩÐµÐ¹":5502,"ĠÐ¼Ð¾Ð³ÑĥÑĩÐ¸Ð¹":5503,"ĠÐ·ÐµÐ¼Ð»ÐµÐ¹":5504,"ÐºÐ¾Ð²Ñĭ":5505,"ĠÐ²Ð´Ð°Ð»ÑĮ":5506,"ÑıÑīÐ°Ñı":5507,"ÑıÐ½ÐµÑĤ":5508,"ÐļÑĢÐ¾Ð²ÑĮ":5509,"ĠÐ»ÐµÑĤÑıÑĤ":5510,"ĠÑĤÐµÐ¼Ð½ÑĭÐ¹":5511,"ĠÑĤÐµÐ¼Ð½Ð¾Ð¹":5512,"ĠÐ±ÐµÐ´Ð½Ð¾Ð¹":5513,"ĠÐ±ÐµÐ´Ð½Ñı":5514,"ĠÐ¶Ð¸Ð²Ð¾":5515,"ĠÐ¶Ð¸Ð²ÐµÑĤ":5516,"ĠÐ±Ð¾Ð»ÑĮÑĪÐ¸Ñħ":5517,"ĠÐ¼Ð¸Ð»Ð¾ÑģÑĤ":5518,"Ð¡Ð¿Ð¾ÐºÐ¾Ð¹":5519,"ĠÐ½Ð°ÑĢÐ¾Ð´Ð°":5520,"ĠÐ¿Ð¾Ð³Ð»ÑıÐ´":5521,"ĠÐ´Ð°Ð½Ð¾":5522,"ĠÐĿÐµÐ±ÐµÑģÐ½ÑĭÑħ":5523,"Ð°Ð½ÑĮÑıÑħ":5524,"ĠÐ´ÑĥÐ¼Ñĥ":5525,"ĠÐ´ÑĥÐ¼Ð¾Ð¹":5526,"ĠÐ´ÑĥÐ¼Ð°ÐµÑĤ":5527,"Ð£Ð¶ÐµÐ»Ð¸":5528,"ĠÐ½ÐµÐ´Ð°Ð²Ð½Ð¾":5529,"ĠÐ·Ð°ÐºÐ»ÑİÑĩ":5530,"ĠÐŁÑĢÐ¾Ð²":5531,"ĠÐ±Ð°ÑĢÑī":5532,"ĠÑĥÐ³Ð°Ñģ":5533,"ĠÐ¿ÐµÑĩÐ¸":5534,"ĠÐ´Ð¾ÑĢÐ¾Ð¶Ðµ":5535,"ĠÐ²ÑĭÑģÐ¾ÑĤ":5536,"ĠÐ³Ð»Ð°Ð·Ð°Ð¼Ð¸":5537,"ĠÐ²ÑĢÐµÐ¼ÐµÐ½Ð°":5538,"ĠÐ²ÑĢÐµÐ¼ÐµÐ½ÐµÐ¼":5539,"ĠÐ·Ð½Ð°ÐµÑĤÐµ":5540,"ĠÐ²ÐµÑĤÐ²Ð¸":5541,"ĠÐ½Ð°Ð¿ÑĢÐ°Ñģ":5542,"ĠÐ½Ð°Ð¿ÑĢÐ°ÑģÐ½Ð¾":5543,"ĠÑħÐ¾Ð»Ð¾Ð¿":5544,"ĠÑħÐ¾Ð»Ð¼Ñĭ":5545,"Ð¨ÑĥÑĤ":5546,"Ð¨ÑĥÐ¼":5547,"ĠÐ´Ð¾Ð±ÑĢÐ¾Ð´":5548,"ĠÑģÑĩÐ°ÑģÑĤÐ¸Ðµ":5549,"ĠÑģÐ¼ÐµÑĢÑĤÐ½ÑĭÐ¹":5550,"Ð½ÑİÐ´ÑĮ":5551,"ĠÑģÑĤÐ¾ÑıÑĤ":5552,"ÐĳÐ»ÐµÑģÑĤ":5553,"ĠÑĥÐ·Ð½Ð°Ð»Ð°":5554,"ĠÐ¶ÐµÐ»Ð°Ð»":5555,"ĠÐ¿ÐµÑĢÐ²ÐµÐ½":5556,"ĠÐ¿ÐµÑĢÐ²Ð°Ñı":5557,"ĠÐ»ÐµÐ³ÑĩÐµ":5558,"ĠÐ½Ð°ÑĩÐ°Ð»Ð°":5559,"ĠÐ¿Ð¾Ð½Ð¸Ð¼":5560,"ĠÐ¾ÑģÑĤÐ°Ð»ÑģÑı":5561,"ĠÐ±Ð¾ÐµÐ²":5562,"ĠÑģÐµÐ¼ÐµÐ¹":5563,"ĠÑģÐµÐ¼ÑĮÑİ":5564,"ĠÐ¾ÑĩÐ°Ñħ":5565,"ĠÐ¾ÑĩÐ°Ð¼Ð¸":5566,"ĠÐ¾ÐºÐ½Ð°":5567,"ÐĴÐ´Ð°Ð»Ð¸":5568,"ĠÐ¼Ð¾Ð»ÑĩÐ°Ð»":5569,"ĠÑģÑĤÐ¾ÑĢÐ¾Ð½Ñĥ":5570,"ÐľÐ¾Ð»Ð¸ÑĤ":5571,"ĠÑģÐ¾ÑģÐ½Ñĭ":5572,"ĠÑĤÐ¾ÑĢÐ³":5573,"ÐŁÐµÑĢÐ²":5574,"ĠÑĤÑıÐ¶ÐµÐ»":5575,"ĠÐ§ÐµÐ»Ð¾Ð²ÐµÐºÑĥ":5576,"ĠÑħÑĢÑĥÑģÑĤ":5577,"ĠÐºÑĢÑĭÐ»Ð°Ð¼Ð¸":5578,"ĠÑĢÐµÑĪÐ¸Ð»":5579,"ĠÑĤÐ°Ð¹Ð½Ñĭ":5580,"ĠÐ±ÐµÐ·Ð´Ð½Ñĭ":5581,"ĠÐ¤Ð°ÑĢÐ»Ð°ÑĦ":5582,"ĠÑģÐ°Ð´Ñĥ":5583,"ĠÐ¼ÐµÑĢÑĭ":5584,"ĠÑĤÐ¸ÑĪÐ¸Ð½Ð°":5585,"ĠÐ²ÐµÐ½Ñĩ":5586,"ĠÐ²ÐµÐºÐ°":5587,"ĠÐ²ÐµÐºÐ¾Ð²":5588,"ĠÐ´ÑĥÑħÐ¾Ð²":5589,"ĠÑĥÐ¶Ð°ÑģÐ½ÑĭÐ¹":5590,"ĠÑģÐ¸Ð´ÑıÑĤ":5591,"ĠÐ·Ð°ÑģÑĤÑĥÐ¿":5592,"ĠÑĢÐ¾ÑģÐºÐ¾":5593,"ĠÐ¿ÑĢÐ¸Ð¼ÐµÑĤ":5594,"ĠÐ¿ÑĢÐ¸Ð´ÐµÑĤ":5595,"ĠÐ·Ð¸Ð¼Ð°":5596,"ĠÐ·Ð¸Ð¼Ð¾Ð¹":5597,"ĠÐ¿Ð¾Ð¼ÐµÑīÐ¸ÐºÐ°":5598,"ÑİÑĪÐºÐ¸":5599,"ĠÐ³Ð¾ÑģÐ¿Ð¾Ð´Ð¸Ð½":5600,"ĠÑĪÐ¸ÑĢÐ¾ÐºÐ¾":5601,"ÐĳÐ¾Ð³Ð°ÑĤ":5602,"ĠÑĢÐ°Ð±Ð¾ÑĤÑĥ":5603,"ĠÑĥÐ²Ð¸Ð´ÐµÐ»":5604,"ĠÐ¿Ð¾ÑħÐ²Ð°Ð»":5605,"ĠÐ´Ð¾Ð±ÑĢÐ°":5606,"ĠÐ±Ð°Ð±Ð¾Ð¹":5607,"ĠÑĥÑģÐ»Ð°Ð´":5608,"ĠÑĪÐµÐ»ÐºÐ¾Ð²":5609,"ĠÐ¿Ð»Ð°Ð¼ÐµÐ½ÑĮ":5610,"ĠÐ¿Ð»Ð¾Ð´Ð¾Ð²":5611,"ĠÐ±Ð¾Ð¶ÐµÑģÑĤÐ²":5612,"ĠÐ¿Ð»ÐµÑĩÐ¾":5613,"ÐĶÑĥÑĪÐ°":5614,"ĠÑģÑĤÐµÐ¿Ð¸":5615,"ĠÑĪÐµÐ¿Ð¾ÑĤ":5616,"ĠÐ²Ð°Ð¶Ð½Ð¾":5617,"ÐŁÑĢÐ¸Ð²ÑĭÑĩ":5618,"ÐŁÑĢÐ¸ÑĪÐ»Ð°":5619,"ĠÐ´ÑĥÐ±ÑĢÐ°Ð²":5620,"ĠÑĢÑĥÐºÐ°Ð²":5621,"ĠÐ¾ÑĤÐ²ÐµÑĩÐ°ÐµÑĤ":5622,"ÐĿÐ°Ð²ÑģÑĤÑĢÐµÑĩÑĥ":5623,"ĠÐ¿ÑĢÐ¸ÑĩÐ¸Ð½":5624,"ĠÑĨÐµÐ¿Ð¸":5625,"ĠÐºÐ½ÑıÐ¶Ð½Ð°":5626,"ĠÐĹÐ¼Ð¸Ñı":5627,"ĠÑģÐ²Ð¾Ð±Ð¾Ð´Ñĭ":5628,"ĠÐ±Ð¾ÑĢÑĮÐ±Ðµ":5629,"ĠÑħÐ²Ð°Ð»Ñĥ":5630,"ĠÐ·ÑĥÐ±Ñĭ":5631,"ĠÐ·Ð»Ð¾Ð´ÐµÑı":5632,"ĠÐ²Ð¾Ð·Ð¼ÑĥÑĤ":5633,"ĠÐ²ÐµÑĢÑĪÐ¸Ð½Ñĭ":5634,"ĠÐ¼ÑĥÐ·ÑĭÐºÐ°":5635,"ÐļÐ¾Ð½ÐµÑĩÐ½Ð¾":5636,"ĠÐ²Ð¸ÑħÐ¾ÑĢ":5637,"ĠÐ¼ÐµÐ½ÑĮÑĪÐµ":5638,"ĠÐ¼Ð¾Ð½Ð°ÑģÑĤ":5639,"ĠÐ³ÑĢÐµÐ¼Ð¸ÑĤ":5640,"ĠÑģÐ¾Ð¶Ð°Ð»":5641,"ĠÐ¶ÐµÑĢÑĤÐ²Ð°":5642,"Ð»ÑĳÐ¹":5643,"ĠÐ¾ÐºÐµÐ°Ð½":5644,"Ð±ÑĥÑĢÐ³":5645,"ÐŁÐ¾Ð¹Ð¼":5646,"ĠÑģÑĢÐ°Ð·Ñĥ":5647,"ÐŁÑĢÐ¾Ð·ÑĢÐ°Ñĩ":5648,"ĠÐŁÐ¾ÑģÐ»ÐµÐ´ÑĭÑĪ":5649,"ĠÐ¿ÐµÑīÐµÑĢ":5650,"ĠâĢ¦Â»":5651,"Ð¾ÐµÐ¼":5652,"Ð¾ÑĦ":5653,"ÑĤÐ°Ð²":5654,"ÑģÐºÐ¾Ñİ":5655,"ÑĢÐµÑī":5656,"Ð»ÐµÐ²":5657,"Ð»ÐµÑģÑĤ":5658,"Ð»Ð¾Ð³Ð¾":5659,"ÑĥÐºÐ¾Ð¹":5660,"ÑĭÑī":5661,"ÑĭÐ´Ð°":5662,"ĠÑģÑĥ":5663,"ĠÑģÐ°Ð»":5664,"ĠÑģÐ°ÑĢ":5665,"ĠÑģÐµÐ½ÑĮ":5666,"ĠÑģÐµÐ½Ð¸":5667,"ĠÑģÐµÐ»Ðµ":5668,"Ð²Ð¾Ð·Ð´":5669,"ĠÐ½Ð¾ÑĪ":5670,"Ð¼ÐµÐ»":5671,"Ð¼ÐµÑħ":5672,"ĠÑĤÐµÑĤ":5673,"ĠÑĤÐ°Ð±":5674,"ĠÑĤÐµÐ»Ð¾":5675,"ÐµÑĤÐµÐ»Ð¸":5676,"Ð°Ð»Ñĥ":5677,"ĠÐ¸ÐºÐ¾Ð½":5678,"Ð¾Ð²Ñĥ":5679,"Ð¾Ð²Ð¾Ð»":5680,"Ð¾Ð²ÐµÐ´":5681,"ĠÐ±Ð°Ð·":5682,"ĠÐ¼Ð¸Ð¼":5683,"ÐµÑĢÑĪÐ¸ÑģÑĮ":5684,"ĠÐºÐ»Ð¾Ð½":5685,"ĠÐºÐ¾Ð¼Ð½":5686,"ĠÐºÐ»Ð¸Ðº":5687,"ÐµÐ»ÐµÑģÑĤ":5688,"Ð¾Ð¼Ñĭ":5689,"Ð¸Ð»ÑĮÐµ":5690,"ÐĿÐ°Ð»":5691,"ĠÐ·Ð¼":5692,"ĠÐ·Ð°Ð¹":5693,"ÐµÐ¼Ð½":5694,"ÐµÐ¼ÐµÐ½":5695,"ĠÑĢÐµÑģ":5696,"Ð°ÑĤÑĥ":5697,"ĠÐ¿ÑĢÐµÐºÐ»Ð¾Ð½":5698,"ÐĴÑĭÑĪ":5699,"ÐĴÐ½Ð¾Ð²ÑĮ":5700,"ÑĨÐ°ÑĤÐ¸":5701,"Ð³Ð´Ðµ":5702,"Ð³Ð¸Ð¿":5703,"Ð°ÑģÐ½Ð¾":5704,"ÐµÐ¹ÑĪÐ¸Ð¹":5705,"ĠÐ½ÐµÑĳ":5706,"Ð°Ð´Ðµ":5707,"ÐµÑģÐ¿":5708,"ÐµÑģÐºÐ¸Ñħ":5709,"Ð¸Ð½ÐµÑĤ":5710,"ÐļÐ°ÑĤ":5711,"ÐļÐ°Ð¶Ð´":5712,"ÐļÐ¾Ð²Ð°ÑĢ":5713,"ÐºÐ¸Ð¿":5714,"Ð¾Ð±ÐµÐ´":5715,"Ð¾Ð±ÑĢÐ°":5716,"Ð¢Ð°ÑĤÑĮÑı":5717,"Ð¾ÐºÑĢÐ°ÑĤ":5718,"Ð¸Ð²ÑĪÐ¸":5719,"ĠÐ¶Ð´ÑĥÑĤ":5720,"ÐµÐ²Ñĥ":5721,"ÐµÐ²Ð¸Ñĩ":5722,"ÐµÑĩÐµ":5723,"ĠÑģÐ²ÑıÑĤÐ¾":5724,"ĠÐ¾ÑĤÐ±":5725,"ĠÐ±ÑĭÑĤ":5726,"ÐŁÑĢÐ¾Ð´":5727,"ÐŁÑĢÐ¸Ñħ":5728,"ÐŁÑĢÐµÐ»ÐµÑģÑĤ":5729,"ÑĥÑĪÐº":5730,"ĠÑģÐ»Ð¾Ð¼":5731,"ÐĳÐµÐ¶Ð¸ÑĤ":5732,"ÐĹÐ½Ð°ÐºÐ¾Ð¼":5733,"Ð£ÑĪ":5734,"Ð£ÑģÐ¿":5735,"ĠÐ¾Ð±Ð¾Ð»ÑĮ":5736,"ĠÐ¾Ð±Ð»Ð°Ð´":5737,"ĠÐ¾Ð±ÑĪÐ¸ÑĢ":5738,"ÑģÑĤÐ²ÑĥÐ¹":5739,"ĠÐ³ÑĢÑı":5740,"ĠÐ³ÑĢÑĭÐ·":5741,"ĠÐ¿Ð¾ÑĥÑĤÑĢÑĥ":5742,"ĠÐ²ÑĭÐ³":5743,"Ð´Ð°ÐµÑĤÑģÑı":5744,"ĠÑĪÐ¸Ð½":5745,"ĠÐ¸Ð·Ð¾":5746,"ĠÑģÐºÑĢÑĭÐ²":5747,"ĠÑĢÐ°Ð·Ð²ÐµÑĢ":5748,"ÐłÑĥÐ±":5749,"ĠÑĤÑĢÑĥÐ¿":5750,"ĠÐĴÐ¾ÑģÑĤ":5751,"ĠÐ¢Ð¸Ð¼Ð¾":5752,"ĠÐ·Ð°Ñī":5753,"ÐĽÐ¸Ðº":5754,"ÐĽÐµÐ¶Ð¸ÑĤ":5755,"ĠÑģÐ¼ÑĭÑģÐ»":5756,"ĠÐŁÑĥÑģÑĤÑĮ":5757,"ÑĥÑħÐ¸":5758,"ĠÑĤÐ°ÐºÐ¾Ð²":5759,"ĠÑĤÐ°ÐºÐ°Ñı":5760,"ĠÐ¿Ð»ÑĥÑĤ":5761,"ĠÐ¿Ð»Ð¾ÑĤÑĮ":5762,"ĠÐ²Ð¾Ð·Ð¶":5763,"Ð½ÐµÐ¹ÑĪÐ¸Ð¹":5764,"ĠÑģÑĤÑĢÐ°Ð½Ð°":5765,"ĠÐ¿ÑĢÐ¸ÑģÑĤÑĥÐ¿":5766,"Ð°Ð»ÑĮÐ½ÑĭÑħ":5767,"ĠÐĶÐ°ÑĢ":5768,"ĠÐĵÐ¾ÑĢ":5769,"ÑĳÐ½Ð½Ð°Ñı":5770,"ĠÐļÐ°ÑĢ":5771,"ĠÐļÐ¾Ð³Ð´Ð°":5772,"ĠÐ½Ð°ÑĪÐµÐ³Ð¾":5773,"ĠÑģÑĤÐ°ÑĢÑĭÐµ":5774,"ĠÑģÑĤÐ°ÑĢÐ¸Ð½Ñĭ":5775,"ĠÐ¿Ð¾ÑĢÐ°Ð¶":5776,"ĠÐ¿Ð¾ÑĢÐ¾Ñİ":5777,"Ð¢Ð°ÐºÐ¾Ð¹":5778,"ĠÐ²Ð¸Ð´Ð¾Ð¼":5779,"ĠÐ²ÐµÑĢÑİ":5780,"ĠÐ²Ð¾Ð»Ñı":5781,"ĠÐ²Ð¾Ð»Ð½Ð°Ñħ":5782,"ÐĺÐ·Ð´":5783,"ĠÐ´ÑĢÑĥÐ³Ð¸":5784,"ĠÐ´ÑĢÑĥÐ³Ð°Ñı":5785,"ĠÑĢÐ¾Ð´Ñĥ":5786,"ĠÐłÑĥÑģÐ»":5787,"ĠÐłÐ°ÑĦÐ°":5788,"ĠÐ¿Ð¾Ð¼Ð¾Ð³":5789,"ĠÐ²Ð¾Ð¾Ð±ÑĢÐ°Ð¶":5790,"ĠÐ¼Ð¾Ð³ÑĥÑī":5791,"ĠÑĥÑĤÐ²ÐµÑĢÐ¶":5792,"ĠÐ¿Ð¾ÑĤÐ¾Ð¿":5793,"ĠÐ²Ð´Ð¾Ð»ÑĮ":5794,"ÑıÑīÑĥÑİ":5795,"ĠÐ¿ÑĢÐ°Ð²Ð´Ðµ":5796,"ÐµÑģÑĤÐ²Ñĥ":5797,"ĠÐ¾Ð³Ð½Ðµ":5798,"ĠÐ±ÐµÐ´Ðµ":5799,"ĠÐ¶Ð¸Ð²ÑĭÑħ":5800,"ĠÐ¾ÑģÑĥÐ¶Ð´":5801,"ĠÑģÐ¾Ð±Ð°Ñĩ":5802,"ĠÐ²Ð¿ÑĢÑıÐ¼":5803,"ĠÐ²Ð¿ÑĢÐµÐ´ÑĮ":5804,"Ð¡Ð¿ÐµÑĢÐ²Ð°":5805,"ĠÐºÐ¾Ð»Ð´Ñĥ":5806,"ĠÐĽÐµÐ½":5807,"ĠÐĽÐ¸ÑĪÑĮ":5808,"ÐŁÐ¾ÐºÐ¾Ð¹":5809,"ĠÐ¼Ð¾Ð¶ÐµÑĪÑĮ":5810,"ĠÐ½ÐµÐ²Ð¾Ð»ÑĮÐ½Ð¾":5811,"ĠÐ½ÐµÐ´ÑĢ":5812,"ĠÐ¼Ð¾Ð»Ð¾Ð´ÐµÑĨ":5813,"ĠÐ¼Ð¾Ð»Ð¾Ð´ÑĨÑĭ":5814,"ĠÐŁÑĢÐ¾Ðº":5815,"ĠÐ¿Ð¾Ð¿Ñĥ":5816,"ĠÐ¿ÑĢÐ¾ÑģÑĤÐ¾ÑĢ":5817,"ĠÑĢÐ°Ð´Ñĭ":5818,"ĠÐ½Ð¾Ð²ÑĥÑİ":5819,"ĠÐ·Ð°Ð¼ÑĭÑģÐ»":5820,"ĠÐ²ÐµÑĤÑĢÐµÐ½":5821,"ĠÐ´Ð¾Ð±ÑĢÐ¾":5822,"ĠÐ²Ð·Ð¾ÑĢÑĭ":5823,"ĠÐ²Ð·Ð¾ÑĢÐ¾Ð¼":5824,"ĠÑĤÑĢÑĥÐ´Ð¾Ð²":5825,"ĠÑĤÑĢÑĥÐ´Ð¾Ð¼":5826,"ĠÑģÑĤÑĢÐ°Ð½Ñĥ":5827,"ĠÑĥÐ·Ð½Ð°Ð»":5828,"ĠÐ²ÐµÐ´ÑĮÐ¼":5829,"ĠÑĤÐ¸ÑħÐ¸Ð¹":5830,"ĠÐ´Ð²ÐµÐ½":5831,"ĠÐ½Ð°ÑĩÐ°Ð»ÑĮ":5832,"ĠÐ¿Ð¾Ð½Ð¸Ðº":5833,"ÐĽÑİÐ±Ð»Ñİ":5834,"ĠÐ¥ÑĢÐ¸ÑģÑĤ":5835,"Ð¡Ð²Ð¾Ñİ":5836,"Ð¡Ð²ÑıÑī":5837,"ĠÑģÐµÐ¼ÑĮ":5838,"ĠÐ¿Ð¾Ð·Ð²Ð¾Ð»":5839,"ĠÑĨÐ²ÐµÑĤÐ¾Ð²":5840,"ÐĴÐ¾Ð·Ð²":5841,"ĠÑĥÑģÑĭÐ¿":5842,"ĠÐ²Ð°ÑĪÐµ":5843,"ĠÐ²Ð°ÑĪÐµÐ¹":5844,"ÐµÐ¶Ð´Ñĭ":5845,"ÐĵÑĢÐµÑħ":5846,"ĠÐ½ÐµÐ±ÐµÑģÐ°":5847,"ĠÐ½ÐµÐ±ÐµÑģÐ½ÑĭÑħ":5848,"ĠÑģÐ»ÐµÐ´Ð°":5849,"ĠÐ¼Ð¾Ð»ÑĩÐ°Ð»Ð¸Ð²":5850,"ĠÐ´Ð¾ÑģÑĤÑĥÐ¿":5851,"ĠÑģÑĤÐ¾Ð»Ð¾Ð¼":5852,"Ð°ÑİÑīÐ¸Ð¼":5853,"ĠÐ²Ð·Ð´ÑĢÐ¾Ð³":5854,"Ð¾Ð¹Ð´ÑĳÑĤ":5855,"ĠÑģÑĥÐ´ÑĮÐ±Ñĭ":5856,"ĠÑģÑĥÐ´ÑĮÐ±Ð¾Ð¹":5857,"ĠÐ²Ð¾Ð¿ÑĢÐ¾ÑĪ":5858,"ĠÐ²ÑĢÐ°Ð³Ð°":5859,"Ð½Ð°ÑĩÐ°Ð¹":5860,"ĠÐ±ÐµÐ³ÑĥÑĤ":5861,"ĠÑĢÐµÐºÐ¾Ð¹":5862,"ĠÐºÑĢÑĭÐ»Ð¾Ð¼":5863,"ÐļÐ¾ÑĤÐ¾ÑĢÑĭÑħ":5864,"ÐļÐ¾ÑĤÐ¾ÑĢÑĭÐ¼":5865,"ĠÐ¿ÑĢÐ¾ÑģÐ¸ÑĤ":5866,"ĠÑģÑĤÑĢÐ°ÑħÐ¾Ð¼":5867,"ĠÐ²ÐµÑĩÐµÑĢÐ°":5868,"ĠÐ²ÐµÑĩÐµÑĢÐ¾Ð¼":5869,"ĠÑĤÐ°Ñī":5870,"Ð¡Ð²Ð¾ÐµÐ¹":5871,"ĠÐ´Ð¾Ð²ÐµÑĢ":5872,"ĠÐ³ÑĢÐµÑħÐ°":5873,"ĠÐ±ÐµÑģÐ¿Ð»Ð¾Ð´":5874,"ĠÐ±Ð¾Ð³Ð°ÑĤÑĭÑĢÑĮ":5875,"ÐĿÐµÐ²Ð¸Ð½":5876,"ĠÐ¿ÑĢÐ¸Ð±Ð°Ð²":5877,"Ð°Ð½ÑĤÑĥÐ¹":5878,"ĠÑĤÑĥÑĩÐ°":5879,"Ð¾Ð»Ð²Ð¸Ð»":5880,"ÐĿÐµÐ´Ð²Ð¸Ð¶":5881,"ÑıÑģÐ½":5882,"ĠÐ¿ÑĢÐ¾Ð±ÑĥÐ¶Ð´":5883,"ĠÑģÐ»ÑĥÑĪÐ°ÑĤÑĮ":5884,"ĠÐ·Ð»Ð¾Ð±Ð°":5885,"ĠÐ±Ð¸ÑĤÐ²Ðµ":5886,"ĠÑĪÑĥÑĤÑı":5887,"ĠÐ¿Ð»ÐµÑĩÐ¸":5888,"ĠÐ·Ð´ÑĢÐ°Ð²":5889,"ĠÐ²ÑĤÐ¾ÑĢÐ¾Ð¹":5890,"ĠÐ³Ð¾ÑĢÑĮÐºÐ¾":5891,"ĠÐºÐ°ÑĤÐ¾ÑĢÐ³":5892,"ÐŀÑģÑĤÐ°Ð½Ð¾Ð²":5893,"ĠÐºÐ½Ð¸Ð¶":5894,"ĠÐ´ÑĭÑĪÐ¸ÑĤ":5895,"ÐŁÐ¾ÑĪÐ»Ð¸":5896,"ÐŁÐ¾ÑĪÐ»Ð°":5897,"ĠÐ¶ÐµÑģÑĤÐ¾Ðº":5898,"Ð¸ÑĩÐµÑģÐºÐ¸Ñħ":5899,"ĠÐ¿Ð¾Ð¹Ð¼":5900,"ĠÐ³Ð»ÑĥÑħÐ¾Ð¹":5901,"ĠÑģÐ²Ð¾Ð±Ð¾Ð´Ð°":5902,"ĠÑģÐ²Ð¾Ð±Ð¾Ð´Ñĥ":5903,"ĠÐ¿Ð¾Ð¼Ð¾ÑīÑĮÑİ":5904,"ĠÐ»Ð¾ÑĪÐ°Ð´ÐµÐ¹":5905,"ĠÑģÐµÑĢÐµÐ±ÑĢÑı":5906,"ĠÑĢÐµÐ·Ð²":5907,"ĠÐ¶ÐµÑĢÑĤÐ²Ñĥ":5908,"ĠÐ´Ð²ÐµÑĢÐ¸":5909,"ĠÐ·Ð²ÐµÑĢÐµÐ¹":5910,"ÐĿÐ°ÑĩÐ°Ð»ÑĮ":5911,"ÐĿÐ¸ÑĩÐµÐ³Ð¾":5912,"ÐĹÐ°ÑģÐ»":5913,"ĠÐ´Ð¾ÑĩÐµÑĢÐ¸":5914,"ÐĹÐ´Ð¾ÑĢÐ¾Ð²":5915,"Ð£ÑģÐ»ÑĭÑĪ":5916,"ĠÐ¾Ð¼ÑĢÐ°Ñĩ":5917,"ĠÐ¾Ð±Ð½Ð°Ð¶":5918,"ĠÐ¿Ð¾ÑĢÑĤÑĢÐµÑĤ":5919,"ĠÐºÑĥÐ´ÑĢÐ¸":5920,"ÐľÐ¾ÑĢÐ¾Ð·":5921,"ĠÑĤÑĢÐ¸Ð´ÑĨÐ°ÑĤÑĮ":5922,"ĠÑģÐ¾Ð´ÑĢÐ¾Ð³":5923,"ÐĴÐºÑĥÑĪ":5924,"ÐļÐ»ÑıÐ½ÑĥÑģÑĮ":5925,"ĠÐ½ÐµÐ²Ð·Ð½Ð°ÑĩÐ°Ð¹":5926,"Ð¨Ð¸ÑĢÐ¾Ðº":5927,"ĠÐĵÐ°Ð²ÑĢÐ¸Ð¸Ð»":5928,"ĠÑģÐºÐ°ÑĤÐµÑĢÑĤÑĮ":5929,"ĠÑģÐ¾ÑİÐ·":5930,"ĠÐ²Ð½ÐµÑĪ":5931,"ĠÐĵÑĥÐ±Ð¸Ð½Ñĭ":5932,"Ð¿ÑĢÐµÐ¶Ð½ÐµÐ¼Ñĥ":5933,"ĠÐ²Ð¸ÑħÐ¾ÑĢÑĮ":5934,"ĠÐ¢Ð¸Ð¼Ð¾ÑĦÐµ":5935,"Ð¾ÑĨ":5936,"ÐµÑıÐ»":5937,"ÑĤÐ°Ð»":5938,"ÑĢÐ¸Ð½":5939,"ÑĢÐ¸Ð²":5940,"ÑĢÑĥÑĩ":5941,"ÑĢÐµÑĤÑĮ":5942,"Ð½Ð´":5943,"Ð½Ð¾Ð±":5944,"Ð½ÐµÐ¿":5945,"Ð»Ð¸ÑĤ":5946,"Ð»Ð¾Ð¿":5947,"Ð»ÑĥÐ¿":5948,"ÑĥÑıÑģÑĮ":5949,"ÑıÐµÑĤÑģÑı":5950,"ĠÑģÐ¸":5951,"ĠÑģÑĥÐ³":5952,"ĠÑģÑĥÑĢ":5953,"ĠÑģÐºÐ°Ñĩ":5954,"ÐºÐ°Ð»":5955,"ĠÐ²Ð°ÑĢ":5956,"ĠÐ²Ð¸Ð·":5957,"ĠÐ²ÑıÐ·":5958,"Ð²Ð¾Ð±Ð¾Ð´":5959,"Ð´Ð°Ð¹":5960,"ĠÐ½ÑıÐ½":5961,"ÑĪÐºÐ°":5962,"ÐµÐ½Ð¸Ðº":5963,"ÐµÐ½Ð½ÐµÐ¹":5964,"ÐµÐ½Ð½ÑĭÐ¼Ð¸":5965,"ĠÑĤÐ°Ð½":5966,"ĠÑĤÐ°Ð½ÐºÐ¸":5967,"ĠÐ¾ÑĪÐ¸Ð±":5968,"ÐµÑĤÐ¾Ð²":5969,"ÐµÑĤÐ½Ð¾":5970,"Ð¾Ð»ÐµÐ±":5971,"ĠÐ´Ð°Ð½ÑĮ":5972,"ĠÐ´Ð¸ÐºÐ¸Ð¹":5973,"ĠÐ¸ÑīÐµÑĤ":5974,"Ð¾Ð²ÐµÑĤ":5975,"Ð¾Ð²Ð¾Ð»ÑĮ":5976,"ĠÐ¼Ð°ÑģÑĤ":5977,"ĠÐºÐ»Ñİ":5978,"ĠÐºÐ¾ÑģÑĤÐ¸":5979,"ÐµÐ»Ð¸Ð½":5980,"Ð¸ÑĤÐ°Ñı":5981,"Ð¾Ð´Ð¾Ð»":5982,"Ð¾Ð´Ð½Ð¾Ð¹":5983,"Ð¾Ð´Ð¸Ð»Ð°":5984,"Ð¸Ð»ÑĮÑı":5985,"ÐĿÐ°Ð¹":5986,"ĠÐ·ÐµÐ»":5987,"ĠÐ·Ð½Ð°Ñı":5988,"ĠÐ·ÐµÑĢÐ½Ð¾":5989,"ÐĺÐ½ÑĭÐµ":5990,"ÐµÐ¼ÑĭÐ¹":5991,"ĠÑĢÐ¾Ð¹":5992,"ĠÑĢÑĥÐ´":5993,"ĠÑĢÐ¾ÑģÑĤ":5994,"ĠÑĢÐ¸Ð³":5995,"ĠÑĢÐ°Ð½Ñĭ":5996,"ĠÐ³ÑĢÐ°":5997,"Ð°ÑĤÐ¾ÑĩÐ½Ð¾":5998,"ĠÐ¿ÑĢÐ¾ÑĤ":5999,"ĠÐ¿ÑĢÐµÐ¿":6000,"ĠÐ¿ÑĢÐµÑĢÐ²":6001,"ĠÐ¿ÑĢÐ¾Ð»ÐµÑĤ":6002,"ÐŁÐ¾ÑĤÑĢÐµÐ±":6003,"ÐĴÐµÑĩ":6004,"ÐĴÐ¾Ð»ÑĮ":6005,"ÐĴÑģÑĤÑĥÐ¿":6006,"ÐĴÐ½ÐµÐ·Ð°Ð¿Ð½Ð¾":6007,"Ð¾Ð³Ð¾Ð¼":6008,"Ð¾Ð³ÑĥÑīÐ¸Ð¹":6009,"Ð½Ð¾ÑģÑĤ":6010,"Ð¡Ð°Ð²":6011,"Ð¡Ð¸Ð»Ð°":6012,"Ð¡Ð¾Ð±ÑĢ":6013,"Ð±Ð°Ñİ":6014,"Ð¿Ð¾ÑĢ":6015,"ÑĨÐµÐ¹":6016,"Ð¾ÑĤÐµÑĨ":6017,"Ð³Ð¾Ð½":6018,"ĠÐ»ÑĳÐ³":6019,"ÐµÐ´ÐµÐ¼":6020,"ÐµÐ´Ð½ÐµÐ²":6021,"Ð°Ð²Ð°ÑĤÑĮ":6022,"Ð½Ð¸ÑģÑĤ":6023,"ĠÑĩÑĢÐµÐ·":6024,"ÐµÑģÐ»Ð¸":6025,"Ð¸Ð½Ð°Ñħ":6026,"Ð¸Ð½ÑĥÑĤÑĮ":6027,"ÐļÐ°Ñĩ":6028,"ÑĥÐ´Ð¸Ð»":6029,"Ð¾ÐºÑĥÐ¿":6030,"Ð¸Ð²Ð°Ð»Ð¸":6031,"Ð¸Ð²Ð°ÑİÑĤ":6032,"Ð¸Ð²Ð°ÑĤÑĮÑģÑı":6033,"Ð¸Ð²ÑĪÐ¸Ñħ":6034,"ĠÐ¶ÐµÑĢ":6035,"ÐµÐ²Ð°Ð»Ð¸":6036,"Ð¸Ð¼Ð°Ñı":6037,"ÐµÑģÑĤÐ¸Ð²":6038,"ĠÐµÐ´Ñĥ":6039,"ÐĶÐ°Ð»":6040,"ÐĶÑĥÐ±":6041,"ÐĶÐ°Ð»ÑĮ":6042,"ÐĶÑĢÐµÐ¼":6043,"ÐĶÐ°Ð»ÐµÐºÐ¾":6044,"Ð»Ð¸ÑģÑı":6045,"ĠÑĥÐ»ÐµÑĤ":6046,"Ð¾ÑĩÐ½Ð¾Ð¹":6047,"ÐºÐ°ÑĩÐµÑĤ":6048,"ÐµÐ³Ð°":6049,"ÐŁÑĢÐ¸ÑĤ":6050,"ÐŁÑĢÐ¸Ð³":6051,"ÐŁÑĢÐµÑģÑĤÑĥÐ¿":6052,"Ð»Ð°ÑģÑĤÐ¸":6053,"Ð§ÐµÐ¹":6054,"Ð§Ð°Ð¹":6055,"ÑĥÑĪÐµÐº":6056,"ĠÑģÐ»ÑĥÐ³":6057,"Ð»ÑıÑİÑĤ":6058,"ÐľÑıÑĤÐµÐ¶":6059,"ÐĳÐ»Ð¸ÑģÑĤ":6060,"Ð¸ÑĢÐ°Ð»":6061,"ÐĹÐ½Ð°ÑĤÑĮ":6062,"Ð£ÑģÑĤ":6063,"ÐĲÐ²":6064,"ÐĲÐ»ÐµÐº":6065,"ÐĲÑĢÑħÐ°Ð½Ð³ÐµÐ»":6066,"ĠÐ¾Ð±Ð½Ð¾Ð²":6067,"ÐĵÑĥÑģÑĤ":6068,"ĠÐ¿Ð¾Ð´Ð½ÑıÐ»":6069,"ĠÐ¿Ð¾Ð´Ð½ÑıÐ²":6070,"ÑģÐºÐµ":6071,"ÑģÐºÐ°ÑĤÑĮ":6072,"ĠÐ²ÑĭÐ¼":6073,"ĠÐ²ÑĭÑħÐ¾Ð´Ð¸ÑĤ":6074,"Ð´Ð°ÑİÑĤ":6075,"ĠÑĪÐµÑİ":6076,"ĠÐºÐ°ÐºÐ¸Ðµ":6077,"ĠÐ¸Ð·ÑĬ":6078,"ÑĥÐ±Ð¸Ð»":6079,"ĠÐĿÐµÐ¼":6080,"ĠÐĿÐ¸Ð¼":6081,"ĠÑģÐºÐ°Ð¶Ð¸":6082,"ĠÑĢÐ°Ð·ÑĢÑĥÑĪ":6083,"ĠÐ¿Ð¾Ð»ÑĥÐ´":6084,"ĠÐ¿Ð¾Ð»Ð½Ð¾Ð¹":6085,"ĠÐ¿Ð¾Ð»ÐºÐ¾Ð²":6086,"ĠÐ¿Ð¾Ð»Ð½Ð¾Ñĩ":6087,"ÐłÐ°Ð²":6088,"ĠÐĴÐ¿":6089,"ÐķÑĢ":6090,"Ð¸ÑĩÐ½Ð¾":6091,"ĠÐ¢Ð°Ð½Ð¸":6092,"ÐĽÑĥÐºÐ°Ð²":6093,"ĠÐŁÑĢÐ°":6094,"ĠÐ±ÐµÐ·Ð¾ÑĤ":6095,"ĠÑĤÐ°ÐºÐ¾Ð³Ð¾":6096,"ĠÑĤÐ°ÐºÑĥÑİ":6097,"ĠÐ¿Ð»Ð¾Ð´Ð°":6098,"ĠÐ²Ð¾Ð·Ð½":6099,"ÑĥÑĢÑĥ":6100,"ÑĥÑĢÐ°Ð²":6101,"ĠÐ°Ð¼":6102,"ĠÐĳÐµÐ·":6103,"ĠÐĲÐ²":6104,"ĠÐĲÐ»ÐµÐº":6105,"ÑĭÐ²Ð°ÐµÑĤÑģÑı":6106,"ĠÐ±Ð»ÑİÐ´":6107,"Ð°Ð»ÑĮÐ½ÑĭÐµ":6108,"ĠÐŀÐ»ÐµÐ³":6109,"ĠÐ¼Ð¾ÐµÐ¼Ñĥ":6110,"ĠÐ±ÑĢÐ¾Ð½":6111,"ĠÐĶÐ¾Ð¼":6112,"ĠÐ»ÑİÐ±Ð¸Ð»Ð°":6113,"ĠÐľÐ°ÑĢ":6114,"ĠÐľÐ½Ð¾Ð¹":6115,"ÑĳÐ½Ð½Ð¾Ð³Ð¾":6116,"Ð°ÑĪÐµÐ½ÑĮÐºÐ°":6117,"Ð½Ð¾Ð²Ð°":6118,"Ð¢Ð°ÐºÐ¾Ðµ":6119,"ĠÑĢÐ°ÑģÐºÑĢ":6120,"ĠÑĢÐ°ÑģÑĩÐµÑĤ":6121,"ĠÑĢÑĥÐºÐ°Ð¼Ð¸":6122,"ĠÐ´Ð¾Ð»Ðµ":6123,"ÑĦÐ°Ð½":6124,"ÐµÐ½ÑĮÑıÐ¼":6125,"ĠÐ²ÐµÑĢÑĮ":6126,"Ð¸ÑĤÐµÐ»ÑĮÐ½ÑĭÐµ":6127,"ÐĺÐ·Ð²ÐµÑģÑĤ":6128,"ĠÐºÐ¾Ð½Ð¸":6129,"ĠÐºÐ¾Ð½ÑĨÐµ":6130,"ĠÑĥÐ¼Ð¾Ð¼":6131,"ĠÐ¿Ð¾Ð¼ÑĭÑģÐ»":6132,"ĠÐ¼Ð¾Ð³ÑĥÑĤ":6133,"ĠÑĥÑĤÐµÑħ":6134,"ÐĸÐ´":6135,"ÐĸÐ¸Ð»":6136,"Ð»ÐµÐ½Ð¸Ñı":6137,"ÑıÑīÐ¸Ðµ":6138,"ĠÐ¿ÑĢÐ°Ð²Ð´":6139,"ÑıÐ½ÐºÐ¸":6140,"Ð¸Ð±Ð¸ÑĤ":6141,"ĠÐ·Ð½Ð°Ð¹":6142,"ÑĢÐ°ÑĤÐ¸ÑĤÑĮ":6143,"ÐŀÐ±Ð¼Ð°Ð½":6144,"ĠÐ¾Ð³Ð»Ð°Ñģ":6145,"ĠÐ¶Ð¸Ð²Ð¾ÑĤ":6146,"ĠÑĨÐ°ÑĢÐ¸ÑĨÐ°":6147,"ĠÐ±Ð¾Ð»ÑĮÐ½Ð¾Ð¹":6148,"ĠÐºÑĢÐ°ÑģÐ½ÑĭÐµ":6149,"ĠÐ¿Ð¾Ð³Ð°Ñģ":6150,"ĠÐ¿Ð¾ÑģÐµÐ»":6151,"ĠÐ¿Ð¾ÑģÐµÐ¼Ñĥ":6152,"ĠÐ²Ð¾Ð´Ñĥ":6153,"ĠÐ´Ð¾Ð¼Ð°ÑĪ":6154,"ĠÐ·Ð°Ð²Ð»Ð°Ð´":6155,"ĠÐ³Ð¾Ð»Ð¾Ð²Ðµ":6156,"ĠÐ½Ð¾Ð²Ð¾Ðµ":6157,"ĠÐ½Ð¾Ð²Ð¾Ð·Ð´":6158,"ĠÑģÐ¾Ð²ÐµÑģÑĤÐ¸":6159,"ÐĳÐµÐ·ÑĥÐ¼":6160,"ĠÐ²ÑĢÐµÐ¼ÑĳÐ½":6161,"ĠÐ²ÐµÑĤÐ²":6162,"ĠÐ¿ÑĢÐ¸Ð²Ð»ÐµÐº":6163,"ĠÐ»ÑĥÑĩÐ¸":6164,"ĠÐ´Ð¾Ð±ÑĢÑĭÐµ":6165,"ĠÐŀÐ½ÐµÐ³":6166,"ĠÐ¼ÐµÑĩÐ¾Ð¼":6167,"ĠÑĢÐ°Ð±Ð¾ÑĤÐ°":6168,"ÐŁÑĢÐµÐ´Ð¼ÐµÑĤ":6169,"ĠÐ¶ÐµÐ½Ð¾Ð¹":6170,"ĠÑģÑĭÑĢ":6171,"ĠÑģÑĭÐ¿":6172,"ĠÐ¿Ð°ÑĢÑĭ":6173,"ĠÐ¿Ð°ÑĢÑĥÑģ":6174,"ĠÑĥÐ·Ð½Ð°ÑĤÑĮ":6175,"ĠÐºÐ¾ÑĤÐ¾ÑĢÐ¾Ð¼":6176,"ĠÑĦÐ¾ÑĢ":6177,"ĠÑĦÑĢÐ°Ð½ÑĨÑĥÐ·":6178,"ĠÑĤÐ¾Ð»ÑģÑĤ":6179,"ĠÐĵÐ¾ÑģÐ¿Ð¾Ð´Ð°":6180,"ĠÐ¸ÑģÐ¿Ð¾Ð»":6181,"ĠÑĪÑĥÐ¼ÑıÑĤ":6182,"ĠÐ·Ð¾Ð»Ð¾ÑĤÐ°Ñı":6183,"ĠÐ¿Ð¾Ð½ÑıÑĤ":6184,"ĠÐ¥Ð¾ÑĢ":6185,"Ð¡Ð²Ð¸ÑĢÐµÐ¿":6186,"ĠÐ¾ÑĩÐ°ÑĢÐ¾Ð²":6187,"Ð°Ð·Ð´Ð¾":6188,"ĠÐ²Ð°ÑĪÐ¸Ñħ":6189,"ĠÐ¾Ð´Ð¸Ð½Ð¾Ðº":6190,"ĠÐ¡Ð°ÑĤÐ°Ð½Ñĥ":6191,"ĠÐ±ÐµÐ»Ð°Ñı":6192,"ÐľÐ¾Ð»Ñĩ":6193,"ĠÐ²Ð¾ÑģÑģÑĤ":6194,"Ð¾Ð¹Ð´Ñı":6195,"ĠÑħÐ¾ÑĤÐµÐ»Ð°":6196,"ĠÐ½ÐµÐ¶Ð½ÑĭÐ¹":6197,"Ð°Ð½Ð¸Ñİ":6198,"Ð°Ð½Ð¸ÐµÐ¼":6199,"ĠÐ±ÑĢÐ°ÑĤÐ°":6200,"ĠÐŃÑĤÐ¾":6201,"ĠÑĢÑĥÑģÑģÐºÐ¸Ð¹":6202,"ÐŁÐ¾ÑĢÑıÐ´":6203,"ĠÐ¢Ð²Ð¾ÑĢÑĨÑĥ":6204,"ÑĩÐ¸Ð²Ð¾":6205,"ĠÐ´Ð¾Ð»Ð³Ð¸Ð¹":6206,"Ð¡Ð²Ð¾Ð¸Ð¼":6207,"ĠÐ´Ð¾Ð²ÐµÐ»Ð¾ÑģÑĮ":6208,"ĠÐ±Ð¾Ð»ÑĤ":6209,"Ð¡ÑĤÐ¾ÑıÑĤ":6210,"ĠÐ¾ÐºÑĢÐµÑģÑĤ":6211,"ĠÐ³Ð½ÐµÐ²Ð°":6212,"ĠÑģÑĩÐ°ÑģÑĤÐ»Ð¸Ð²Ð¾":6213,"ÑĳÑĢÐ´":6214,"ĠÐ³ÑĥÐ±Ñĭ":6215,"ĠÐ¿Ð¾ÑĪÐ»Ð¸":6216,"Ð¢Ð²Ð¾ÐµÐ¹":6217,"ĠÐ´Ð°ÑĢÑĭ":6218,"ĠÐ¼Ð°ÑĤÑĥÑĪÐºÐ°":6219,"ĠÑĪÐ¸ÑĢÐ¾ÐºÐ¸Ð¹":6220,"ĠÐ¶Ð´Ð°Ð»Ð°":6221,"ĠÐ¦Ð°ÑĢÑı":6222,"ĠÑħÐ¾Ð´Ð¸Ð»":6223,"ĠÑħÐ¾Ð»Ð¾Ð´Ð½Ð¾Ð¹":6224,"ĠÐ¿Ð¾ÑħÐ¾Ð¶":6225,"ĠÑĤÑĢÐ°Ð²Ñĥ":6226,"ĠÐ±Ð°Ð±Ð°":6227,"ĠÐ¿ÑĢÐ¸ÑĪÐ»Ð¾ÑģÑĮ":6228,"ĠÐ¿Ð¾ÐºÐ»Ð¾Ð½Ð¾Ð¼":6229,"ĠÑĪÐµÐ¿ÑĩÐµÑĤ":6230,"Ð½Ð¸Ð·Ñĥ":6231,"ĠÑģÑĤÐ¾Ð½ÐµÑĤ":6232,"ĠÑĥÐºÑĢÐµÐ¿":6233,"ĠÐ½ÐµÐ·Ð½Ð°ÐºÐ¾Ð¼":6234,"ÐĴÐ¸Ð´Ð¸ÑĤ":6235,"ĠÐ²Ð¼ÐµÑģÑĤÐ¾":6236,"ĠÑĥÑģÐ¿ÐµÑħ":6237,"ĠÑģÐºÐ°Ð¶ÐµÑĤ":6238,"ĠÐ´Ð»Ð¸Ð½Ð½ÑĭÐ¹":6239,"ĠÐºÑĢÐµÑģÑĤÑĮÑıÐ½Ð¸Ð½Ñĥ":6240,"ĠÐ¿ÑĢÐ¸ÑĢÐ¾Ð´Ñĭ":6241,"ÐľÐ¾Ð¸":6242,"ĠÐ¿ÑĢÐ¸ÑĤÐ²Ð¾ÑĢ":6243,"ĠÐ´ÑĢÐ¾Ð¶Ð¸ÑĤ":6244,"ĠÐ²Ð¾Ð»Ð½ÐµÐ½ÑĮÐµ":6245,"ĠÐ¼Ð½Ð¾Ð³Ð¸Ñħ":6246,"ĠÑĥÐ³ÑĢÑİÐ¼ÑĭÐ¹":6247,"ĠÐ½ÐµÐ³Ð¸":6248,"ĠÐ²Ð·Ð³Ð»ÑıÐ´Ð¾Ð¼":6249,"ĠÐ¶ÐµÐ½ÑīÐ¸Ð½Ñĭ":6250,"ĠÑģÐºÐ¾ÑĢÐ±Ð¸":6251,"ĠÑħÑĥÐ´Ð¾":6252,"ÐŀÑģÑĤÐ°Ð²ÑĮ":6253,"ĠÑĥÑĪÐµÐ»":6254,"ĠÑĥÑĪÐ»Ð°":6255,"ĠÐ²ÑĭÑĢÐ²":6256,"ĠÑģÐ¼ÐµÑħÐ¾Ð¼":6257,"ĠÐ°ÑĢÑĦ":6258,"ĠÐ¿Ð¾Ð¼Ð¾ÑīÐ¸":6259,"ĠÐ³ÑĥÐ»ÑıÑĤÑĮ":6260,"Ð¡ÐµÑĢÐ´ÑĨÐµ":6261,"ÐŀÑĤÐ²ÐµÑĤÐ¸Ð»":6262,"ÐĺÑģÐ¿Ð¾Ð»Ð½":6263,"ĠÐ±Ð¾Ð»ÑĮÑĪÐ¾Ð¹":6264,"Ð¡Ð¿Ð°ÑģÐ¸Ð±Ð¾":6265,"ĠÐ·Ð°ÑģÐ»ÑĥÐ³":6266,"Ð¡Ð»ÑĥÑĩÐ°Ð¹":6267,"ĠÐ´Ð¾Ð³Ð°Ð´":6268,"ÐĿÐ¾ÑĩÑĮÑİ":6269,"ĠÐ²Ð°ÑħÐ»Ð°Ðº":6270,"ĠÐ²Ð¸Ð½Ð¾Ð²Ð°ÑĤ":6271,"ĠÐ¾ÑģÐ»Ð°Ð±":6272,"Ð¡Ð¾Ð»Ð´Ð°ÑĤ":6273,"ĠÐ±ÐµÐ·Ð¼ÐµÑĢÐ½Ð¾":6274,"ĠÐ¿ÑĢÐµÐ´Ð¿Ð¾Ñĩ":6275,"ÐłÐ°Ð·Ð´Ð°Ð»ÑģÑı":6276,"Ð¡ÑĥÐ´ÑĮÐ±Ð°":6277,"ÐŁÑĢÐ¾ÐºÐ»ÑıÑĤ":6278,"ÐĶÑĥÑħÐ¾Ð²":6279,"ÐĴÑģÐµÐ²ÑĭÑĪÐ½ÐµÐ³Ð¾":6280,"Ð¼Ð¸ÑģÑĤÑĢ":6281,"Ð°Ð»Ð°ÑĪÐ½Ð¸ÐºÐ¾Ð²":6282,"ĠÐ¿Ð°ÑģÐ¼ÑĥÑĢ":6283,"ĠÐ²Ð¸Ð½Ð¾":6284,"ĠÐºÐ¾Ð»Ð¾ÐºÐ¾Ð»ÑĮ":6285,"ÐŁÐ¾ÑģÐºÐ¾Ð»ÑĮÐºÑĥ":6286,"ÐĸÐ¸Ð·Ð½ÑĮ":6287,"ĠÐ¾Ð±Ð»ÐµÐ³Ñĩ":6288,"ĠÐ±ÐµÐ·Ð¼ÑıÑĤÐµÐ¶":6289,"Ð°Ð¼Ð°ÑĤÐµÑĢÑĮ":6290,".]":6291,"Ð¾ÑıÐ»":6292,"ÐµÐ¸":6293,"Ð¸ÑģÐºÐ¸":6294,"ÑģÐ°Ð½Ð´":6295,"ÑĢÐ°Ð¼Ð¸":6296,"Ð½Ð°Ð·":6297,"Ð»Ð°Ð½":6298,"Ð»Ð¸ÑĤÑĮ":6299,"Ð»ÑĭÐ¼":6300,"Ð»ÑĥÑİ":6301,"ÑĭÐ½Ð¾Ñģ":6302,"ÑĮÑĳÐ¼":6303,"ÑıÐºÐ¸":6304,"ĠÑģÐ½Ñĭ":6305,"ĠÑģÐµÐº":6306,"ĠÑģÐµÑĢÐ¿":6307,"ĠÑģÐ¶Ð°Ð»":6308,"ĠÑģÐºÐ°ÑĩÐµÑĤ":6309,"ĠÐ¿Ð°ÑĤ":6310,"ĠÐ¿Ð°Ð»Ð¸":6311,"ĠÐ¿Ð¸ÑģÑĤ":6312,"ĠÐ¿Ð°ÑģÑĤÑĮ":6313,"ÐºÐ¾Ð¼Ñĥ":6314,"ĠÐ²ÑħÐ¾Ð´":6315,"ĠÐ²ÑģÑĤÐ°Ð²":6316,"Ð²ÐµÑĢÑĤ":6317,"Ð²ÐµÐ»Ð°":6318,"ÑĩÑĤÐ¾":6319,"ÑĩÐ¸Ð¹":6320,"ÑĩÐ¸ÐºÐ¾Ð²":6321,"Ð¼ÐµÐ»ÑĮ":6322,"Ð¼Ð°Ð½Ð°":6323,"ÑĪÐµÐ»ÑĮ":6324,"ÐµÐ½ÐºÑĥ":6325,"ÐµÐ½Ð½Ð¾Ð¼":6326,"ÐµÐ½ÐµÐµ":6327,"Ð°Ð»Ð¸ÑĤ":6328,"Ð¾Ð»Ð¾Ð¶":6329,"ĠÐ´Ð½Ð¾":6330,"ĠÐ´Ð½ÑĳÐ¼":6331,"ĠÐ¸Ñī":6332,"Ð¾Ð²Ð¸":6333,"Ð¾Ð²Ð¾Ð³Ð¾":6334,"Ð¾Ð²ÑĥÑİ":6335,"ĠÐ±ÑĥÐ³":6336,"ĠÐ±ÑĥÐ±":6337,"ĠÐ±ÑĮÐµÑĤ":6338,"ĠÐ±ÑĮÐµÑĤÑģÑı":6339,"ĠÐ¼ÑĭÑĪ":6340,"ĠÐ¼Ð½Ð¸Ð¼":6341,"ĠÐ¼Ð¸Ð¼Ð¾":6342,"ĠÐ¼ÐµÐ½ÐµÐµ":6343,"ÐµÑĢÐ¸Ð»":6344,"ÐµÑĢÐµÐº":6345,"ĠÐºÐ½ÑĥÑĤ":6346,"Ð¾ÑĢÐ¾Ðº":6347,"Ð¾ÑĢÐ¸ÑĤÑĮ":6348,"ÐµÐ»ÑıÐ¼":6349,"Ð¸ÑĤÐ¾":6350,"Ð¸Ð»ÑĥÐ¹":6351,"ÐĿÐµÑĢ":6352,"ÐĿÐµÐ·ÑĢ":6353,"ĠÐ·ÐµÑĢ":6354,"ÐĺÑĤÐ°Ðº":6355,"ĠÑĢÐ°Ñİ":6356,"ĠÐ³ÑĥÑģ":6357,"ĠÐ³Ð¾ÑģÑĤÑĮ":6358,"ĠÐ³Ð½ÑĥÑģ":6359,"ĠÐ¿ÑĢÑı":6360,"ĠÐ¿ÑĢÐ¾Ð¶":6361,"ĠÐ¿ÑĢÐ¾ÑģÑĤÐ¸":6362,"ĠÐ¿ÑĢÐ¾Ð²Ð°Ð»":6363,"ÐŁÐµÐ²":6364,"ÐŁÑĥÑĩ":6365,"ÐĴÐ¾Ð½":6366,"ÐĴÐ¾Ð¶Ð´":6367,"ÐĴÑģÑĤÐ°Ð²":6368,"Ð¡Ð¾Ð½":6369,"Ð¡ÑĥÐ¿ÑĢÑĥÐ³":6370,"Ð¾ÑĤÐ²":6371,"ĠÐ»Ð¾Ð½":6372,"ĠÐ»Ð¾Ð·":6373,"ĠÐ»ÐµÐº":6374,"ĠÐ»ÐµÐ¿":6375,"ĠÐ»ÑĥÐ½":6376,"ĠÐ»ÐµÐ±ÐµÐ´ÑĮ":6377,"Ð°Ð²ÑĢ":6378,"Ð¾ÑģÑĩÐ°ÑģÑĤ":6379,"ÑīÐ¸ÐºÐ°":6380,"Ð½Ð¸Ð¼Ð¸":6381,"ĠÑĩÐµÑģÑĤÐ¸":6382,"Ð°Ð´ÑĮ":6383,"Ð°Ð´Ð¾Ð¹":6384,"Ð¸Ð½ÑĮ":6385,"Ð¾Ð½ÑĤ":6386,"ĠÑģÑĤÑĭÐ´Ð°":6387,"Ð¢ÐµÑĢÐ·":6388,"ÐµÐ²Ñĭ":6389,"ÐĶÐµÐ´":6390,"ÐĶÐ¾Ð·":6391,"ĠÑĥÐ²Ñĭ":6392,"ĠÑĥÐ½Ð¸Ñĩ":6393,"Ð¶Ð¸Ð´":6394,"Ð¾ÑĩÑĥÑĤ":6395,"ÐµÐ½ÑĮÐºÑĥ":6396,"ĠÑıÐ±Ð»":6397,"ÐµÑĩÑĥ":6398,"ÐµÑĩÐºÐ¸":6399,"ÑĥÐ³Ð¾Ð¼":6400,"ÑĥÐ³ÑĥÐ½":6401,"ĠÐ¾ÑĤÐ»Ð¸Ñĩ":6402,"ĠÐ¾ÑĤÑĢÐ°Ð¶":6403,"ĠÐ¾ÑĤÑĭÑģÐº":6404,"ÐŁÑĢÐµ":6405,"ÐŁÑĢÐµÑģ":6406,"ÐŁÑĢÐ¾Ð±":6407,"ÐŁÑĢÐ¾Ð²Ð¾ÑĢ":6408,"Ð»Ð°Ñı":6409,"Ð§Ð¸ÑģÑĤ":6410,"ĠÑħÐ°Ð½":6411,"ĠÑħÐ²Ð°ÑĤ":6412,"ĠÑħÐ¾ÑħÐ¾ÑĤ":6413,"ÐľÐ°Ð»":6414,"ÐĹÐ°Ñħ":6415,"ÐĹÐµÐ»ÐµÐ½":6416,"ÐĲÐ»":6417,"ÐĲÐ¼":6418,"Ð¸ÐºÑĥ":6419,"Ð¾Ð¿ÑĭÑĤ":6420,"Ð¸Ð¹ÑģÐºÐ¸Ñħ":6421,"ÑģÑĤÐ²ÑĥÑİ":6422,"ÐĵÐ¾ÑģÑĤ":6423,"ÐµÐ»ÑĮÐ½ÑĭÐ¹":6424,"ÐµÐ»ÑĮÐ¼Ð¾Ð¶":6425,"ĠÐ³ÑĢÐ¾ÑħÐ¾ÑĤ":6426,"ÑĥÐ¼Ð°Ð»Ð¸":6427,"ĠÐ¿Ð¾Ð´ÑĤ":6428,"ĠÐ¿Ð¾Ð´ÐµÐ»":6429,"ĠÐ¿Ð¾Ð´Ð½Ñı":6430,"ĠÐ¿Ð¾Ð´Ð½Ð¸Ð¼":6431,"ĠÐ¿Ð¾Ð´Ð·ÐµÐ¼":6432,"ÑĥÑĩÐ½Ð¾":6433,"ÑĥÑĩÐµÐ¹":6434,"ĠÐ¿Ð¾Ñİ":6435,"ĠÐ²ÑĭÐ½ÐµÑģ":6436,"ĠÐ²ÑĭÑĢÐ°Ð¶":6437,"ĠÑĪÐ¸Ð¿":6438,"ĠÑĪÐµÐµ":6439,"ĠÐºÐ°ÐºÐ¸Ð¼":6440,"ĠÐĿÐ¸Ñĩ":6441,"ĠÐĿÐ¾ÑĩÐ¸":6442,"ÐĿÐ°ÑĩÐ¸Ð½":6443,"ĠÑĢÐ°Ð·Ð¾Ð³":6444,"ĠÑĢÐ°Ð·Ð½ÑĭÑħ":6445,"ĠÑĢÐ°Ð·Ð¼Ð°Ñħ":6446,"ĠÐĴÐ¾":6447,"ĠÐĴÐ°Ð½ÑĮ":6448,"Ð¸ÑĩÐºÐ°":6449,"ÐĽÐ°Ñģ":6450,"ÐĽÐµÑģÐ°":6451,"ÐŀÑĤÑĨÐ°":6452,"ÐŀÑĤÑģÑĤÑĥÐ¿":6453,"ĠÐ³Ð¾ÑĢÐµÑģÑĤ":6454,"ĠÑģÐ¼ÑĥÐ³":6455,"ĠÑģÐ¼ÑıÐ³Ñĩ":6456,"ĠÑģÐ¿ÑĢÑıÑĤ":6457,"ĠÑįÑħ":6458,"ĠÐ»Ð¸Ð¿":6459,"ĠÐ¿ÐµÑĢÐµÐ»":6460,"ĠÐ¿ÐµÑĢÐµÑĩ":6461,"ĠÐ²Ð¾Ð·Ð³Ð»Ð°Ñģ":6462,"Ð½ÐµÐ¹ÑĪÐ°Ñı":6463,"ĠÐ¾Ð´Ð½Ð¾Ð¼":6464,"ĠÐĳÐ¾ÑĢ":6465,"ĠÑģÑĤÑĢÐ¾Ð³Ð¾":6466,"ĠÐ¼ÑĭÑģ":6467,"ĠÐĶÐ¾Ð½":6468,"ĠÐ½Ð°Ð´Ð¼ÐµÐ½Ð½ÑĭÐ¹":6469,"Ð¡ÑĤÐ¾ÑĢÐ¾Ð½":6470,"ĠÐ¿Ð¾ÐºÐ¾Ðµ":6471,"ĠÐ¿Ð¾ÐºÐ¾Ñı":6472,"ĠÐ¿Ð¾ÐºÐ¸Ð½ÑĥÐ²":6473,"ĠÑģÐ²Ð¾Ñĳ":6474,"ĠÐľÐ¸ÑĢ":6475,"ĠÐľÐµÐ½Ñı":6476,"Ð°ÑĪÑĮ":6477,"ÐŁÐ¾Ð´Ð´":6478,"ĠÐ´ÑĢÐ°Ð³":6479,"ĠÐļÐ½ÑıÐ·":6480,"ĠÐ½Ð¸Ð¶Ðµ":6481,"ĠÐ¿Ð¾ÑĢÑĭÐ²":6482,"Ð¢Ð°ÐºÐ¸Ðµ":6483,"ĠÐ½Ð°ÑģÐ¼ÐµÑĪ":6484,"ĠÐ²ÑĢÑĥÑĩ":6485,"ĠÑĢÐ°ÑģÑħÐ¾Ð´":6486,"ÐµÑīÐ°":6487,"ÑĦÐ¾Ð½":6488,"ĠÐ²ÐµÑĢÐ½ÐµÐ¹":6489,"ĠÐ²ÐµÑĢÐ½ÑĥÐ»ÑģÑı":6490,"ĠÐĹÐ°Ð¿":6491,"ĠÐ²Ð¾Ð»Ð¾ÑģÑĤÐ¸":6492,"Ð¥ÑĢ":6493,"ÐĺÐ·Ð¼":6494,"Ð»Ð¸Ð²ÑĭÐµ":6495,"ĠÐºÐ¾Ð½ÐµÑĩÐ½Ð¾":6496,"ĠÐ´ÑĢÑĥÐ³Ð¸Ð¼":6497,"ĠÑģÐ²ÐµÑĤÐµÐ»":6498,"ĠÑģÐ²ÐµÑĤÐ»Ð¾":6499,"ĠÐ½ÐµÐ¼ÑĨÐ°":6500,"ĠÐ¿Ð¾Ð¼Ð½":6501,"ĠÐ¾Ð¿ÑĭÑĤ":6502,"ĠÐ½Ð¾ÑĩÐ°Ð¼":6503,"Ð¡ÐºÐ¾Ð»ÑĮ":6504,"Ð¡ÐºÐ¾Ð»ÑĮÐ·":6505,"ĠÑģÐ¸Ð»Ðµ":6506,"ĠÐ¸Ð¼ÐµÐ½":6507,"ĠÐ¸Ð¼ÐµÐ»":6508,"ĠÐ¸Ð¼ÐµÐ½Ð°":6509,"ĠÐ²Ð´Ð°Ð»ÐµÐºÐµ":6510,"ĠÐ¿Ð¾Ð²Ð°ÑĢÐ¸ÑħÐ¾Ð¹":6511,"ĠÐ¿ÑĢÐ°Ð²Ð¾":6512,"ĠÐ¿ÑĢÐ°Ð²Ð¸Ð»":6513,"ĠÐ¿ÑĢÐ°Ð²Ð´Ñĭ":6514,"ÐļÑĢÐ¸Ðº":6515,"ĠÐ»ÐµÑĤÐ¾Ð¼":6516,"Ð¡Ð»Ð°Ð²Ð°":6517,"ÑıÐ·Ð²":6518,"ĠÑĤÐ²Ð¾Ñĳ":6519,"ĠÐ¾ÑģÑĥÑīÐµÑģÑĤÐ²":6520,"ĠÐ¿Ð¾ÑģÐ»Ð°Ð½":6521,"ĠÐ·Ð°Ð±Ð»":6522,"ÐŀÐ´Ð½Ð¸Ð¼":6523,"ÑĥÐ»ÑģÑı":6524,"ĠÐ·Ð»Ð¾Ð²ÐµÑī":6525,"ĠÐ¼Ð¸Ð»ÐµÐ¹":6526,"Ð¡Ð¿Ð¸":6527,"ĠÐºÐ¾Ð»Ð¾Ð½":6528,"ĠÐĿÐµÐ±ÐµÑģÐ½ÑĭÐ¹":6529,"ÐĿÐ°Ð´Ð¾":6530,"ĠÐ¿Ð¾ÑģÐº":6531,"ĠÐ¿Ð¾ÑģÑĭÐ»Ð°":6532,"ĠÐ½ÐµÐ²Ð¾Ð·":6533,"ĠÐ½ÐµÐ²Ð¸Ð´":6534,"Ð£Ð¶ÐµÐ»ÑĮ":6535,"ĠÐ½ÐµÐ´ÑĢÑĥÐ³":6536,"Ð¡Ð¼ÐµÑĪ":6537,"ĠÐ´ÐµÐ½ÑĮÐ³Ð¸":6538,"ĠÐ²ÐµÑĩÐ½Ð¾Ð¹":6539,"ĠÐ±Ð°ÑĢÑĭÐ½Ñı":6540,"ĠÑģÐ½Ð°ÑĢÑıÐ´":6541,"ĠÐ²ÑĭÑģÐ¾ÑĩÐ°Ð¹":6542,"ĠÐ·Ð°Ð¼ÐµÑĢ":6543,"ÑıÐ¶ÐµÑĤ":6544,"ÑĢÐ¾ÑģÐ¸ÑĤÑĮ":6545,"Ð²ÑĭÑģ":6546,"ĠÑĥÐ¿ÑĢÑıÐ¼":6547,"ĠÐ¿Ð¾ÑģÑĤÐµÐ»Ð¸":6548,"ĠÐ±ÐµÑĢÐµÐ·":6549,"ĠÑĩÐµÑĢÐ½ÑĭÐµ":6550,"ĠÑģÐ¼ÐµÑĢÑĤÑĮÑİ":6551,"ĠÐ²ÐµÑģÐ½Ð¾Ð¹":6552,"ĠÐ½ÐµÐ±Ñĥ":6553,"ÐĴÑĭÐ¿":6554,"ĠÑģÐ¾Ð½Ð¼":6555,"ĠÑģÑĭÐ½Ñĥ":6556,"ĠÑĥÐ·ÑĢÐµÐ»":6557,"ĠÐºÐ¾ÑĤÐ¾ÑĢÑĥÑİ":6558,"Ð¸Ð¿ÐµÐ»Ð°":6559,"ĠÑĤÐ¸ÑħÐ¾Ð½ÑĮÐºÐ¾":6560,"ĠÐ³Ð»ÑıÐ´Ñı":6561,"ĠÐ¶ÐµÐ»Ð°Ñı":6562,"ĠÐ´ÐµÑĤÑģÑĤÐ²Ð°":6563,"ĠÐ¸ÑģÐ¿ÑĢÐ°Ð²":6564,"ĠÐ¾ÑģÑĤÐ°Ð½":6565,"ÐĽÑİÐ±Ð¾Ð²":6566,"Ð°ÑĩÐµÐ¼":6567,"ĠÐ¾ÑĩÑĥÑĤ":6568,"ÑĭÑĩÑĥ":6569,"ĠÑĨÐ²ÐµÑĤÐ¾Ðº":6570,"ĠÑĥÑģÑĤÐ°Ñħ":6571,"ĠÐ½Ð¸ÑĩÑĥÑĤÑĮ":6572,"ĠÐ±Ð¾Ð¹ÑĨÐ¾Ð²":6573,"ĠÐ²Ð»Ð°ÑģÑĤÑĮÑİ":6574,"ÐĵÑĢÑıÐ´ÑĥÑī":6575,"ĠÐ¾ÐºÐ°Ð·":6576,"ĠÐºÐ»Ð°Ð½":6577,"ĠÐ³Ð¾ÑĢÐ´Ð¾":6578,"ĠÐ¼Ð°Ð»ÑĭÐµ":6579,"ĠÐ¼Ð¾Ð»ÑĩÐ°ÑĤ":6580,"Ð²Ð¸Ð¶Ñĥ":6581,"ĠÑģÑĤÐ¾Ð»Ð±":6582,"ĠÐ³Ð¾Ð»Ð¾ÑģÐ°":6583,"ĠÑĤÑıÐ¶ÐµÐ»ÑĭÐ¹":6584,"ĠÐ§ÐµÐ»Ð¾Ð²ÐµÐºÐ¾Ð¼":6585,"ĠÑİÐ³":6586,"ĠÐĴÑģÐµÐ²":6587,"ĠÐ²ÐµÑģÑĮÐ¼Ð°":6588,"ĠÐ¿ÑĢÐµÐ¶Ð½Ð¸Ð¹":6589,"ĠÐ²Ð¾Ð¿ÑĢÐµÐºÐ¸":6590,"ĠÐ±ÑĢÐ°ÑĤÑĨÑĭ":6591,"ĠÑıÐ²Ð¸Ð»Ð°ÑģÑĮ":6592,"ĠÑĢÐµÐºÐµ":6593,"ĠÑĢÐµÐºÐ¾Ñİ":6594,"ĠÑıÑĢÐºÐ¾":6595,"ĠÐºÑĢÑĭÐ»ÑĮÑı":6596,"ĠÐºÑĢÑĭÐ»ÑĮÑıÑħ":6597,"ĠÑĢÑĥÑģÑģÐºÐ¾Ð¹":6598,"ĠÑģÐ½ÐµÐ³Ð°":6599,"ĠÑģÐ½ÐµÐ³Ð¾Ð¼":6600,"ÐļÐ¾ÑĤÐ¾ÑĢÑĭÐµ":6601,"ÐļÐ¾ÑĤÐ¾ÑĢÑĥÑİ":6602,"ĠÐĲÐ´Ð°Ð¼Ð°":6603,"ĠÑĤÐ°Ð¹Ð½ÑĭÐ¹":6604,"ÑĩÐ¸Ð²ÑĭÐ¹":6605,"ĠÐ¿ÑĢÐ¸Ð½ÑıÑĤÑĮ":6606,"ĠÐ¿ÑĢÐ¸Ð½ÑıÐ»":6607,"ĠÑĩÐ¸ÑģÑĤÐ¾Ð¹":6608,"ĠÑĩÐ¸ÑģÑĤÑĭÐ¹":6609,"ĠÐ³ÑĢÐµÑħÐ¸":6610,"ĠÐ¾ÐºÑĢÐ¾Ð²Ð°Ð²":6611,"ĠÑĢÐ°Ð²Ð½Ñĭ":6612,"ĠÐ¿ÐµÑĩÐ°Ð»ÑĮÐ½ÑĭÐ¹":6613,"ĠÑĤÐ¸ÑĪÐ¸Ð½Ñĭ":6614,"ĠÐ³Ð¾ÑĤÐ¾Ð²Ð°":6615,"ÐĿÐµÐ²Ð¾Ð»ÑĮÐ½Ð¾":6616,"ĠÐ³Ð½ÐµÐ²Ð¾Ð¼":6617,"ĠÐ¾ÑħÑĢÐ°Ð½":6618,"ĠÑĥÐ¶Ð°ÑģÐ¾Ð¼":6619,"ĠÐ³ÑĢÐ¾Ð±Ñĥ":6620,"ÐĿÐµÑģÑĩÐ°ÑģÑĤ":6621,"ÐĿÐµÑģÐ¼ÐµÑĤ":6622,"ĠÐ¿ÑĢÐ¾ÑĩÐ¸Ñħ":6623,"ĠÐ¿ÑĢÐ¾ÑĩÐ¸Ðµ":6624,"ĠÑģÐ»ÑĥÐ¶Ð¸Ð»":6625,"ĠÐºÐ¾ÑģÑĭ":6626,"ĠÐºÐ¾ÑģÐ¾Ð¹":6627,"ĠÐ²ÐµÐ»Ð¸ÐºÐ¸Ðµ":6628,"ĠÐ¿ÑĢÐ¾ÑĪÐµÐ»":6629,"ĠÐ¿ÑĢÐ¾ÑĪÐ»Ð°":6630,"ÐĶÐ¾Ð»Ð³":6631,"ÐĵÐ»ÑıÐ´ÑĮ":6632,"ĠÐ¿ÑĢÐ¾Ð¿Ð°Ð»":6633,"ÐĴÐµÑĢÑħ":6634,"ÐĿÐµÐ´Ð¾Ð»Ð³Ð¾":6635,"ÐĿÐµÐ´Ð°ÑĢÐ¾Ð¼":6636,"ÐĿÐµÐ±ÐµÑģÐ½ÑĭÐ¹":6637,"ÐĿÐµÐ±ÐµÑģÐ½ÑĭÑħ":6638,"ĠÐ·Ð°Ð½ÐµÑģ":6639,"ĠÐ¿ÑĢÐµÐ²Ð¾Ð·":6640,"ĠÐ¿Ð¾ÑħÐ¾ÑĢÐ¾Ð½":6641,"ĠÐ´ÐµÑĢÐ¶Ð°ÑĤÑĮ":6642,"ÐĿÐ°ÑĢÐ¾Ð´Ñĥ":6643,"ĠÐ¿Ð»Ð°Ð¼ÐµÐ½ÐµÐ¼":6644,"ĠÐ±Ð¸ÑĤÐ²":6645,"ĠÐ¼Ð»Ð°Ð´ÐµÐ½":6646,"ĠÑĩÐ¸ÑĤÐ°Ð»":6647,"ĠÑĩÐ¸ÑĤÐ°ÑĤÑĮ":6648,"ĠÑĩÐ¸ÑĤÐ°ÐµÑĤ":6649,"ĠÑĩÐ¸ÑĤÐ°ÑĤÐµÐ»ÑĮ":6650,"ĠÐ½Ð¾Ð¶ÐºÐ¸":6651,"ĠÑĤÑĥÐ¼Ð°Ð½Ñĭ":6652,"ĠÐ³ÑĢÑĥÑģÑĤÐ½Ð¾":6653,"ĠÑģÑĤÑĢÐµÐ¼Ð³Ð»Ð°Ð²":6654,"ÐŁÐ¾ÑģÑĤÐ¾Ð¹":6655,"ĠÐ¿ÑĢÐ¾ÑĤÐ¸Ð²Ð¾ÑģÑĤ":6656,"ĠÑģÑĤÐµÐ¿Ð½Ð¾Ð¹":6657,"Ð¯Ð²Ð¸Ð»ÑģÑı":6658,"Ð°Ð½Ð´Ð¸ÑĢ":6659,"ĠÐ¾ÑĤÐºÑĥÐ´Ð°":6660,"ÐŁÑĢÐ¾Ð¸Ð·":6661,"ĠÑĤÑĮÐ¼Ð°":6662,"ĠÑģÑĤÑĢÐµÐ»Ñĭ":6663,"ĠÐ²ÐµÐ»Ð¸ÐºÐ¾Ð¹":6664,"ĠÑģÑĥÐ¼ÑĢÐ°Ñĩ":6665,"ĠÑģÑĥÐ¼ÑĢÐ°Ðº":6666,"ÑĢÑħÐ¸Ð²":6667,"ĠÐ³Ð¾ÑĢÑĮÐºÐ¾Ð¹":6668,"ĠÐ»Ð¸ÑģÑĤÑĮÑı":6669,"ÐļÑĢÐ°ÑģÐ°Ð²":6670,"ÐĿÐ¸ÐºÐ°Ðº":6671,"ĠÑĥÐ½ÑĭÐ»ÑĭÐ¹":6672,"ĠÑģÐ¿ÐµÑĪÐ°ÑĤ":6673,"ĠÐ´Ð»Ð¸Ð½Ð½Ð¾Ð¹":6674,"ĠÐ½Ð°ÑģÑĤÐ¾":6675,"ĠÐ¸Ð·Ð´Ð°Ð»Ð¸":6676,"ĠÐ±Ð°ÑĪÐ½Ð¸":6677,"ÐĲÐ´Ð°Ð¼Ð°":6678,"ĠÐ¨Ð°Ð»Ð°ÑĪÐ½Ð¸ÐºÐ¾Ð²":6679,"ĠÐ¾Ð²Ð»Ð°Ð´":6680,"ÐľÐ¾ÐµÐ¹":6681,"ĠÐ¼Ð¾Ð³Ð¸Ð»Ñĭ":6682,"ĠÑģÐ¾ÑĩÐµÑĤ":6683,"ĠÐ¼Ð½Ð¾Ð³Ð¸Ðµ":6684,"ĠÑģÑĥÐ¿ÑĢÑĥÐ³Ñĥ":6685,"ĠÐ³Ð¾Ð½Ð¸ÑĤ":6686,"ÐĹÐ°Ð¼ÐµÑĤ":6687,"ĠÐ¿Ð»Ð°ÐºÐ°ÑĤÑĮ":6688,"ĠÐ²Ð·Ð³Ð»ÑıÐ½ÑĥÐ»":6689,"ĠÑģÐ¾ÑĢÐ¾Ðº":6690,"ÐŁÐ¾Ð±ÐµÐ´":6691,"ĠÑģÑĤÑĥÐ¿Ð°Ð¹":6692,"ĠÐ¿Ð¾Ð²ÐµÐ»ÐµÐ»":6693,"ĠÐºÐ°ÑĢÑĤÐ¸Ð½":6694,"Ð½Ð¾Ð¶ÐºÐ¾":6695,"ÐłÐ°Ð±Ð¾ÑĤ":6696,"ĠÐ²Ð¾Ð¹ÑģÐºÐ¾":6697,"ĠÑģÐ¾Ð¿ÐµÑĢ":6698,"ÐĴÐ¾ÑģÑģÑĤ":6699,"ĠÐľÐ¾ÑģÐºÐ²Ñĭ":6700,"ĠÐ±ÑĥÐ½ÑĤÐ¾Ð²Ñī":6701,"ĠÐ¿Ð°Ð¼ÑıÑĤÐ¸":6702,"ĠÐ¿Ð°Ð¼ÑıÑĤÐ½Ð¸Ðº":6703,"ĠÐ±ÐµÐ¶Ð°ÑĤÑĮ":6704,"ĠÐ¿ÑĢÐ¸ÑħÐ¾Ð´":6705,"ĠÐ½Ð°Ð´ÐµÐ¶Ð´Ñĥ":6706,"ĠÐ£Ð¶ÐµÐ»ÑĮ":6707,"ĠÑĤÑİÑĢÑĮÐ¼Ñĥ":6708,"ĠÐ¿Ð¸ÑģÑĮÐ¼Ð°":6709,"ĠÐ¿Ð¾Ð»Ð´ÐµÐ½ÑĮ":6710,"ĠÐ¿Ð¾Ð»Ð´Ð½Ñı":6711,"ĠÐ¥Ð°Ð¾ÑģÐ°":6712,"ĠÐ½ÐµÐ½Ð°Ð²Ð¸ÑģÑĤÑĮ":6713,"ĠÐ¡Ð²ÑıÑĤÐ¾ÑģÐ»Ð°Ð²":6714,"ÐĽÑĥÑĩÑĪÐµ":6715,"ĠÑĢÐ¾Ð¶ÑĮ":6716,"Ð¡Ð¾Ð³Ð»Ð°Ñģ":6717,"ÐĺÑģÑĩÐµÐ·":6718,"ÐĴÐµÐ»Ð¸ÐºÐ¸Ð¹":6719,"ĠÐłÐ¾ÑģÑģÐ¸Ð¸":6720,"ÐĵÐ»Ð°Ð·Ð°":6721,"ĠÑĢÐ°ÑģÑģÐºÐ°Ð·Ð°Ð»":6722,"ĠÑģÐ¾Ð»Ð½ÑĭÑĪÐºÐ¾":6723,"ÐĿÐ¸Ð·Ð²ÐµÑĢÐ³":6724,"ĠÐ¿Ð¸ÑĪÐµÑĤ":6725,"ÐŀÑĤÐ²Ð°Ð¶":6726,"ĠÐļÐ¾ÑĩÑĥÐ±ÐµÐ¹":6727,"ĠÐ·ÐµÑĢÐºÐ°Ð»Ð¾":6728,"ĠÑĥÐµÐ´Ð¸Ð½ÐµÐ½Ð½ÑĭÐ¹":6729,"ĠÐ¡Ð¾Ð»Ð½ÑĨÐ°":6730,"ĠÐ²Ð¾Ð·Ð·Ð²Ð°Ð»":6731,"ĠÐ²Ð¾ÑģÑģÐµÐ´":6732,"ĠÐºÐ¸ÑģÐµÑĤ":6733,"ĠÐĲÐ³Ð°Ð¿":6734,"ĠÐĳÐ°Ð±Ð°ÑĢÐ¸ÑħÐ¾Ð¹":6735,"ĠÑĥÑĤÐ²ÐµÑĢÐ¶Ð´":6736,"ĠÐ¢Ð¸Ð¼Ð¾ÑĦÐµÐµÐ²Ð½Ð°":6737,"Ð®":6738,"ÐµÑıÑĤÑĮ":6739,"Ð°ÑĨ":6740,"ÑĤÐ¸Ð»":6741,"ÑĤÐ¸ÑĢ":6742,"ÑĤÐ°Ñħ":6743,"ÑģÑĭÐ¿":6744,"ÑĢÐ¸Ð¼":6745,"Ð½ÑıÑĤÑĮ":6746,"ÑĭÐºÐ°":6747,"ÑĭÑĩÐ¸":6748,"ÑĭÐ³ÑĢ":6749,"ÑĮÑİÑĤÑģÑı":6750,"ÑıÐ¹":6751,"ÑıÐ½Ð¸":6752,"ÑıÑİÑĤ":6753,"ĠÑģÑħ":6754,"ĠÑģÐ°Ð²":6755,"ĠÑģÐ°Ð¶":6756,"ĠÑģÑĥÐ¿":6757,"ĠÑģÑĥÑĤÑĮ":6758,"ĠÑģÑĥÐº":6759,"ĠÑģÐµÐ½Ð¾":6760,"ĠÑģÐ½Ð°ÑĩÐ°Ð»Ð°":6761,"ĠÐ¿Ð°ÑĪ":6762,"ĠÐ¿ÐµÑĤÑĮ":6763,"ĠÐ¿Ð¾Ð¹Ð´ÐµÐ¼":6764,"ÐºÑĤ":6765,"ÐºÐ½ÑıÐ·ÑĮ":6766,"ĠÐ²Ð¸Ð½Ñĥ":6767,"ĠÐ²Ð¸Ñģ":6768,"ĠÐ²ÑĢÐ°Ñī":6769,"ĠÐ²ÑģÑĤÐ°Ð»":6770,"ĠÐ²Ð²ÐµÑĩ":6771,"Ð²Ð°Ð»Ð°":6772,"Ð²ÑĭÑħ":6773,"Ð²ÐµÐ´ÑĮ":6774,"ĠÐ½Ð°Ð½":6775,"Ð¼Ð¾Ð½":6776,"ÑģÑĤÐ¸ÑĤÑĮ":6777,"ÑģÑĤÐ°ÑĤÐ¸":6778,"ÑĪÐ°":6779,"ÐµÐ½Ð¸ÑĤÑĮ":6780,"ÑİÑħ":6781,"ĠÑĤÑī":6782,"ĠÑĤÑĥÑĢ":6783,"Ð¾Ð»Ð¾":6784,"Ð¾Ð»Ñĥ":6785,"Ð¾Ð»Ñİ":6786,"Ð¾Ð»Ð·":6787,"ĠÐ±Ð¾Ð¼":6788,"ĠÐ¼Ð¸Ð»Ð°":6789,"ÐµÑĢÐ°ÑĪ":6790,"ĠÐºÑĥ":6791,"ĠÐºÑĥÑĪ":6792,"ĠÐºÑĥÐº":6793,"ĠÐºÐ»Ð¸Ñĩ":6794,"ĠÐºÐ¸Ð±Ð¸ÑĤ":6795,"Ð¸ÑĤÑĭÐµ":6796,"Ð¸ÑĤÐµÐ»Ñİ":6797,"ÐĿÐĺ":6798,"ÐĿÐµÐ»ÑĮÐ·Ñı":6799,"ĠÐ·Ð¼Ðµ":6800,"ÐĺÐ½Ð¾Ð¹":6801,"ÐĺÐ²Ð°Ð½":6802,"ÐĺÐ³ÑĢÐ°":6803,"ĠÑĢÐ¾ÑĤ":6804,"ĠÑĢÑĥÐ¶":6805,"ĠÑĢÐ²ÐµÑĤ":6806,"ĠÑĢÐ¸ÑĦ":6807,"ĠÐ³Ð°Ñģ":6808,"ĠÐ³ÐµÐ½Ð¸Ð¹":6809,"Ð°ÑĤÐ¾Ð¹":6810,"Ð°ÑĤÐµÐ»Ñı":6811,"ĠÐ¿ÑĢÐµÑĤ":6812,"ĠÐ¿ÑĢÐ¾Ð±ÑĢ":6813,"ÐŁÐµÑĤ":6814,"ÐŁÐ¾Ð·Ð´":6815,"ÐĴÐ¾Ð¹":6816,"ÐĴÑĢÐµÐ¼":6817,"ÐĴÐµÑĢÑĪ":6818,"ÐĴÐºÑĥÑģ":6819,"ÐĴÑĢÐ°Ð¶Ð´":6820,"Ð·Ð²":6821,"Ð¾Ð³Ð¾Ð²":6822,"Ð½Ð¾ÑģÑıÑĤ":6823,"Ð¡Ð¾Ð»Ð½ÑĨÐµ":6824,"Ð¡ÑĢÐ°Ð·":6825,"Ð¡Ð½Ð°ÑĩÐ°Ð»Ð°":6826,"Ð¡Ð½Ð¾Ð²Ð°":6827,"ÑĨÐ¸Ð¸":6828,"Ð¾ÑĤÑĩ":6829,"ĠÐ»Ð°Ð½":6830,"ĠÐ»Ð¾Ð¿":6831,"ĠÐ»Ð¸ÐºÐ¾Ð²":6832,"Ð°Ð²ÑĪÐµÐ³Ð¾":6833,"Ð°Ð½Ñİ":6834,"Ð½Ð¸Ð³Ð¸":6835,"ĠÑĩÐ¸Ð½":6836,"ĠÑĩÑĢÐµÐ²":6837,"Ð°Ð·Ñĭ":6838,"Ð¾Ð½ÐµÐº":6839,"ÐļÐ¾Ð½Ñĩ":6840,"ÐļÐĿÐĺ":6841,"ĠÑģÑĤÑĥÐ»":6842,"ĠÑģÑĤÐ°Ð´Ð°":6843,"ÐºÐ¸Ð¼Ð¸":6844,"Ð¾Ð±Ñĭ":6845,"Ð¾Ð±Ð¾Ñİ":6846,"Ð¾Ð±Ð»Ð°Ñĩ":6847,"Ð¢ÐµÑĢÐ¿":6848,"Ð¢Ð¾ÑĢÐ³":6849,"Ð¸Ð²Ð°ÐµÑĤÑģÑı":6850,"ÐµÐ²Ð°Ñı":6851,"ÑĳÐ·":6852,"Ð¸Ð¼Ñĭ":6853,"Ð°ÑĤÑĮÐµÐ¹":6854,"Ð°ÑĤÑĮÐµÐ²":6855,"ĠÐµÐ·Ð´":6856,"ÐĶÑĥ":6857,"ÐĶÐµÐ»Ð°":6858,"ÐĶÐ²Ð¸Ð¶":6859,"ĠÑĥÑģÐº":6860,"ĠÑĥÑĪÐ¸":6861,"ĠÑĥÑħÐ¾":6862,"Ð¾ÑĩÐµÑĪÑĮ":6863,"ÐµÑĩÐ½ÑĭÐµ":6864,"ĠÑģÐ²Ð°ÑĤÑĮÐµÐ¹":6865,"ĠÐ¾ÑĤÑģÑĤ":6866,"ĠÐ¾ÑĤÑĢÐ°Ð²":6867,"ĠÐ¾ÑĤÐ½ÑĭÐ½Ðµ":6868,"ÐŁÑĢÐ¾ÑĤ":6869,"ÐŁÑĢÐ¸Ð·":6870,"ÐŁÑĢÐ¸Ð·Ð½":6871,"Ð»Ð°ÑĨ":6872,"Ð»Ð°ÑģÑĤÑĮ":6873,"Ð»Ð°ÑĩÐµÑĤ":6874,"ĠÐºÑĢÐ¾ÑħÐ¾ÑĤ":6875,"Ð§ÐµÑĢÑĤ":6876,"ĠÑģÐ»ÐµÑĤ":6877,"ĠÑģÐ»ÑĭÑħ":6878,"ĠÑħÐ»Ñı":6879,"Ð»ÑıÐ»Ð¸":6880,"Ð»ÑıÐ¶Ñĥ":6881,"ÐľÐµÑĤ":6882,"ÐľÐ¸Ð½ÑĥÑĤ":6883,"ÐĳÐ°Ð±":6884,"ÐĳÑĢÐ¾Ñģ":6885,"ÐĳÑĭÐ»Ð¾":6886,"ÐµÐ¶Ð°ÑĤÑĮ":6887,"ÐĹÐ°Ð¶":6888,"Ð£ÑģÑĤÐ°":6889,"ÐµÐ¿ÐµÐ½Ð½Ð¾":6890,"ĠÐ¾Ð±Ð¸Ð»ÑĮ":6891,"ĠÐ¾Ð±Ð»Ð°Ñĩ":6892,"Ð¾Ð¿Ð°Ð»":6893,"ÑģÑĤÐ²Ð¸Ð¹":6894,"ÐĵÐ¾Ð½":6895,"ÐĵÐĲ":6896,"ÐĵÐ¾Ð»Ð¾Ð²":6897,"ÐĵÐ¾Ð»Ð¾Ð´":6898,"ÐµÐ»ÑĮÐ½Ð¾":6899,"ĠÐ¿Ð¾Ð´Ñģ":6900,"ĠÐ¿Ð¾Ð´Ð½ÑıÐ»ÑģÑı":6901,"ÑĥÑĩÐ°":6902,"ĠÐ¿Ð¾ÑıÐ²":6903,"ĠÐ¿Ð¾ÑıÑģ":6904,"Ð´Ð°ÑĳÑĤÑģÑı":6905,"ĠÑĪÐ¿":6906,"ĠÐ¡Ð»":6907,"ĠÐĿÐµÑĢ":6908,"ĠÐĿÐ°Ðº":6909,"ĠÑĢÐ°Ð·Ð½Ð¾":6910,"ĠÑĢÐ°Ð·Ð½ÑĭÐµ":6911,"ĠÑĢÐ°Ð·Ð²ÐµÐ´":6912,"Ð¯ÐºÐ¾Ð²":6913,"ÐłÐ¾Ð¼Ð°Ð½":6914,"ÐļÐ°ÐºÐ¸Ðµ":6915,"ĠÑĤÑĢÐ¾ÑģÑĤ":6916,"ĠÐĴÐ·":6917,"ĠÐĴÐ¾Ð·":6918,"ĠÐĴÐµÐ´ÑĮ":6919,"ĠÐĴÑĭÑģ":6920,"Ð¸Ð»Ð¸ÑīÐµ":6921,"Ð¸Ð·Ð½Ñĭ":6922,"ÐŀÑĤÑĤ":6923,"ÐŀÑĤÐ±":6924,"ÐŀÑĤÑĢÐ°Ð´":6925,"ÐŀÑĤÐ²ÐµÑĩ":6926,"ĠÐ³Ð¾ÑĢÐ¾Ð¹":6927,"ĠÐ³Ð¾ÑĢÑıÑĤ":6928,"ĠÑģÐ¼Ð¾Ð³":6929,"ĠÑģÐ¼ÐµÑı":6930,"ĠÑģÐ¿ÑĥÑĤ":6931,"ĠÑģÐ¿ÑĥÑģÑĤ":6932,"ĠÑįÐ¿":6933,"ĠÐŁÐ¾Ð±ÐµÐ´":6934,"ĠÐŁÑĥÑĪÐº":6935,"ĠÐ»Ð¸ÑģÑĤÐ²":6936,"Ð»Ð¾ÑĪÑĮ":6937,"ĠÐ±ÐµÐ·Ð½Ð°Ð´":6938,"ĠÑĨÐµÐ»Ð¾Ð²":6939,"ĠÑĨÐµÐ½ÑĤ":6940,"ÑģÐºÐ¸Ð¼Ð¸":6941,"ĠÑĤÐ°ÐºÐ¸Ñħ":6942,"ÐµÑĨÐºÐ¾Ð¹":6943,"ÐµÑĨÐºÐ¸Ð¹":6944,"ĠÐ²Ð·ÑıÑĤ":6945,"ĠÐ²Ð·ÑıÐ»Ð¸":6946,"ÐĴÑģÐµÐ¼Ñĥ":6947,"ĠÐ¿ÐµÑĢÐµÐ¶":6948,"ĠÐ²Ð¾Ð·Ð»ÑİÐ±":6949,"ĠÐ²Ð¾Ð·ÑĢÐ°Ð·Ð¸Ð»":6950,"ĠÐ³Ð»ÑĭÐ±":6951,"ĠÐ¼Ð¾Ð»Ð½Ð¸Ð¹":6952,"ĠÐ¾Ð´Ð½Ð¾Ð¼Ñĥ":6953,"ĠÐ°Ñħ":6954,"ĠÐ°Ð»ÑĮ":6955,"ĠÐĳÑĥÑı":6956,"ĠÐĳÐ»Ð°Ð³":6957,"ĠÐĲÑĢÑħÐ¸Ð²":6958,"ĠÐ±Ð»ÐµÑīÑĥÑĤ":6959,"Ð°Ð»ÑĮÐ½Ð°Ñı":6960,"ĠÐŀÐ½Ð°":6961,"ĠÐ±ÑĢÐ°Ð½Ð¸":6962,"ĠÐ±ÑĢÐµÐ¼Ñı":6963,"ĠÐĶÐ¾Ð±ÑĢÐ°":6964,"ĠÐ»ÑİÐ±Ð¾":6965,"ĠÐ»ÑİÐ±Ð¸ÑĪÑĮ":6966,"ĠÐĵÐ¸ÑĢ":6967,"Ð¡ÑĤÐ¸Ñħ":6968,"ĠÐ¿Ð¾ÐºÐ¸Ð´":6969,"ĠÐ¿Ð¾ÐºÐ¸Ð½Ñĥ":6970,"ĠÐ¿Ð¾ÐºÑĢÐ¾Ð²":6971,"ĠÐľÐ¸ÑĤ":6972,"ĠÐľÐµÑģÑģ":6973,"ÑģÑĤÑĢÐ¾Ð¹":6974,"ĠÐļÑĢ":6975,"ĠÐļÐ°Ð·":6976,"ĠÐ½Ð°ÑĪÐ»Ð¸":6977,"ĠÑģÑĤÐ°ÑĢÐ°Ñı":6978,"ĠÑģÑĤÐ°ÑĢÐ¾Ð³Ð¾":6979,"ĠÑģÑĤÐ°ÑĢÑĭÑħ":6980,"Ð¾ÑħÐ¾Ð´Ð¾Ð¼":6981,"ÑĥÑīÐ°Ñı":6982,"ÑĥÑīÐ¸Ðµ":6983,"Ð²ÐµÑĢÐ½":6984,"ÐµÐ½ÑıÐµÑĤ":6985,"ÐºÑĢÐ°Ð¹":6986,"Ð½ÑĥÐ»Ð¾ÑģÑĮ":6987,"ĠÐ´Ð¾Ð»Ñİ":6988,"ÑĦÐ¸ÑĨ":6989,"ĠÐĹÐ°ÑĩÐµÐ¼":6990,"Ð¸Ð³Ð°Ð½ÑĤ":6991,"ĠÑģÐ°Ð¼Ð¾Ðµ":6992,"ÐĺÐ·Ð¼ÐµÐ½":6993,"ĠÐ½ÐµÑĤÐµÑĢÐ¿ÐµÐ»":6994,"ĠÑĢÐ¾Ð´Ð½ÑĭÑħ":6995,"ĠÑĥÐ¼Ð¾Ð»":6996,"ĠÑģÐ²ÐµÑĤÐ»ÐµÐ¹":6997,"ĠÐ´ÑĥÑĪÐµÐ²":6998,"ĠÐ¿Ð¾Ð¼ÑĭÑĪ":6999,"ĠÐ¿Ð¾Ð¼ÐµÑĢÐº":7000,"ĠÐ¾Ð¿ÑĢÐµÐ´ÐµÐ»":7001,"ÐµÑĢÑĮÑĤÐµ":7002,"ĠÐ·Ð²Ð°Ð»":7003,"ĠÐ²Ð¾Ð¾ÑĢÑĥÐ¶":7004,"ĠÑģÐ¸Ð»Ð¾Ñİ":7005,"ÐµÐ»Ð¾Ð²Ð°":7006,"ĠÑģÐ»Ð¾Ð²Ð°Ð¼":7007,"ĠÑĥÑĤÐ²ÐµÑĢÐ´":7008,"Ð°Ð·Ð°Ð»Ð°ÑģÑĮ":7009,"ĠÐ¿Ð¾ÑĤÑĢÑıÑģ":7010,"ĠÐĺÑģÐº":7011,"ĠÐĺÐ»ÑĮ":7012,"ĠÐĺÑĤÐ°Ðº":7013,"ÑıÐ½ÑĮ":7014,"ÑĢÐ°Ð½Ð¸Ñĩ":7015,"Ð¸Ð±Ð¸ÑĢ":7016,"ĠÐ¼ÑĥÐ¶ÐµÐ¼":7017,"Ð¡Ð»Ð°Ð±":7018,"ĠÐ¾Ð³ÑĢÐ°Ð´":7019,"ĠÐ¾Ð³Ð½ÑĳÐ¼":7020,"ÑĥÑģÐºÐ°ÐµÑĤÑģÑı":7021,"ĠÐ¶Ð¸Ð²Ð°":7022,"ĠÐ¾ÑģÐµÐ½ÑĮÑİ":7023,"Ð²Ð¾Ð¹Ð½Ðµ":7024,"ĠÑģÐ»Ð°Ð²Ð½Ð¾":7025,"ĠÐ²Ð¿ÐµÑĢÑĳÐ´":7026,"ĠÐ²Ð¿ÑĢÐ¾ÑĩÐµÐ¼":7027,"ÑĥÐ»Ð°ÑģÑĮ":7028,"ĠÐ¼Ð¸Ð»Ð¾ÑģÑĤÑĮ":7029,"ĠÐºÑĢÐ°ÑģÐ¾ÑĤÐ¾Ð¹":7030,"ĠÐĽÑĥ":7031,"ĠÐ±Ð¾Ð³Ð°":7032,"ĠÐĿÐµÐ±ÐµÑģÐ°Ð¼":7033,"Ð°Ð½ÑĮÑıÐ¼":7034,"ĠÐ´ÑĥÐ¼Ð°Ð»Ð¸":7035,"ĠÐ²Ð¾Ð´Ðµ":7036,"ĠÐ¼Ð¾Ð»Ð¾Ð´Ð¾ÑģÑĤÑĮ":7037,"ĠÐ·Ð°Ð¿Ð°Ñħ":7038,"ĠÐ±Ð°ÑĢÑĭÑĪ":7039,"ĠÐ±Ð°ÑĢÑĭÐ½Ð¸":7040,"ĠÑĥÐ³Ð°Ð´":7041,"ĠÑĥÐ³Ð»Ñĥ":7042,"ĠÐ¿Ð¾Ð¿Ð°Ð»":7043,"ĠÐ¿Ð¾Ð¿ÑĢÐ¾Ð±":7044,"ÐŃÑĤ":7045,"ÐŃÑĦÐ¸ÑĢ":7046,"ÐłÐ°Ð·ÑĥÐ¼":7047,"ÐłÐ°Ð·Ð»Ð¸Ñĩ":7048,"ĠÐ·Ð½Ð°Ñĩ":7049,"ĠÐ²ÐµÑĤÑĢÐ¾Ð¼":7050,"ĠÐ²ÐµÐ»ÑıÑĤ":7051,"ĠÐ¾Ð±ÑĢÑĳÐ»":7052,"ĠÐ´Ð¾Ð±ÑĢÐ¾Ðµ":7053,"ĠÐĳÐ¾Ð¶Ðµ":7054,"ĠÐĳÐ¾Ð¶ÑĮÐµÐ¹":7055,"ĠÐ²ÐµÑģÐ½Ð°":7056,"ĠÐ²ÐµÑģÐµÐ»ÑĭÐ¹":7057,"ĠÐ½ÐµÐ±Ð¾ÑģÐºÐ»Ð¾Ð½":7058,"ĠÐ½ÐµÐ¿Ð¾Ð´":7059,"ĠÑĢÐ°Ð±Ð¾Ð²":7060,"ĠÑģÑĤÐ¾ÑıÐ»Ð°":7061,"ĠÑĦÑĢÐ¾Ð½ÑĤ":7062,"ĠÐ¸ÑģÐºÐ°Ð»":7063,"ĠÐ¸ÑģÐºÐ°ÑĤÑĮ":7064,"ĠÑĤÐ¾Ð»ÐºÐ¾Ð²":7065,"ĠÑģÐ»ÐµÐ·Ð°Ñħ":7066,"ĠÐ½Ð¾Ð³Ð°Ð¼Ð¸":7067,"ĠÐ£ÑĤ":7068,"ÐµÑĢÐ¶Ð°Ð»":7069,"ĠÐ³Ð»ÑĥÐ±Ð¸Ð½Ñĭ":7070,"ĠÐ½ÐµÑģÑĥÑĤ":7071,"ÐĴÐ¾Ð¸ÑģÑĤÐ¸Ð½Ñĥ":7072,"ĠÑģÑĢÐ°Ð¼":7073,"ÐŁÐ¾Ð»Ð¾Ð¶":7074,"Ð¦Ð°ÑĢ":7075,"ĠÑĤÐ²Ð°ÑĢÑĮ":7076,"ĠÑĤÐ²ÑĳÑĢÐ´":7077,"ĠÑĨÐ²ÐµÑĤÐ°Ñħ":7078,"ĠÐ½Ð¸ÐºÐ¾Ð¼Ñĥ":7079,"ĠÑĥÑģÐµÑĢÐ´":7080,"ĠÑĥÑģÐ°Ð´ÑĮÐ±":7081,"ĠÐ½Ð¸ÑĩÑĤÐ¾":7082,"ĠÐ·Ð°ÑĤÐ¼":7083,"ĠÐ¾ÐºÐ½Ð¾Ð¼":7084,"ĠÐ³Ð¾ÑĢÐ´ÐµÐ»":7085,"ĠÐ³Ð¾ÑĢÐ´Ð¾ÑģÑĤÑĮ":7086,"ĠÐ¼Ð°Ð»Ð¾Ð³Ð¾":7087,"ĠÐ¡Ð°ÑĤÐ°Ð½Ðµ":7088,"ÐłÐ°ÑģÑģÑĥÐ´":7089,"ĠÐ±Ð¾ÑĢÐ¾Ð´":7090,"ĠÐ¿ÑĥÑĤÐ½Ð¸Ðº":7091,"ĠÑģÑĤÐ¾Ð»Ð¿":7092,"ĠÑģÐ»ÑĭÑĪÐ½Ð¾":7093,"Ð¸Ð¶Ð´Ñĭ":7094,"ĠÐ±ÑĥÑĢÐ¸":7095,"ÐŁÐµÑĢÐµÐºÑĢÐµÑģÑĤ":7096,"ĠÑĤÑıÐ¶ÐºÐ¾":7097,"ĠÑĤÑıÐ¶ÐºÐ¸Ð¹":7098,"ÐĵÐ¾ÑĢÐ´":7099,"ĠÐ³ÑĢÐ¾Ð¼ÐºÐ¾":7100,"ĠÐ²Ð¾Ð·Ð²ÐµÑī":7101,"ĠÐ¼ÐµÐ´Ð²ÐµÐ´":7102,"ĠÐ¿ÑĢÐ¸Ð·Ð½":7103,"ĠÑħÐ¾ÑĢÐ¾Ð²":7104,"ĠÑģÐºÐ°Ð·Ð°Ð»Ð¸":7105,"ĠÑĢÐ°ÑģÑģÑĭÐ¿":7106,"ĠÐŃÑĤ":7107,"ÐŁÐ¾ÑĢÐ¾Ð¹":7108,"ĠÑģÐ»Ð°Ð´ÐºÐ¾":7109,"ĠÐĲÐ´Ð°Ð¼Ñĥ":7110,"Ð³Ð¾ÑĢÑĮ":7111,"ĠÐ²ÑĭÑĪÐ»Ð¸":7112,"ĠÐ²ÑĭÑĪÐ»Ð°":7113,"ĠÐ²ÑĭÑĪÐ¸Ð½Ðµ":7114,"ĠÐ´Ð°Ð»ÑĮÐ½Ð¸Ñħ":7115,"ĠÐ¿ÑĢÐ¸Ð½ÑĥÐ¶Ð´":7116,"ÐĶÑĢÑĥÐ³Ð°Ñı":7117,"ĠÐ±ÐµÐ·Ð´Ð¾Ð½":7118,"ĠÐ¼Ð¾Ð»Ð²Ð¸ÑĤÑĮ":7119,"ĠÐ´Ð¾Ð²ÐµÐ´":7120,"ĠÐ¿Ð¾ÑģÐ»ÐµÐ´Ð½ÐµÐ¹":7121,"ĠÐ±Ð¾Ð»Ð¸":7122,"Ð¢ÑĢÐµÐ¿":7123,"ĠÑģÐ²ÑıÑĤÑĭÑħ":7124,"ĠÐ±ÐµÑģÐ¿Ð¾Ð»ÐµÐ·":7125,"ĠÑĤÐ¸ÑĪÐµ":7126,"ÐĶÐ¾ÑģÑĤÐ¾Ð¸Ð½":7127,"ĠÐ±Ð¾Ð³Ð°ÑĤÑĭÑĢ":7128,"ĠÐ²ÐµÐ½Ð¾Ðº":7129,"ĠÐºÑĢÐ°Ð¹Ð½ÐµÐ¹":7130,"ĠÑĤÐ¾ÑģÐºÐ°":7131,"ĠÐ²Ð¾ÑģÑĤÐ¾ÐºÐ°":7132,"ĠÐ¶Ð¸ÑĤÑĮÐµ":7133,"ĠÑĤÐ¾Ð»Ð¿Ð°":7134,"ĠÑĤÐ¾Ð»Ð¿Ð¾Ñİ":7135,"ĠÑĢÐ°ÑģÑĤÐ¾Ñĩ":7136,"Ð¢Ð²Ð¾Ñı":7137,"Ð¢Ð²Ð¾Ñĳ":7138,"ĠÐ¾Ð·Ð»Ð¾Ð±":7139,"ĠÐ´Ð°ÑĢÐ¾Ð¼":7140,"ĠÐ·Ð¸Ð¼Ñĥ":7141,"ĠÐºÑĢÐµÑģÑĤÐ¾Ð¼":7142,"ÐŁÑĥÑģÑĤÑĭÐ½":7143,"ĠÐ²ÑģÐ¿Ð¾Ð¼Ð¸Ð½":7144,"ÐĿÐ°ÑģÐ»ÐµÐ´":7145,"ĠÐ¿ÑĢÐµÐºÑĢÐ°ÑģÐ½Ð¾Ð¹":7146,"ĠÐ³Ð»Ð°Ð²Ñĭ":7147,"ĠÐ¾ÑģÑĤÐ°Ð²Ð¸Ð»":7148,"ĠÐ¶Ð´Ð°ÑĤÑĮ":7149,"ĠÐ¶Ð´ÑĳÑĤ":7150,"ĠÐ¼ÑĭÑģÐ»Ð¸ÑĤ":7151,"ÑģÑĤÐ²ÑĥÑİÑĤ":7152,"ĠÐ¿ÑĢÐ¾Ð¿Ð°ÑģÑĤÐ¸":7153,"ÐĳÐ»Ð°Ð³Ð¾Ð´":7154,"ĠÐ½Ð¸Ð·Ð²ÐµÑĢÐ³":7155,"ĠÑĢÑĥÑĩÐµÐ¹":7156,"ĠÑĢÑĥÑĩÑĮÐ¸":7157,"ĠÐ¿ÑĢÐµÐ²ÑĭÑĪÐµ":7158,"ÐĴÐ¿ÐµÑĢÐ²ÑĭÐµ":7159,"ĠÐºÑĢÐ¸ÑĩÐ°ÑĤ":7160,"ĠÐ·Ð»Ð¾Ð±Ð¾Ð¹":7161,"ÐŁÐ¾Ð³Ð»ÑıÐ´":7162,"ĠÑģÑĤÑĢÐ°Ð´Ð°Ð½ÑĮÐµ":7163,"ĠÐ±Ð»ÐµÐ´Ð½ÑĭÐ¹":7164,"ĠÐ´ÑĢÐµÐ²ÐµÑģ":7165,"ĠÐ²ÑģÑĤÑĢÐµÑĩÐ¸":7166,"ĠÑģÑĤÐµÐ½Ðµ":7167,"ĠÑģÑĤÐµÐ½Ð¾Ð¹":7168,"ĠÐ¾ÑĤÐ¿ÑĢÐ°Ð²":7169,"ĠÑģÐ»Ð°Ð±ÑĭÐ¹":7170,"ÑĩÐ°ÑĤÑģÑı":7171,"ĠÐ¿Ð¾Ð±ÐµÐ´Ñĭ":7172,"ÐĶÑĥÑĪÐ¾Ð¹":7173,"ÐķÐ´Ð¸Ð½":7174,"ÐĽÑİÐ´ÑģÐºÐ¾Ð³Ð¾":7175,"ĠÐ¿ÑĢÐ¾Ð¸Ð·Ð½ÑĳÑģ":7176,"ĠÐ´Ð¾Ð¶Ð´ÑĮ":7177,"ĠÑĥÐ²Ð°Ð¶":7178,"ĠÑıÑģÐ½Ð¾":7179,"ĠÐ»ÑĥÐ½Ðµ":7180,"ĠÐ¾ÑĤÐºÐ°Ð·":7181,"ĠÐ²Ð°Ð»Ð¸ÑĤ":7182,"ĠÐ°Ð»Ð¼Ð°Ð·":7183,"ĠÐ¿ÑĭÐ»ÑĮ":7184,"ĠÑĢÐµÐ²Ð½Ð¸Ð²":7185,"ÐŁÐ¾ÑģÐ»ÐµÐ´Ð½Ð¸Ð¹":7186,"ĠÑĥÐ´Ð°ÑĢÐ¾Ð¼":7187,"ĠÑĪÐ°Ð¿ÐºÐ¸":7188,"ĠÑĥÐ½ÑĭÐ»Ð¾":7189,"ĠÑģÐ¾Ð»Ð½ÑĨÐµÐ¼":7190,"ĠÐ¼ÐµÑĢÑĤÐ²ÐµÑĨ":7191,"ĠÐ¿ÑĢÐ¸ÑĢÐ¾Ð´Ð°":7192,"ĠÑģÐ¼Ð¾ÑĤÑĢÐµÐ»":7193,"ĠÐ´ÑĭÑĪÐ°":7194,"ĠÐ¼ÑĥÐ´ÑĢÐ¾ÑģÑĤÑĮ":7195,"Ð¸Ð½ÑģÑĤÐ²ÐµÐ½Ð½ÑĭÑħ":7196,"ĠÐ½ÐµÑģÑĩÐ°ÑģÑĤÐ½ÑĭÐ¹":7197,"ĠÐºÑĥÑģÑĤÑĭ":7198,"ĠÐºÑĥÑģÑĤÐ°Ñħ":7199,"ĠÐ¶ÐµÐ½ÑīÐ¸Ð½Ð°":7200,"ÐŁÐ¾Ð´Ð¾Ð±Ð½ÑĭÐ¹":7201,"ÐµÐ·Ð¶Ð°ÐµÑĤ":7202,"ĠÐ¿Ð¾Ð¼Ð¾ÑīÑĮ":7203,"ĠÑĤÐµÑĢÐ¿ÐµÑĤÑĮ":7204,"ĠÐ±Ð¾ÑİÑģÑĮ":7205,"ĠÐ¸Ð·ÑĥÐ¼ÑĢÑĥÐ´":7206,"ĠÐºÑĢÐ¾Ð²Ð°Ð²ÑĭÐ¹":7207,"ĠÐ¡ÑĭÐ½Ñĥ":7208,"ĠÑģÐ¾ÑģÑĤÑĢÐ°Ð´":7209,"ĠÐ¼Ð¸Ð½ÑĥÑĤÑĥ":7210,"ĠÑģÐ¼Ð¸ÑĢÐµÐ½Ð½Ð¾Ð¹":7211,"ĠÑģÑĤÑĭÐ´Ð½Ð¾":7212,"ÐŁÑĢÐ¸ÑĢÐ¾Ð´Ñĭ":7213,"ĠÐ²Ð¾ÑģÑĤÐ¾ÑĢÐ³Ð¾Ð¼":7214,"ÐµÑĢÑħÑĥ":7215,"ĠÐºÐ»Ð°Ð´Ð±":7216,"ÐŁÑĢÐ¸Ð±Ð»Ð¸Ð·":7217,"ÐĴÐ·Ð´Ð¾Ñħ":7218,"Ð¡ÐºÐ°Ð·Ð°Ð»Ð¸":7219,"ÐľÐµÑĩÑĤ":7220,"ĠÐĵÐµÐµÐ½Ð½":7221,"ÐŁÑĢÐ¾ÑīÐ°Ð¹":7222,"ĠÐ¾ÑģÐ²ÐµÑī":7223,"ÐµÐ½Ð¾ÐºÐ¾Ñģ":7224,"ÐĹÐ´ÑĢÐ°Ð²":7225,"ĠÐ¼Ð¾Ð»Ð¸ÑĤÐ²":7226,"ĠÑĢÐ°ÑģÐºÐ°Ð»":7227,"ĠÐ»Ð°ÑģÐºÐ¾Ð²Ð¾":7228,"ĠÐ¼Ð³Ð½Ð¾Ð²ÐµÐ½ÑĮÐµ":7229,"Ð½Ð°ÑĤÐ¾ÑĢ":7230,"ĠÐ³ÑĥÐ»ÑıÐµÑĤ":7231,"ĠÐ»ÐµÐ´ÑıÐ½Ð¾Ð¹":7232,"ĠÐ¥ÐµÑĢÑĥÐ²Ð¸Ð¼Ð¾Ð²":7233,"Ð¡Ð²Ð¾Ð±Ð¾Ð´Ð½Ð¾":7234,"ĠÐĺÐ³Ð¾ÑĢÑĮ":7235,"ĠÐ·Ð°ÐºÑĢÐ¸ÑĩÐ°Ð»":7236,"ĠÐ³ÑĥÐ±ÐµÑĢÐ½Ð¸Ð¸":7237,"ĠÐ¡Ð¸Ð»Ñĭ":7238,"ĠÐ±ÑĥÐ»Ð°ÑĤ":7239,"ÐĴÐ¾Ð·Ð´ÑĥÑĪ":7240,"ĠÐ³ÑĢÑıÐ´ÑĥÑīÐµÐ¼":7241,"ĠÐ²ÑĮÑİÐ³Ð°":7242,"ÐĴÑģÑĤÐ°ÐµÑĤ":7243,"ĠÐ³Ð°ÑĢÐ¼Ð¾Ð½":7244,"ĠÐ¿ÑĢÐµÐ³ÑĢÐ°Ð´":7245,"ĠÐ¾ÑĤÑĤÑĥÐ´Ð°":7246,"ĠÐ¾Ð´Ð¸Ð½Ð¾ÑĩÐºÑĥ":7247,"ĠÐ¿ÑĢÐ¸ÑģÐ»Ð°Ð»":7248,"ĠÑģÑĤÐ°ÑĢÐ¾ÑģÑĤÐ°":7249,"ĠÐĽÑİÐ´Ð¼Ð¸Ð»Ñĭ":7250,"ĠÑģÑĤÐ°Ð´Ð¾":7251,"ĠÑģÐ¸ÑĢÐ¾ÑĤ":7252,"ĠÐ¾ÑĤÐ¾ÑĪ":7253,"Ð£Ð³ÑĢÑİÐ¼":7254,"ĠÐ½ÐµÐ´Ð¾ÑģÑĤÐ¾Ð¹":7255,"ÐĶÑĢÑĥÐ·ÐµÐ¹":7256,"ÐĿÐ°Ð·Ð½Ð°Ñĩ":7257,"ĠÐ¿ÑĢÐµÐ´ÑģÑĤÐ¾":7258,"ĠÐ¾ÑĤÑĩÐ°ÑıÐ½ÑĮÐµ":7259,"ĠÐºÑĢÐ¾Ð¼Ðµ":7260,"Ð¡ÑĤÑĥÐ¿Ð°Ð¹":7261,"ĠÐľÑĥÐ·Ð°":7262,"ĠÐ¿Ð¾Ð¶Ð°Ð»ÑĥÐ¹":7263,"ĠÐ²ÑģÐºÑĢÐ¸ÑĩÐ°Ð»":7264,"ĠÐ´Ð¾Ð»ÑĮÑĪÐµ":7265,"ÐŁÐ¸ÑģÑĮÐ¼Ð¾":7266,"Ð¡ÐºÐ°Ð¶Ð¸ÑĤÐµ":7267,"ĠÐ±Ð°Ð·Ð°ÑĢ":7268,"ĠÐłÑĥÑģÐ»Ð°Ð½Ð°":7269,"ĠÐłÐ°ÑĦÐ°Ð¸Ð»":7270,"ĠÐ²Ð¿ÑĢÑıÐ¼ÑĮ":7271,"ĠÑģÑĥÐ³ÑĢÐ¾Ð±":7272,"ÐĴÐ¾Ð»ÑĮÐ³Ð¾ÑĤÐ½Ð¾":7273,"ĠÐ²Ð²ÐµÑĩÐµÑĢÑĥ":7274,"ÐļÐĿÐĺÐĵÐĲ":7275,"ĠÑħÐ»ÑıÐ±":7276,"ĠÐĲÑĢÑħÐ¸Ð²ÑĢÐ°Ð³":7277,"):":7278,");":7279,"le":7280,"ÐĻ":7281,"Ð¾ÑĥÐ¼":7282,"Ð¾ÑıÑĤÑĮ":7283,"ÑĤÐ°Ð½":7284,"Ð¸Ð°Ð½":7285,"ÑĢÑĮ":7286,"ÑĢÐµÐ¹":7287,"ÑĢÐ°Ð»Ð¸":7288,"ÑĢÑĥÑģ":7289,"ÑĢÐ¾ÑģÐ»Ð°Ð²":7290,"Ð½ÑĳÑĤÑģÑı":7291,"Ð»ÑıÑĤÑĮÑģÑı":7292,"ÑĥÐµÐ¼":7293,"ÑĥÑĢÐ°":7294,"ÑĥÑİÑĤÑģÑı":7295,"ÑĮÐµÑĪÑĮ":7296,"ÑıÐ½Ñĥ":7297,"ÑıÐ»Ð¸ÑģÑĮ":7298,"ĠÑģÐ½Ñĥ":7299,"ĠÑģÐ°ÑĢÐ°":7300,"ĠÑģÐ¾Ð¼Ðº":7301,"ĠÑģÑĥÑĤÐºÐ¸":7302,"ĠÑģÐµÐ½Ð¾ÐºÐ¾Ñģ":7303,"ĠÐ¿ÐµÐ½ÑĮÐµÐ¼":7304,"ĠÐ²ÐµÑģÑĤ":7305,"ĠÐ²ÐµÐ·":7306,"ĠÐ²ÑĭÐ¹":7307,"ĠÐ²Ð²ÐµÑĢ":7308,"ĠÐ²Ð¾ÑģÐº":7309,"ĠÐ²Ð¾Ð»ÑĮÐ½Ð¾":7310,"ĠÐ²Ð»ÐµÑĩ":7311,"Ð²Ð¸ÑģÑĤ":7312,"Ð´Ð¾Ð²":7313,"Ð´ÐµÐ¹":7314,"Ð´ÑĥÐ¼":7315,"ÑĩÐµÐ¹":7316,"ÑĩÑĥÑĤÑĮ":7317,"ÑĩÑĳÑĤ":7318,"ÑģÑĤÐ°Ð½":7319,"ÑĪÐ¸Ð½":7320,"ÐµÐ½ÑĢÐ°Ð²":7321,"ÑİÐ¶":7322,"ÑİÑĩÐ¸":7323,"ĠÑĤÑıÐ½":7324,"ÐµÑĤÐµÐ½":7325,"ÐµÑĤÐ¾Ð¹":7326,"ÐµÑĤÐ¸ÑĤ":7327,"Ð°Ð»ÑĩÐ¸Ð²":7328,"Ð¾Ð»Ð°Ð¼":7329,"ĠÐ´ÐµÑģ":7330,"ĠÐ´Ð°ÐµÑĤ":7331,"ĠÐ´Ð½ÐµÐ²":7332,"ĠÐ´Ð¾Ð½Ð¾Ñģ":7333,"ĠÐ¸Ð½ÑĭÑħ":7334,"ĠÐ¸Ð´Ðµ":7335,"ĠÐ¸Ð½Ð¾Ðµ":7336,"ĠÐ¸Ð´Ð¸":7337,"Ð¾Ð²Ð¾Ð½":7338,"Ð¾Ð²Ð°Ð»Ð°":7339,"Ð¾Ð²Ð¸Ñī":7340,"ĠÐ±Ð¾Ñģ":7341,"ĠÐ±Ð¸Ñĩ":7342,"ĠÐ¼Ð°Ñģ":7343,"ĠÐ¼Ð¾Ðº":7344,"ĠÐ¼ÑĥÑĢÐ°Ð²":7345,"ÐµÑĢÑĭ":7346,"ÐµÑĢÐµÐ¼":7347,"ĠÐºÐ¾Ð³":7348,"ĠÐºÐ¾ÑĤ":7349,"ĠÐºÐ¾Ð¶":7350,"ĠÐºÐ¾Ñĩ":7351,"ĠÐºÑĥÐ·":7352,"ĠÐºÑĥÐ»":7353,"ĠÐºÐ¾ÑģÑĤÑĮ":7354,"Ð¾ÑĢÐ½ÑĭÐ¹":7355,"Ð¾ÑĢÐ¾Ñĩ":7356,"ÐµÐ»Ð¸Ð¹":7357,"Ð¸ÑĤÑĭÑħ":7358,"Ð¾Ð´ÐµÐ¹":7359,"Ð¾Ð´Ð¸ÑĤÑĮ":7360,"Ð¸Ð»Ñĥ":7361,"ÐĿÐµÐ·":7362,"ÐĿÐ°Ð±":7363,"ÐĿÑĭÐ½ÑĩÐµ":7364,"ĠÑĢÐµÑĤ":7365,"ĠÑĢÑĥÑħ":7366,"ĠÐ³Ð°Ð·":7367,"ĠÐ³ÑĥÑĢ":7368,"ĠÐ³Ð¾Ð´Ñĥ":7369,"ĠÐ¿ÑĢÐ¸Ð¹":7370,"ÐŁÑĥÐ³":7371,"ÐŁÐ¸ÑĢ":7372,"ÐŁÐ°ÑģÑĤ":7373,"ÐŁÑĭÐ»Ð°":7374,"ÐŁÐ¾Ð¹Ð´ÐµÐ¼":7375,"ÐĴÑĢ":7376,"ÐĴÑĩ":7377,"ÐĴÐ¸ÑĪÑĮ":7378,"ÐĴÐ»Ð°ÑģÑĤ":7379,"Ð°ÐºÐµ":7380,"Ð°ÐºÐ¾Ð½":7381,"Ð¡ÐµÐ»":7382,"Ð¡ÐµÑģÑĤ":7383,"Ð¡Ð°ÑĪÐµ":7384,"Ð¿Ð°ÑĤ":7385,"ÑĨÐ°ÑĤÑĭÐ¹":7386,"Ð³Ð°Ð»":7387,"ĠÐ»Ð¸Ð»":7388,"ĠÐ»Ð±Ñĥ":7389,"Ð°Ð²ÑĪÐ¸Ðµ":7390,"Ð°Ð²ÐºÐ°Ð·":7391,"Ð°ÑģÐ¿":7392,"ÑĤÐ¾ÑĦ":7393,"ÐµÐ¹ÑĤÐµ":7394,"ĠÐ½ÐµÑģÑĤ":7395,"ĠÑĩÑĢ":7396,"ĠÑĩÐµÐ»":7397,"ĠÑĩÐ°Ð´":7398,"ĠÑĩÐµÐ¿":7399,"ĠÑĩÐµÐ»Ð¾":7400,"ĠÑĩÐµÑĤÐ°":7401,"ĠÑĩÑĮÑĳ":7402,"ĠÑĩÑĥÐ³ÑĥÐ½":7403,"ÐµÑģÐ¸Ð»":7404,"ÐŀÐ¶":7405,"ÐļÐ¾Ð¿":7406,"ÐļÐ»Ð¸Ð¼":7407,"ĠÑģÑĤÐ¾ÐºÑĢÐ°ÑĤ":7408,"ĠÐ½Ð°ÑĥÑĩ":7409,"ĠÐ½Ð°ÑıÐ²":7410,"Ð¢Ð¾Ð¿":7411,"Ð¢Ð¾ÑĢÐ¶":7412,"Ð¸Ð²Ñĭ":7413,"ĠÐ¶Ð°Ð¶":7414,"ĠÐ¶Ð¸Ð´":7415,"ĠÐ¶Ð¸Ð»ÑĮ":7416,"ÐµÐ²ÑĭÐµ":7417,"Ð¸Ð¼ÑĥÑİ":7418,"ĠÐµÐ·":7419,"ÐĶÑĭÑħ":7420,"ÐĶÑĥÑĢ":7421,"ĠÑĥÑĢÐ¾Ð½":7422,"ĠÑĥÑĢÐ¾Ð¶":7423,"Ð¾Ð¶Ð°Ð¹":7424,"Ð¾ÑĩÐ¸Ð»Ð°":7425,"ÐµÐ³ÐºÐ°":7426,"ÐµÐ³ÑĢÐ°Ð´":7427,"ÐµÐ½ÑĮÑĪ":7428,"ÐµÑĩÐ°ÑģÐ½Ð¾":7429,"ÑĥÐ³Ð¾Ð¹":7430,"ĠÑģÐ²ÐµÑĩ":7431,"ĠÐ¾ÑĤÐ´Ð°":7432,"ĠÐ¾ÑĤÑĬ":7433,"ĠÐ¾ÑĤÑıÐ³Ñĩ":7434,"ĠÐ±ÑĭÐ²Ð°Ð»":7435,"ÐŁÑĢÑıÐ¼":7436,"ÐŁÑĢÐ¸ÐµÑħ":7437,"Ð§ÑĥÐ¶":7438,"Ð§ÐµÐ»Ð¾Ð²ÐµÐº":7439,"Ð§Ð°ÑģÑĤÑĮ":7440,"ÑĥÑĪÐµÐ²":7441,"ÑĥÑĪÐ¸ÑĤÑĮ":7442,"ÑĥÑĪÐ°Ð¹":7443,"ÐµÐºÐ°Ð»":7444,"ÐµÐºÐ»Ð°":7445,"ĠÑħÐ°":7446,"Ð»ÑıÑİÑĤÑģÑı":7447,"ÐľÐ°Ð½":7448,"ÐĳÐ°Ñİ":7449,"Ð¸ÑĢÐ°ÐµÑĤÑģÑı":7450,"ÐĹÐ°Ð»":7451,"ÐĹÐ½Ð°Ð¹":7452,"ÐĿÐµÐ¾Ð±":7453,"Ð£Ð¼ÐµÑĢ":7454,"ĠÐ²ÑģÐ°Ð´":7455,"ĠÐ²ÑģÐµÐ¼Ñĥ":7456,"ÐĲÐ¯":7457,"ÐµÐ¿ÐµÐ½":7458,"ĠÐ¾Ð±Ð¼":7459,"ĠÐ¾Ð±ÐµÑĢ":7460,"ĠÐ¾Ð±Ð½Ð¸Ð¼":7461,"Ð¾Ð¿Ð°Ñģ":7462,"Ð¸Ð¹ÑģÐºÐ¸Ð¹":7463,"ÑģÑĤÐ²ÐµÐ½Ð½ÑĭÐ¹":7464,"ÐĵÑĥÐ±":7465,"ÐĵÐµÐµÐ½":7466,"ĠÐ³ÑĢÐ°Ð±":7467,"ĠÐ¿Ð¾Ð´ÐºÑĢ":7468,"ĠÐ¿Ð¾Ð´Ð½ÑıÑĤ":7469,"ĠÐ¿Ð¾ÑĨÐµÐ»":7470,"ĠÐ²ÑĭÐº":7471,"ĠÐ²ÑĭÑģÐ»ÑĥÑĪ":7472,"ĠÐ¡Ð¾Ð·Ð´":7473,"ĠÐ¸Ð·Ð»ÑĥÑĩ":7474,"ÑĮÑıÑĩ":7475,"Ð°ÑħÐ°":7476,"ĠÐĿÐ°ÑĪ":7477,"ĠÑģÐºÑĢ":7478,"ĠÑģÐºÐ¸ÑĤ":7479,"ĠÑģÐºÐ°Ðº":7480,"ĠÑģÐºÐ»Ð°Ð´":7481,"ĠÑģÐºÑĢÑĭÑĤ":7482,"ĠÑģÐºÑĢÐ¸Ð¿":7483,"Ð¸ÑĪÐµÐº":7484,"ĠÑĢÐ°Ð·Ð°":7485,"ĠÑĢÐ°Ð·Ð»ÑĥÑĩ":7486,"ĠÐ¿Ð¾Ð»Ð¾ÑĤ":7487,"Ð½ÑıÐ¼Ð¸":7488,"ĠÑĤÑĢÐ¾Ð³":7489,"ĠÐĴÐµÑĢ":7490,"ĠÐĴÐ¸Ð´":7491,"ĠÐĴÐµÐ»Ð¸":7492,"Ð¸ÑĩÐ°":7493,"ĠÐ¢ÑĢ":7494,"ĠÐ¢ÑĥÐ»Ð°":7495,"ĠÐ¢ÑĢÑĥÐ±":7496,"ÐĽÐ¾ÑĪÐ°Ð´":7497,"ÐĽÐµÐ±ÐµÐ´ÑĮ":7498,"ĠÐ³Ð¾ÑĢÐ¾Ñİ":7499,"ĠÑģÐ¼ÐµÑİ":7500,"ĠÑģÐ¼ÐµÐµÑĤ":7501,"ĠÑģÐ¿Ð¸Ð½Ñĥ":7502,"ĠÐŁÐ¾Ð¼":7503,"ĠÐŁÐ¾Ñģ":7504,"ĠÐŁÑĢÐ°Ñī":7505,"ĠÐŁÐ¸ÑĤÐµÑĢ":7506,"ÐµÑħÐ¾Ð´":7507,"ĠÐ²Ð·Ð¼":7508,"ĠÐ²Ð·Ð²Ð¾Ð´":7509,"ĠÐĲÑĢ":7510,"ĠÐ¿ÑĢÐ¸ÑģÑı":7511,"ĠÐ¿ÑĢÐ¸Ð¶":7512,"Ð°Ð»ÑĮÐ·":7513,"ĠÐŀÑĢ":7514,"Ð¾ÑĪÐµÐ½":7515,"Ð¾ÑĪÐ»Ð¾":7516,"Ð½Ð¸ÐºÐ°Ð¼Ð¸":7517,"Ð¸ÑģÑĤÑĥÐ¿":7518,"Ð¡ÑĤÐ¾Ð»":7519,"ĠÐ¿Ð¾ÐºÐ¾Ð»":7520,"ĠÐ¿Ð¾ÐºÐ¸Ð½ÑĥÐ»":7521,"ĠÑģÐ²Ð¾ÐµÑİ":7522,"ĠÐľÐ¾Ð»":7523,"ĠÐ½Ð¸Ð³Ð´Ðµ":7524,"Ð¢Ð°ÐºÑĥÑİ":7525,"ÑĥÑīÐ¸Ð¼":7526,"ĠÐ´Ð¾Ð»Ð¸Ð½Ðµ":7527,"ĠÑĥÐ¶Ð¸Ð½":7528,"ĠÐ²Ð¸Ð´Ðµ":7529,"ĠÐ¿ÑĢÐµÐ´ÑģÐºÐ°Ð·":7530,"ĠÐ²ÐµÑĢÐµÐ½":7531,"ĠÐ²ÐµÑĢÐ½Ð¾Ð¹":7532,"Ð¸Ð½ÑĥÐ»Ð°ÑģÑĮ":7533,"ĠÐ²Ð¾Ð»ÐµÑİ":7534,"Ð¥Ð²Ð°Ð»":7535,"ĠÐ´ÑĢÑĥÐ³Ð¾Ð³Ð¾":7536,"ĠÑĢÐ¾Ð´Ð¸ÑĤ":7537,"ĠÑĢÐ¾Ð´Ð¸Ð½Ñĥ":7538,"ĠÑĥÐ¼ÑĢ":7539,"ĠÑģÐ²ÐµÑĤÐ¾Ð¼":7540,"ĠÐ¿Ð¾Ð¼Ð¾Ð»":7541,"ĠÐ¾Ð¿ÑĢÐ°Ð²Ð´":7542,"ĠÐ·Ð²Ð°ÑĤÑĮ":7543,"ĠÐ¸Ð¼ÐµÐ½Ð¸":7544,"ÐĸÐµÑģÑĤ":7545,"ÐĸÐ°Ð»ÑĮ":7546,"Ð»ÐµÐ½Ð½ÑĥÑİ":7547,"ĠÐ¿Ð¾ÑĤÑĥÐ¿":7548,"ĠÐ¿Ð¾ÑĤÑĢÐµÐ±":7549,"ĠÐ²Ð´Ð²Ð¾":7550,"ĠÐ²Ð´Ð²Ð¾Ð¹Ð½Ðµ":7551,"ĠÐ¿Ð¾Ð²ÐµÑģÑĤÑĮ":7552,"ĠÐ¿Ð¾Ð²ÐµÑĢÑħ":7553,"ĠÐ¿ÑĢÐ°Ð²Ð¾ÑģÐ»Ð°Ð²":7554,"ĠÐ¿ÑĢÐ°Ð²Ð¾ÑģÑĥÐ´":7555,"ÑıÐ½ÑĮÐµ":7556,"ĠÐ·Ð½Ð°ÑĤ":7557,"ÐµÑģÑĤÐ²ÐµÐ½Ð½ÑĭÐ¹":7558,"ÐŀÐ±ÑĭÑĩ":7559,"ĠÐ»ÐµÑĤÐ°":7560,"Ð¡Ð»Ð¾Ð²":7561,"ĠÐ±Ð»Ð°Ð³Ð°":7562,"ĠÐ¶Ð¸Ð²ÑĥÑĤ":7563,"ĠÐ¶Ð¸Ð²ÐµÑĤÑģÑı":7564,"ĠÐ¾ÑģÑĭÐ¿":7565,"ĠÐ¿Ð¾ÑģÐ»Ð°Ð»":7566,"ĠÐ·Ð°Ð±ÑĭÑĤ":7567,"ĠÐ±Ð¾Ð»ÑĮÐ½Ð¾":7568,"ÐŀÐ´Ð½Ð¾Ð¹":7569,"ĠÐ²Ð¿Ð°Ð»":7570,"ÑĥÐ»ÐºÐ¸":7571,"ĠÐ¼Ð¸Ð»Ð°Ñı":7572,"ĠÐ¼Ð¸Ð»ÑĭÑħ":7573,"ĠÐºÐ¾Ð»Ð¸":7574,"ĠÐºÐ¾Ð»ÐµÐ½Ð¸":7575,"ĠÐºÑĢÐ°ÑģÐ½":7576,"ĠÐºÑĢÐ°ÑģÑĭ":7577,"ĠÐ¿Ð¾Ð³ÑĢÐµÐ±":7578,"ÐŁÐ¾ÐºÐ¸Ð½ÑĥÐ²":7579,"ÐŁÐ¾ÐºÐ°Ð¼ÐµÑģÑĤ":7580,"Ð»ÐµÑİ":7581,"ÐµÑĢÐµÐ´ÐºÐ¾":7582,"ÐĿÐ°Ð´ÐµÐ¶":7583,"ĠÐ¿Ð¾ÑģÐ²ÑıÑī":7584,"ÑĭÐ±Ð»ÐµÐ¼":7585,"ĠÐ´ÑĥÐ¼Ð°Ñİ":7586,"ĠÐ½ÐµÐ´Ð°ÑĢÐ¾Ð¼":7587,"Ð¡Ð¼ÑĥÑĤ":7588,"ĠÐ·Ð°Ð¿ÐµÑĢ":7589,"ĠÐ±Ð°ÑĢÐ°Ð±":7590,"ĠÑĥÐ³Ð¾Ð´":7591,"ĠÐ¿ÐµÑĩÐ°ÑĤÑĮ":7592,"ĠÐ´ÐµÐ²ÑıÑĤ":7593,"ĠÐ´ÐµÐ²Ð¸ÑĨÑĭ":7594,"ĠÐ´ÐµÐ²ÑĩÐ¾Ð½":7595,"Ð»ÐµÑĤÐ²Ð¾ÑĢ":7596,"ĠÐ½Ð°Ð²ÐµÑĢÐ½Ð¾":7597,"Ð²ÑĭÑĢ":7598,"ĠÑĥÐ¿Ð°Ð´":7599,"ĠÐ·Ð½Ð°ÐµÐ¼":7600,"ĠÐ²ÐµÑĤÑĢÐ°":7601,"ĠÐ²ÐµÑĤÑĢÑĭ":7602,"ĠÐ»ÑĥÑĩÑĪÐ¸Ð¹":7603,"ĠÑĩÐµÑĢÐ²":7604,"ĠÑĩÐµÑĢÑĳÐ´":7605,"ÑģÑĤÑĥÐ¿Ð°ÐµÑĤ":7606,"ĠÐ²ÐµÑģÐµÐ»ÑĮÐµ":7607,"ĠÐ¿Ð¾Ð±Ð¾":7608,"ĠÐ¿Ð¾ÑĩÑĳÑĤ":7609,"ÐµÑıÐ»Ð¸":7610,"ĠÐ½ÐµÐ¿ÑĢÐ°Ð²":7611,"ĠÐ½ÐµÐ¿Ð¾Ð½ÑıÑĤ":7612,"ĠÑģÐ¾Ð½Ð¼Ñĭ":7613,"ĠÑģÑĭÐ½Ð¾Ð¼":7614,"ĠÐ¿Ð°ÑĢÐ½Ð¸":7615,"ĠÐºÐ¾ÑĤÐ¾ÑĢÐ¾Ð³Ð¾":7616,"ĠÐºÐ¾ÑĤÐ¾ÑĢÑĭÐµ":7617,"Ð¾Ð´Ð¸ÑĤÐµÐ»ÐµÐ¹":7618,"ĠÐºÐ°ÑĢÐ°":7619,"ĠÐºÐ°ÑĢÐ°Ð²":7620,"ĠÐ´ÐµÑĢÐµÐ²ÐµÐ½":7621,"ĠÐ²ÐµÐ´Ð°Ð»":7622,"ĠÐ²ÐµÐ´Ð°ÐµÑĤ":7623,"ĠÑĤÐ¾Ð¼Ð¸Ð¼":7624,"ĠÑĥÐ±Ð¸Ð¹":7625,"ĠÐ¶ÐµÐ»ÑĤ":7626,"ĠÐ¿ÐµÑĢÐ²ÑĭÑħ":7627,"ĠÐ»ÐµÐ³ÐºÐ¾Ð¹":7628,"ĠÐ»ÐµÐ³Ð¸Ð¾Ð½":7629,"ĠÐ³ÑĢÐ¾Ð·Ð½Ð¾":7630,"ĠÐ³ÑĢÐ¾Ð·Ð½Ð¾Ð¹":7631,"ĠÑĪÑĥÐ¼Ð¾Ð¼":7632,"ĠÑĪÑĥÐ¼Ð½ÑĭÐ¹":7633,"ĠÑģÑĤÑĢÐ°ÑĪÐ½Ð¾Ð¹":7634,"ĠÑģÑĤÑĢÐ°ÑĪÐ°ÑģÑĮ":7635,"ÑĢÐµÐ¼ÐµÐ½Ð½Ð¾":7636,"ĠÑīÐ¸ÑĤÑĭ":7637,"ÑĢÐµÐ½Ð¾":7638,"ÐĴÐ¾Ð¾ÑĢÑĥÐ¶":7639,"ĠÑģÐµÐ¼ÑĮÐ¸":7640,"ĠÐºÐ°Ð¶Ð´Ð¾Ð¹":7641,"ĠÐ²ÑģÑıÐºÐ¾Ð¹":7642,"ĠÑģÐ¾Ð»Ð¾Ð²ÐµÐ¹":7643,"ĠÑģÑĤÐ°Ð½ÑĥÑĤ":7644,"ÐŁÐ¾ÑĤÐ¾Ð¼Ñĥ":7645,"ĠÐºÐ»ÐµÐ¹":7646,"ĠÐ¡Ð°ÑĤÐ°Ð½Ð¾Ð¹":7647,"ĠÐ¾ÑĢÑĥÐ´":7648,"Ð¡ÑĤÐ°ÑĢÑĥÑħÐ°":7649,"ĠÐ±Ð¾ÑĢÐ·":7650,"ĠÐ±Ð¾ÑĢÐ¾Ð´Ð°":7651,"ĠÐ·Ð°ÑĢÐµ":7652,"ÐĳÐµÑģÑĩ":7653,"ÐĳÐµÑģÑģÑĤ":7654,"Ð°ÑİÑīÐµÐ¹":7655,"Ð°ÑİÑīÐ¸Ðµ":7656,"ÑİÑīÐ¸Ðµ":7657,"ĠÑģÐ»ÑĭÑĪÐ°Ð»":7658,"ĠÐ¸Ð·Ð±ÑĢÐ°Ð»":7659,"ÑĢÐ¾Ð²Ð¾Ð¶Ð´":7660,"ĠÐ³ÑĢÐ¾Ð¼Ð°Ð´":7661,"ĠÐ±ÐµÑĢÐµÐ³Ð¾Ð¼":7662,"ĠÐ½ÐµÐ¶Ð½ÑĭÑħ":7663,"ĠÐ¾ÑĤÐ²ÐµÑĤÐ¸Ð»":7664,"ĠÑħÐ¾ÑĢÐ¾Ð¼":7665,"ĠÐ²ÑĢÐ°Ð³Ñĥ":7666,"ĠÐ´ÑĢÑĥÐ¶Ð½Ð¾":7667,"ĠÑıÑĢÑĩÐµ":7668,"ĠÐĶÑĥÑħÐ°Ð¼":7669,"ĠÐ·Ð°Ð´ÐµÑĢÐ¶":7670,"ĠÐ¿ÑĢÐ¾ÑģÐ¸Ð»":7671,"ĠÐ¿ÑĢÐ¾ÑģÐ²ÐµÑĤ":7672,"ÐŁÐ¾Ð²ÐµÐ´":7673,"ÐŁÐ¾Ð²ÑģÑİÐ´Ñĥ":7674,"ĠÑģÑĤÑĢÐ°ÑħÐµ":7675,"Ð¾ÑıÑģ":7676,"ĠÐ¤Ð¸Ð½":7677,"ĠÐ¤Ð¸Ð»Ð¸Ð¿Ð¿":7678,"Ð°ÐµÐ¼ÑĭÐ¹":7679,"ĠÐ¼Ð¾Ð»Ð²Ð¸ÑĤ":7680,"ĠÑĩÐ¸ÑģÑĤÐ¾Ð¼":7681,"ĠÑĪÐ°Ð³Ð¾Ð²":7682,"ĠÐ³Ð¾ÑĤÐ¾Ð²Ñĭ":7683,"ĠÐ±Ð¾Ð³Ð°ÑĤÑĭÑĢÑı":7684,"ĠÑģÐ¾Ð·Ð´Ð°Ð½":7685,"ĠÑĤÐ¾Ð»Ð¿Ðµ":7686,"ÐŀÑģÐ²Ð¾Ð±Ð¾Ð´":7687,"ĠÐ¿ÑĢÐ°Ð·Ð´Ð½Ð¸Ñĩ":7688,"ĠÐ¾ÑĤÐºÑĢÑĭÐ²":7689,"ĠÐ¿ÑĢÐ¾ÑĩÐ¸ÑĤ":7690,"ĠÐ²ÐµÐ»Ð¸ÐºÐ°Ñı":7691,"ÐŁÐ»Ð¾Ð´":7692,"ÐŁÐ»Ð¾Ð´Ñĭ":7693,"ĠÑģÐ¾ÐºÐ¾Ð»":7694,"ĠÐ¿ÑĢÐ¾ÑĪÑĥ":7695,"ĠÐ¿ÑĢÐ¾ÑĪÐ»Ð¸":7696,"ĠÐ¾ÑģÑĤÑĢÐ¾Ð³":7697,"ÐĹÐ°Ð±ÑĭÐ»":7698,"ĠÐ³ÑĢÑĥÐ´ÑĮÑİ":7699,"ÐĴÐµÑĢÐ½ÑĥÐ»ÑģÑı":7700,"ĠÑħÐ¾Ð»Ð¾Ð´Ð½Ð¾":7701,"ĠÑħÐ¾Ð»Ð¾Ð´Ð½ÑĭÐ¹":7702,"ĠÐ½ÐµÐ¿ÑĢÐ¸ÑģÑĤÑĥÐ¿":7703,"ĠÐ¼ÑĢÐ°ÑĩÐ½ÑĭÐµ":7704,"ĠÑĥÐ²Ð¸Ð´Ð°Ð»":7705,"ĠÑĥÐ²Ð¸Ð´ÐµÑĤÑĮ":7706,"ĠÑĤÑĢÐ°Ð²Ð¾Ð¹":7707,"ĠÑģÐ¸Ð»ÑĮÐ½Ð¾":7708,"ĠÐ·Ð°Ð³Ð¾Ð²Ð¾ÑĢ":7709,"ĠÐ·Ð°Ð³Ð»ÑĥÑĪ":7710,"ĠÐ¿ÑĢÐ¸ÑĪÐ»Ð°":7711,"ĠÐ´ÐµÑĢÐ¶Ð°Ð²":7712,"ĠÐºÐ¾Ð¿ÑĮÑı":7713,"ĠÑģÐ¾ÑĤÐ²Ð¾ÑĢÐ¸Ð»":7714,"ĠÐ½Ð¾Ð¶Ð¾Ð¼":7715,"ĠÐ±Ð»Ð¸Ð·ÐºÐ¾":7716,"ĠÐ±Ð¾Ð¶Ð¸Ð¹":7717,"ĠÐ¿Ð»ÐµÑĩÐ°":7718,"ĠÐ¿Ð¾Ð±ÐµÐ´Ñĥ":7719,"ĠÐ»ÑĥÐ³Ñĥ":7720,"ÐĶÑĥÑĪÐ¸":7721,"ÐĳÑĥÐ´ÑĤÐ¾":7722,"ÐĽÑİÐ´Ð¼Ð¸Ð»Ð°":7723,"ĠÑģÑĤÐ¾Ð½Ñĭ":7724,"ĠÑħÐ»ÐµÐ±ÑĥÑĪÐºÐ°":7725,"ĠÐ»ÑĥÐ½Ñĭ":7726,"ÐŁÑĢÐ¾ÑģÑĤÐ¸ÑĤÐµ":7727,"ĠÐ·ÐµÐ¼Ð»ÑıÐ½":7728,"ĠÐ¿ÑĢÐ¾Ð¼Ð¾Ð»Ð²Ð¸Ð»":7729,"ĠÐ½ÐµÑĩÑĤÐ¾":7730,"ĠÐ°Ð»ÑĤ":7731,"ĠÐ°Ð»Ñĩ":7732,"ĠÐ²ÐµÐ»Ð¸ÐºÐ¾Ðµ":7733,"ÐŁÑĢÐ¸Ð²ÐµÑĤ":7734,"ĠÐºÐ½ÑıÐ·Ñİ":7735,"ÐĿÐµÐ¼Ð°Ð»Ð¾":7736,"ĠÑĢÐµÐ²ÐµÑĤ":7737,"ÐŀÐ³Ð¾Ð½ÑĮ":7738,"ÑĦÐ¸ÑĢÐ°":7739,"ĠÐ¾ÑĤÐ²ÐµÑĩÐ°ÑĤÑĮ":7740,"ĠÐ·Ð°Ð»Ð¾Ð³":7741,"ĠÑĥÑģÐ¿Ð¾ÐºÐ¾":7742,"ÐĹÐ°Ð¿ÑĢÐµÑĤ":7743,"Ð£Ð±Ð¸Ð¹":7744,"ĠÑģÐ²Ð¾Ð±Ð¾Ð´Ð½Ð¾":7745,"ÐľÐ¾Ð¸Ñħ":7746,"ĠÐŁÐµÑĤÑĢ":7747,"ÐŁÐ¾ÑĩÑĤ":7748,"ÐŁÐ¾ÑĪÐµÐ»":7749,"ĠÐ¸Ð´ÐµÑĪÑĮ":7750,"ĠÐ³Ð¾Ð»Ð¾Ð´Ð½ÑĭÐ¹":7751,"ÐĳÐ»Ð°Ð¶ÐµÐ½ÑģÑĤÐ²Ð¾":7752,"ĠÑĥÐ³ÑĢÑİÐ¼Ð¾Ð¹":7753,"ÑĤÐ°ÐºÐ¸":7754,"ĠÐ´Ð¸ÑĤÑıÑĤ":7755,"Ð¸ÑĩÐµÑģÐºÐ¸Ð¹":7756,"ĠÐ¿ÑĢÐ¾Ð½Ð·":7757,"ĠÐ±ÐµÑģÑģÐ¸Ð»ÑĮ":7758,"ĠÐ±ÐµÑģÑģÐ¼ÐµÑĢÑĤ":7759,"ĠÐ²ÑģÑĤÐ°Ð½ÑĮ":7760,"ÐĴÑĢÐ°Ð³Ð¾Ð²":7761,"ĠÐ¿Ð»Ð°ÐºÐ°Ð»Ð°":7762,"ĠÐ¿Ð»Ð¾ÑĤÐ¸":7763,"ĠÑĢÐ¾Ð¶Ð´ÐµÐ½":7764,"ÐĿÐ°ÑĪÐµÐ»":7765,"ĠÑģÐµÑģÑĤÑĢÐ°":7766,"ĠÑģÐµÑģÑĤÑĢÑĭ":7767,"ĠÐ´Ð¸ÐºÐ¾Ð¹":7768,"ĠÐºÐ¾Ð½ÑĩÐ¸Ð»":7769,"ĠÐºÑĢÐ¾Ð²Ð°Ð²Ð¾Ð¹":7770,"ĠÐºÑĢÐ¾Ð²Ð°Ð²ÑĭÑħ":7771,"ĠÐĶÑĢÐµÐ²Ð¾":7772,"ĠÑĤÐµÑģÐ½Ð¾":7773,"ĠÐ²ÑĭÑģÐ¾ÐºÐ¸Ñħ":7774,"ĠÐ³ÑĥÑģÑĤÐ¾Ð¹":7775,"ĠÐ¿ÑĢÐµÑģÐ»ÐµÐ´":7776,"ĠÑĥÐ¼Ð¸ÑĢÐ°ÑĤÑĮ":7777,"ĠÐºÑĥÑĢÐ³":7778,"ÐłÐ°Ð±Ð¾ÑĤÐ°":7779,"ĠÐ·Ð°ÑģÐ»ÑĥÐ¶":7780,"ĠÐ²ÑģÑİÐ´Ñĥ":7781,"ĠÐľÐ¾ÑģÐºÐ²Ñĥ":7782,"ĠÑģÑĥÑĢÐ¾Ð²ÑĭÐ¹":7783,"ĠÐ¡Ð°Ð»ÑĤÐ°Ð½Ð°":7784,"ĠÐ½Ð¸Ð²Ñĭ":7785,"ĠÐ´ÐµÑģÑıÑĤ":7786,"ĠÐºÐ°Ð¿Ð»Ð¸":7787,"Ð¸Ð²ÑĪÐ¸Ð¹ÑģÑı":7788,"ĠÐ±ÑĭÐ²Ð°ÐµÑĤ":7789,"ĠÐ½ÐµÐ´Ð²Ð¸Ð¶Ð½Ð¾":7790,"ĠÐ¾ÑĢÑĥÐ¶ÑĮÐµ":7791,"ĠÑģÐ¿ÑĢÐ¾ÑģÐ¸Ð»Ð°":7792,"Ð¥Ð¾ÑĢÐ¾ÑĪ":7793,"ĠÐ¿Ð¾Ð¼ÐµÑīÐ¸ÐºÑĥ":7794,"ĠÐ´Ð²Ð¸Ð¶ÐµÐ½ÑĮÑı":7795,"ĠÐ¼Ð°Ð»ÑĮÑĩ":7796,"ĠÐ¼Ð°Ð»ÑĮÑĩÐ¸Ðº":7797,"ĠÐ¶Ð°Ð¶Ð´Ñĥ":7798,"ÐŁÑĢÐ¸Ð´Ð¸":7799,"ĠÐ±Ð¾ÑıÑĢ":7800,"ÐĺÑģÐºÑĥÑģ":7801,"ĠÐ´Ð¾ÑĩÐµÑĢ":7802,"ĠÑģÐ²ÑıÑīÐµÐ½":7803,"ĠÐ´ÑĥÑĢÐ°Ñĩ":7804,"ĠÐ²ÐµÑĢÑħÐ¾Ð¼":7805,"Ð¡ÐºÐ¾ÑĢÐ¾":7806,"ĠÑĥÐ·Ð½Ð°ÐµÑĤ":7807,"ĠÐ¼Ð°ÑĪÐµÑĤ":7808,"ĠÑĢÐ¾Ð¼Ð°Ð½Ð°":7809,"ÐĹÐ¾Ð²ÑĥÑĤ":7810,"ĠÐ³ÑĢÐ°Ð½Ð¸ÑĨ":7811,"ĠÑģÑĤÐ°ÑĢÑĥÑħÐµ":7812,"ÐŁÑĢÐ¾ÑħÐ»Ð°Ð´":7813,"ĠÐ·Ð°Ð²Ð¸ÑģÑĤÑĮ":7814,"ÐĴÐ¾ÑģÑĤÐ¾ÑĢÐ³":7815,"ĠÐ½ÐµÑģÐºÐ¾Ð»ÑĮÐºÐ¾":7816,"ĠÑıÐ¼ÑīÐ¸Ðº":7817,"ĠÐ¿Ð»ÑĭÐ²ÐµÑĤ":7818,"ĠÐ²ÑĢÐ°Ð¶Ð´ÐµÐ±":7819,"ĠÐ¿Ð¸ÑīÑĥ":7820,"ĠÐ¿ÑĢÐ¸ÐµÑħÐ°Ð»":7821,"Ð¡Ð¾ÑģÐµÐ´":7822,"ĠÐ²Ð¾ÑģÑħÐ¸Ñī":7823,"ĠÐ¿Ð»Ð¾ÑīÐ°Ð´Ð¸":7824,"ĠÑĪÐµÐ²ÐµÐ»":7825,"ĠÑĢÐ¾Ð¿Ð¾ÑĤ":7826,"ĠÐ¡ÐµÑĢÐ³ÐµÐ¹":7827,"ĠÐĶÐ¾Ð±ÑĢÐ¾":7828,"ĠÐ½Ð°ÑħÐ¼ÑĥÑĢ":7829,"ĠÐºÐ°Ð½Ð°Ð²":7830,"Ð¢Ð¸ÑħÐ¾Ð½ÑĮÐºÐ¾":7831,"ĠÐľÐµÐ¶Ð´Ñĥ":7832,"ĠÑħÑĢÐµÐ±ÑĤÑĭ":7833,"ĠÐ³ÑĢÐ°Ð¶Ð´Ð°Ð½Ð¸Ð½":7834,"ĠÐ¿ÐµÑĢÐµÐ½ÐµÑģ":7835,"ĠÑģÐ¸Ð½ÐµÐµ":7836,"ĠÐºÐ²Ð°Ñģ":7837,"ÐĴÐ¼ÐµÑģÑĤÐµ":7838,"Ð¡Ð²Ð¸Ð´ÐµÑĤÐµÐ»ÑĮ":7839,"ĠÑĨÐµÑĢÐºÐ²Ð¸":7840,"ĠÑĨÐµÑĢÐºÐ¾Ð²ÑĮ":7841,"ĠÐ¿ÑĢÐµÐ²Ð¾ÑģÑħÐ¾Ð´":7842,"ĠÑĩÐµÑĪÑĥ":7843,"ÐķÐ´Ð¸Ð½ÑĭÐ¹":7844,"ĠÐļÐ°ÑĤÑı":7845,"ĠÐ¼Ð¸Ð¼Ð¾ÑħÐ¾Ð´Ð¾Ð¼":7846,"ĠÐ¾Ð±Ð¾Ð»ÑĮÑģÑĤ":7847,"ĠÐ´Ð²ÐµÐ½Ð°Ð´ÑĨÐ°ÑĤÑĮ":7848,"ĠÐ²Ð¾Ð¿ÑĢÐ¾ÑĪÐ°ÐµÑĤ":7849,"ÐĹÐ°ÑģÐ»ÑĥÐ¶":7850,"ÐłÐ°Ð²Ð½Ð¸":7851,"ĠÐ½Ð¾Ð²Ð¾Ð·Ð´Ð°Ð½Ð½ÑĭÐ¹":7852,"ĠÐ¿Ð¾ÑģÐºÐ¾Ð»ÑĮÐºÑĥ":7853,"ÐĹÐ´ÑĢÐ°Ð²ÑģÑĤÐ²ÑĥÐ¹":7854,"ĠÐ½Ð°ÑıÐ²Ñĥ":7855,"te":7856,"Ð¾ÑģÑı":7857,"ÐµÐµÐ¼":7858,"Ð°Ð½ÑĭÑħ":7859,"Ð°ÑıÑĤÑĮÑģÑı":7860,"ÑĤÑĥÑĢ":7861,"ÑĤÑĭÐ½":7862,"Ð¸ÑģÑı":7863,"ÑģÑģ":7864,"ÑĢÐ¸Ðº":7865,"Ð½Ð°Ð¼":7866,"Ð½Ð¾Ð¿":7867,"Ð½Ð°Ð¼Ð¸":7868,"Ð½Ð°Ð½Ð¸Ðµ":7869,"Ð»Ð¾Ð³":7870,"Ð»ÐµÐ»Ð°":7871,"Ð»ÐµÐ½ÑĮÑİ":7872,"ÑĥÐºÑĢ":7873,"ÑıÑİ":7874,"ĠÑģÑĨ":7875,"ĠÑģÐ¸Ð³":7876,"ĠÑģÐ°Ð»Ð¾":7877,"ĠÑģÐµÑĢÐµÐ´":7878,"ĠÑģÐ³Ð¾ÑĢ":7879,"ĠÐ¿Ð°":7880,"ĠÐ¿ÑĥÑĢ":7881,"ĠÐ¿ÐµÐ»Ð¸":7882,"ĠÐ¿ÐµÐ»Ð°":7883,"ĠÐ¿ÑĥÑĪÐºÐ¸":7884,"ĠÐ¿Ð¸ÑīÐ°":7885,"ĠÐ²ÑĬ":7886,"ĠÐ²Ð»Ð°Ð³":7887,"ĠÐ²Ð½ÐµÐ·Ð°Ð¿Ð½Ð¾":7888,"Ð²Ð°Ð¼Ð¸":7889,"Ð²ÑĢÐ¾Ð·":7890,"ĠÐ½ÐµÐ³Ð¾Ð´":7891,"ÑĩÑĮ":7892,"ÑĩÑĥÑĤ":7893,"ÑĩÐ¸ÑĤÑģÑı":7894,"ÑĩÑĤÐ¾Ð±":7895,"Ð¼Ð°ÑĤÑĮ":7896,"Ð¼ÐµÐ½Ð½Ð¾":7897,"Ð¼ÑīÐ¸Ðº":7898,"ÑĪÑĥÑĤ":7899,"ÐµÐ½ÐµÐ»":7900,"ÐµÐ½Ð¸Ð²":7901,"ÐµÐ½ÐµÐ±ÑĢ":7902,"ĠÑĤÑĥÐ¶":7903,"ĠÐ¾ÑģÑĮ":7904,"ÐµÑĤÑĥ":7905,"Ð°Ð»ÐµÐ½Ð½ÑĭÐ¹":7906,"Ð¾Ð»ÐµÐ½":7907,"Ð¾Ð»Ð³":7908,"Ð¾Ð»ÐµÐ¹":7909,"Ð¾Ð»Ð°Ð³":7910,"ĠÐ´Ð²Ð¾":7911,"ĠÐ´Ð¾Ñħ":7912,"ĠÐ´ÐµÑıÐ½":7913,"ĠÐ´Ð²Ð¾Ðµ":7914,"Ð¾Ð²Ð¾Ñİ":7915,"ĠÐ¼Ð¾Ñģ":7916,"ĠÐ¼ÑĥÑĤ":7917,"ĠÐ¼ÐµÑģÑĤÐ¸":7918,"ĠÐ¼ÑĢÐ°Ð¼":7919,"ÐµÑĢÐ¾Ð¼":7920,"ÐµÑĢÐ½ÑĭÐ¹":7921,"ÐµÑĢÑĭÐ²":7922,"ĠÐºÐ¸Ð´":7923,"ĠÐºÑĥÑħ":7924,"ĠÐºÐ¸ÐµÐ²":7925,"ĠÐºÐ²Ð°ÑĢ":7926,"ÐµÐ»Ð°Ð»":7927,"Ð¸ÑĤÑı":7928,"Ð¸ÑĤÑĢÐ¾":7929,"ÐĿÐ¸Ð³":7930,"ĠÐ·ÑĭÐ±":7931,"ÐĺÐ´Ñĥ":7932,"ÐĺÐ³Ð¾ÑĢÑĮ":7933,"ÐµÐ¼Ð¾Ð¹":7934,"ÐµÐ¼ÐµÐ½ÐµÐ¼":7935,"ĠÑĢÐ°":7936,"ĠÑĢÐµÐ¼":7937,"ĠÑĢÐ¸Ð·":7938,"ĠÑĢÑĭÑĩ":7939,"ĠÑĢÑİÐ¼":7940,"Ð°ÑĤÑĢ":7941,"Ð°ÑĤÐ¾Ð²":7942,"Ð°ÑĤÐ¾ÑĢ":7943,"Ð°ÑĤÐ°Ð¹":7944,"ĠÐ¿ÑĢÐ¾ÑĤÑı":7945,"ĠÐ¿ÑĢÐ¾Ð¹Ð´ÐµÑĤ":7946,"ÐŁÐŀ":7947,"ÐŁÑĭÑĤ":7948,"ÐŁÑĤÐ¸":7949,"ÐĴÐ¾Ð¿":7950,"ÐĴÐ¸Ð½Ð¾Ð²":7951,"ÐĴÐ¸Ð¶Ñĥ":7952,"ÐĴÐ¾ÑĢÐ¾ÑĤ":7953,"Ð·Ð¸Ð¸":7954,"Ð°ÐºÐ°Ð½":7955,"Ð¾Ð³ÑĢÐ°Ð´":7956,"Ð½Ð¾ÑģÑı":7957,"Ð¡ÐµÐ±Ðµ":7958,"Ð¡Ð¸Ð»ÑĮ":7959,"Ð¡Ð¾ÑĪÐ»Ð¸ÑģÑĮ":7960,"Ð¿Ð¸ÑģÑĮ":7961,"Ð¾ÑĤÐ¾Ñİ":7962,"Ð°Ð¼Ð°":7963,"ĠÐ»Ð¾ÑĢ":7964,"ĠÐ»ÐµÐ½ÑĤ":7965,"Ð°Ð²Ð°Ð»ÑģÑı":7966,"Ð°ÑĢÐ¾Ð´":7967,"Ð°ÑĢÐ¾Ð´Ð¸ÑĤÐµÐ»ÐµÐ¹":7968,"ĠÐ½ÐµÐ¾Ð¶":7969,"ÑīÐµÐ¹":7970,"ĠÑĩÑĤ":7971,"ĠÑĩÐµÐ»Ð°":7972,"Ð°Ð´Ð»ÐµÐ¶":7973,"ÐµÑģÐ½ÑĥÑİ":7974,"ÐµÑģÐµÐ»Ð¾":7975,"ÐŀÑģÑĤÑĢ":7976,"ÐŀÑĩÐ¸":7977,"Ð°Ð·ÐºÐ¸":7978,"Ð¸Ð½Ð°ÑĢ":7979,"Ð¸Ð½ÐºÐ°":7980,"Ð¸Ð½ÑĥÑĪÐºÐ°":7981,"ÐļÐ¾Ð²":7982,"ÐļÐ¾Ð¼":7983,"ÐļÐ°Ð±Ñĭ":7984,"ÐļÐ½Ð¸Ð³Ð¸":7985,"ĠÑģÑĤÐ°ÑĤ":7986,"ĠÑģÑĤÑĥÐº":7987,"ĠÑģÑĤÑıÐ³":7988,"ÐºÐ¸Ð´":7989,"ĠÐ½Ð°ÑģÑĤÐ°Ð»":7990,"Ð¢Ð²Ð¾Ñİ":7991,"Ð¾ÐºÐ¾Ñĩ":7992,"Ð¸Ð²ÑĭÐ¼":7993,"ĠÐ¶Ð°ÑĤ":7994,"ĠÐ¶ÐµÐ·":7995,"ĠÐ¶Ð¸ÑĢ":7996,"ĠÐ¶Ð¸ÑĤÐµÐ»ÑĮ":7997,"ÑĥÑĤÑĭÑħ":7998,"ÐµÐ²Ð¸Ð´":7999,"Ð¸Ð¼Ð¾Ð³Ð¾":8000,"ÐĶÐµÐ¼":8001,"ÐĶÐ¾Ð½":8002,"ÐĶÐ¾Ðº":8003,"ÐĶÑĭÑĪ":8004,"ÐĶÐ¾Ñħ":8005,"ÐĶÐµÐ»Ð¾":8006,"ÐĶÐ°Ð¶Ðµ":8007,"ÐĶÐµÑģÑı":8008,"Ð»Ð¸Ð¿":8009,"Ð»Ð¸ÑĨ":8010,"ĠÑĥÑħÐ¾Ð´":8011,"ĠÑĥÑģÑĤÐ°Ð²":8012,"Ð¾Ð¶Ð¸Ð»":8013,"Ð¾Ð¶Ð½Ð¾":8014,"ÐµÐ·Ð²":8015,"ÐµÐ·Ð»Ð¸":8016,"Ð¾ÑĩÐµ":8017,"ÐµÐ½ÑĮÐºÐµ":8018,"ĠÑģÐ²Ð¸Ñī":8019,"ĠÐ¾ÑĤÑĢÐ°Ð·":8020,"ĠÐ¾ÑĤÑĢÑıÐ´":8021,"ĠÐ¾ÑĤÐ½ÑİÐ´ÑĮ":8022,"ÐŁÑĢÐ¾ÑģÐ»Ð°Ð²":8023,"Ð§ÑĮÑı":8024,"ĠÑģÐ»Ð°Ð³":8025,"ĠÑħÐ¾Ñħ":8026,"ĠÑħÐ¾Ð´Ñĥ":8027,"Ð»ÑıÐ½":8028,"Ð»ÑıÐ¼Ð¸":8029,"ÐľÐ¾Ðµ":8030,"Ð¾Ð»ÑĮÑİ":8031,"ÐĳÐµÐ¶Ð°Ð»Ð¸":8032,"ÐµÐ¶Ð¸":8033,"ÐµÐ¶ÐµÑĤ":8034,"Ð¸ÑĢÐ°Ñİ":8035,"ÐĹÐ°ÑĪ":8036,"ÐĹÐ¸Ð¼Ð¾Ð¹":8037,"Ð°Ð¶ÑĥÑĤ":8038,"Ð°Ð¶ÑĥÑģÑĮ":8039,"Ð¸Ð´Ð°":8040,"ÐĿÐµÐ¸Ð·":8041,"Ð£Ðº":8042,"Ð£Ð½Ñĭ":8043,"Ð£Ð³":8044,"Ð£ÐµÐ´Ð¸Ð½":8045,"Ð£Ð½Ð¸Ð¶":8046,"ĠÐ¾Ð±Ð¾Ð·":8047,"ĠÐ¾Ð±Ð¾Ð¶":8048,"ĠÐ¾Ð±ÐµÐ·":8049,"ĠÐ¾Ð±Ð¾Ñİ":8050,"Ð¾Ð¿Ð°Ð´":8051,"ÐĵÐ¾ÑģÑĤÐ¸":8052,"ÐĵÐ»ÑĥÑħ":8053,"ÐµÐ»ÑĮÑģÑĤ":8054,"ÐµÑĪÐºÐ¸":8055,"ĠÐ³ÑĢÐ¾Ð·Ð´":8056,"ÑĥÐ¼ÑıÐ½":8057,"ĠÐ¿Ð¾Ð´Ð°ÐµÑĤ":8058,"ĠÐ¿Ð¾Ð´ÑħÐ¾Ð´Ð¸ÑĤ":8059,"ĠÐ¿Ð¾Ð´ÑĢÑıÐ´":8060,"ĠÐ²ÑĭÐ¼Ð¾Ð»Ð²":8061,"Ð´Ð°Ñħ":8062,"Ð³Ð¾Ñİ":8063,"ĠÑĪÑĤÑĭ":8064,"ĠÑĪÐ²ÐµÐ´":8065,"ĠÑĪÑĤÑĥ":8066,"ĠÐ¡Ð°Ð´":8067,"ĠÐ¸Ð·Ð²Ð¾Ð»":8068,"ĠÐĿÐ¸":8069,"ĠÐĿÐµÐ´":8070,"ĠÐĿÐ°Ð¿":8071,"ĠÐĿÐ¾ÑĩÑĮ":8072,"ĠÑĢÐ°Ð·ÑĢÑĭÐ²":8073,"ĠÐ¿Ð¾Ð»ÐµÐ¼":8074,"ĠÐ¿Ð¾Ð»ÐºÐ°Ð¼Ð¸":8075,"Ð¯Ñģ":8076,"Ð¯Ð·":8077,"ÐłÐ°Ð½":8078,"ÐłÐ¾Ð¶":8079,"ÐłÑĥÑģÑĮ":8080,"Ð°ÑģÑĤÐ¸ÑģÑĮ":8081,"ĠÑĤÑĢÐ¸Ð¶Ð´Ñĭ":8082,"ĠÐĴÐµÐ»":8083,"ĠÐĴÐ°Ð½":8084,"ĠÐĴÐ´ÑĢÑĥÐ³":8085,"Ð¸ÑĩÐ¾Ðº":8086,"ĠÐ¢Ð¾Ð±Ð¾Ð¹":8087,"ÐĽÐ¾Ð²":8088,"ÐĽÑĥÐ½Ð°":8089,"ĠÑģÐ¼ÐµÐ»ÑĭÐ¹":8090,"ĠÑģÐ¿Ð°Ð»":8091,"ĠÑģÐ¿Ð¸Ð½Ð¾Ð¹":8092,"ĠÑģÐ¿Ð»Ð¾ÑĪ":8093,"ĠÑįÑħÐ¾":8094,"ĠÐŁÐ°ÑĢ":8095,"ĠÐŁÐ¾Ñĩ":8096,"ĠÐŁÐ°ÑħÐ¾Ð¼":8097,"ÐµÑħÐ°":8098,"ĠÐ»Ð¸ÑĨÐµÐ¼":8099,"ĠÐ±ÐµÐ·Ð³":8100,"ÑĮÑİÑĪÐºÐ°":8101,"ÐĴÑģÐµÑģÐ¸Ð»ÑĮ":8102,"ÑĥÑģÑĤÐ¸":8103,"ÑĥÑģÑĤÐ¸Ð²":8104,"ĠÐ¿ÐµÑĢÐµÐ±":8105,"ĠÐ²Ð¾Ð·ÑĢ":8106,"ĠÐ²Ð¾Ð·Ð¾Ðº":8107,"ĠÐ²Ð¾Ð·Ð¼Ð¾Ð¶":8108,"ĠÐ¼Ð¾Ð»Ð¾ÑĤ":8109,"ĠÐ¼Ð¾Ð»Ð²Ð°":8110,"ĠÐ¾Ð´ÐµÑĤ":8111,"ĠÐ¾Ð´ÐµÐ¶Ð´Ðµ":8112,"ĠÐ°ÑĤ":8113,"ĠÑģÑĤÑĢÐ°Ð¶":8114,"ĠÑģÑĤÑĢÑĥÑı":8115,"ÑĭÐ²Ð°Ð»Ð°":8116,"ĠÐ¿ÑĢÐ¸Ð½Ð¸Ð¼":8117,"ĠÐ¿ÑĢÐ¸Ð³Ð¾ÑĢ":8118,"Ð½Ð¸ÐºÐµ":8119,"ĠÐ¼Ð¾Ñĳ":8120,"ĠÐ±ÑĢÐµÐ²":8121,"ĠÐ±ÑĢÐ°Ð»Ð°":8122,"ĠÐ±ÑĢÐ¾ÑĪ":8123,"ĠÐĶÐ½ÐµÐ¿":8124,"ĠÐĵÐ»Ð°Ð²":8125,"ĠÐ¿Ð¾ÐºÑĥÐ´Ð°":8126,"ĠÐ¿Ð¾ÐºÐ°Ð¼ÐµÑģÑĤ":8127,"ĠÑģÐ²Ð¾ÐµÐ½ÑĢÐ°Ð²":8128,"ĠÐľÐ°Ð·ÐµÐ¿":8129,"ÑģÑĤÑĢÐµÐ»":8130,"ÐŁÐ¾Ð´Ð²":8131,"ÐŁÐ¾Ð´Ð½ÑıÐ»ÑģÑı":8132,"ĠÐ´ÑĢÐ¾Ð²Ð°":8133,"ĠÐ´ÑĢÑıÑħ":8134,"ĠÐ´ÑĢÐ°ÐºÐ°":8135,"ĠÐ´ÑĢÑıÐ½ÑĮ":8136,"ĠÐļÐ¾ÑĢ":8137,"ĠÐļÑĥÐ·":8138,"ĠÐļÐ¾Ð½Ñĩ":8139,"ĠÐļÐ°Ð²ÐºÐ°Ð·":8140,"ĠÐ½Ð°ÑĪÐµÐ¼":8141,"Ð²Ð°Ñĩ":8142,"ĠÑģÑĤÐ°ÑĢÐµÑĨ":8143,"ĠÐ¿Ð¾ÑĢÐ¾Ð´":8144,"ĠÐ¿Ð¾ÑĢÐ¾Ð³":8145,"ĠÐ¿Ð¾ÑĢÑĥÐ³":8146,"ĠÐ¿Ð¾ÑĢÐ°Ð¶ÐµÐ½":8147,"ĠÐ¿Ð¾ÑĢÐ¾Ð³Ð°":8148,"Ð¾ÑħÑĢÐ°Ð½":8149,"Ð¢Ð°ÐºÐ¾Ð³Ð¾":8150,"ĠÑĢÐ°ÑģÐºÐ°ÑıÐ½":8151,"ĠÐ±ÑĥÐ´ÑĥÑĩÐ¸":8152,"ĠÐ²Ð¸Ð´Ð°ÑĤÑĮ":8153,"ĠÐ²Ð¸Ð´ÑıÑĤ":8154,"ĠÐ²ÐµÑĢÑĭ":8155,"ĠÐ²ÐµÑĢÐ½Ð¾Ð³Ð¾":8156,"ĠÐ²ÐµÑĢÐ½ÑĥÑĤÑĮ":8157,"ĠÐĹÐ²":8158,"Ð¸ÑĤÐµÐ»ÑĮÐ½Ð°Ñı":8159,"Ð¥Ð»ÐµÐ±":8160,"Ð¥Ð¾ÑĤÐµÐ»":8161,"ÐĺÐ·Ð²":8162,"Ð»Ð¸Ð²Ð°":8163,"ĠÐ´ÑĢÑĥÐ³ÑĥÑİ":8164,"ĠÑĢÐ¾Ð´Ð½ÑĥÑİ":8165,"ĠÐłÐ°Ñģ":8166,"Ð°ÑİÑĩÐ¸":8167,"ĠÑģÑĤÑĢÐ°ÑģÑĤÑĮÑİ":8168,"ĠÑģÐ²ÐµÑĤÐ»ÑĭÐ¹":8169,"ĠÐ¼Ð¸ÑĢÐ½ÑĭÐ¹":8170,"ĠÐ¼Ð¸ÑĢÐ½ÑĭÐµ":8171,"ĠÐ½ÐµÐ¼Ð½Ð¾Ð³Ð¾":8172,"ĠÐ½ÐµÐ¼Ð°Ð»Ð¾":8173,"Ð¸ÑģÐ¿":8174,"ĠÐ²Ð¾ÐµÐ²Ð°ÑĤÑĮ":8175,"ÑĪÐµÑİ":8176,"ÑĳÑĤÐµ":8177,"ĠÐ¼Ð¾Ð³Ð»Ð¾":8178,"ÐµÐ»Ð¾Ð²ÐºÐ¾":8179,"ĠÑģÐ»Ð¾Ð²Ð°Ñħ":8180,"ÐĸÐ¸ÑĤÑĮ":8181,"Ð»ÐµÐ½Ð½Ð¾":8182,"ĠÐ¿Ð¾ÑĤÐ¾Ð¼Ñĥ":8183,"ĠÐ»ÑİÐ´ÑĮÐ¼Ð¸":8184,"ĠÐ¿Ð¾Ð²Ð¾Ð´":8185,"ÑıÑīÐµÐ¼":8186,"ĠÐ¿ÑĢÐ°Ð²Ñĥ":8187,"ÑıÐ½ÑĥÑĤÑĮ":8188,"ĠÐ·Ð½Ð°Ð½ÑĮÑı":8189,"ÐļÑĢÑĥÐ¶":8190,"ÐļÑĢÐµÐ¿":8191,"ÐļÑĢÐ¾Ð²Ð°Ð²":8192,"ÐµÑģÑĤÐ²ÑĥÐµÑĤ":8193,"ÐŀÐ±ÑĢÑĥÑĪ":8194,"ĠÐ¼ÑĥÐ¶Ðµ":8195,"ĠÐ¼ÑĥÐ¶Ð¸ÑĨ":8196,"ĠÐ»ÐµÑĤÐ½Ð¸Ð¹":8197,"Ð¡Ð»Ð¾Ð²Ð°":8198,"ĠÐ±Ð»Ð°Ð³Ð¾Ñĩ":8199,"ĠÐ¾Ð³Ð½Ð¸":8200,"ĠÐ¾Ð³Ð»Ñı":8201,"ĠÐ¾Ð³Ð½ÑĮ":8202,"ÑĬÑıÑĤ":8203,"ĠÐ±ÐµÑģÑĩ":8204,"ĠÐ¾ÑģÐ¾Ð·":8205,"ĠÐ¼Ð¾ÑĢÐµÐ¹":8206,"ÑĢÐ¸Ð°ÑĢÑħ":8207,"ĠÑĨÐ°ÑĢÐ¸ÑĤ":8208,"ĠÐ·Ð°Ð±ÑĭÐ»Ð°":8209,"ĠÑģÐ»Ð°Ð²Ð½ÑĭÐ¹":8210,"ĠÑģÐ»Ð°Ð²Ð½Ð¾Ð³Ð¾":8211,"ĠÐ¼Ð¸Ð»Ð¾Ð³Ð¾":8212,"Ð¡Ð¿Ð¸ÑĤ":8213,"ĠÐºÐ¾Ð»ÐµÐ±":8214,"ĠÐºÑĢÐ°ÑģÐ½Ð¾Ðµ":8215,"ĠÐ¿Ð¾Ð³ÑĢÑĥÐ·":8216,"ÐŁÐ¾ÐºÑĢÑĭÑĤ":8217,"ĠÐ¿ÐµÑģÐ½ÐµÐ¹":8218,"ÐĿÐ°Ð´ÑĳÐ¶":8219,"ĠÑģÐ¾ÐµÐ´Ð¸Ð½":8220,"ĠÐ¿Ð¾ÑģÐ¼Ð¾ÑĤÑĢ":8221,"ĠÐ½ÐµÐ²ÑĢÐµÐ´":8222,"Ð°Ð½ÑĮÑıÐ¼Ð¸":8223,"ĠÐ²ÐµÑĩÐ½ÑĭÑħ":8224,"ĠÑģÐ½ÐµÐ´ÑĮ":8225,"ÐŃÐ¢":8226,"ÐŃÐ´ÐµÐ¼":8227,"ÐŃÑĤÑĥ":8228,"ÐµÐ½Ð½Ð¾ÑģÑĤÑĮ":8229,"ÐµÐ½Ð½Ð¾ÑģÑĤÐ¸":8230,"ĠÐ´ÐµÐ²Ð¸Ñĩ":8231,"ĠÐ½Ð¾Ð²Ð¾Ð³Ð¾":8232,"ĠÐ½Ð¾Ð²ÑĭÐ¼":8233,"ĠÐ·Ð°Ð¼Ðº":8234,"ĠÐ·Ð°Ð¼Ð¾Ðº":8235,"ĠÐ·Ð°Ð¼ÑĭÑģÐµÐ»":8236,"ĠÑģÐ¾Ð²Ð¾ÐºÑĥÐ¿":8237,"ĠÐ½Ð°Ð²Ð¾Ð´":8238,"ĠÐ³Ð»Ð°Ð·Ð°Ð¼":8239,"ĠÐ¿Ð¾ÑģÑĤÐ¾Ð¹":8240,"ĠÐ¿Ð¾ÑģÑĤÐµÐ»ÑĮ":8241,"ĠÐ¿Ð¾ÑģÑĤÐµÐ¿ÐµÐ½Ð½Ð¾":8242,"ĠÐºÐ¾ÑĢÐ¾Ð²":8243,"ĠÐ½Ð°Ð¿ÑĢÐ¾ÑĤÐ¸Ð²":8244,"ĠÑĩÐµÑĢÐ½Ð°Ñı":8245,"ĠÐ´Ð¾Ð±ÑĢÑĭÑħ":8246,"ĠÐ¿Ð¾ÑĩÐ²Ðµ":8247,"ĠÐ½ÐµÐ±Ð¾Ð»ÑĮ":8248,"ĠÑĥÐ·ÑĢÐµÐ²":8249,"ĠÑĦÐ»":8250,"ĠÐºÐ°ÑĢÐ»Ð°":8251,"ĠÐ²ÐµÐ´ÑĥÑĤ":8252,"ĠÑĤÐ¾Ð¼Ð½ÑĭÐ¹":8253,"ĠÑĤÐ¸ÑħÐ¾Ð¹":8254,"ĠÑĤÐ¾Ð»Ðº":8255,"ĠÐ¶ÐµÐ»Ð°Ð½Ð½ÑĭÐ¹":8256,"ĠÐĵÐ¾ÑģÐ¿Ð¾Ð´Ð¸":8257,"ĠÐ»ÐµÐ³ÐºÐ¸Ð¹":8258,"ĠÐ£ÑĢÐ¸Ð¸Ð»":8259,"ĠÐ³ÑĢÐ¾Ð·Ð°":8260,"ĠÐ³ÑĢÐ¾Ð·Ð¾Ð¹":8261,"ĠÐ³ÑĢÐ¾Ð·Ð¾Ñİ":8262,"ĠÑģÑĤÑĢÐ°ÑĪÐµÐ½":8263,"ĠÐ³Ð»ÑĥÐ±ÑĮ":8264,"ĠÐ¿Ð¾Ð½ÑıÐ»Ð°":8265,"ĠÑĩÑĥÐ´Ð½Ð¾":8266,"ĠÑīÐ°Ð´":8267,"ĠÑīÐµÐ»Ð¸":8268,"ÐĴÐ¾Ð¾Ð±ÑĢÐ°Ð¶":8269,"ĠÐ´ÐµÐ»Ð¾Ð¼":8270,"ĠÐ´ÐµÐ»Ð°Ñħ":8271,"ĠÐ±Ð¾ÐµÐ²Ð¾Ð¹":8272,"ÐĴÐ·Ð²":8273,"ĠÐ¿Ð¾Ð·Ð°Ð´Ð¸":8274,"Ð°ÑĤÐµÐ»ÑĮÐ½ÑĭÐ¹":8275,"ÐŁÐ¾Ð»ÑİÐ±":8276,"ĠÑĤÐ²Ð°ÑĢÐ¸":8277,"ÑĢÑĭÐ·":8278,"ĠÐ²ÑģÑıÐºÐ¾Ð³Ð¾":8279,"ĠÐ½Ð¸ÐºÐµÐ¼":8280,"Ð¾Ð¼Ð½Ð¸ÑĤÑĮ":8281,"ĠÐ²Ð°ÑĪÐ°":8282,"ĠÐ²Ð°ÑĪÐ¸Ð¼":8283,"ĠÐ·Ð°ÑĤÐµÐ¹":8284,"ĠÐ·Ð°ÑĤÐ¾Ð¿":8285,"ĠÐ¾ÐºÑĢÑĥÐ³":8286,"ĠÐ²ÑģÐµÐ¼Ð¾Ð³ÑĥÑī":8287,"ÐłÐ°ÑģÐº":8288,"ĠÐ¾ÑĢÐµÑĪÐºÐ¸":8289,"ĠÐµÐ´Ð¸Ð½":8290,"Ð¡ÑĤÐ°ÑĢÑĭÐ¹":8291,"Ð¡ÑĤÐ°ÑĢÑĥÑĪÐºÐ°":8292,"Ð½ÑĥÑĤÑĭ":8293,"Ð½ÑĥÑĤÑģÑı":8294,"ĠÐ´Ð¾ÑģÑĤÐ¾Ð¸Ð½":8295,"ĠÐ±Ð¾ÑĢÐ¾Ð´Ñĥ":8296,"ĠÐ·Ð°ÑĢÐ¸":8297,"ĠÐ¼ÐµÑģÑĤÐµ":8298,"ÐľÐ¾Ð»ÑĩÐ¸":8299,"ĠÐ¼Ð½Ð¸Ð»Ð¾ÑģÑĮ":8300,"ĠÐ¸Ð·Ð±Ðµ":8301,"ĠÐ¸Ð·Ð±Ð°Ð²":8302,"ĠÐ·Ð°ÑģÐ¿Ð¾ÑĢ":8303,"ÐŁÐµÑĢÐµÐ¿":8304,"ĠÑħÐ¾ÑĤÐ¸Ð¼":8305,"ÐĵÐ¾ÑĢÑĮ":8306,"Ð¾Ð²Ð°ÑĢÐ¸Ð²Ð°ÑĤÑĮ":8307,"ĠÑĢÐµÐ±ÑĢÐ°":8308,"ĠÑĢÐµÐ±ÐµÐ½Ð¾Ðº":8309,"ĠÐ¾ÑĤÐ²ÐµÑĤÐ¸Ð»Ð°":8310,"ĠÑİÐ½Ð¾":8311,"ĠÑİÐ½ÑĭÑħ":8312,"ĠÑİÐ½Ð¾ÑĪ":8313,"ĠÑĢÐ°ÑģÐ¿Ð°Ñħ":8314,"ĠÐ¿ÑĢÐ¸Ð·Ð²":8315,"ĠÐ²ÑĢÐ°Ð³Ð¸":8316,"ĠÑģÐµÐ´ÑĭÐµ":8317,"ĠÐ±ÐµÐ³Ñĥ":8318,"ĠÑıÐ²Ð¸Ð»ÑģÑı":8319,"ĠÑıÐ²Ð¸Ð»Ð¸ÑģÑĮ":8320,"ĠÑģÐºÐ°Ð·ÐºÐ¸":8321,"ÑĥÑģÐºÐ°Ð»":8322,"ĠÐ´ÑĢÑĥÐ¶Ð±Ñĭ":8323,"ĠÑģÐ»Ð°Ð´ÐºÐ¸Ð¹":8324,"ĠÑĢÐ°Ð·Ð´Ð°Ð»ÑģÑı":8325,"ĠÑĢÐ°Ð·Ð´ÐµÐ»Ñı":8326,"ĠÐ²ÑĭÑĪÐ»Ð¾":8327,"ĠÑĢÐµÑĪÐ¸Ð»Ð¸":8328,"ĠÑĤÐ°Ð¹Ð½Ð¾":8329,"ĠÑĤÐ°Ð¹Ð½Ñĥ":8330,"ĠÐ¿ÑĢÐ¸Ð½ÑıÐ²":8331,"ĠÐ¿Ð¾ÑģÐ»ÐµÐ´Ð½Ð¸Ð¼":8332,"ĠÐ¿Ð¾ÑģÐ»ÐµÐ´Ð½ÑıÑı":8333,"ĠÑģÐ¾Ð·Ð´Ð°":8334,"ĠÑģÐ¾Ð·Ð½Ð°Ð½ÑĮÐµ":8335,"ĠÐ¿ÐµÑĩÐ°Ð»ÑĮÐ½Ð¾Ð¹":8336,"ĠÐ´ÑĥÑħÐ¾Ð¼":8337,"ÐĿÐµÐ²Ð¾Ð»ÑĮ":8338,"ĠÑĤÐ¾ÑģÐºÐµ":8339,"ĠÐ¾ÑħÐ¾ÑĤÐ°":8340,"ĠÑģÐµÑĢÑĭÐ¹":8341,"ĠÑģÐ¸Ð´ÐµÐ»":8342,"ÑģÑĤÐ²ÐµÐ½Ð½ÑĭÐ¼":8343,"ĠÐ·Ð¾Ð²Ñĥ":8344,"ĠÐ¿ÑĢÐ¾ÐºÐ»Ð¸Ð½":8345,"Ð½Ð¾ÑģÐ¸ÑĤÑĮ":8346,"ĠÐ»Ð°ÑģÐº":8347,"ĠÐ»Ð°ÑģÐºÐ¸":8348,"Ð¢Ð²Ð¾Ð¸Ñħ":8349,"Ð£Ð¼Ð¾Ð»Ðº":8350,"ĠÐ²Ð¾ÑģÐ¿Ð¾Ð¼Ð¸Ð½":8351,"ĠÐ±ÑĭÑģÑĤÑĢÐµÐ¹":8352,"ĠÐºÐ¾Ð¸Ñħ":8353,"ÐµÑģÐºÐ¾Ð³Ð¾":8354,"ĠÐ²ÐµÐ»Ð¸ÐºÐ¸Ð¼":8355,"ĠÐºÐ°Ð¼Ð¾ÑĢ":8356,"ĠÐºÐ°Ð¼Ð½Ð¸":8357,"ÐŁÐ»Ð°ÑĤ":8358,"ĠÑģÐ¾ÐºÑĢÐ¾Ð²":8359,"ĠÐ¸ÑģÑĨÐµÐ»":8360,"ĠÐ¾ÑģÑĤÐ°Ð²ÑĮ":8361,"ÐļÐ¾ÑĢÐ¼":8362,"ĠÑħÐ¾Ð´ÑıÑĤ":8363,"ÑģÑĤÐ²ÑĥÐµÑĪÑĮ":8364,"ĠÑĥÐ³ÑĢÐ¾Ð¶":8365,"ĠÑĢÑĥÑĩÑĮÑı":8366,"ĠÐ·Ð°Ð½ÑıÑĤ":8367,"ĠÐ¿ÑĢÐµÐ²Ð·":8368,"Ð½Ð¸ÑĩÐµÐº":8369,"ĠÑĤÑĢÐ°Ð²Ðµ":8370,"ĠÐ´Ð¾Ð±Ð»ÐµÑģÑĤ":8371,"ĠÐ¼Ð³Ð»Ð°":8372,"ĠÑĪÐµÐ»Ð¾Ð¼":8373,"ĠÐ´ÐµÑĢÐ¶Ð¸ÑĤ":8374,"ĠÑģÐ»ÑĥÑĪÐ°Ð»":8375,"ĠÑģÐ»ÑĥÑĪÐ°ÐµÑĤ":8376,"ĠÐ·Ð»Ð¾Ð±Ñĭ":8377,"ĠÐ±Ð¸ÑĤÐ²Ñĥ":8378,"ĠÐ´ÑĢÐµÐ²Ð½ÐµÐ¹":8379,"ĠÐ²Ð¸ÑĤÑıÐ·Ñı":8380,"ĠÐ²ÑģÑĤÑĢÐµÑĩÐ°ÐµÑĤ":8381,"ĠÐ¼Ð»Ð°Ð´Ð¾Ð¹":8382,"ĠÐºÐ¾Ð¿Ðµ":8383,"ĠÑĤÑĥÐ¼Ð°Ð½Ðµ":8384,"ĠÐ´Ð°Ð²Ð¸":8385,"ĠÐ³Ð¾ÑģÑĤÐ¸Ð½Ð¾Ð¹":8386,"ĠÐ¾ÑĤÐ¿ÑĢÑĭ":8387,"ĠÐ³ÑĢÑĥÑģÑĤÐ¸":8388,"ĠÐ¿Ð¾Ð·Ð´Ð½ÐµÐ¹":8389,"ÐŁÐ¾ÑģÑĢÐµÐ´":8390,"ÐŁÐ¾ÑģÐ¼Ð¾ÑĤÑĢ":8391,"ĠÐ½ÑĥÐ¶Ð½Ñĭ":8392,"ÐĳÑĥÐ´ÐµÑĪÑĮ":8393,"ÐĽÑİÐ´Ð¼Ð¸Ð»":8394,"ĠÐ´Ð¾Ð¶Ð´ÐµÐ¼":8395,"ĠÑģÑĤÐµÐ¿ÑĮ":8396,"ĠÑģÑĤÐµÐ¿ÐµÐ¹":8397,"ĠÐ²Ð°Ð¶Ð½ÑĭÐ¹":8398,"ĠÐ½Ð°Ð¹Ð´ÐµÑĤ":8399,"ĠÑĥÐºÑĢÐ°Ð´ÐºÐ¾Ð¹":8400,"ĠÐ¾Ð±ÑĢÐ°ÑĤÐ¸Ð»ÑģÑı":8401,"ĠÐ²ÐºÑĥÑģÐ¸ÑĤÑĮ":8402,"ÐĹÐ»Ð¾Ð²ÐµÑī":8403,"ÐĹÐ»Ð¾ÑģÑĩÐ°ÑģÑĤ":8404,"ĠÑģÑĤÑĢÐµÐ»Ð¾Ð¹":8405,"ĠÑĩÐµÑĤÐ²ÐµÑĢÑĤ":8406,"ĠÐ²ÐµÑīÐµÐ¹":8407,"ÐŁÐ¾ÑģÐ»ÐµÐ´ÑĭÑĪ":8408,"ÐĴÐµÑģÐµÐ»Ð¾":8409,"Ð°ÑīÐ¸Ð¹":8410,"ĠÐ²Ð½Ð¸Ð¼Ð°Ð»":8411,"ĠÐ´Ð»Ð¸Ð½Ð½ÑĭÐµ":8412,"ĠÐ½Ð°ÑģÑĤÐ¾Ð»ÑĮÐºÐ¾":8413,"ĠÐºÐ½Ð¸Ð³Ð¸":8414,"ĠÐĸÐµÐ½Ñĭ":8415,"ĠÐŁÐµÑĤÑĢÐ°":8416,"ĠÑĨÐµÐ»ÑĭÐµ":8417,"ĠÐ¼Ð¾Ð³Ð¸Ð»Ðµ":8418,"ÐŁÑĢÐ¾ÑĤÐ¸Ð²Ñĥ":8419,"ĠÑĨÐµÐ¿ÑıÑħ":8420,"ĠÐ¿ÑĭÑĪÐ½ÑĭÐ¹":8421,"ĠÐ³Ð¾Ð½ÑĨÐ°":8422,"ĠÑĢÐ°Ð·Ð²ÑĢÐ°ÑĤ":8423,"ĠÐ±Ð°ÑĢÐ¸Ð½Ð¾Ð¼":8424,"ĠÑĩÐµÑģÑĤÐ½Ð¾":8425,"ĠÑĩÐµÑģÑĤÐ½ÑĭÐ¹":8426,"ĠÐºÑĥÐ¿ÐµÑĨ":8427,"ÐŁÑĢÐ¾ÑģÐ½ÑĥÐ»ÑģÑı":8428,"Ð¸Ð½ÑĥÐ»ÑģÑı":8429,"ÐĴÑĭÑģÐ¾ÐºÐ¾":8430,"ÐĴÑĭÑģÐ¾ÐºÐ¸Ð¹":8431,"ĠÑģÐºÐ¾ÑĢÐ±ÑĮ":8432,"ĠÑħÑĥÐ´Ð¾Ð¹":8433,"ÐĸÐµÐ»ÐµÐ·":8434,"ĠÐ½ÐµÑĢÐ°Ð·":8435,"ĠÐ´Ð¸ÐºÐ¾":8436,"ĠÐ¿ÑĢÐ¸Ð»ÐµÐ¶":8437,"ĠÐ³Ð»Ð°ÑģÐ¸ÑĤ":8438,"ĠÐ±Ð¾ÑĢÑĮÐ±Ð°":8439,"ĠÐ½ÐµÐ¸Ð·Ð±ÐµÐ¶":8440,"ĠÐ¿ÑĢÐ¾Ð·ÑĢÐ°Ñĩ":8441,"Ð¢Ð²Ð¾ÑĢÑĨÐ°":8442,"Ð¼Ð°ÑĤÑĥÑĪÐºÐ°":8443,"ĠÐ²ÐµÑĢÑĪÐ¸Ð½Ðµ":8444,"Ð½ÑĭÑĪÐºÐ¾":8445,"ÐĺÑģÐ¿ÑĥÐ³":8446,"ĠÐ¾ÑĤÑĢÐ°Ð´Ð°":8447,"ĠÑħÐ²Ð°ÑģÑĤ":8448,"Ð°Ð²ÑĪÐ¸Ð¹ÑģÑı":8449,"ĠÐĶÐµÐ¼Ð¾Ð½":8450,"ĠÐ±Ð¾Ð»ÑĮÑĪÐ¾Ð¼":8451,"ĠÐ¿ÐµÑģÐµÐ½ÐºÑĥ":8452,"ĠÐ¼ÑĥÐ·ÑĭÐºÑĥ":8453,"ĠÑĤÐµÐ¿Ð»Ð¾":8454,"ĠÐ¿Ð¾Ð»Ð¾Ð²ÐµÑĨ":8455,"ĠÐ¿Ð¾ÑĤÐµÑĢÑıÐ²":8456,"ĠÑģÑĥÑĢÐ¾Ð²Ð¾":8457,"Ð¡Ð¾Ð±Ð»Ð°Ð·":8458,"ĠÑģÐºÑĥÑĩÐ½Ð¾":8459,"ÐŀÑĤÐºÑĢÐ¾Ð¹":8460,"ĠÐºÑĢÐ°ÑĤÐºÐ¸Ð¹":8461,"ÐļÑĢÐ¸ÑĩÐ°ÑĤ":8462,"ĠÐ±ÐµÐ¶Ð°Ð»Ð°":8463,"ĠÐ³ÑĢÑıÐ·ÑĮ":8464,"ĠÐ¸Ð·Ð¼ÑĥÑĩ":8465,"ĠÐ¿ÐµÐ²ÐµÑĨ":8466,"ĠÑģÐ¿ÑĢÐ°Ð²ÐµÐ´Ð»Ð¸Ð²":8467,"ĠÐĵÐµÐµÐ½Ð½Ñĭ":8468,"ĠÑģÐ»Ð°Ð´Ð¾ÑģÑĤÑĢÐ°ÑģÑĤ":8469,"ĠÐºÑĢÐ°ÑģÐ°Ð²Ð¸ÑĨÐ°":8470,"ĠÐ²Ð°ÑħÐ»Ð°Ñĩ":8471,"ĠÐ¸ÑģÑĤÐ¸Ð½Ð½ÑĭÐ¹":8472,"ÐĴÐµÐ»Ð¸ÐºÐ¾Ð³Ð¾":8473,"ĠÐ¿ÑģÐ¾Ð²":8474,"ÑĤÐ¾ÑĩÑĮ":8475,"ĠÐ¡Ð²ÑıÑĤÐ¾Ð¹":8476,"ĠÐ¾Ð±Ð¸ÑĤÐ°ÑĤÑĮ":8477,"ĠÑīÐµÐ´ÑĢÐ¾":8478,"ĠÑĢÑĥÐ±ÐµÐ¶ÐµÐ¹":8479,"ÐĹÐ¾Ð²ÐµÑĤ":8480,"ĠÐ¼Ð¾Ð»ÑĮÐ±Ñĭ":8481,"ĠÐ½ÐµÐ¾Ð±ÑĬÑıÑĤ":8482,"ÐŁÑĢÐ¾ÑħÐ¾Ð´Ð¸ÑĤ":8483,"ÐĽÐµÐ³ÐºÐ¾":8484,"ĠÐŁÑĢÐ¸ÑĢÐ¾Ð´Ñĭ":8485,"ĠÑıÐ·ÑĭÐºÐ¾Ð¼":8486,"ĠÐ¿Ð¾ÐºÑĢÑĭÑĤÑĭ":8487,"ĠÐłÐ¾ÑģÑģÐ¸Ñı":8488,"ĠÐ²ÑģÐ¿Ð¾Ð¼Ð½Ð¸Ð»":8489,"Ð¢Ð¾Ð»Ð¿Ð°":8490,"ĠÑģÑĥÑīÐµÑģÑĤÐ²Ð°":8491,"ĠÐ±Ð°ÑĤÑİÑĪÐºÐ°":8492,"ĠÐ¿ÑĢÐµÐ¾Ð±ÑĢÐ°Ð·":8493,"ĠÑĩÑĳÑĢÐ½ÑĭÐ¹":8494,"ĠÐŁÐ¾Ð»ÑĤÐ°Ð²":8495,"ĠÑģÑĭÐ½Ð¾Ð²ÐµÐ¹":8496,"ĠÑģÐ°Ð±Ð°Ð½ÑĤÑĥÐ¹":8497,"ĠÑģÑĢÐ°Ð²Ð½ÐµÐ½ÑĮÐµ":8498,"ĠÐ¢Ð°ÑĤÑĮÑıÐ½Ñĭ":8499,"ĠÐ¢Ð°ÑĤÑĮÑıÐ½Ðµ":8500,"ÐŁÐ¾ÑģÐ»ÑĥÑĪÐ°Ð¹":8501,"ĠÐºÑĥÐ¼Ð¸ÑĢ":8502,"ÐĵÐµÑĢÐ¾Ð¹":8503,"ĠÐĿÐµÐ²Ñĭ":8504,"ĠÐ±Ð¾ÑıÐ·Ð½Ð¸":8505,"ĠÐ²Ð¾ÑģÑħÐ²Ð°Ð»":8506,"ÐĴÐ¿ÐµÑĢÐµÐ´Ð¸":8507,"Ð±Ð°ÑĤÑİÑĪÐºÐ°":8508,"ĠÐ»Ð¾Ð±Ð·":8509,"ÐĳÑĥÑĢÐ¼Ð¸ÑģÑĤÑĢ":8510,"ÐµÐ»ÑĮÑīÐ¸ÐºÐ¸":8511,"ĠÐ²Ð¾ÑĤÑĩÐ¸Ð½Ð°":8512,"ÐĶÑĢÑĥÐ·ÑĮÑı":8513,"ĠÐ¿ÐµÑħÐ¾ÑĤÐ°":8514,"ĠÐ´ÑĭÑħÐ°Ð½ÑĮÐµ":8515,"ÐĺÐ´Ð¸ÑĤÐµ":8516,"ÐļÐ°ÑĢÑĤ":8517,"ĠÐ¿Ð»ÐµÐ¼ÐµÐ½Ð°":8518,"ĠÐłÐ°Ð·Ð²Ðµ":8519,"Ð¡Ð²Ð¾Ð±Ð¾Ð´Ñĥ":8520,"ÐŀÐ³ÑĢÐ¾Ð¼Ð½ÑĭÐ¹":8521,"ĠÐ¼Ð¸Ð½ÑĥÐ²ÑĪÐ¸Ñħ":8522,"ĠÐºÑĥÑīÐ¸":8523,"ÐŁÐ¾ÑģÐ¿ÐµÑĪÐ½Ð¾":8524,"ÐŁÑĢÐ¾Ð½Ð¸Ðº":8525,"ĠÑģÐ¼ÑıÑĤÐµÐ½ÑĮÐµ":8526,"ĠÐľÐ°ÑĤÑĢÐµÐ½":8527,"ĠÑĥÐ´ÐµÑĢÐ¶Ð°ÑĤÑĮ":8528,"ĠÐ¿Ð¾ÑģÑĤÐ°Ð²Ð¸Ð»Ð¸":8529,"ĠÐ¼Ð¸Ð½Ð¾Ð²Ð°Ð»":8530,"ÐĴÑĭÑħÐ¾Ð´Ð¸ÑĤ":8531,"ĠÐĴÑģÐµÐ²ÑĭÑĪÐ½Ð¸Ð¹":8532,"ĠÐ¾ÑīÑĥÑĤ":8533,"Ð§Ð°ÑģÑĭ":8534,"ÐļÐ¾ÑĢÐ°Ð±ÐµÐ»ÑĮÑīÐ¸ÐºÐ¸":8535,"Ð¡Ð¿Ð¾ÐºÐ¾Ð¹Ð½Ð¾":8536,"ĠÑģÐ°Ð»Ð°Ð·ÐºÐ¸":8537,"ĠÐºÐ¾Ð¼Ð½Ð°ÑĤÐµ":8538,"Ð³Ð¸Ð¿ÐµÑĤ":8539,"ĠÐ³ÑĢÑĭÐ·ÐµÑĤ":8540,"ĠÐ²Ð¾Ð¾Ð±ÑĢÐ°Ð¶ÐµÐ½ÑĮÐµ":8541,"ĠÐĽÐµÐ½ÑģÐºÐ¾Ð³Ð¾":8542,"ÐĴÐµÑĩÐµÑĢ":8543,"ĠÐĲÐ²ÑĢÐ°":8544,"ĠÐŀÐ½ÐµÐ³Ð¸Ð½Ð°":8545,"ĠÐ¥Ð¾ÑĢÐ¾ÑĪÐ¾":8546,"ĠÐ¿Ð¸ÑģÑĤÐ¾Ð»ÐµÑĤ":8547,"ĠÐ»Ð¾Ð½Ð¾":8548,"ÐĶÐ¾Ð·Ð²Ð¾Ð»":8549,"ĠÐ´ÑĢÐ°Ð³Ð¾ÑĨ":8550,"ĠÐ¿Ð¾ÑģÑĭÐ»Ð°ÐµÑĤ":8551,"ĠÐ±ÑĥÐ½ÑĤÐ¾Ð²ÑīÐ¸ÐºÐ¾Ð²":8552,"ĠÐĿÐ°ÐºÐ¾Ð½ÐµÑĨ":8553,"ĠÐ°Ð»ÑĮÐ±Ð¾Ð¼":8554,"ĠÐĵÐ¸ÑĢÐ¸Ð½Ð°":8555,"ĠÐĺÐ»ÑĮÐ¸Ñĩ":8556,"ÐŀÐ¶ÐµÑģÑĤÐ¾Ñĩ":8557,"ĠÐŁÑĢÐ°ÑīÑĥÑĢ":8558,"ÐĿÐ¸Ð³Ð´Ðµ":8559,"ÐŁÐŀÐŃÐ¢":8560,"ĠÐ½ÐµÐ¾Ð¶Ð¸Ð´":8561,"ĠÐ¾Ð±Ð¾ÑİÐ´":8562,"!),":8563,"Ġe":8564,"ĠÑĥÐ´Ð°":8565,"ÐµÐ¸Ñģ":8566,"ÐµÐµÑĤÑģÑı":8567,"Ð°Ð¸":8568,"ÑģÐ¾Ð»":8569,"ÑģÐ¾ÑĤ":8570,"ÑģÐºÐ°":8571,"ÑĢÐ¸Ð»":8572,"ÑĢÐµÐ»Ð¸":8573,"Ð½ÐµÐ»Ð°":8574,"Ð»Ð°Ð¼":8575,"Ð»ÐµÑģ":8576,"ÑĥÐºÐµ":8577,"ÑĥÐºÐ¾Ñİ":8578,"ÑĭÐ½ÐµÐ¹":8579,"ÑĮÐºÐ°":8580,"ÑıÑĢ":8581,"ĠÑģÐ¸ÑĤ":8582,"ĠÑģÐ½Ð¸":8583,"ĠÑģÑĥÑĤ":8584,"ĠÑģÐ»Ð°":8585,"ĠÑģÑĭÑĤ":8586,"ĠÑģÐ°Ð½Ð¸":8587,"ĠÑģÐµÐ½ÑĮÑİ":8588,"ĠÐ¿Ð¾Ð±ÑĢ":8589,"ĠÐ¿ÐµÐ½ÑĮÐµ":8590,"ÐºÐ¾ÑĤÐ¾ÑĢ":8591,"ĠÐ²Ð»":8592,"Ð²Ð°Ð»Ð¸":8593,"Ð²ÐµÐ»Ð¸":8594,"Ð´Ñı":8595,"ĠÐ½ÐµÐ¶Ð´":8596,"ĠÐ½Ð°Ð»Ð¸Ð²":8597,"ÑĩÐ¸Ð½Ð°":8598,"ÑĩÐ°Ð»Ð°ÑģÑĮ":8599,"ÑĩÐµÑĢÐ¿":8600,"Ð¼Ð¾ÑĩÑĮ":8601,"Ð¼Ð¸Ð»Ð¾":8602,"ÐµÐ½Ð¸Ð»":8603,"ÐµÐ½ÐµÐº":8604,"ĠÑĤÐ¾Ð¶":8605,"ĠÑĤÐ¾Ñĩ":8606,"ĠÑĤÑĥÐ¿":8607,"ĠÑĤÑĥÐ·":8608,"ĠÐ¾ÐºÐ¾Ð²Ñĭ":8609,"ĠÐ¾ÑĦÐ¸ÑĨ":8610,"Ð¾Ð¹Ð´Ñĥ":8611,"ÐµÑĤÐ¾Ð¼":8612,"Ð°Ð»Ñĭ":8613,"Ð°Ð»ÐºÐ¸":8614,"Ð°Ð»Ð¸Ð»ÑģÑı":8615,"Ð¾Ð»Ñı":8616,"Ð¾Ð»Ð¾Ð³":8617,"Ð¾Ð»Ð½Ð°":8618,"ĠÐ´Ð½Ðµ":8619,"ĠÐ´Ð¾ÑģÐ¿":8620,"ĠÐ´Ð²Ð¾Ð¹":8621,"ĠÐ´Ð°Ð½Ð°":8622,"ĠÐ´Ð¾ÑģÐº":8623,"ĠÐ´Ð¾ÑĩÐºÐ°":8624,"ĠÐ´ÐµÐ¼Ð¾Ð½":8625,"Ð¾Ð²ÐµÑĢ":8626,"Ð¾Ð²Ð°ÑĤÑĮÑģÑı":8627,"Ð¾Ð²Ð¾Ð»ÑĮÐ½Ð¾":8628,"Ð¾Ð²ÐµÐ´ÑĮ":8629,"ĠÐ±Ð´":8630,"ĠÐ±Ð°Ð³":8631,"ĠÐ±Ð¾ÐºÐ°":8632,"ĠÐ¼ÑģÑĤ":8633,"ĠÐ¼Ð°Ðº":8634,"ĠÐ¼Ð¾Ð·":8635,"ĠÐ¼ÑĳÑĢÑĤ":8636,"ÐµÑĢÐ¾":8637,"ÐµÑĢÑģ":8638,"ÐµÑĢÑı":8639,"ÐµÑĢÐ±":8640,"ÐµÑĢÐºÐ¸":8641,"ĠÐºÐµÐ´":8642,"ĠÐºÐ¸ÑĢ":8643,"ĠÐºÑĥÑĩ":8644,"ĠÐºÐ¸ÑģÑĤ":8645,"ĠÐºÐ°ÑĪ":8646,"ĠÐºÑģÑĤÐ°ÑĤÐ¸":8647,"Ð¾ÑĢÐ¾Ð¹":8648,"Ð¾ÑĢÐ°Ð·ÑĥÐ¼":8649,"ÐµÐ»ÑģÑı":8650,"ÐµÐ»ÑĭÑħ":8651,"ÐµÐ»ÑĭÐµ":8652,"Ð¸ÑĤÐºÐ¸":8653,"Ð¾Ð´Ð½ÑĭÐ¹":8654,"ÐĿÐµÐ½":8655,"ÐĿÐ°ÑĤ":8656,"ÐĿÐ¾Ð¶":8657,"ÐĿÐµÐ³":8658,"ĠÐ·ÐµÐ²":8659,"ĠÐ·Ð°Ñı":8660,"ĠÐ·Ð¾Ð»Ð¾Ð²":8661,"ÐĺÐ½ÑĭÑħ":8662,"ĠÑĢÐ°Ð¼":8663,"ĠÑĢÐ¾Ð³Ð°":8664,"ĠÑĢÐ¾Ð¿ÑĤ":8665,"ĠÐ³Ð½ÐµÐ·":8666,"ĠÐ³ÑĥÐ´Ð¸ÑĤ":8667,"Ð°ÑĤÐ¾Ð¼":8668,"ĠÐ¿ÑĢÐ°Ñģ":8669,"ĠÐ¿ÑĢÐ°Ð´":8670,"ĠÐ¿ÑĢÐ¾ÑģÑĮ":8671,"ÐŁÐ»ÐµÐ½":8672,"ÐŁÐ»Ð°ÑĩÐµÑĤ":8673,"ÐĴÐ¾Ð²":8674,"ÐĴÐµÐº":8675,"ÐĴÐ°ÑĪ":8676,"ÐĴÐ¾Ð»Ð½":8677,"ÐĴÑĭÐ±":8678,"ÐĴÐ¾Ð´Ð°":8679,"ÐĴÑģÑĤÑĢÐµÑĩ":8680,"ÐĴÐµÐ»ÑĮÐ¼Ð¾Ð¶":8681,"Ð¾Ð³Ð»Ð°Ñģ":8682,"Ð¾Ð³Ð¾Ð²ÐµÐ¹":8683,"Ð¡Ð³":8684,"Ð¡Ð¸ÑĢ":8685,"Ð¡ÑĩÐ¸ÑĤ":8686,"Ð±Ð°ÑĢ":8687,"Ð±Ð´Ð¸":8688,"Ð¿Ð¸Ñĩ":8689,"Ð¾ÑĤÐºÐ¸":8690,"Ð¾ÑĤÐ¾Ñĩ":8691,"Ð³Ð°Ð¼Ð¸":8692,"Ð³Ð»Ð¾":8693,"ĠÐ»Ð°Ð·":8694,"ĠÐ»Ð¾Ðº":8695,"ĠÐ»ÐµÐ»Ðµ":8696,"ĠÐ»Ð°Ð¼Ð¿":8697,"Ð°Ð²Ð¾Ð¹":8698,"Ð°Ð½ÐºÑĥ":8699,"Ð°ÑĢÑĭ":8700,"ÑĤÐ¾Ðµ":8701,"ÐµÐ¹ÑģÑı":8702,"ÐµÐ¹ÑĪÐ¸Ñħ":8703,"ĠÐ½ÐµÑģÐ»":8704,"ĠÐ½ÐµÐ¸ÑģÑĤ":8705,"ĠÐ½ÐµÐ¾ÑĤÐ²":8706,"ÑīÐµÐ¼":8707,"ÑīÐ¸Ð¼":8708,"ÑīÐ°Ñı":8709,"ĠÑĩÐ°Ñı":8710,"ĠÑĩÑĮÑı":8711,"ÐµÑģÐ»Ð°":8712,"ÐŀÑĢÑĥÐ¶":8713,"ÐŀÑģÐ»ÑĥÑĪ":8714,"Ð¸Ð½ÑģÐºÐ¾Ðµ":8715,"Ð¾Ð½Ð°Ñĩ":8716,"ÐļÐ½ÑıÐ·":8717,"ÐļÐ½Ð¸Ð¶":8718,"ĠÑģÑĤÐµÐ»":8719,"ĠÑģÑĤÐ¾Ð³Ñĥ":8720,"ĠÐ½Ð°ÑħÐ¾Ð´Ð¸ÑĤ":8721,"ĠÐ½Ð°ÑĥÐºÐ°":8722,"Ð¢Ñİ":8723,"Ð¢ÐµÐ¿":8724,"Ð¢ÐµÑħ":8725,"Ð¢Ð¾Ð²Ð°ÑĢ":8726,"ÑĥÐ´Ð°Ð»":8727,"ÑĥÐ´Ð¸Ð²":8728,"Ð¾ÐºÑĥ":8729,"Ð¾ÐºÐµÑĤ":8730,"Ð¸Ð²Ð°ÑıÑģÑĮ":8731,"ÑĥÑĤÐºÐ¾":8732,"ÑĥÑĤÑĭÐ»":8733,"ÑĳÐ¹":8734,"ĠÐµÑİ":8735,"ĠÐµÐ»Ð¸":8736,"ÐĶÐ¾Ð³":8737,"ÐĶÑĭÐ¼":8738,"ÐĶÐ¾ÑĩÑĮ":8739,"ÐĶÑĢÑĥÐ¶":8740,"ÐĶÐ²ÐµÑĢÑĮ":8741,"ĠÑĥÑĢÐ¾Ð´":8742,"ĠÑĥÐ»Ð¾Ð¶":8743,"ĠÑĥÑĢÐ¾Ñĩ":8744,"ĠÑĥÐ½Ð¸Ð¶":8745,"ĠÑĥÑıÐ·Ð²":8746,"Ð¾Ð¶Ð¸Ð¹":8747,"Ð¶Ð°Ð»Ð°":8748,"Ð¾ÑģÑĤÐ¾Ð¹":8749,"Ð¾ÑģÑĤÐ½ÑĭÐ¹":8750,"Ð¾ÑģÑĤÐ½Ð¾Ð¹":8751,"Ð¾ÑĩÐ½ÑĭÑħ":8752,"ÐºÐ°Ð½Ñĭ":8753,"ĠÑıÐ½":8754,"ĠÑıÐ¼Ñĥ":8755,"ÐµÑĩÐµÑĤ":8756,"ÑĥÐ¶Ð´Ð°":8757,"ĠÑģÐ²Ð¸Ð½":8758,"ĠÑģÐ²Ð°Ð´ÑĮÐ±":8759,"ĠÑģÐ²ÑĭÑĪÐµ":8760,"ĠÐ¾ÑĤÐµÑĩ":8761,"ĠÐ¾ÑĤÑĪÐµÐ»ÑĮ":8762,"ÐŁÑĢÐµÐ²":8763,"ÐŁÑĢÐµÐ·":8764,"ÐŁÑĢÐ¾Ñĩ":8765,"ÐŁÑĢÐ¸Ñĩ":8766,"ÐŁÑĢÐµÐ¼ÑĥÐ´ÑĢ":8767,"ĠÐºÑĢÐ°Ð¼":8768,"ĠÑģÐ»ÑĭÑħÐ°Ð»":8769,"ĠÑģÐ»ÐµÐ³ÐºÐ°":8770,"ĠÑħÐ°Ð»":8771,"ĠÑħÑĥÐ»":8772,"ĠÑħÐ°Ð½Ð´":8773,"ÐľÐ¾Ð½":8774,"ÐľÐ°Ð»Ð¾":8775,"ÐľÐ¾ÑģÐº":8776,"ÐľÐµÑĢÑĤÐ²":8777,"Ð¾Ð»ÑĮÐµ":8778,"Ð½ÐµÑħ":8779,"ÐĳÑĢÐ°Ð½":8780,"ÐĳÐ¾Ð»ÐµÐ·":8781,"ÐµÐ¶ÑĮ":8782,"Ð£ÑģÑĤÐ°Ð»":8783,"Ð£Ð³Ð¾Ð´":8784,"ĠÐ²ÑģÐµÑģÐ¸Ð»ÑĮ":8785,"ÐĲÐ´":8786,"ĠÐ¾Ð±Ð¾Ð´":8787,"ĠÐ¾Ð±Ð»Ð¸":8788,"ĠÐ¾Ð±Ð¶":8789,"ĠÐ¾Ð±Ð¾ÑĢÐ¾Ð½":8790,"ĠÐ¾Ð±Ð»Ð¸Ðº":8791,"ĠÐ¾Ð±Ð¾Ð´ÑĢ":8792,"ĠÐ¾Ð±Ð¾ÑĢÐ¾ÑĤ":8793,"Ð¾Ð¿Ð¾Ð»":8794,"Ð¾Ð¿Ð¾Ð´Ð¾Ð±":8795,"ÑģÑĤÐ²Ð¸Ñı":8796,"ÐµÐ»ÑĮÐ½ÑĭÐ¼":8797,"ĠÐ³ÑĢÐ°Ð½Ð¸":8798,"ĠÐ³ÑĢÐ¸Ð²Ð¾Ð¹":8799,"ĠÐ³ÑĢÑıÐ½ÑĥÐ»":8800,"ĠÐ³ÑĢÑıÐ½ÐµÑĤ":8801,"ÑĥÐ¼ÑĦ":8802,"ĠÐ¿Ð¾Ð´ÑĢ":8803,"ĠÐ¿Ð¾Ð´ÑģÑĤÑĥÐ¿":8804,"ĠÐ¿Ð¾Ð´Ð½ÐµÑģ":8805,"ĠÐ¿Ð¾Ð´Ð²Ð¾Ð´":8806,"ĠÐ¿Ð¾Ð´Ð¾Ð·ÑĢ":8807,"ĠÐ¿Ð¾Ð´Ð¾ÑĪÐ»Ð°":8808,"ĠÐ¿Ð¾Ð´Ð¶Ð¸Ð´":8809,"ÑĥÑĩÐ¸Ð¼":8810,"ĠÐ²ÑĭÑģÐº":8811,"ĠÐ²ÑĭÑĢÐ¾Ñģ":8812,"ĠÑĪÑĥÐ±":8813,"ĠÑĪÐ°Ð»Ð°ÑĪ":8814,"ĠÐ¡Ð»Ð°Ð²":8815,"ĠÐ¡ÐºÐ¾ÑĢ":8816,"ĠÐ¡Ð»Ð¾Ð²":8817,"ĠÐ¸Ð·ÑĢÐµÐ´":8818,"ĠÐĿÐ°Ð´":8819,"ĠÑģÐºÑĥÐ´":8820,"ĠÑģÐºÑĥÐ¿":8821,"ĠÑģÐºÑĢÑĭ":8822,"ĠÑģÐºÑĢÐµÐ¶":8823,"Ð¸ÑĪÑĥ":8824,"ĠÑĢÐ°Ð·Ð´Ñĥ":8825,"ĠÑĢÐ°Ð·Ð»Ñĥ":8826,"ĠÐ¿Ð¾Ð»Ðº":8827,"ĠÐ¿Ð¾Ð»ÑĥÐ¼":8828,"ĠÐ¿Ð¾Ð»Ð½ÑĭÐµ":8829,"ĠÐ¿Ð¾Ð»Ð½Ð¾Ð¼":8830,"ĠÐ¿Ð¾Ð»ÑıÐ¼":8831,"ĠÐ¿Ð¾Ð»ÑıÑħ":8832,"Ð¯Ð¼ÑīÐ¸Ðº":8833,"ÐłÑıÐ´":8834,"ÐłÐ¾Ð¶Ð´":8835,"ÐļÐ°ÐºÐ¸Ð¼":8836,"ĠÑĤÑĢÐ°ÑĤ":8837,"Ð°Ð¿Ð¸ÑĤ":8838,"ĠÐ¢Ð¾ÑĤ":8839,"ĠÐ¢ÐµÑĢÐ¿":8840,"ÐĽÐ¾Ð¶":8841,"ÐĽÐ°Ð¼Ð¿":8842,"ÐŀÑĤÐ²ÐµÑĢÐ³":8843,"ĠÐ³Ð¾ÑĢÐ°":8844,"ĠÐ³Ð¾ÑĢÐ°Ð¼Ð¸":8845,"ĠÑģÐ¼ÐµÐ»Ð¾":8846,"ĠÑģÐ¿Ð¸ÑĤÑģÑı":8847,"ĠÑģÐ¿ÑĥÑģÐº":8848,"ĠÑģÐ¿Ð°ÑģÑĤÐ¸":8849,"ĠÑģÐ¿Ð»Ð¾ÑĪÑĮ":8850,"ĠÑįÐ¼Ð¿Ð¸ÑĢÐµÐ¹":8851,"ĠÐŁÐ¾ÑģÐ»":8852,"ĠÐ»Ð¸ÑĨÑĥ":8853,"ĠÐ»Ð¸Ð±Ð¾":8854,"Ð»Ð¾ÑħÐ¾":8855,"ÑĥÑİÑīÐ¸Ð¹":8856,"ĠÐ²Ð·Ð»ÐµÑĤ":8857,"ĠÐ²Ð·ÑıÐ»Ð°":8858,"ĠÐ²Ð·Ð°Ð¸Ð¼":8859,"ÐĴÑģÐ»ÐµÐ´":8860,"ĠÐ¿ÐµÑĢÐ²Ð¾Ð¹":8861,"ĠÐ¿Ð»Ð°Ð½ÐµÑĤ":8862,"ĠÐ²Ð¾Ð·Ñĥ":8863,"ĠÐ²Ð¾Ð·Ð±":8864,"ĠÐ²Ð¾Ð·Ð½Ðµ":8865,"ĠÐ²Ð¾Ð·ÑĢÐ°ÑģÑĤ":8866,"ĠÐ¼Ð¾Ð»Ð¸ÑĤÑģÑı":8867,"ĠÐ¾Ð´ÐµÑģÐ½ÑĥÑİ":8868,"ĠÐ°Ð´Ð°Ð¼":8869,"ĠÐĲÑħ":8870,"ĠÐĲÐ±Ð´Ð¸":8871,"ÑĭÐ²Ð°Ð»Ð¸":8872,"ĠÐŀÐºÐ¸":8873,"ÑģÐ»Ð¾Ð²":8874,"ÑģÐ»Ð°Ð±":8875,"Ð¾ÑĪÐºÐ°":8876,"Ð¾ÑĪÑĳÐ»":8877,"ĠÐ±ÑĢÐ°Ð²":8878,"ĠÐ±ÑĢÐ¾Ð²Ð¸":8879,"ĠÐĶÐ¾":8880,"ĠÐĶÐ¸Ð²":8881,"ĠÐĶÐ»Ñı":8882,"ĠÐ½Ð°Ð´ÐµÐ»":8883,"ĠÐ½Ð°Ð´Ð¿Ð¸ÑģÑĮ":8884,"ĠÐĵÐ¾Ð»Ð¾Ñģ":8885,"Ð¡ÑĤÐ¾Ð½":8886,"Ð¡ÑĤÑĢÐ°Ð½":8887,"ĠÐ¿Ð¾ÐºÐ°ÑĤ":8888,"ĠÐ¿Ð¾ÐºÐ¾Ñİ":8889,"ĠÑģÐ²Ð¾Ñı":8890,"ĠÐľÐ°Ð·ÐµÐ¿Ð°":8891,"ĠÐľÐ¾Ð¶ÐµÑĤ":8892,"ÑĳÐ½Ð½Ð¾":8893,"ÑĳÐ½Ð½ÑĥÑİ":8894,"ÑĭÐ»Ð°Ð»":8895,"ÑĭÐ»Ð¾ÑģÑĮ":8896,"ÐŁÐ¾Ð´ÑĬ":8897,"Ð½Ð¾Ð²ÑĭÐ¹":8898,"Ð½Ð¾Ð²ÐµÐ½ÑĮÐµ":8899,"ĠÐ½Ð¸ÑĨ":8900,"ĠÐ½Ð¸ÑģÐ¿":8901,"ĠÑģÑĤÐ°ÑĢÑĨÐ°":8902,"ĠÑģÑĤÐ°ÑĢÑĥÑİ":8903,"ĠÑģÑĤÐ°ÑĢÑĩÐµ":8904,"ĠÐ¿Ð¾ÑĢÑĥÑĩ":8905,"ĠÐ½Ð°ÑģÐµÐ»":8906,"ĠÐ²ÑĢÐ°ÑĤÐ°":8907,"ĠÐ²ÑĢÐ°Ð·ÑĥÐ¼":8908,"ĠÑĢÐ°ÑģÑģÑĤÐ°Ð²":8909,"Ð²ÐµÑĢÐ·":8910,"ÐµÐ½ÑıÐ»Ð¸":8911,"ÐµÐ½ÑıÑģÑĮ":8912,"ĠÐ²Ð¸Ð´Ñı":8913,"ĠÐ²Ð¸Ð´Ð½Ð°":8914,"ĠÐ²Ð¸Ð´Ð¸Ð¼":8915,"ĠÐ¿ÑĢÐµÐ´Ð»Ð¾Ð¶":8916,"ĠÐ²ÐµÑĢÐ¸Ð»":8917,"ĠÐ²ÐµÑĢÐ½ÑĭÐ¼":8918,"ĠÐ²ÐµÑĢÐ½Ð¾Ðµ":8919,"ĠÐ²ÐµÑĢÑĮÑĤÐµ":8920,"ĠÐĹÐ°Ð²":8921,"ĠÐ²Ð¾Ð»ÐµÐ¹":8922,"ĠÐ²Ð¾Ð»Ð½Ð¾Ð¹":8923,"Ð¸Ð³Ð¸":8924,"Ð¥Ð¾ÑĤ":8925,"Ð¥Ð¾Ð·Ñı":8926,"Ð¥Ð¾Ð»Ð¾Ð´":8927,"Ð¥ÑĢÐ¸ÑģÑĤ":8928,"ĠÑģÐ°Ð¼Ð¸Ð¼":8929,"ĠÑģÐ°Ð¼Ð¾Ð±ÑĢ":8930,"Ð»Ð¸Ð²ÑĭÑħ":8931,"ĠÐ´ÑĢÑĥÐ³Ð¾Ðµ":8932,"ĠÑĢÐ¾Ð´Ð¸Ð½Ð°":8933,"ĠÑĢÐ¾Ð´Ð¸Ð¼ÑĭÐ¹":8934,"ĠÑĥÐ¼ÑĢÐ¸":8935,"ĠÑĥÐ¼ÑĢÑĥ":8936,"ĠÐłÐ¸Ð¼":8937,"ĠÑģÐ²ÐµÑĤÐ»Ð¸":8938,"ĠÐ¼Ð¸ÑĢÐ¾Ð²":8939,"ĠÐ½ÐµÐ¼Ð½Ð¾Ð¶ÐºÐ¾":8940,"ĠÐ¿Ð¾Ð¼Ð¸Ð½":8941,"ĠÐ¿Ð¾Ð¼ÐµÑĪ":8942,"ĠÐ¾Ð¿ÐµÑĢÑĪÐ¸ÑģÑĮ":8943,"ÐµÑĤÑĮÐ¼Ð¸":8944,"Ð¸ÑģÐ°":8945,"ĠÐ·Ð²ÑĥÐºÐ¾Ð²":8946,"Ð¡ÐºÑĥÑĩÐ½Ð¾":8947,"ĠÐ·ÐµÐ¼Ð»ÑĳÐ¹":8948,"ĠÑĥÑĤÑĢÐ°Ñĩ":8949,"Ð»ÐµÐ½Ð¸Ð¹":8950,"Ð»ÐµÐ½Ð½ÑĭÐ¼":8951,"Ð»ÐµÐ½Ð¸Ðµ":8952,"ĠÐ¿Ð¾ÑĤÐ¾Ð½":8953,"ĠÐ¿Ð¾Ð²Ð°ÑĢ":8954,"ĠÐĺÐ¼":8955,"ĠÐĺÐ»Ð¸":8956,"ÑıÐ½Ð½ÑĭÐ¹":8957,"ÐļÑĢÐµÑģÑĤ":8958,"Ð¾ÑģÑĤÐ¸Ð¶":8959,"ĠÐ¼ÑĥÐ¶ÐµÐ¹":8960,"ĠÐ¼ÑĥÐ¶ÐµÑģÑĤÐ²Ð¾":8961,"ĠÐ»ÐµÑĤÐµÐ»":8962,"ÑıÐ·Ð°Ð½":8963,"ĠÐ±Ð»Ð°Ð³Ð¾Ð¹":8964,"ĠÐ±Ð»Ð°Ð³Ð¾ÑģÐºÐ»Ð¾Ð½":8965,"ĠÐ¾Ð³Ð»ÑĥÑĪ":8966,"ÑĭÐ½Ñİ":8967,"ĠÐ±ÐµÐ´Ð½Ð¾Ð³Ð¾":8968,"ĠÑĤÐ²Ð¾ÐµÐ¼Ñĥ":8969,"ĠÐ¶Ð¸Ð²Ñĭ":8970,"ĠÐ¶Ð¸Ð²Ð°Ñı":8971,"ÑĢÐ¸Ð¸Ð¼":8972,"ĠÑĨÐ°ÑĢÐ¸ÑĨÐµÐ¹":8973,"ĠÑģÐ¾Ð±Ð¸ÑĢ":8974,"ĠÐ·Ð°Ð±ÑĥÐ´ÑĮ":8975,"ÑĢÑıÐ½ÑĥÐ»":8976,"ĠÐ·Ð»Ð¸ÑĤÑģÑı":8977,"ĠÐ¼Ð¸Ð»Ð¾":8978,"ĠÐ¼Ð¸Ð»ÑĥÑİ":8979,"ĠÐ¼Ð¸Ð»Ð¾ÑģÑĤÑĮÑİ":8980,"Ð¡Ð¿Ð°ÑĤÑĮ":8981,"ĠÐ½Ð°ÑĢÑĥÑĪ":8982,"ĠÐºÐ¾Ð»ÐµÐ½":8983,"ĠÐºÐ¾Ð»Ð¾Ð´":8984,"ĠÐºÐ¾Ð»ÐµÐ½Ð°":8985,"ĠÐºÑĢÐ°ÑģÐ¾ÑĤÐ°":8986,"ĠÐºÑĢÐ°ÑģÐ¾ÑĤÑĥ":8987,"ĠÐĽÑİÐ±":8988,"ĠÐĽÑĥÐ½Ð°":8989,"ĠÐ¿Ð¾Ð³Ð°Ð½ÑĭÑħ":8990,"ĠÐ¼Ð¾Ð¶ÐµÐ¼":8991,"ĠÐ¿ÐµÑģÐ¾Ðº":8992,"ÐĿÐ°Ð´ÐµÐ¶Ð´Ñĭ":8993,"ĠÐ¿ÑĢÐ¾ÐµÐ·Ð¶":8994,"ĠÐ¿Ð¾ÑģÐµÑĤ":8995,"ĠÐ¿Ð¾ÑģÐµÑī":8996,"ĠÐ½ÐµÐ²Ð¾Ð»ÑĮ":8997,"ĠÐ²Ð¾Ð´ÐºÐ¸":8998,"ĠÐ¼Ð¾Ð»Ð¾Ð´ÑĨÐ°":8999,"ĠÐ¼Ð¾Ð»Ð¾Ð´ÑĭÐ¼":9000,"ĠÐ·Ð°Ð¿Ð¾Ð²ÐµÐ´":9001,"ĠÐ´Ð¾Ð¼Ð¾Ð²":9002,"ĠÐŁÑĢÐ°ÑĢÐ¾Ð´Ð¸ÑĤÐµÐ»ÐµÐ¹":9003,"ĠÐŁÑĢÐµÐ¸Ñģ":9004,"ĠÑĥÐ³Ð¾ÑĤÐ¾Ð²":9005,"ĠÑģÐ½Ð¸ÑĤÑģÑı":9006,"ĠÐ¿ÐµÑĩÑĮ":9007,"ĠÐ¿ÐµÑĩÐºÐ¸":9008,"ĠÐ´Ð¾ÑĢÐ¾Ð³Ð¾Ñİ":9009,"ĠÐ¿ÑĢÐ¾ÑģÑĤÐ¾ÑĢÐµ":9010,"ĠÐ»ÑĮÐµÑĤÑģÑı":9011,"ĠÐ²ÑĭÑģÐ¾ÐºÐ¸Ð¹":9012,"ĠÐ²ÑĭÑģÐ¾ÑĤÐµ":9013,"ĠÐ·Ð°Ð¼ÑĥÐ¶":9014,"ĠÐ¿ÑĥÑģÑĤÑĭÐ¼":9015,"ĠÐ¿ÑĥÑģÑĤÑĭÐ½Ñı":9016,"ĠÐ½Ð°Ð²ÐµÑĢ":9017,"ĠÐ½Ð°Ð²ÐµÑī":9018,"ĠÐ½Ð°Ð²ÐµÐºÐ¸":9019,"ĠÐ³Ð¾Ð²Ð¾ÑĢÐ¸Ð»Ð¸":9020,"ĠÐ¯ÐºÐ¸Ð¼":9021,"ÑĢÐ¾ÑģÐ¸Ð»":9022,"ĠÑĥÐ¿ÑĢÐµÐº":9023,"ĠÐ¿Ð¾ÑģÑĤÐ¸ÑĩÑĮ":9024,"ĠÐºÐ¾ÑĢÑĩ":9025,"ĠÐºÐ¾ÑĢÑĪ":9026,"ĠÐ±ÐµÑĢÐµÐ¶Ð½Ð¾":9027,"ĠÐ¿ÑĢÐ¸Ð²ÐµÐ´":9028,"ĠÑĩÐµÑĢÐ½ÑĭÐ¹":9029,"ĠÑĩÐµÑĢÐ½Ð¾Ð¹":9030,"Ð¨ÐµÐ»":9031,"Ð¨ÐµÐ¿":9032,"Ð¨Ð°Ð³":9033,"Ð¾ÑīÐ½ÑĭÐ¹":9034,"ĠÐ´Ð¾Ð±ÑĢÑĥ":9035,"ĠÐ´Ð¾Ð±ÑĢÐ°Ñı":9036,"ĠÐĳÐ¾Ð¶Ð¸Ñı":9037,"ĠÐĳÐ¾Ð¶ÐµÑģÑĤÐ²Ñĥ":9038,"ĠÑĩÐ°ÑģÑĥ":9039,"ĠÑĩÐ°ÑģÐ¾Ð²":9040,"Ð½ÐµÐ²Ð½ÑĭÐ¹":9041,"ĠÐ²ÐµÑģÐ½Ñĭ":9042,"ĠÐ²ÐµÑģÐµÐ»ÐµÐ¹":9043,"ĠÐ¿Ð¾Ð±Ð»ÐµÐ´":9044,"ĠÐ¿Ð¾ÑĩÐ¸ÑĤ":9045,"ÐµÑıÐ½Ñĭ":9046,"Ð¸Ð»ÑĮÐ½ÑĭÐ¹":9047,"ĠÐĲÐ´ÑģÐºÐ¸Ñħ":9048,"ĠÐ½ÐµÐ¿Ð¾Ð³":9049,"ĠÑģÑĤÐ¾Ñİ":9050,"ÐĳÐ»ÐµÐ´":9051,"ÐĳÐ»ÐµÑģ":9052,"ĠÑģÑĭÑĢÐ¾Ð¹":9053,"Ð³ÑĢÐµÑĪ":9054,"ĠÑĥÐ·Ð½Ð°Ð²":9055,"ĠÐºÐ¾ÑĤÐ¾ÑĢÐ°Ñı":9056,"ĠÑģÐºÐ¾ÑĢÐ»ÑĥÐ¿":9057,"ĠÐ¸ÑģÐºÑĢ":9058,"ĠÐ¸ÑģÐºÐ°Ð·":9059,"ĠÐºÐ°ÑĢÑĥ":9060,"ĠÐºÐ°ÑĢÑĭ":9061,"ĠÐ´ÐµÑĢÐµÐ²Ð°":9062,"ĠÐ´ÐµÑĢÐµÐ²Ð½Ð¸":9063,"ĠÐ´ÐµÑĢÐµÐ²ÐµÐ½ÑĮ":9064,"ĠÐ´ÐµÑĢÐµÐ²ÐµÐ½ÑģÐºÐ¸Ð¹":9065,"Ð¸Ð¿ÐµÐ»":9066,"ÑĪÐ¸ÑħÑģÑı":9067,"ĠÐ¿ÐµÑĢÐ²ÑĭÐµ":9068,"ĠÐĵÐ¾ÑģÐ¿Ð¾Ð´Ð½Ð¸":9069,"ĠÐĵÐ¾ÑģÐ¿Ð¾Ð´ÐµÐ½ÑĮ":9070,"ĠÐ´Ð²Ð¸Ð³":9071,"ĠÐ»ÐµÐ³ÐºÐ¾Ð¼":9072,"ĠÐ½Ð¾Ð³Ð¾Ð¹":9073,"ÐµÑĢÐ¿ÐµÑĤÑĮ":9074,"ĠÐ£ÐºÑĢÐ°Ð¹":9075,"ĠÐ³ÑĢÐ¾Ð·Ð¸Ð»":9076,"ĠÑģÑĤÑĢÐ°ÑĪÐ½Ð°":9077,"ĠÑģÑĤÑĢÐ°ÑĪÐ½ÑĭÐµ":9078,"ĠÐ¿Ð¾Ð½ÑıÐ»":9079,"ĠÑĩÑĥÐ´Ð½ÑĭÐµ":9080,"ĠÑĩÑĥÐ´ÐµÑģÐ°":9081,"ĠÐ½ÐµÑģÐ¼":9082,"ĠÐ½ÐµÑģÐµÑĤ":9083,"ĠÐ½ÐµÑģÑĢÐ°Ð²Ð½":9084,"ĠÐ´Ð¾ÑĢÐ¾Ð³Ð¸Ñħ":9085,"Ð¢Ð°Ð¼Ð°ÑĢÐ°":9086,"ĠÑģÑĢÐ¾ÐºÐ°":9087,"ĠÐºÐ°Ð¶Ð´Ð¾Ð¼Ñĥ":9088,"ĠÐ´Ð²Ð¾ÑĢÑı":9089,"ĠÑĥÑģÐ¼ÐµÑħ":9090,"ĠÐ½Ð¸ÑĩÑĤÐ¾Ð¶":9091,"ĠÐ±Ð¾Ð¹ÑĨÐ°":9092,"ÐŁÐ¾ÑĤÐµÑĢ":9093,"ÐŁÐ¾ÑĤÑĥÐ¿":9094,"ÐµÐ¶Ð´Ð¾Ð¹":9095,"ÐĵÑĢÐ¸Ð³Ð¾ÑĢ":9096,"ĠÐ¾Ð´Ð¸Ð½Ð¾ÐºÐ¸Ð¹":9097,"ÐŁÑĢÐ¸ÑİÑĤ":9098,"ĠÐ¾ÐºÐ¾Ð½":9099,"ĠÐºÐ»Ð°Ð½Ñı":9100,"ĠÐ´Ð¸Ð²Ð½ÑĭÐµ":9101,"ĠÐ´Ð¸Ð²Ð¸ÑĤÑģÑı":9102,"ĠÐ¼Ð°Ð»ÐµÐ½ÑĮ":9103,"Ð½ÑĥÐ»Ð°ÑģÑı":9104,"ĠÐ½ÐµÐ±ÐµÑģÐ°Ñħ":9105,"ĠÑģÐ»ÐµÐ´Ñĭ":9106,"ĠÑģÐ»ÐµÐ´Ð°Ð¼":9107,"ĠÑģÐ»ÐµÐ´ÑĥÐµÑĤ":9108,"ÐĴÐ´Ð¾Ð»ÑĮ":9109,"ĠÐ´Ð¾ÑģÑĤÐ¸ÑĩÑĮ":9110,"ĠÐ·Ð°ÑĢÐµÐ¹":9111,"ÐŀÐ¿ÑĥÑģÑĤ":9112,"ĠÑģÑĤÐ¾Ð»ÐµÑĤ":9113,"ĠÑħÐ¾ÑĩÐµÑĤÑģÑı":9114,"ÐľÐ¾Ð»Ð²":9115,"ÐĳÐµÑģÐµÐ´":9116,"Ð°ÑİÑīÐµÐ³Ð¾":9117,"ĠÐ²Ð·Ð´Ð¾ÑĢ":9118,"ĠÑģÐ»ÑĭÑĪÑĥ":9119,"ĠÑģÐ»ÑĭÑĪÐµÐ½":9120,"ĠÐ¸Ð·Ð±Ñĥ":9121,"ĠÐ¸Ð·Ð±ÐµÐ³":9122,"ĠÐ²Ð¾ÑģÑħÐ¾Ð´":9123,"ĠÐ±ÑĥÑĢÑĮ":9124,"Ð¾Ð¹Ð´ÐµÑĪÑĮ":9125,"ÐŁÐµÑĢÐµÐ½":9126,"ÑĭÑĤÑĮÑģÑı":9127,"ĠÐ³Ð¾Ð»Ð¾ÑģÑĥ":9128,"ĠÐ³Ð¾Ð»Ð¾ÑģÐ¾Ð²":9129,"ÐĵÐ¾ÑĢÐ¾Ð¹":9130,"ÐĵÐ¾ÑĢÑıÑĩ":9131,"ĠÐ³ÑĢÐ¾Ð¼Ð¾Ð¼":9132,"ĠÐ±ÐµÑĢÐµÐ³Ð°Ð¼":9133,"ĠÐ¾ÑĤÐ²ÐµÑĤÐ°":9134,"ĠÑİÐ½ÑĭÐ¹":9135,"ĠÐĴÑģÐµÐ»ÐµÐ½Ð½Ð¾Ð¹":9136,"ĠÑĢÐ°ÑģÐ¿ÑĥÑī":9137,"ĠÐ¿ÑĢÐµÐ¶Ð½ÐµÐ¹":9138,"ĠÐ¿ÑĢÐµÐ¶Ð½Ð¸Ñħ":9139,"ĠÑģÐµÐ´Ð»Ð¾":9140,"ĠÐ±ÐµÐ³Ð»ÐµÑĨ":9141,"ĠÐ¿ÑĢÐ¸ÐºÐ°Ñģ":9142,"ĠÑıÐ²Ð»Ñı":9143,"ĠÐºÑĢÐµÑģÑĤÑĮÑıÐ½Ðµ":9144,"ĠÑĢÐ°ÑģÑģÑĥÐ´":9145,"ĠÑĢÐ°ÑģÑģÑĥÐ¶Ð´":9146,"ĠÑħÑĢÐ¸ÑģÑĤ":9147,"ĠÐ´ÑĢÑĥÐ¶Ð¸Ð½Ñĭ":9148,"ÑĪÐµÐ¹ÑģÑı":9149,"ĠÑĢÑĥÑģÑģÐºÐ¾Ð³Ð¾":9150,"ÐļÐ¾ÑĤÐ¾ÑĢÐ¾Ð³Ð¾":9151,"ĠÐºÐ°Ð·Ð°Ð»ÑģÑı":9152,"ĠÐ¾Ð±ÑĬÐµÐ¼Ð»ÐµÑĤ":9153,"ĠÐ¾Ð±ÑĬÐµÑħÐ°Ð»Ð¸":9154,"ĠÑĤÐ°Ð¹Ð½Ð¾Ð¹":9155,"ĠÑĤÐ°Ð¹ÐºÐ¾Ð¼":9156,"ĠÐ´Ð¾Ð»Ð³Ð¾Ð¹":9157,"ĠÐ´Ð¾Ð»Ð³Ð¾Ð²":9158,"Ð¡Ð²Ð¾Ñĳ":9159,"ĠÑĩÐ°ÑģÑĤÐ¸":9160,"Ð»Ð¸Ð½Ð½Ð¾":9161,"ĠÐ±Ð¾Ð»ÐµÐ·":9162,"Ð¡ÑĤÐ¾ÑıÐ»Ð¸":9163,"ĠÐ³ÑĢÐµÑħÐ¾Ð²":9164,"ĠÑĪÐ°Ð³Ð°Ð»":9165,"ĠÐ±ÐµÑģÐ¿ÐµÑĩ":9166,"ĠÐ¿ÐµÑĩÐ°Ð»ÑĮÐ½ÑĭÑħ":9167,"Ð¼ÑĭÐºÐ°":9168,"ĠÐ²ÐµÐ½ÑĨÐ°":9169,"ĠÐ²ÐµÐ½ÑĨÐ¾Ð¼":9170,"ĠÑģÑĩÐ°ÑģÑĤÐ»Ð¸Ð²Ð¾Ð¹":9171,"ĠÑģÐ¾Ð·Ð´Ð°ÑĤÑĮ":9172,"ĠÑĤÐ¾ÑģÐºÐ¾Ñİ":9173,"ĠÐĿÐµÐ±Ð¾Ð¼":9174,"ĠÑģÐ¸Ð´ÐµÐ»Ð°":9175,"ĠÐ¿Ð°Ð´Ð°Ñı":9176,"ĠÐ¿Ð°Ð´ÐµÐ½ÑĮÑı":9177,"ĠÐ³ÐµÑĢÐ¾":9178,"ĠÐ³ÐµÑĢÐ¾Ñİ":9179,"ĠÐ¶Ð°Ð»ÐºÐ¾":9180,"ĠÐ·Ð°ÑģÑĤÐ°Ð»":9181,"ÐŀÑģÐ°Ð½":9182,"ĠÑĢÐ°ÑģÑĤÑĳÑĤ":9183,"ĠÐ·Ð¾Ð²ÑĥÑĤ":9184,"ĠÐ¿ÑĢÐ¸Ð¼Ð¸ÑĢ":9185,"ĠÑĢÑĥÐ±Ð¸ÑĤ":9186,"ĠÐ²Ð¾ÑģÐ¿Ð°ÑĢ":9187,"ĠÐ±ÑĭÑģÑĤÑĢÑĭÐ¹":9188,"ĠÑģÐ¿Ð¾ÑĢÐ¸ÑĤÑĮ":9189,"ĠÑģÐ¿Ð¾ÑĢÐ¸Ð»Ð¸":9190,"ĠÐºÑĢÐµÑģÑĤÐ°":9191,"ĠÐºÐ¾ÑģÐ¼Ð°ÑĤ":9192,"ĠÐ²ÑģÐ¿Ð¾Ð¼":9193,"ÐĿÐ°ÑģÐº":9194,"ĠÑĢÑĭÐ±ÐºÑĥ":9195,"ĠÑĤÑĥÑĩÐµÐ¹":9196,"ĠÐ¶Ð´Ð°Ð»Ð¸":9197,"ĠÐ¼ÑĭÑģÐ»ÐµÐ¹":9198,"ĠÑħÐ¾Ð´Ð¸ÑĤÑĮ":9199,"ĠÑĢÐ°Ð±Ð¾ÑĤÐ¾Ð¹":9200,"ĠÐ¼ÑĢÐ°ÑĩÐ½Ð¾Ð¹":9201,"ÐĿÐµÐ±ÐµÑģÐ½ÑĭÐµ":9202,"ĠÑĩÐµÑĢÑĤÐ¸":9203,"ĠÑĤÑĢÐ°Ð²Ñĭ":9204,"ĠÑģÐ¸Ð»ÑĮÐ½Ð°":9205,"ĠÐ¿ÑĢÐ¸ÑĪÐ»Ð¸":9206,"ĠÐ¿ÑĢÐ¸ÑĪÐ»Ð¾":9207,"ĠÐ´ÐµÑĢÐ¶Ð°Ð»":9208,"ĠÑģÐ¾Ð»Ð´Ð°ÑĤÐ°":9209,"ĠÐ´ÐµÐ´Ð¾Ð²":9210,"ÐĵÐ¾ÑģÐ¿Ð¾Ð´Ñĥ":9211,"ĠÑģÑĤÑĢÐ°Ð´Ð°Ð½ÑĮÑı":9212,"ĠÑģÑĤÑĢÐ°Ð´Ð°Ð½Ð¸Ð¹":9213,"ĠÐ±Ð»ÐµÐ´ÐµÐ½":9214,"ĠÐ±Ð»ÐµÐ´Ð½Ð°":9215,"ĠÐ´ÑĢÐµÐ²Ð½Ð¸Ð¹":9216,"ÑĥÑīÐµÑģÑĤÐ²Ð¾Ð¼":9217,"ĠÐ²ÑģÑĤÑĢÐµÑĩÐµ":9218,"ĠÐ¼Ð»Ð°Ð´Ð¾ÑģÑĤÐ¸":9219,"ĠÐ´Ð°Ð²Ð°Ð»":9220,"ĠÑĢÐ¾ÐºÐ¾Ð²ÑĭÐµ":9221,"ĠÑģÐ»Ð°Ð±ÐµÐ¹":9222,"ĠÐ³ÑĢÑĥÑģÑĤÑĮ":9223,"ĠÐ±Ð»Ð°Ð³Ð¾Ð´Ð°ÑĤÑĮ":9224,"ĠÐ±Ð»Ð°Ð¶ÐµÐ½ÑģÑĤÐ²Ð°":9225,"ĠÐ´ÐµÑĢÐ·Ð½Ð¾Ð²":9226,"ĠÐ±Ð»Ð¸Ð·Ð¾Ðº":9227,"ĠÑĪÑĥÑĤÐºÑĥ":9228,"ĠÐ²Ð¾Ð»ÑĮÐ½Ñĭ":9229,"ĠÐ½Ð¾ÑģÐ¸Ð»":9230,"ĠÐ½ÑĥÐ¶Ð½Ð°":9231,"ÑĩÐ¸ÐºÐ¾Ð¼":9232,"ĠÐ¸Ð³ÑĢÑĭ":9233,"ĠÐ»ÑĥÐ³Ð¾Ð²":9234,"ĠÐ»Ð¸ÑĪÐµÐ½Ñĭ":9235,"ÐĽÑİÐ´ÐµÐ¹":9236,"ĠÐĲÐ½Ð³ÐµÐ»Ð°Ð¼Ð¸":9237,"ĠÐ·Ð´ÐµÑĪ":9238,"ĠÑĥÐ²ÐµÐ½Ñĩ":9239,"ĠÑĪÐµÐ¿ÑĩÑĥÑĤ":9240,"ĠÐ³Ð¾ÑĢÐ¾Ð´Ðµ":9241,"ĠÑıÑģÐ½ÑĭÐ¹":9242,"ĠÐ¾Ð±ÑĢÐ°ÑĤÐ½Ð¾":9243,"ĠÐ²ÐºÑĥÑģÐ¸Ð»":9244,"ĠÑĥÐ´Ð°Ð»Ð¾Ð¹":9245,"ĠÐ²Ð°Ð»Ð¸ÑĤÑģÑı":9246,"ĠÐ¿ÑĢÑıÐ¼Ð¾Ð¹":9247,"ĠÐ¼ÑĥÑĩÐµÐ½ÑĮÑı":9248,"ÐĴÐ¸Ð´Ð¸ÑĪÑĮ":9249,"ĠÑĩÐµÑĤÑĭÑĢ":9250,"ĠÐ¾Ð±Ð»Ð°ÐºÐ¾Ð²":9251,"ĠÐ²ÑĤÐ¾ÑĢÑĭÐ¼":9252,"ÐĴÐµÑģÐ½Ð°":9253,"ĠÐ¡ÑĤÐ°ÑĢ":9254,"ĠÐ²Ð½Ð¸Ð¼Ð°Ð»Ð°":9255,"ĠÑĥÑģÐ¿ÐµÐ»":9256,"ĠÐ±ÑĢÐ¾ÑģÐ¸Ð»":9257,"ĠÐºÐ°ÑĤÐ¸ÑĤÑģÑı":9258,"ĠÐºÐ°ÑĤÐ¾ÑĢÐ¶":9259,"ĠÑĢÐ¾Ð·Ñĭ":9260,"ĠÐ¾ÑĤÑĩÐ¸Ð·Ð½Ñĭ":9261,"ĠÐ¾ÐºÑĢÑĥÐ¶Ð¸Ð²":9262,"ĠÑĤÐ²Ð¾ÑĢÐµÐ½ÑĮÑı":9263,"ĠÐ¿ÑĢÐ¾ÑħÐ¾Ð´Ð¸ÑĤ":9264,"ÐŁÐ¾ÑģÐ»Ðµ":9265,"ĠÐ»Ð°Ð´Ð½Ð¾":9266,"Ð£Ð±Ð¾Ð³":9267,"ĠÐ¸Ð·Ð¼ÐµÐ½Ð¸Ð»":9268,"ĠÐ½Ð°ÑĩÐ°Ð»Ðµ":9269,"ĠÑģÐ²Ð¾Ð±Ð¾Ð´Ð½Ð¾Ð¹":9270,"ĠÑĪÐ°ÑĤÑĢÑĭ":9271,"ĠÐŁÐµÑĤÑĢÐ¾Ð²":9272,"ĠÐ·Ð½Ð°ÐºÐ¾Ð¼ÑĭÑħ":9273,"ĠÑģÐ¾ÑĩÑĤ":9274,"ĠÐ¼ÑĥÐ´ÑĢÐµÑĨ":9275,"ĠÐ¿ÑĢÐ¸ÑĤÐ¾Ð¼":9276,"ÐŁÐ¾ÑĩÑĤÐ¸":9277,"ĠÑģÑĤÐ¸ÑħÐ¸":9278,"ĠÑĨÐµÐ¿ÑĮ":9279,"ĠÑģÑĥÐ¿ÑĢÑĥÐ³Ð°":9280,"ÐĳÐ»Ð°Ð¶ÐµÐ½ÑģÑĤÐ²Ð°":9281,"Ð¤Ð¸Ð»Ð¸Ð¿Ð¿":9282,"ĠÐ¶ÐµÑģÑĤÐ¾ÐºÐ¾Ð¹":9283,"Ð°ÑıÐ½ÑĮÐµ":9284,"ĠÐ¿Ð¾Ð¹Ð´Ñĥ":9285,"ĠÐ¿Ð¾Ð¹Ð´ÐµÑĤ":9286,"ĠÐ¼ÐµÐ»ÑĮÐ½Ð¸ÑĨÑĥ":9287,"Ð¡Ð¸Ð´ÐµÐ»":9288,"Ð¡Ð¸Ð´ÐµÐ»Ð¸":9289,"ĠÑĤÐ¾ÑĢÐ¶ÐµÑģÑĤÐ²Ðµ":9290,"ĠÑĤÐ¾ÑĢÐ¶ÐµÑģÑĤÐ²Ð¾Ð¼":9291,"ĠÐ²Ð½ÑĥÑĩ":9292,"ĠÐ²Ð½ÑĥÐºÐ¸":9293,"ÐĿÐµÐ¿ÑĢÐ°Ð²":9294,"ÐĴÑĢÐ°Ð³Ð°":9295,"ÐŀÑĤÐºÑĥÐ´Ð¾Ð²Ð°":9296,"ĠÐ¿ÑĢÐ¾ÐºÐ»ÑıÑĤÑĭÐ¹":9297,"ĠÐ¾ÑģÐºÐ²ÐµÑĢÐ½":9298,"ĠÑģÑĤÑĢÐ¾Ð³Ð¸Ð¹":9299,"ĠÐ²Ð·Ð³Ð»ÑıÐ½ÑĥÑĤÑĮ":9300,"ĠÐ±Ð¾ÑĢÑĮÐ±Ñĭ":9301,"ĠÑĤÐµÑĢÐ¿ÐµÐ»":9302,"ĠÑħÐ²Ð°Ð»Ñĭ":9303,"Ð£Ð·Ð½Ð°Ð¹":9304,"ĠÑĢÐ°Ð·Ð³ÑĢÐ¾Ð¼":9305,"ĠÑĤÐµÐ¼Ð½Ð¾ÑĤÐµ":9306,"Ð¡Ð¾Ð·Ð´Ð°Ð½Ð¸Ð¹":9307,"ĠÐ²Ð¾Ð·Ð¼ÑĥÑī":9308,"ĠÐ³ÑĥÑģÑĤÑĭÐµ":9309,"ĠÐ¾ÑĤÑĢÐ°Ð´Ð¾Ð¹":9310,"ĠÐ»ÐµÐ¶Ð°Ð»Ð¸":9311,"ÐĹÐ²ÐµÐ·Ð´":9312,"ĠÐ¾Ð±Ð¸Ð´Ð½Ð¾":9313,"ÐłÐ°Ð±Ð¾Ñĩ":9314,"ĠÐŁÑĢÐµÑģÑĤÐ¾Ð»Ð°":9315,"ĠÑĤÑĢÐµÐ¿ÐµÑĤÐ¾Ð¼":9316,"ĠÐ½Ð°Ð±ÑĢ":9317,"ĠÑħÐ¾Ð»Ð¼Ð¾Ð²":9318,"ĠÐ¿Ð»Ð°ÑĩÑĥ":9319,"ÐµÑĤÐµÑĢÐ±ÑĥÑĢÐ³":9320,"Ð½ÑıÐ³Ð¸Ð½Ðµ":9321,"ÐŀÑĤÐºÑĢÑĭÑĤ":9322,"ĠÑģÐ¿Ð¾ÑģÐ¾Ð±ÐµÐ½":9323,"ĠÐºÐ¸Ð¿Ð¸ÑĤ":9324,"ÐĿÐ°ÑĩÐ°Ð»":9325,"ĠÐ¿ÑĢÐ¸ÑıÑĤÐµÐ»ÑĮ":9326,"ÐĴÐ·Ð´ÑĭÐ¼":9327,"ĠÐ¾ÑĢÑĥÐ¶ÑĮÐµÐ¼":9328,"ÑĩÐµÑģÐºÐ¸Ñħ":9329,"Ð¿Ð¾Ð´Ð½ÐµÐ¹":9330,"ĠÐŀÐ»ÑĮÐ³Ð¸":9331,"ĠÐ½Ð°Ð´ÐµÐ¶Ð´Ð°":9332,"Ð¡ÐºÐ°Ð·Ð°Ð»Ð°":9333,"ĠÐ¾Ð±ÑĬÑıÑĤÑĮÑı":9334,"ĠÐ³Ð¾ÑģÑĥÐ´Ð°ÑĢÑĮ":9335,"ĠÐĵÐµÐµÐ½Ð½Ñĥ":9336,"ĠÐ¾Ð¿ÑĥÑģÑĤÐ¸Ð»ÑģÑı":9337,"ĠÐ³Ð»ÑĥÐ±Ð¾ÐºÐ¾Ð¼":9338,"ĠÑĥÑģÑĤÐ°Ð»ÑĭÐ¹":9339,"ĠÐ²Ð°ÑħÐ»Ð°ÑĨ":9340,"ĠÐ¿Ð¾Ð´ÑĢÑĥÐ³Ð¸":9341,"ĠÐ¢Ð²Ð¾Ð¸":9342,"ÐĴÐµÐ»Ð¸ÐºÐ¾Ð»ÐµÐ¿":9343,"ĠÐ±Ð¾Ð»Ð¾ÑĤÐ°":9344,"ĠÐļÐ¸ÐµÐ²Ðµ":9345,"ĠÐ²Ð¾Ð·Ð²ÑĢÐ°ÑīÐ°ÐµÑĤÑģÑı":9346,"ĠÑĢÐ°Ð·Ð´ÐµÐ»Ð¸ÑĤÑĮ":9347,"ĠÐ²Ð¸Ð½ÑĤÐ¾Ð²":9348,"ĠÐ²Ð½Ð¸Ð·Ñĥ":9349,"ĠÑĤÑĳÐ¼Ð½ÑĭÑħ":9350,"ĠÐ»ÑĥÐºÐ°Ð²ÑĭÐ¹":9351,"ĠÐ±Ð»ÐµÑģÐºÐ¾Ð¼":9352,"ĠÐ¿ÑĢÐ¾Ð´Ð¾Ð»Ð¶Ð°ÐµÑĤ":9353,"ĠÐ¿ÑĥÑĩÐ¸Ð½Ñĥ":9354,"ĠÑĤÐµÐºÐ»Ð¸":9355,"ĠÐ¼Ð¾Ð»ÑĮÐ±":9356,"ÐĶÐ¾Ð±ÑĭÑĩÑĥ":9357,"Ð²ÐµÑĢÑħÑĥ":9358,"ÐŀÐ±ÑĬÑıÑĤ":9359,"ĠÐŁÑĢÐ¸ÑĢÐ¾Ð´Ð°":9360,"ĠÐ³ÑĥÐ±ÐµÑĢÐ½Ð°ÑĤÐ¾ÑĢ":9361,"ĠÑģÑĥÑħÐ¾Ð¹":9362,"ĠÐ¿Ð»Ð°ÑĩÐµÑĤ":9363,"ĠÐ¿ÑĢÐµÑģÑĤÐ¾Ð»Ðµ":9364,"ĠÐ±Ð¾Ð³Ð¾Ð¼Ð¾Ð»":9365,"ĠÐ¿ÑĢÐ¾ÑģÑĤÑĢÐ°Ð½ÑģÑĤÐ²Ðµ":9366,"ĠÐķÑĢÐ¼Ð¸Ð»Ñĥ":9367,"ĠÑģÑĥÑīÐµÑģÑĤÐ²Ð¾":9368,"ĠÐ²Ð¾Ð»Ð¾ÑģÑĭ":9369,"ÐŀÐ±ÑĪÐ¸ÑĢÐ½ÑĭÐ¹":9370,"ĠÐ¾Ð³ÑĢÐ¾Ð¼Ð½ÑĭÐ¹":9371,"ĠÐĳÐ¾Ð¶ÑĮÐµÐ³Ð¾":9372,"ĠÑģÐ°Ð¿Ð¾Ð¶":9373,"ĠÐ´ÐµÐ½ÐµÐ³":9374,"ĠÐ¼Ð¾Ð´Ð½ÑĭÑħ":9375,"ÐĴÑģÑĤÐ°Ð½ÑĮ":9376,"ÐĹÐ°ÑĢÐµÑĨÐºÐ¸Ð¹":9377,"Ð£Ð»ÑĭÐ±ÐºÐ°":9378,"ĠÐ¾Ð±Ð¾Ð¸Ñħ":9379,"ĠÐ¿Ð»Ð°ÑĤÐ¾Ðº":9380,"ĠÐĴÑģÐµÐ¼Ð¾Ð³ÑĥÑī":9381,"ĠÐĴÑģÐµÐ¼Ð¾Ð³ÑĥÑīÐ¸Ð¹":9382,"ĠÐ³Ð»ÑıÐ¶Ñĥ":9383,"Ð§ÐµÑĤÑĭÑĢÐµ":9384,"ĠÐ²ÐºÑĥÑĪÐ°ÑĤÑĮ":9385,"ĠÐ¿Ð»Ð¾ÑīÐ°Ð´ÑĮ":9386,"ĠÐ´Ð¾Ð·Ð²Ð¾Ð»":9387,"Ð°Ð²ÑĪÐ¸ÑħÑģÑı":9388,"ĠÐµÑħÐ°ÑĤÑĮ":9389,"ÐĶÐµÑĤÐµÐ¹":9390,"ÐŁÑĢÐ¾Ð¿Ð°Ð»Ð¸":9391,"ÐĳÐµÐ»ÐºÐ°":9392,"ĠÐ²Ð¾Ð·ÑĮÐ¼ÐµÑĤ":9393,"ĠÐ¯ÐºÐ¾Ð²Ð°":9394,"ĠÑħÐ²Ð¾ÑģÑĤÐ¾Ð¼":9395,"Ð¡ÑĭÐ½Ð¾Ð²":9396,"Ð¡ÑĥÑĢÐ¾Ð²Ð¾":9397,"ĠÐ½Ð°ÑģÑĤÑĥÐ¿Ð¸Ð»":9398,"ĠÑĥÐ²ÐµÑĢÐµÐ½":9399,"Ð£Ð³ÑĢÐ¾Ð·":9400,"ĠÐĴÐ»Ð°Ð´Ð¸Ð¼Ð¸ÑĢ":9401,"ĠÐĴÐ¾Ð¶Ð´Ñİ":9402,"ĠÐ±ÐµÑģÐºÐ¾Ð½ÐµÑĩ":9403,"ĠÐ¿ÐµÑħÐ¾ÑĤÐµ":9404,"ÐļÐ½ÑıÐ¶Ð½Ð°":9405,"ÐłÐµÐ±ÑıÑĤÐ°":9406,"Ð¡Ð¿ÑĢÐ¾ÑģÐ¸Ð»":9407,"ĠÑĤÐ²Ð°ÑĢÑıÐ¼Ð¸":9408,"ĠÐ´Ð¾ÐºÐ°Ð·Ð°ÑĤÑĮ":9409,"ĠÑģÑĥÐ»Ð¸ÑĤ":9410,"ĠÐ»ÐµÐ²ÑĭÐ¹":9411,"ĠÑģÐºÑĢÑĭÐ»ÑģÑı":9412,"ĠÑĤÑĢÐµÐ±ÑĥÐµÑĤ":9413,"ÐĳÐµÐ·Ð¼Ð¾Ð»Ð²Ð½Ð¾":9414,"ĠÐ¾ÑģÑĤÐ°Ð»ÑĮÐ½Ð¾Ðµ":9415,"ĠÐ¾ÑģÑĤÐ¾ÑĢÐ¾Ð¶Ð½Ð¾":9416,"ĠÑĤÐµÐ½ÐµÐ¹":9417,"ĠÑĩÐ¸ÑģÐ»Ðµ":9418,"ÐļÑĢÑĭÐ»Ð°ÑĤ":9419,"ĠÐĴÑģÐµÐ²ÑĭÑĪÐ½ÐµÐ³Ð¾":9420,"ĠÑĤÐ¾ÑģÐºÑĥÐµÑĤ":9421,"ĠÐ¾ÐºÐ¾ÑĪÐºÐ¾":9422,"ĠÐ·Ð°Ð·Ð²":9423,"Ð¡Ð¾Ð¿ÐµÑĢ":9424,"ĠÐ¶ÐµÐ¼ÑĩÑĥÐ³":9425,"ĠÐ³Ð½ÐµÐ·Ð´":9426,"Ð¢ÑĢÐµÐ²Ð¾Ð¶":9427,"ĠÑĢÐ°Ð·Ð»ÑĥÐºÐ¸":9428,"ĠÐ´Ð¾Ð±ÑĢÐ¾Ð´ÐµÑĤÐµÐ»ÑĮ":9429,"ĠÑĢÐ¾ÑģÐºÐ¾ÑĪÐ¸":9430,"ĠÐ¼Ð¾Ð½Ð°ÑģÑĤÑĭÑĢÑĮ":9431,"ĠÐ½Ð¾ÑĪÑĥ":9432,"ĠÐºÐ»Ð¾Ð½Ð¸ÑĤ":9433,"ĠÑĢÐµÑģÐ½Ð¸ÑĨÑĭ":9434,"Ð¢Ð°ÑĤÑĮÑıÐ½Ñĥ":9435,"ĠÐ±ÑĭÑĤÐ¸Ñı":9436,"ĠÐ·Ð°ÑīÐ¸ÑĤ":9437,"ĠÑģÑĥÑĢÐ¾Ð²Ð¾Ð¹":9438,"ĠÐ³ÑĢÐ°ÑĦ":9439,"ÐĲÐ»ÐµÐºÐ¾":9440,"ĠÐĴÐ¿ÐµÑĢÐµÐ´":9441,"ĠÐ±Ð»ÑİÐ´Ñı":9442,"ÑģÐ°Ð½Ð´ÑĢÐ¾Ð²":9443,"ĠÐ¾ÑĤÑĭÑģÐºÐ°ÑĤÑĮ":9444,"ĠÐĴÐ°Ð½ÑĮÐºÐ°":9445,"ĠÐ²Ð¾Ð·Ð³Ð»Ð°ÑģÐ¸Ð»":9446,"ĠÐĶÐ¾Ð½Ñĥ":9447,"ÐĶÑĥÑĢÐ°Ñĩ":9448,"ĠÐĿÐµÑĢÑĩÐ¸Ð½":9449,"ĠÑįÐ¿Ð¸Ð³":9450,"ĠÐĳÑĥÑıÐ½Ð°":9451,"ĠÐºÐ»Ð°Ð´Ð±Ð¸ÑīÐµ":9452,"ĠÐ´Ð½ÐµÐ²Ð½Ð¾Ð¹":9453,"ĠÐ½ÐµÑģÑĤÐµÑĢÐ¿":9454,"ĠÐ¶Ð°Ð¶Ð´Ð°":9455,"ĠÐ¶Ð¸Ð»ÑĮÑĳ":9456,"ĠÑĥÑĢÐ¾Ð¶Ð°Ð¹":9457,"ÐŁÑĢÐ¸ÐµÑħÐ°Ð»":9458,"ĠÐ¿Ð¾Ð´ÐºÑĢÐµÐ¿":9459,"ĠÐºÑĢÐ°ÑģÐ½Ð¾ÑĢÐµÑĩ":9460,"ĠÐ¼ÑĢÐ°Ð¼Ð¾ÑĢ":9461,"ĠÐ»Ð¾ÑĢÐ½ÐµÑĤ":9462,"ÐĶÐµÐ¼ÑĮÑıÐ½":9463,"ĠÑģÐ»Ð°ÑīÐµ":9464,"ĠÐ¸Ð·ÑĢÐµÐ´ÐºÐ°":9465,"ĠÐ°Ð´Ð°Ð¼Ð°Ð½ÑĤ":9466,"ĠÐŁÑĢÐµÐ¸ÑģÐ¿Ð¾Ð´Ð½ÐµÐ¹":9467,"ÐĵÑĢÐ¸Ð³Ð¾ÑĢÐ¸Ð¹":9468,"ie":9469,"il":9470,"on":9471,"«ÐĻ":9472,"Ð«ÐĻ":9473,"Ð¾ÐµÑĤ":9474,"Ð°ÑĳÑĤ":9475,"ÑĤÐµÐ¹":9476,"ÑĤÐ°Ð»Ð¸":9477,"ÑĤÑĢÐ¸":9478,"Ð¸Ð¾Ð½Ñĭ":9479,"ÑģÑĭ":9480,"ÑģÑĥÐ¶Ð´":9481,"ÑĢÐº":9482,"ÑĢÐ°Ð±":9483,"ÑĢÐ¸Ð³":9484,"ÑĢÐµÐ½Ð°":9485,"ÑĢÐµÑĩÑĮ":9486,"ÑĢÐµÐ¶Ð´":9487,"Ð½Ð°Ð½Ð¸Ñı":9488,"Ð»ÐµÑĢ":9489,"Ð»Ð°Ð»Ð¸":9490,"Ð»Ð¾Ñİ":9491,"Ð»Ð°Ð¼Ð¸":9492,"Ð»ÐµÐ»Ð¸":9493,"Ð»ÐµÑģÐº":9494,"ÑĥÑģÐ¿":9495,"ÑıÑıÑģÑĮ":9496,"ĠÑģÐ¸Ð¼":9497,"ĠÑģÑĢÐ°Ð²":9498,"ĠÑģÐµÑĢÑĮ":9499,"ĠÑģÑĥÐ´Ð°":9500,"ĠÑģÐ¾ÑĤÑĢ":9501,"ĠÐ¿Ð½Ð¸":9502,"ĠÐ¿ÐµÑģÑĤ":9503,"ĠÐ¿ÐµÐ¿":9504,"ĠÐ¿ÐµÐ»ÐµÐ½":9505,"ĠÐ²Ð»Ð¸":9506,"ĠÐ²ÐµÐ»Ð°":9507,"ĠÐ²ÐµÑģÑĤÐ¸":9508,"Ð²Ð¾ÑĤ":9509,"Ð²Ð¾ÑģÑĤ":9510,"Ð²ÐµÑī":9511,"Ð²Ð¸Ð½Ð°":9512,"Ð´ÐµÑĪÑĮ":9513,"Ð´Ð¸Ñģ":9514,"ĠÐ½Ð¾Ð·Ð´":9515,"ÑĩÐ°Ð»":9516,"ÑĩÐ°Ð²":9517,"ÑĩÐµÐ³":9518,"Ð¼Ð¾Ð¼":9519,"Ð¼Ð¾Ð³":9520,"Ð¼Ð°ÑĢ":9521,"Ð¼Ð°Ñĩ":9522,"Ð¼ÑĭÐº":9523,"ÑħÐ²":9524,"ÐµÐ½Ð¾Ñİ":9525,"ÐµÐ½Ð½Ð¾Ñİ":9526,"ÐµÐ½ÑģÑĤÐ²Ð¾":9527,"ĠÑĤÐº":9528,"ĠÑĤÑĥÐ»":9529,"ÐµÑĤÐ½ÑĭÐ¹":9530,"Ð°Ð»Ð¸Ð»":9531,"ĠÐ´Ð°Ð»Ð°":9532,"ĠÐ´Ð°ÑİÑĤ":9533,"ĠÐ´ÑİÐ¶":9534,"ĠÐ¸Ð³":9535,"ĠÐ¸Ð½ÑĭÐ¼":9536,"ĠÐ¸ÑīÐ°":9537,"Ð¾Ð²Ð°Ð½":9538,"Ð¾Ð²Ð°Ð½ÑĮÐµ":9539,"ĠÐ±Ð¸Ð»":9540,"ĠÐ±ÑĥÐ¼":9541,"ĠÐ±ÐµÐ»Ð°":9542,"ĠÐ±ÐµÑģÑĤÐ¾Ð»":9543,"ĠÐ±ÑĮÑİÑĤ":9544,"ĠÐ¼Ñī":9545,"ĠÐ¼ÑĥÑħ":9546,"ĠÐ¼ÑĥÐºÑĥ":9547,"ĠÐ¼ÑĥÐºÐ¾Ð¹":9548,"ÐµÑĢÐ¸ÑĤÑĮ":9549,"ÐµÑĢÐ°ÑĢÑħ":9550,"Ð¾ÑĢÑıÐ´":9551,"Ð¾ÑĢÐ¾Ð²Ð°":9552,"ÐµÐ»Ð°Ð²":9553,"Ð¸ÑĤÐ°Ð½":9554,"Ð¸ÑĤÐµÑĢÐ°":9555,"Ð¾Ð´Ð¸ÑĤÐµ":9556,"Ð¾Ð¼ÑĭÑħ":9557,"Ð¸Ð»ÑĭÐ¹":9558,"ÐĿÐµÑĩ":9559,"ÐĺÐ´ÐµÐ¼":9560,"ÐµÐ¼Ð½Ð¾Ð¹":9561,"ÐµÐ¼ÑĭÐµ":9562,"ĠÑĢÐ°Ðº":9563,"ĠÑĢÐ¾Ð½":9564,"ĠÑĢÐ¸Ñģ":9565,"ĠÑĢÑĥÐ¼ÑıÐ½":9566,"ĠÐ³Ð½ÐµÑĤ":9567,"ĠÐ³Ð½ÑĳÑĤ":9568,"Ð°ÑĤÐ¼Ð¸ÑĢ":9569,"ĠÐ¿ÑĢÐµÑĢ":9570,"ĠÐ¿ÑĢÑıÑĤ":9571,"ĠÐ¿ÑĢÐµÐ½ÐµÐ±ÑĢ":9572,"ĠÐ¿ÑĢÐµÐ»ÑĮÑģÑĤ":9573,"ÐŁÐ°ÑħÐ¾Ð¼":9574,"ÐĴÐ»Ð¸":9575,"ÐĴÑĭÐ²":9576,"ÐĴÑĢÐ°Ñī":9577,"ÐĴÑģÑĤÐ°Ð»":9578,"ÐĴÐµÐ´ÐµÑĤ":9579,"ÐĴÐ½ÑĥÑĪ":9580,"Ð¾Ð³Ð°Ð¼Ð¸":9581,"Ð¡Ñħ":9582,"Ð¡ÐµÑĢ":9583,"Ð¡Ð¾Ñĩ":9584,"Ð¡Ð°Ð±":9585,"Ð¡ÑĥÐ¿":9586,"Ð¡Ð°Ð¼Ð¸":9587,"Ð¡ÑĥÑħ":9588,"Ð¡ÐµÑĢÐ³":9589,"Ð¡ÐµÐ¼ÑĮ":9590,"Ð¡Ð¾Ð¼Ðº":9591,"Ð¿Ð°":9592,"Ð¿Ð¾ÑģÑĤ":9593,"Ð¿Ð¸ÑĤÐµÑĢ":9594,"ÑĨÐ¸Ð¹":9595,"Ð¾ÑĤÐ¸":9596,"ĠÐ»Ð¾Ð´":9597,"ĠÐ»Ð°Ð¹":9598,"ĠÐ»Ð°ÑģÑĤ":9599,"ÐµÐ´Ð°ÐµÑĤ":9600,"Ð°Ð½Ð´Ð°":9601,"Ð°Ð½ÑĤÑĭ":9602,"ĠÐ½ÐµÑģÐ¿":9603,"ĠÐ½ÐµÑģÑĤÑĢÐ¾Ð¹":9604,"ÑīÐ¸":9605,"ĠÑĩÑĮÐ¸":9606,"ĠÑĩÐµÐ»Ðµ":9607,"ĠÑĩÐµÐ»Ð¾Ð¼":9608,"Ð°Ð´Ð°ÐµÑĤ":9609,"ÐµÑģÐ½ÑĭÐ¹":9610,"ÐµÑģÐ¿ÐµÑĢ":9611,"Ð°Ð·Ð°ÑĤÑĮ":9612,"Ð¸Ð½Ð´":9613,"Ð¾Ð½Ð¾Ðº":9614,"ÐļÐ»":9615,"ÐļÐ°Ñģ":9616,"ĠÑģÑĤÐ°ÑĤÑĮÑı":9617,"ĠÑģÑĤÐµÑģÐ½":9618,"ĠÐ½Ð°Ð¸Ð²":9619,"Ð¾Ð±Ð½ÑĭÐ¹":9620,"Ð¢ÑĢÐ°Ð²":9621,"Ð¢ÐĲÐ¯":9622,"Ð¾ÐºÐ¾Ð²":9623,"Ð¾ÐºÐ¾ÑĢ":9624,"Ð¾ÐºÑĥÑĢ":9625,"Ð¸Ð²Ð¾Ð³Ð¾":9626,"Ð¸Ð²ÑĪÐ¸Ð¼":9627,"ĠÐ¶Ð¸ÑĤ":9628,"ÑĥÑĤÐ¸":9629,"ÐµÐ²Ð¾Ð¶":9630,"ÐµÐ²ÑĪÐ¸ÑģÑĮ":9631,"Ð¾Ð·ÑĮ":9632,"ÑĳÐ²":9633,"Ð¸Ð¼Ð¾Ðµ":9634,"ÐµÑģÑĤÐ¸ÑĤÑĮ":9635,"ÐĶÐ¾Ð¿":9636,"ÐĶÐ¾ÑģÐ¿":9637,"ÐĶÐ½ÐµÐ¼":9638,"ÐĶÐµÐ¼Ð¾Ð½":9639,"Ð»Ð¸ÐºÐ¾Ð²":9640,"ĠÑĥÑĢ":9641,"ĠÑĥÐµÑħÐ°Ð»":9642,"ÐµÐ·ÑĥÑĤ":9643,"Ð¾ÑģÑĤÐ°Ð²":9644,"Ð¾ÑģÑĤÐ½ÑĭÑħ":9645,"Ð¾ÑĩÐ½Ð¸Ðº":9646,"Ð¾ÑĩÐºÐ°Ð¼":9647,"ÐµÐ³Ð°Ð»":9648,"ÐµÐ³Ð°ÐµÑĤ":9649,"ĠÑıÐ¹":9650,"ÐµÑĩÐ°":9651,"ÐµÑĩÐ¸":9652,"ÑĥÐ¶Ð¶":9653,"ĠÑģÐ²Ð¸ÑĤ":9654,"ĠÐ¾ÑĤÐ»Ð¸Ð²":9655,"ĠÐ¾ÑĤÑĢÐµÐº":9656,"ÐŁÑĢÐ¸Ð»":9657,"Ð§ÑĮÑĳ":9658,"ÐµÐºÑĥÑĤ":9659,"Ð°ÑıÐ½ÑĮÐµÐ¼":9660,"ĠÑħÐ°ÑĢ":9661,"ĠÑħÐ¸Ñī":9662,"ĠÑħÐ¸Ð¶":9663,"Ð»ÑıÑģÑĮ":9664,"Ð»ÑıÑıÑģÑĮ":9665,"ÐľÐ°Ñħ":9666,"ÐľÐµÑģÑı":9667,"ÐĳÑĮÐµÑĤÑģÑı":9668,"ÐĹÐ°Ð¹":9669,"ÐĹÑĥÐ±":9670,"ÐĹÐ²ÐµÑĢ":9671,"Ð°Ð¶ÑĮ":9672,"ÐĿÐµÐ¸Ñģ":9673,"ĠÐ²ÑģÐµÐ»ÐµÐ½":9674,"ĠÐ²ÑģÐ»ÑĥÑħ":9675,"ÐĲÐ½":9676,"ÐµÐ¿ÑĢÐ¸Ð¸Ð¼":9677,"ĠÐ¾Ð±Ðµ":9678,"ĠÐ¾Ð±Ð¾Ð½":9679,"ĠÐ¾Ð±Ð¸Ð¶":9680,"ĠÐ¾Ð±ÑīÐ¸Ð¹":9681,"ĠÐ¾Ð±Ð½ÑıÐ»Ð°":9682,"ĠÐ¾Ð±ÐµÑĤÐ¾Ð²":9683,"Ð¸ÐºÐ¾":9684,"Ð°Ð¹Ð½Ðµ":9685,"Ð¾Ð¿Ð¸Ð»":9686,"ÑģÑĤÐ²Ð¸Ð¸":9687,"ÑģÑĤÐ²ÐµÐ½Ð½ÑĭÑħ":9688,"ÐĵÐ¾Ð»":9689,"ÐĵÐ°ÑĢ":9690,"ÐĵÑĢÐ°Ð´":9691,"ÐĵÐ¾Ð»Ð¾Ñģ":9692,"ÐĵÐ°Ð²ÑĢ":9693,"ÐĵÐ»ÑıÐ¶Ñĥ":9694,"ÐµÐ»ÑĮÑĨÐ°":9695,"ĠÐ³ÑĢÐµÐ·Ñĭ":9696,"ÑĥÐ¼Ð¾Ð»":9697,"ÑĥÐ¼ÐµÐ½ÑĤ":9698,"ĠÐ¿Ð¾Ð´Ð°Ð»":9699,"ĠÐ¿Ð¾Ð´Ð³":9700,"ĠÐ¿Ð¾Ð´ÑĢÑĥÐ¶":9701,"ĠÐ¿Ð¾Ð´ÑĢÐ°Ð¶":9702,"ĠÐ¿Ð¾Ð´ÑĮÑıÑĩ":9703,"ÑĥÑĩÐµÐ¼":9704,"ÑĥÑĩÐ°ÑĤÑĮ":9705,"ĠÐ²ÑĭÐ½":9706,"ĠÑĪÐº":9707,"ĠÑĪÐµÑģÑĤÑĮ":9708,"ĠÑĪÐ»ÑİÑĤ":9709,"ĠÐ¡Ð¾Ð²":9710,"ĠÐ¡Ð²Ð¾Ð¹":9711,"ĠÐ¡ÑĥÐ´ÑĮÐ±":9712,"ĠÐ¸Ð·Ð¾Ð±":9713,"ĠÐ¸Ð·ÑĢÑĳÐº":9714,"ĠÐĿÐ°Ñĩ":9715,"ĠÑģÐºÐ°Ð¼":9716,"ĠÑģÐºÑĥÐºÐ¸":9717,"Ð¸ÑĪÐµ":9718,"Ð¸ÑĪÐ¸Ð½Ð°":9719,"ĠÐ¿Ð¾Ð»ÑĥÑĩ":9720,"ĠÐ¿Ð¾Ð»Ð½Ð¾Ðµ":9721,"ĠÐ¿Ð¾Ð»ÑĥÐº":9722,"ĠÐ¿Ð¾Ð»ÐµÐ²Ð¾Ð¹":9723,"Ð½ÑıÐº":9724,"Ð½ÑıÑħ":9725,"ÐłÐµÐº":9726,"ÐłÑĥÐº":9727,"ÐłÐ²Ð°Ð½":9728,"ÐļÐ°ÐºÐ¸Ñħ":9729,"ÑĭÑħÐ°ÑĤÑĮ":9730,"ÑĭÑħÐ°Ð»Ð¸":9731,"ĠÐĴÐ°ÑĢ":9732,"ĠÐĴÐ°Ð²Ð¸Ð»":9733,"ĠÐĴÐ»Ð°ÑģÑĤ":9734,"ĠÐĴÐ»Ð°ÑģÑĤÐ¸":9735,"Ð¸Ð»Ð¸ÑīÐ°":9736,"Ð°Ð¿ÐµÐ·":9737,"Ð´ÐµÑĨ":9738,"Ð´ÐµÑģÑıÑĤ":9739,"Ð¸ÑĩÑĥ":9740,"ĠÐ¢ÐµÐ¼":9741,"ĠÐ¢Ð¾Ð³Ð¾":9742,"ĠÐ¢Ð¾Ð¼Ñĥ":9743,"ĠÐ¢ÐµÐ¿ÐµÑĢÑĮ":9744,"ĠÐ¢ÑĢÐ¸":9745,"ĠÐ·Ð°ÑĥÑĤ":9746,"ÐĽÑĥ":9747,"ÐĽÑĥÐºÐ°":9748,"ÐĽÐ°Ð´Ð½Ð¾":9749,"ÐŀÑĤÑĢÑıÐ´":9750,"ĠÐ³Ð¾ÑĢÐ»Ð¾":9751,"ĠÐ³Ð¾ÑĢÐ¾Ñħ":9752,"ĠÐ³Ð¾ÑĢÐ°Ð·Ð´Ð¾":9753,"ĠÑģÐ¼ÐµÐ¶":9754,"ĠÑģÐ¼Ð¾ÑĤÑĢÐ¸":9755,"ĠÑģÐ¿ÑıÑĤ":9756,"ĠÑģÐ¿Ð¸Ð½Ðµ":9757,"ĠÑģÐ¿ÑĢÑĭÐ³":9758,"ĠÑģÐ¿Ð°ÑģÑĤÐ¸ÑģÑĮ":9759,"ĠÑģÐ¿Ð¾Ð»Ð½Ð°":9760,"ĠÐŁÐ°Ð»":9761,"ÐµÑħÐ°ÑĤÑĮ":9762,"ÐµÑħÐ°Ð»Ð°":9763,"ÐµÑħÐ¾Ð½ÑĮÐºÐ¾":9764,"ĠÐ»Ð¸Ñģ":9765,"ĠÐ±ÐµÐ·Ð¾Ð±ÑĢÐ°Ð·":9766,"ĠÐ±ÐµÐ·ÑĥÐ¿ÑĢ":9767,"ĠÐ±ÐµÐ·Ð¾Ð¿Ð°Ñģ":9768,"ĠÐ±ÐµÐ·Ð³ÑĢÐµÑĪ":9769,"!Â»,":9770,"ĠÑĨÑĭÐ³":9771,"ĠÑĤÐ°ÐºÐ¾Ð²Ð°":9772,"ÑĥÑİÑģÑĮ":9773,"ÑĥÑİÑīÐ¸Ñħ":9774,"ĠÐ²Ð·Ð´Ñĥ":9775,"ÐĴÑģÐµÐ»ÐµÐ½":9776,"ÐĴÑģÑĶ":9777,"ÐĴÑģÐµÐ»ÐµÐ½Ð½Ð¾Ð¹":9778,"ÑĥÑģÑĤÐ¸ÑĤÑĮ":9779,"ĠÐ¿ÐµÑĢÐ¾":9780,"ĠÐ¿ÐµÑĢÐµÐ³":9781,"ĠÐ¿Ð»Ñİ":9782,"ĠÐ¿Ð»Ð¸ÑĤ":9783,"ĠÐ¿Ð»Ð°Ð²":9784,"Ð½ÐµÐ¹ÑĪÐµÐ¹":9785,"Ð½ÐµÐ¹ÑĪÑĥÑİ":9786,"Ð½ÐµÐ¹ÑĪÐµÐµ":9787,"ĠÐ¼Ð¾Ð»Ð¸ÑĤÑĮÑģÑı":9788,"ĠÐ¾Ð´ÐµÐ¶":9789,"ĠÐ¾Ð´Ð½Ð¸Ñħ":9790,"ĠÐ°Ð½":9791,"ĠÐ°Ðº":9792,"ĠÐĲÐ¼":9793,"ĠÑģÑĤÑĢÐµÐ»Ð°":9794,"ĠÐ¿ÑĢÐ¸ÑģÐº":9795,"ĠÐ±Ð»ÑĥÐ´":9796,"ĠÐ±Ð»ÑĥÐ¶Ð´":9797,"ĠÐ±Ð»ÐµÑīÐµÑĤ":9798,"ĠÐ±Ð»Ð°Ð¶ÐµÐ½Ð½ÑĭÐ¹":9799,"ĠÐ¼Ð¾Ñħ":9800,"ĠÐ¼Ð¾ÐµÑİ":9801,"ĠÐ±ÑĢÐ¾Ð²ÑĮ":9802,"ĠÐ±ÑĢÐ°Ð½ÑĮ":9803,"ĠÐ±ÑĢÑĭÐ·":9804,"Ð¸ÑģÑĤÐ°Ñı":9805,"Ð¸ÑģÑĤÑĥÑİ":9806,"ĠÐĶÑĥ":9807,"ĠÐĵÑĢÐ°Ð½":9808,"Ð¡ÑĤÐ°Ð»Ð¸":9809,"ĠÐ¿Ð¾ÐºÑĢÑĭÐ²":9810,"ĠÐľÐ¾ÑĢ":9811,"ÐŁÐ¾Ð´ÑĢÑĥÐ³":9812,"ÐŁÐ¾Ð´ÑħÐ¾Ð´Ð¸ÑĤ":9813,"ĠÐļÐ¾Ð¼Ñĥ":9814,"Ð¾Ð±ÑĢÐµÑĤ":9815,"ĠÐ½Ð°ÑĪÐµÐ»":9816,"Ð²Ð°Ð½Ñĭ":9817,"ĠÐ½Ð¸ÑīÐ¸Ðµ":9818,"ĠÑģÑĤÐ°ÑĢÐ¸Ð½Ñĥ":9819,"ĠÑģÑĤÐ°ÑĢÐ¾ÑģÑĤÐ¸":9820,"ĠÑģÑĤÐ°ÑĢÐ¾ÑģÑĤÑĮ":9821,"ĠÑģÑĤÐ°ÑĢÑĥÑĪÐºÐ°":9822,"ĠÐ¿Ð¾ÑĢÐ¾Ñģ":9823,"Ð¾ÑħÐ°":9824,"Ð¢Ð°ÐºÐ¸Ð¼":9825,"ĠÐ²ÑĢÑıÐ´":9826,"ĠÐ²ÑĢÐ¾Ð·ÑĮ":9827,"ÑĥÑīÐµÐµ":9828,"ĠÑĢÐ°ÑģÑģÑĤÑĥÐ¿":9829,"ÐµÐ½ÑıÐ¼":9830,"ĠÐ´Ð¾Ð»Ð¸":9831,"ÑĦÑĭ":9832,"ÑĦÑĢÐ°Ð½ÑĨÑĥÐ·":9833,"ĠÐ²Ð¸Ð´Ñĭ":9834,"ĠÐ²Ð¸Ð´ÐµÐ½":9835,"ĠÐ²Ð¸Ð´Ð½Ñĭ":9836,"ĠÐ¿ÑĢÐµÐ´Ð²Ð¸Ð´":9837,"ĠÐ¿ÑĢÐµÐ´Ð½Ð°Ð·":9838,"ÐµÐ»Ð°ÐµÑĪÑĮ":9839,"ÐµÐ½ÑĮÑıÐ¼Ð¸":9840,"ĠÐ²Ð¾Ð»Ðº":9841,"ĠÐ²Ð¾Ð»Ð½Ð¾Ð²":9842,"Ð¸ÑĤÐµÐ»ÑĮÐ½ÐµÐ¹":9843,"Ð¸ÑĤÐµÐ»ÑĮÐ½Ð¾Ð³Ð¾":9844,"Ð¸ÑĤÐµÐ»ÑĮÐ½Ð¾ÑģÑĤÑĮ":9845,"Ð¥Ð²Ð°ÑĤ":9846,"ĠÑģÐ°Ð¼Ð¸Ñħ":9847,"ĠÑģÐ°Ð¼ÑĭÐ¼":9848,"ĠÑĢÐ¾Ð´Ð¸Ð»ÑģÑı":9849,"ĠÑĥÐ¼Ð½Ð¾Ð¶":9850,"ĠÐłÐ¾Ð´":9851,"ĠÑģÐ²ÐµÑĤÐ¸Ð»Ð°":9852,"ĠÑģÐ²ÐµÑĤÐ¸Ð»Ð¾":9853,"ĠÐķÐ´":9854,"ĠÐķÐ²Ðµ":9855,"ĠÐ¼Ð¸ÑĢÐ¸":9856,"ĠÐ¼Ð¸ÑĢÑĭ":9857,"ĠÐ¼Ð¸ÑĢÐ½Ð¾":9858,"ĠÐ¼Ð¸ÑĢÐ½Ð¾Ð¹":9859,"ĠÐ¼Ð¸ÑĢÐ¾Ð·Ð´":9860,"ĠÐ½ÐµÐ¼Ð½Ð¾Ð³":9861,"ĠÐ¾Ð¿Ð¾ÑĢ":9862,"ĠÐ¾Ð¿ÑĥÑĤ":9863,"ĠÐ½Ð¾ÑĩÐ½ÑĭÑħ":9864,"Ð¸ÑģÐ°ÑĤÑĮ":9865,"ĠÐ·Ð²ÐµÐ½":9866,"ĠÐ·Ð²ÐµÐ½Ð¸ÑĤ":9867,"Ð¡ÐºÐ¸ÑĤ":9868,"ĠÑģÐ¸Ð»Ð°Ð¼":9869,"ĠÐ·ÐµÐ¼Ð½ÑĭÐµ":9870,"ĠÐ¸Ð¼ÐµÐµÑĤ":9871,"ĠÐ¸Ð¼Ð¿ÐµÑĢ":9872,"Ð¾Ð·Ð´Ð°Ð»":9873,"ÑģÐ¿Ð¾ÑĢ":9874,"ĠÑģÐ»Ð¾Ð²Ðµ":9875,"ĠÑĥÑĤÑĳÑģ":9876,"Ð»ÐµÐ½Ð¾":9877,"ĠÐ²Ð´Ð¾Ð²Ð°":9878,"ĠÐ¿Ð¾Ð²ÐµÑĢÑĮ":9879,"ĠÐ¿Ð¾Ð²Ð¸Ñģ":9880,"ĠÐ¿Ð¾Ð²ÑģÑİÐ´Ñĥ":9881,"ĠÐĺÑħ":9882,"ĠÐĺÐ´Ð¸":9883,"ÐµÐ»Ð¾ÑģÑı":9884,"ĠÐ¿ÑĢÐ°Ð²Ð¸ÑĤÑĮ":9885,"ÐŀÐ±Ñī":9886,"ÐŀÐ±Ð¾Ð·":9887,"ĠÐ¼ÑĥÐ¶Ñĥ":9888,"ĠÐ»ÐµÑĤÐµÐ»Ð°":9889,"ĠÐ±Ð»Ð°Ð³Ð¾ÑģÑĤÑĮ":9890,"ĠÐ¾Ð³Ð¾ÑĢÐ¾Ð´":9891,"ÑĥÑģÐºÐ°":9892,"ÑĥÑģÐºÐ°ÐµÑĤ":9893,"ĠÐ±ÐµÐ´Ð½ÑĭÐµ":9894,"ĠÑĤÐ²Ð¾ÐµÐ¼":9895,"ĠÐ¶Ð¸Ð²ÐµÐ¹":9896,"ĠÐ±ÐµÑģÑĨ":9897,"ĠÐ¾ÑģÐ°Ð½":9898,"ĠÐ¾ÑģÐµÐ½Ð¸":9899,"ĠÐ¼Ð¾ÑĢÑģÐºÐ¾Ð¹":9900,"ĠÑĨÐ°ÑĢÐµÐ¼":9901,"ĠÑĨÐ°ÑĢÑģÑĤÐ²":9902,"ĠÑĨÐ°ÑĢÑģÐºÐ¸Ð¹":9903,"ĠÑĨÐ°ÑĢÑģÑĤÐ²Ð°":9904,"ĠÑĨÐ°ÑĢÐµÐ²Ð¸Ñĩ":9905,"ĠÑģÐ¾Ð±Ð°ÐºÐ°":9906,"ĠÐ·Ð°Ð±ÑĭÐ²":9907,"ĠÐ±Ð¾Ð»ÑĮÑĪÐ¸Ð¼":9908,"ĠÐ§ÐµÐ¼":9909,"ĠÐ§ÑĤÐ¾Ð±":9910,"ĠÑĥÐ´Ð²Ð¾":9911,"Ð¡Ð¿ÑĥÑģÑĤ":9912,"ĠÐ½Ð°ÑĢÑĳÐº":9913,"ĠÐºÑĢÐ°ÑģÐ°":9914,"ĠÐĽÐ°Ð²":9915,"ĠÐĽÐµÐ²":9916,"ĠÐ¿Ð¾Ð³Ð¾Ð½":9917,"ĠÐ¿Ð¾Ð³Ð»ÑıÐ´ÐµÐ»":9918,"Ð¾ÑĤÑĮÑģÑı":9919,"ĠÐ¿ÐµÑģÐ½Ðµ":9920,"ĠÑģÐ¾Ð¾Ð±ÑĢÐ°Ð·":9921,"ĠÐ¿ÑĢÐ¾ÑıÐ²":9922,"ĠÐ¿Ð¾ÑģÐ¼":9923,"ĠÐ¿Ð¾ÑģÑĢÐ°Ð¼":9924,"ĠÐ½ÐµÐ²Ð¾Ð´":9925,"ĠÐ½ÐµÐ²Ð¾Ð·Ð²":9926,"ÑĪÐ¸Ð¹ÑģÑı":9927,"ĠÐ´ÑĥÐ¼Ð°":9928,"ĠÐ´ÑĥÐ¼Ð°Ð¹":9929,"ĠÐ´ÑĥÐ¼Ð°ÐµÑĪÑĮ":9930,"ĠÐ²Ð¾Ð´Ð¾Ð¿":9931,"ĠÐ²Ð¾Ð´ÐºÑĥ":9932,"ĠÐ½ÐµÐ´Ð°Ð²":9933,"ĠÐ½ÐµÐ´Ð¾Ð±ÑĢ":9934,"ĠÐ½ÐµÐ´Ð¾Ð»Ð³Ð¾":9935,"Ð¡Ð¼ÑĥÑī":9936,"ĠÐŁÑĢÐ°Ð¼Ð°ÑĤÐµÑĢÑĮ":9937,"ĠÑģÐ½ÐµÑģÑĤÐ¸":9938,"ĠÐ¿Ð¾Ð¿ÑĭÑĤ":9939,"ÐŃÑĤÐ¸":9940,"ĠÐ¿ÑĢÐ¾ÑģÑĤÑĭÐµ":9941,"ĠÐ¿ÑĢÐ¾ÑģÑĤÑĳÑĢÑĤ":9942,"ĠÐ»ÑĮÑģÑĤ":9943,"ĠÐ»ÑĮÐµÑĤ":9944,"ĠÐ»ÑĮÐ´Ð¾Ð¼":9945,"ĠÑĢÐ°Ð´Ð¾ÑģÑĤÑĮÑİ":9946,"ĠÐ½Ð°Ð²Ð¾Ð´Ð¸ÑĤ":9947,"ĠÐ½Ð°Ð²ÐµÑĢÑħÑĥ":9948,"ĠÐ³Ð¾Ð²Ð¾ÑĢÑİ":9949,"ĠÑĥÐ¿Ð°Ð»Ð°":9950,"ĠÐ¿Ð¾ÑģÑĤÑĢ":9951,"Ð²Ð°Ð»Ð°ÑģÑĮ":9952,"Ð²Ð°Ð»Ð¾ÑģÑĮ":9953,"ĠÐ½Ð°Ð¿ÑĢÑıÐ³":9954,"ĠÐ¿ÑĢÐ¸Ð²ÑģÑĤÐ°Ð»":9955,"ĠÑĩÐµÑĢÐ½":9956,"ĠÑĩÐµÑĢÐ½Ð¾":9957,"ĠÑħÐ¾Ð»Ð¼Ðµ":9958,"ĠÐ¾Ð±ÑĢÑıÐ´":9959,"Ð¨Ð°ÑĤ":9960,"ĠÑģÑĩÐ°ÑģÑĤÑĮÐµÐ¼":9961,"ĠÐ²Ð·Ð¾ÑĢÑĥ":9962,"ĠÑĩÐ°ÑģÐ¾Ð¼":9963,"ĠÑĩÐ°ÑģÐ¾Ð²Ð¾Ð¹":9964,"ĠÐ¿Ð¾Ð±ÐµÐ¶Ð°Ð»Ð°":9965,"ĠÐ¿Ð¾ÑĩÐµÑĤ":9966,"ĠÐ½ÐµÐ±ÑĭÐ²Ð°Ð»":9967,"ĠÐ½ÐµÐ¿ÑĢÐ¸ÑıÑĤ":9968,"ĠÑĢÐ°Ð±Ð¾ÑĤÑĭ":9969,"ÐŁÑĢÐµÐ´ÑģÑĤ":9970,"ÐŁÑĢÐµÐ´Ð¿":9971,"ÐŁÑĢÐµÐ´ÑģÑĤÐ°Ð²":9972,"ĠÑģÑĤÑĢÐ°Ð½Ðµ":9973,"ĠÑģÑĤÑĢÐ°Ð½Ð½Ð¸ÐºÐ¾Ð²":9974,"ĠÑģÑĤÑĢÐ°Ð½Ð½Ð¸ÐºÐ°Ð¼":9975,"ĠÑģÑĭÐ³ÑĢ":9976,"ĠÑģÑĭÑģÐºÐ°ÑĤÑĮ":9977,"ĠÐ¿Ð°ÑĢÐ°":9978,"ĠÐĹÐµÐ¼ÑĦÐ¸ÑĢÐ°":9979,"ĠÑĥÐ·Ð¾ÑĢ":9980,"ĠÑĥÐ·ÑĢÐµÑĤÑĮ":9981,"ĠÑĦÑĢÐ°Ð½":9982,"ĠÑĦÐ¸Ð¼Ð¸":9983,"ĠÑĦÐ»Ð°Ð³":9984,"ĠÐ¸ÑģÐºÑĢÑĭ":9985,"ĠÐ¸ÑģÐºÐ»ÑİÑĩ":9986,"ĠÐ¸ÑģÐºÐ¾Ð½Ð¸":9987,"ĠÐ´ÐµÑĢÐµÐ²Ð½Ñı":9988,"ĠÐ´ÐµÑĢÐµÐ²ÑıÐ½":9989,"ĠÐ²ÐµÐ´ÐµÑĢ":9990,"ĠÑĥÐ±Ð¾ÑĢ":9991,"ĠÐ³Ð»ÑıÐ´Ð¸ÑĪÑĮ":9992,"ĠÐ¶ÐµÐ»Ð°Ð½ÑĮÑı":9993,"ĠÐ¶ÐµÐ»Ð°Ð½Ð¸Ð¹":9994,"ĠÐ¿ÐµÑĢÐ²Ð¾Ð³Ð¾":9995,"ĠÐ¿ÐµÑĢÐ²ÑĥÑİ":9996,"ĠÑģÐ»ÐµÐ·Ð°":9997,"ĠÑģÐ»ÐµÐ·Ð¾Ð¹":9998,"ĠÐ½Ð¾Ð³Ð°Ñħ":9999,"ĠÐ½Ð°ÑĩÐ°ÑĤÑĮ":10000,"ĠÐ£Ð²Ñĭ":10001,"ĠÐ´ÐµÑĤÑģÑĤÐ²Ð¾":10002,"ĠÐ¸ÑģÐ¿Ð¾Ð´":10003,"ĠÐ³ÑĢÐ¾Ð·Ð¸ÑĤ":10004,"ĠÑģÑĤÑĢÐ°ÑĪÐ½Ð°Ñı":10005,"ĠÑģÑĤÑĢÐ°ÑĪÐ½Ð¾Ð³Ð¾":10006,"ÑĥÐ½Ð´":10007,"ĠÐ·Ð¾Ð»Ð¾ÑĤÐ°":10008,"ĠÐ·Ð¾Ð»Ð¾ÑĤÑĭÐ¼":10009,"ĠÐ·Ð¾Ð»Ð¾ÑĤÑĥÑİ":10010,"ĠÐ³Ð»ÑĥÐ±Ð¸Ð½":10011,"ĠÐ¿Ð¾Ð½ÑıÐ»Ð¸":10012,"ĠÐ¥Ð¾ÑĤÑĮ":10013,"ÑĢÐµÐ½Ð¸Ðµ":10014,"ÑĢÐµÐ½Ð½ÐµÐ¹":10015,"ÑĢÐµÐ½Ð½Ð¸Ð¹":10016,"ÐĿÐµÑĤÐµÑĢÐ¿ÐµÐ»":10017,"ĠÐ´ÐµÐ»Ñĥ":10018,"ĠÐ´ÐµÐ»Ð°ÐµÑĤ":10019,"ĠÐºÑĢÑĥÐ³Ð¸":10020,"ĠÐºÑĢÑĥÐ³Ð»ÑĭÐ¹":10021,"ĠÐ±Ð¾Ð¸ÑĤÑģÑı":10022,"ĠÐºÑĢÐ¾Ð²Ð°ÑĤÐ¸":10023,"ĠÑģÐµÐ¼ÑĮÐµ":10024,"ĠÐºÐ°Ð¶Ð´Ð¾Ð¼":10025,"ĠÐºÐ°Ð¶Ð´Ð¾Ðµ":10026,"Ð°ÑĤÐµÐ»ÑĮÐ½Ð¾Ð¹":10027,"Ð°ÑĤÐµÐ»ÑĮÐ½ÑĭÑħ":10028,"ÐŁÐ¾Ð»Ñı":10029,"ÐŁÐ¾Ð»Ð·":10030,"ÐŁÐ¾Ð»ÐµÑĤÐµÐ»":10031,"Ð¦ÐµÐ¿":10032,"Ð¾Ð½ÑĮÐºÐ¸Ð¹":10033,"ÐĴÐ¾Ð·Ð»ÑİÐ±":10034,"ĠÐ´Ð²Ð¾ÑĢÐµÑĨ":10035,"ĠÑĥÑģÑĤÐ°Ð¼":10036,"ĠÑĥÑģÐ¸Ð»ÑĮÑı":10037,"ĠÐ±Ð¾Ð¹ÑģÑı":10038,"ĠÐ±Ð¾Ð¹ÑĨÑĥ":10039,"ĠÑģÑĤÐ°Ð½ÐµÑĪÑĮ":10040,"ĠÐ·Ð°ÑĤÐ¸Ñħ":10041,"ÐĵÑĢÑĥÑģÑĤ":10042,"ĠÐ¾ÐºÐ¾Ð¿":10043,"ĠÐ³Ð¾ÑĢÐ´ÑĭÐ¼":10044,"ĠÐ´Ð¸Ð²Ð½Ð¾Ð¹":10045,"ĠÐ¼Ð°Ð»ÑĭÐ¼Ð¸":10046,"ĠÐ½ÐµÐ±ÐµÑģÐ°Ð¼":10047,"ĠÐ¾ÑĢÐµÐ»":10048,"ĠÐµÐ´Ñĭ":10049,"ĠÐµÐ´Ð¸Ð½Ð¾Ð¹":10050,"ĠÑģÐ»ÐµÐ´Ð¾Ð²":10051,"ĠÑģÐ»ÐµÐ´Ð¾Ð¼":10052,"ĠÑģÑĢÐµÐ´Ð¾ÑĤÐ¾Ñĩ":10053,"ĠÐ±ÐµÐ»ÑĭÑħ":10054,"Ð½ÑĥÑĤÑĭÑħ":10055,"ĠÐ´Ð¾ÑģÑĤÐ°ÑĤÐ¾ÑĩÐ½Ð¾":10056,"ĠÐ±Ð¾ÑĢÐ¾Ð´Ñĭ":10057,"ĠÐ¿ÑĥÑĤÑĳÐ¼":10058,"ĠÑģÑĤÐ¾Ð»Ð¸ÑĨÑĭ":10059,"ĠÐ¼Ð½Ð¸ÑĤÑģÑı":10060,"ĠÐ²Ð·Ð´ÑĭÐ¼":10061,"ÑİÑīÐ¸Ð¼":10062,"ÑİÑīÐ°Ñı":10063,"ĠÐ²Ð¾ÑģÐµÐ¼ÑĮ":10064,"ĠÐĿÐµÑĥÐ¶ÑĤÐ¾":10065,"ĠÐ±ÐµÑĢÐµÐ³Ð°Ñħ":10066,"ĠÐ½ÐµÐ¶Ð½ÑĭÐµ":10067,"ĠÐ½Ð°Ð³ÑĢÑĥÐ¶":10068,"ĠÑİÐ¶":10069,"ĠÐ¼ÐµÐ´Ð²ÐµÐ´ÑĮ":10070,"ĠÐĴÑģÐµÑģÐ»Ð°Ð²":10071,"ĠÐ¿ÑĢÐ¸Ð·Ð½Ð°":10072,"ĠÐ¿ÑĢÐµÐ¶Ð½Ð¸Ðµ":10073,"ĠÑģÑĥÐ´ÑĮÐ±Ð¾Ñİ":10074,"ĠÐ²Ð¾Ð¿Ð»ÑĮ":10075,"ĠÑģÐµÐ´ÑĮÐ¼":10076,"ĠÑģÐµÐ´Ð»Ð¾Ð¼":10077,"ĠÐ±ÑĢÐ°ÑĤÐ¸Ñı":10078,"ĠÐ±ÐµÐ³Ðµ":10079,"ĠÐ±ÐµÐ³Ð¾Ð¼":10080,"ĠÐ¿ÑĢÐ¸ÐºÐ¾Ñģ":10081,"ĠÐ¿ÑĢÐ¸ÐºÐ°Ð·Ð°Ð»":10082,"ĠÑĢÐ°ÑģÑģÐµÑıÐ½":10083,"ĠÑĢÐµÐºÑĢÑĥÑĤ":10084,"ĠÑĢÑıÐ´ÐºÐ¾Ð¼":10085,"ĠÑıÑĢÐ¾ÑģÑĤÐ¸":10086,"ĠÑĢÑĥÑģÑģÐºÐ¾Ðµ":10087,"ÐļÐ¾ÑĤÐ¾ÑĢÐ¾Ð¹":10088,"ĠÑģÐ»Ð°Ð´ÐºÐ¾Ð¹":10089,"ĠÑĢÐµÑĪÐ¸ÑĤ":10090,"ĠÑĢÐµÑĪÐµÐ½Ð¾":10091,"ÐŁÐ¾Ð²ÐµÑĢÑĮÑĤÐµ":10092,"ĠÐ²ÐµÑĩÐµÑĢÑĥ":10093,"Ð»ÐµÐºÐ»Ð°":10094,"ĠÑĤÐ°Ð¸Ð½ÑģÑĤÐ²ÐµÐ½":10095,"Ð¾ÑıÐ»Ð°":10096,"ĠÐ´Ð°Ð»ÑĮÐ½ÐµÐ¹":10097,"ĠÐ´Ð°Ð»ÑĮÐ½Ð¸Ð¹":10098,"ĠÐ±ÐµÐ·Ð´Ð½Ð¾Ð¹":10099,"ĠÐ±ÐµÐ·Ð´ÐµÐ¹ÑģÑĤÐ²":10100,"ĠÐ´Ð¾Ð»Ð³Ñĥ":10101,"Ð°ÐµÐ¼ÑģÑı":10102,"ĠÐ²Ð¾Ð·Ð´ÑĥÑħÑĥ":10103,"ĠÐ¼ÐµÑĢÑĥ":10104,"Ð¼ÐµÑģÑĤÐ½Ð¾":10105,"Ð¼ÐµÑģÑĤÐ¸ÑĤÑĮ":10106,"ĠÐ¸ÑģÑĤÐ¾Ð¼":10107,"ÐĿÐ°Ð¿ÑĢÐ°Ñģ":10108,"ĠÐ¿Ð¾ÑģÐ»ÐµÐ´Ð½Ð¸Ðµ":10109,"ĠÑĩÐ¸ÑģÑĤÑĭÐ¼":10110,"Ð¢ÑĢÑĥÐ±":10111,"ĠÐĴÑĢÐ°Ð³Ñĥ":10112,"ĠÐĴÑĢÐ°Ð³Ð¾Ð¼":10113,"ĠÐ¿ÐµÑĩÐ°Ð»ÑĮÐ½Ð°Ñı":10114,"ÐŁÐ¾Ð¼Ð°Ð»ÑĩÐ¸Ð²":10115,"ÐĿÐµÐ²Ð¸Ð´":10116,"ÐĿÐµÐ²ÑĭÐ½Ð¾Ñģ":10117,"ĠÑģÑĩÐ°ÑģÑĤÐ»Ð¸Ð²Ñĭ":10118,"ĠÐ¾ÑħÐ¾ÑĤÑĭ":10119,"ĠÐ±Ð¾Ð»ÑĮÑĪÐµÐµ":10120,"ĠÐ¿Ð°Ð´Ð°ÐµÑĤ":10121,"ĠÐ¶Ð°Ð»ÐµÑĤÑĮ":10122,"ĠÑĤÐ¾Ð»Ð¿Ñĥ":10123,"ĠÑĤÐ¾Ð»Ð¿Ñĭ":10124,"ĠÐ¶Ð°ÑĢÐºÐ¾":10125,"ĠÐ¿ÑĢÐ¾Ð²Ð¾Ð¶":10126,"ĠÐ¿ÑĢÐ¾Ð²Ð¸Ð´":10127,"ĠÑĢÐ¾ÑģÐ¾Ð¹":10128,"ĠÑĢÐ¾ÑģÑģÑĭÐ¿":10129,"ĠÐ³ÑĥÐ±Ð¸ÑĤ":10130,"ĠÐ¿ÑĢÐ¾ÐºÐ»Ñı":10131,"ĠÐ´Ð¾ÑģÐ°Ð´":10132,"ĠÐ´Ð¾ÑģÐµÐ»Ðµ":10133,"ĠÐ´Ð¾ÑģÐ°Ð´Ñĭ":10134,"ĠÐ¿ÑĢÐ¸Ð´ÑĥÐ¼":10135,"ĠÐ»Ð°ÑģÐºÐ°":10136,"Ð¢Ð²Ð¾Ðµ":10137,"Ð¢Ð²Ð¾Ð¸Ð¼":10138,"ĠÐ¾ÑĤÐºÑĢÑĭÑĤÐ¾":10139,"ÑĢÐ°ÑĪÐ½Ð¾":10140,"ĠÐ±ÑĭÑģÑĤÑĢÑĭÐµ":10141,"ĠÐ·Ð¸Ð¼Ñĭ":10142,"ĠÐ¿Ð¾Ð¼ÐµÑīÐ¸ÐºÐ¸":10143,"ĠÐºÑĢÐµÑģÑĤÑĭ":10144,"ĠÑģÐ»ÑĥÐ¶Ð¸ÑĤ":10145,"ĠÑĪÐ¸ÑĢÐ¾ÐºÐ¾Ð¹":10146,"ÐļÑĢÐµÑģÑĤÑĮÑıÐ½Ð¸Ð½":10147,"ĠÐºÐ°Ð¼Ð½ÐµÐ¹":10148,"ÐŁÐ»ÑĭÐ²":10149,"ĠÐ³Ð»Ð°Ð²Ðµ":10150,"ĠÐ³Ð»Ð°Ð²Ð¾Ñİ":10151,"Ð²Ð¾Ð´ÑıÑĤ":10152,"ĠÐ¿ÑĢÐ¾ÑĪÐ»Ð¾":10153,"ĠÐ¼ÑĭÑģÐ»ÑĮÑİ":10154,"ĠÑģÑĤÐ°ÑĢÐ¸ÐºÑĥ":10155,"ĠÑģÑĤÐ°ÑĢÐ¸ÐºÐ°Ð¼Ð¸":10156,"Ð¾Ð»Ð²Ð¸Ð²":10157,"ÐĶÐ¾Ð»Ð¸Ð½Ð°":10158,"ÐĵÐ»ÑıÐ´ÐµÐ»":10159,"ĠÑĢÐµÐ±ÑıÑĤÐ°Ð¼Ð¸":10160,"ĠÐ½Ð¸Ð·ÐºÐ¾":10161,"ĠÑĢÑĥÑĩÑĮÑĳ":10162,"ĠÑĢÐ°Ð·ÑĥÐ¼Ñĥ":10163,"ĠÑĢÐ°Ð·ÑĥÐ¼Ð¾Ð¼":10164,"ĠÐ½ÐµÐ¿ÑĢÐµÑĢÑĭÐ²":10165,"ĠÐ´Ð°Ð»Ðµ":10166,"ĠÐ´Ð°Ð»Ñĳ":10167,"Ð°Ð½Ð¸ÑıÐ¼":10168,"ĠÑĩÐµÑĢÑĤÐ¾Ð³":10169,"ĠÐ¿Ð¾ÑħÐ°Ð¶":10170,"Ð»Ð°ÑģÑĮÐµ":10171,"ĠÐ·Ð°Ð³Ð°Ð´":10172,"ÐĴÐ¿ÑĢÐ¾ÑĩÐµÐ¼":10173,"ĠÑĥÑģÐ»Ð°Ð¶Ð´":10174,"ĠÑģÐ¾Ð»Ð´Ð°ÑĤÑĭ":10175,"ĠÑĤÐ¾Ð¿Ð¾ÑĤ":10176,"Ð½Ð¸ÑĨÐ°Ñħ":10177,"ĠÐºÑĢÐ¸ÐºÐ½ÑĥÐ»":10178,"ĠÐ¿Ð»Ð°Ð¼Ñı":10179,"ĠÐ·Ð»Ð¾Ð±Ñĥ":10180,"ĠÐ·Ð»Ð¾Ð±Ð½ÑĭÐ¹":10181,"ĠÐ½ÐµÐ½Ð°ÑģÑĤ":10182,"ĠÐ´ÑĢÐµÐ²Ð¾":10183,"ĠÐ¼Ð»Ð°Ð´Ð¾ÑģÑĤÑĮ":10184,"ĠÐºÐ¾Ð¿ÑĮÑĳ":10185,"ÐĹÐµÐ¼Ð»Ð¸":10186,"ÐĹÐµÐ¼Ð»Ñİ":10187,"ĠÑĢÐ°ÑģÑģÐºÐ°Ð·ÑĭÐ²Ð°ÑĤÑĮ":10188,"ĠÑĢÐ°Ð½Ð½ÐµÐ¹":10189,"ĠÐ½Ð¾Ð¶ÐµÐ½ÑĮÐºÐ¸":10190,"ĠÐ´Ð°Ð²Ð°Ð¹":10191,"ĠÐºÐ¾Ð¼Ð°Ð½Ð´Ð¸ÑĢ":10192,"ĠÐ³Ð¾ÑģÑĤÑı":10193,"ĠÑģÑĤÐµÐ½Ð°Ñħ":10194,"Ð»Ð¸ÐºÐ½ÑĥÐ»":10195,"ĠÐ¿Ð¾Ð·Ð´ÑĢÐ°Ð²":10196,"ĠÐ¿Ð¾Ð·Ð´Ð½Ð¸Ð¹":10197,"ĠÐ¼Ð¸Ð³Ð¾Ð¼":10198,"ĠÐ±Ð»Ð¸Ð·ÐºÐ°":10199,"ĠÑģÑĭÐ½Ð¾Ðº":10200,"ÑĩÐ°ÑĤÑĭÐ¹":10201,"ĠÑĤÐµÐ»Ð¾Ð¼":10202,"ĠÑĤÐµÐ»ÐµÑģ":10203,"ÐŁÐ¾ÑģÑĤÐ°Ð²":10204,"ĠÑĪÑĥÑĤÐºÐ¸":10205,"ĠÐ¿Ð¸ÑĢÑĭ":10206,"ĠÐ²Ð¾Ð»ÑĮÐ½ÑĭÐ¹":10207,"ĠÐ½Ð¾ÑģÑĥ":10208,"ĠÐ½Ð¾ÑģÐ¸ÑĤ":10209,"ĠÐ½ÑĥÐ¶ÐµÐ½":10210,"ĠÐ½ÑĥÐ¶Ð´Ð°":10211,"Ð¢Ð¾ÑĤÑĩÐ°Ñģ":10212,"ÐķÐ´Ð¸Ð½ÑģÑĤÐ²ÐµÐ½":10213,"ÐĽÑİÐ´Ð¸":10214,"ĠÐ¿ÑĢÐ¾Ð¸Ð·Ð²Ð¾Ð»":10215,"ĠÐ´ÑĢÑĥÐ·ÑĮÑıÐ¼Ð¸":10216,"ĠÐ¼ÑĥÐ·Ð°":10217,"ĠÐ¼Ð¾ÑīÐ½ÑĭÑħ":10218,"ĠÑĥÐºÑĢÑĭÐ²":10219,"ĠÐ¾Ð±ÑĢÐ°ÑĤÑıÑģÑĮ":10220,"Ð¯Ð²Ð¸Ð»Ð¸ÑģÑĮ":10221,"ÑĢÐ¾Ð´Ð¾ÑĢ":10222,"ÐŁÑĢÐ¾ÑģÑĤÐ¾":10223,"ĠÐ½ÐµÐ·Ð°Ð¼":10224,"ĠÐ¼ÑĢÐ°ÐºÐ°":10225,"ĠÑģÑĤÑĢÐµÐ»Ð¾Ðº":10226,"ĠÐ»ÑĥÑĩÑĪÐµÐµ":10227,"ĠÑģÑĥÐ¼Ð°Ñģ":10228,"ĠÑĩÐµÑĤÑĥ":10229,"ĠÑģÐ¿Ð°ÑģÐµÐ½ÑĮÐµ":10230,"ĠÐ¼ÐµÑĩÑĤÐ¾Ð¹":10231,"ĠÐ¼ÐµÑĩÑĤÐ°Ð½ÑĮÑı":10232,"ĠÐ²ÐµÑīÐ¸Ð¹":10233,"ĠÐ²ÑĤÐ¾ÑĢÐ³":10234,"ÐĿÐµÐ¼ÐµÑĨ":10235,"ÐĿÐµÐ¼ÐµÐ´Ð»Ñı":10236,"ÐŁÑĢÐ¸ÑĪÐ»Ð¸":10237,"ĠÑĥÐ´Ð°ÑĢÐ¸Ð»":10238,"ĠÑĤÐ¾ÑĢÐ¶ÐµÑģÑĤÐ²Ð¾":10239,"ĠÐ²Ð½Ð¸Ð¼Ð°ÐµÑĤ":10240,"ĠÐ²Ð½Ð¸Ð¼Ð°Ð½ÑĮÐµ":10241,"ĠÑģÐ»ÑĥÑĩÐ°Ð»Ð¾ÑģÑĮ":10242,"ĠÐĿÐ°Ð¸Ð½Ð°":10243,"ĠÐ²ÐµÐ»Ð¸ÑĩÐ°Ð¹":10244,"ĠÐ²Ð»Ð°Ð´ÐµÐ½ÑĮÑı":10245,"ÐĴÐ»Ð°Ð´ÑĭÑĩ":10246,"ĠÑģÑĤÐ°Ð»Ð¾ÑģÑı":10247,"ĠÑģÐ¿ÐµÑĪÐ°":10248,"ĠÑģÐ¾Ð»Ð½ÐµÑĩ":10249,"ĠÐ¾ÑĤÑĩÐµÐ³Ð¾":10250,"ĠÐłÐ°Ð¹ÑģÐºÐ¸Ð¹":10251,"ĠÐ¾ÐºÑĢÑĥÐ¶ÐµÐ½Ð°":10252,"ĠÐ±Ð°ÑĪÐµÐ½":10253,"ÐĴÐ¾Ð»Ð½Ñĥ":10254,"ĠÐĸÐ¸Ð·":10255,"ĠÐ¼ÐµÑĢÑĤÐ²Ð°Ñı":10256,"ÐŁÐ¾ÑģÐ»ÑĭÑĪ":10257,"ÐľÐ¾Ð³ÑĥÑī":10258,"ÐĹÐ°Ð¿Ð»Ð°ÑĤ":10259,"Ð£Ð¿Ð°Ð»Ð°":10260,"ĠÐ¿Ð¾Ð´Ð¾Ð±Ð½ÑĭÐ¹":10261,"ĠÐ³Ð»ÑĥÐ¿ÑĭÐµ":10262,"ĠÐºÑĢÐµÑģÑĤÑĮÑıÐ½Ð¸Ð½Ð¾Ð¼":10263,"ĠÐ²Ð¾ÑĢÐ¾ÑĤÐ¸Ð»ÑģÑı":10264,"ĠÐ±Ð°Ð»Ð¾Ð²":10265,"ĠÐ±Ð°Ð»ÐºÐ¾Ð½":10266,"ĠÐ¿ÑĢÐ¸ÑĩÑĥÐ´":10267,"ĠÑĪÐ°ÑĤÑĢÐ°":10268,"ĠÐŁÐµÑĤÐµÑĢ":10269,"ĠÑĨÐµÐ»ÐºÐ¾Ð²":10270,"ĠÐ¼Ð¾Ð³Ð¸Ð»Ñĥ":10271,"ĠÐ¼Ð¾Ð³Ð¸Ð»Ð¾Ð¹":10272,"ĠÐ¼ÑĥÐ´ÑĢÐ¾ÑģÑĤÐ¸":10273,"Ð¸Ð½ÑģÑĤÐ²ÐµÐ½Ð½Ð¾":10274,"Ð§ÑĥÐ´Ð¾":10275,"ĠÐ²Ð¾Ð»Ð½ÐµÐ½ÑĮÑı":10276,"ĠÐ½ÑĭÐ½ÐµÑĪ":10277,"ĠÐ¿ÑĢÐ°ÑħÐ°":10278,"Ð¡Ð¼ÐµÑĢÑĤÐµÐ»ÑĮ":10279,"ĠÐ½ÐµÐ³Ð¾Ð¹":10280,"Ð¡Ð²ÐµÑĢÐºÐ°":10281,"ÑĢÑĭÐ»Ð°ÑģÑĮ":10282,"ĠÐºÐ¾Ð²ÑĢÐ¾Ð¼":10283,"ĠÑĤÑĢÑĥÐ±Ñĭ":10284,"ĠÐ²Ð·Ð´Ð¾ÑħÐ¾Ð¼":10285,"ĠÐ²ÑģÑĤÐ°ÐµÑĤ":10286,"ĠÐºÑĥÑģÑĤÐ¾Ð²":10287,"ĠÑģÐ²ÐµÐ¶ÐµÐ¹":10288,"ĠÐ²ÑĭÐ´ÑĥÐ¼Ð°Ð»":10289,"ĠÐ¼Ð¾ÑĢÐ¾Ð·Ñĭ":10290,"ĠÑĢÐ°Ð´Ð¾ÑģÑĤÐ½ÑĭÐ¹":10291,"ĠÐ¶ÐµÐ½ÑīÐ¸Ð½Ñĥ":10292,"ĠÐ¿ÑĢÐµÐ»ÐµÑģÑĤÑĮ":10293,"ĠÐ¿ÑĢÐµÐ»ÐµÑģÑĤÐ¸":10294,"ĠÐ¿ÑĢÐµÐ»ÐµÑģÑĤÑĮÑİ":10295,"ĠÐ±ÐµÐ·ÑĥÐ¼Ð½Ð¾":10296,"ĠÑģÑĤÑĢÐ¾Ð³Ð¾Ð¹":10297,"ĠÐ²Ð·Ð³Ð»ÑıÐ½Ð¸":10298,"ĠÐ½ÐµÑĢÐ°Ð·Ð´":10299,"ĠÐ½ÐµÑĢÐ°Ð·ÑĥÐ¼":10300,"ĠÐºÐ¾ÑģÑĤÐµÐ¹":10301,"ĠÑĢÐ°Ð·Ð³Ð¾Ð²Ð¾ÑĢÑĭ":10302,"ĠÑģÐ¼ÐµÑħÑĥ":10303,"Ð»Ð¾Ð¶Ð¸Ð»":10304,"ĠÑħÑĢÐ°Ð½Ð¸ÑĤÐµÐ»ÑĮ":10305,"Ð£Ð·Ð½Ð°ÑĤÑĮ":10306,"Ð£Ð·Ð½Ð°Ð»Ð°":10307,"ĠÐ¸Ð·ÑĥÐ¼Ð»ÐµÐ½ÑĮÐµ":10308,"ĠÑĢÐ°Ð·Ð³Ð°Ð´":10309,"ĠÐºÐ¾Ð½ÑĩÐ¸Ð»Ð¾ÑģÑĮ":10310,"ĠÑĤÐ²ÐµÑĢÐ´ÑĮ":10311,"ĠÑģÐ¾Ð±ÑĢÐ°Ð»ÑģÑı":10312,"ĠÐ¿ÑĢÐ¾Ð·Ð²":10313,"ĠÐ»Ð¾ÑĪÐ°Ð´Ð¸":10314,"ĠÑĤÑĢÐ¾Ð½ÑĥÑĤ":10315,"ĠÑģÐµÑĢÐµÐ±ÑĢÐ¾Ð¼":10316,"Ð¼Ð°ÑĤÑĢ":10317,"ĠÑĤÐµÑģÐ½":10318,"ĠÐ»Ð¾Ð²Ð¸ÑĤ":10319,"ĠÑģÑĤÑĥÐ¿ÐµÐ½Ð¸":10320,"ÐŀÑĤÐ²ÐµÑĤÑģÑĤÐ²Ð¾Ð²Ð°Ð»":10321,"ĠÐ²Ð¾Ð·Ð¼Ð¾Ð³":10322,"ĠÑģÑĤÑĢÐ¾Ð¹Ð½ÑĭÐ¹":10323,"ĠÐ³Ð¾Ð»ÑĥÐ±ÐºÐ°":10324,"ĠÐ¸ÑģÐ¿ÑĥÐ³Ñĥ":10325,"ĠÐ²ÑģÑĤÑĢÐµÑĤÐ¸ÑĪÑĮ":10326,"ĠÑģÐ¾Ð¼Ð½ÐµÐ½ÑĮÐµ":10327,"ĠÐ¼Ð¸Ð½ÑĥÑĤÑĭ":10328,"ĠÑĢÐ¾Ð±ÐºÐ¾":10329,"ĠÐ¿ÑĢÐ¾Ð³Ð½ÐµÐ²":10330,"ĠÐ¿ÑĢÐµÑģÐ¼ÑĭÐºÐ°":10331,"ĠÐ±Ð»ÐµÑģÑĤÑıÑīÐ¸Ð¹":10332,"ĠÑĥÐ¼Ð¸ÑĢÐ°ÐµÑĤ":10333,"ÑĢÐ¾ÐºÐ¸":10334,"ĠÑģÑĤÑĭÐ´Ð¾Ð¼":10335,"ĠÐ¾Ð±Ð¸Ð´Ñĥ":10336,"ĠÐĶÐµÐ¼ÑĥÑĪÐºÑĥ":10337,"ĠÐŁÑĢÐµÑģÑĤÐ¾Ð»Ñĥ":10338,"ĠÐ¸ÑģÐ¿ÑĭÑĤÐ°ÑĤÑĮ":10339,"ĠÐ·Ð°ÑģÐ»ÑĭÑĪ":10340,"ĠÑģÐ¾Ð¿ÑĢÐ¾Ð²Ð¾Ð¶Ð´":10341,"ĠÑģÐ¸ÑıÐ»":10342,"ĠÑģÐ¸ÑıÐ½ÑĮÐµ":10343,"ĠÐ¿ÐµÐ½Ð¾Ð¹":10344,"ĠÐ¼ÐµÑģÑıÑĨÐ°":10345,"ĠÐ¼ÑıÑĤÐµÐ¶Ð½Ð¾Ð¹":10346,"ÐĴÐ¾ÑģÐµÐ¼ÑĮ":10347,"ĠÐ¾Ð±ÑīÑĥÑİ":10348,"ĠÐľÐ¾ÑģÐºÐ²Ðµ":10349,"Ð¡Ð¾Ð²ÐµÑģÑĤÑĮ":10350,"Ð¡Ð¾Ð²ÑģÐµÐ¼":10351,"ĠÑħÐ¸ÑĤÑĢÐ¾ÑģÑĤÐ¸":10352,"ĠÑģÐ¾Ð³Ð»Ð°ÑģÐµÐ½":10353,"ĠÐ·Ð²ÐµÑĢÐ¸":10354,"ĠÑģÐ´ÐµÐ»Ð°Ð»":10355,"ĠÐ¿Ð°ÑħÐ°ÑĢÑĮ":10356,"ÑĩÐµÑģÐºÐ¸Ð¹":10357,"ÐĿÐ¸ÑĩÑĤÐ¾":10358,"Ð¡Ð¸ÑıÐ½ÑĮÐµ":10359,"ÐŀÐºÑĥÑĤ":10360,"ÐĶÐµÑĢÐµÐ²ÑĮÑı":10361,"ĠÐ³ÑĢÑıÐ·Ð¸":10362,"ĠÐ°Ð½Ð³ÐµÐ»ÑĮ":10363,"ĠÐ¾Ð±ÑĬÑıÑĤÐ¸ÑıÑħ":10364,"ĠÑĩÑĥÐ¶Ð´ÑĭÐ¹":10365,"ÐĳÐ¾Ð»ÑĮÑĪ":10366,"ĠÑģÐ¿ÑĢÐ°Ð²ÐµÐ´":10367,"ĠÐ¿ÑĥÑģÑĤÑĭÐ½Ð½ÑĭÐ¹":10368,"ĠÐ¿ÑĥÑģÑĤÑĭÐ½Ð½ÑĭÑħ":10369,"ĠÐ£Ð¶ÐµÐ»Ð¸":10370,"ĠÑĤÐ¾Ð²Ð°ÑĢÐ¸ÑīÐµÐ¹":10371,"ĠÐ¿Ð¸ÑģÑĮÐ¼Ð¾":10372,"ĠÐ¼Ð°Ð»ÑĮÑĩÐ¸ÐºÐ°":10373,"Ð¡ÑĩÐ°ÑģÑĤÐ»Ð¸Ð²ÑĭÐ¹":10374,"ÐŁÑĢÐ¸Ð´ÐµÑĤ":10375,"ĠÐ³Ð»ÑĥÐ±Ð¾ÐºÐ¸Ñħ":10376,"ĠÐ¿ÑĢÐ¾ÑģÐ»Ð°Ð²Ð»ÑıÑĤÑĮ":10377,"ĠÐ¿Ð¾Ð´ÑĢÑĥÐ³Ð°":10378,"ĠÐľÐ¾Ð¸":10379,"ĠÐºÐ¾Ð»ÐµÑģÐ½Ð¸ÑĨ":10380,"ĠÐ·Ð°Ð²ÑĤÑĢÐ°Ðº":10381,"ĠÐ¼ÑĩÐ°Ð»ÑģÑı":10382,"ĠÐ³ÐµÑĤÐ¼Ð°Ð½Ð°":10383,"ĠÐµÑģÑĤÐµÑģÑĤÐ²Ð¾":10384,"ĠÐ±ÐµÐ·Ð¼ÐµÑĢÐ½Ð¾Ð¹":10385,"ĠÐ¿ÑĢÐ¸Ð³Ð¾Ð¶":10386,"ĠÐ¿ÑĢÐµÐ´ÐµÐ»Ð°Ñħ":10387,"ĠÐ¸ÑģÐºÑĥÑģÑģÑĤÐ²Ð°":10388,"ĠÐ¼Ð³Ð½Ð¾Ð²ÐµÐ½ÑĮÑı":10389,"ĠÑĤÑĳÐ¼Ð½ÑĭÐ¹":10390,"ĠÐ¿ÑĢÐµÐ·ÑĢÐµÐ²":10391,"ĠÑģÐ²ÐµÐºÑĢÐ¾Ð²ÑĮ":10392,"ĠÐ¿Ð¾Ð»ÐµÑĤÐµÐ»":10393,"ĠÐ¿Ð¾Ð»Ð¾ÑģÐµ":10394,"ĠÐĴÑĢÐ°ÑĤÐ°":10395,"ĠÐ²ÐµÑĢÑħÐ¾Ð²":10396,"Ð¡ÐºÐ¾ÑĢÐµÐ¹":10397,"ĠÐ´Ð¾ÑģÑĤÐ¾Ð¹Ð½ÑĭÐ¹":10398,"ĠÑħÐ»Ð¾Ð¿Ð¾ÑĤ":10399,"Ð¾ÑıÐ½ÑĮÐµ":10400,"ĠÐ²Ð¾Ð¶Ð´ÑĮ":10401,"ĠÑĢÐ¾Ð¼Ð°Ð½":10402,"ĠÐ»Ð¸ÑĢÐ¾Ð¹":10403,"ĠÑĥÐ»Ð¸ÑĨÐµ":10404,"ĠÑģÑĤÑĢÐ¾ÐµÐ¼":10405,"ĠÐ¼Ð¾Ð»ÑĮÐ±Ð¾Ð¹":10406,"ĠÐ³Ð¸Ð¼Ð½":10407,"Ð§Ð¸ÑĤÐ°Ð»":10408,"ĠÑģÑĤÐ°ÑĢÐ¸Ð½ÑĥÑĪÐºÐ°":10409,"ÑĩÐ¸ÑģÐ»Ð¸Ð¼ÑĭÑħ":10410,"Ð¡Ð»ÑĭÑĪÑĥ":10411,"ĠÐ±Ð»Ð°Ð³Ð¾ÑģÐ»Ð¾Ð²Ð¸Ð»":10412,"ĠÐ·Ð°Ð±Ð°Ð²Ñĭ":10413,"ĠÐ·Ð°Ð¼ÐµÑĤÐ¸Ð»":10414,"ĠÐ¿Ð»Ð°Ñħ":10415,"ĠÐ¼Ð°ÑħÐ¾ÑĢ":10416,"ÐĶÐ°Ð²Ð°Ð¹":10417,"ĠÐ¿Ð¾ÑīÐ°Ð´":10418,"ĠÐŀÐ´Ð½Ð°ÐºÐ¾":10419,"ĠÐ¿Ð¾Ð³ÑĥÐ±Ð¸ÑĤ":10420,"ĠÐ¿ÑĢÐ¾ÑģÑĤÑĢÐ°Ð½ÑģÑĤÐ²Ð¾":10421,"ĠÑĥÐ¿Ð¾ÐµÐ½Ð½ÑĭÐ¹":10422,"ĠÐŃÐ´ÐµÐ¼Ð°":10423,"ĠÐ²ÑģÐ¿Ð¾Ð¼Ð½Ð¸Ð»Ð°":10424,"ĠÐĵÑĢÐ¸ÑĪÐ°":10425,"Ð½Ð¾ÐºÑĢÐ¾Ð²":10426,"ĠÑģÐ¸Ð½ÐµÐ³Ð¾":10427,"ĠÐ±Ð°ÑĤÑİÑĪÐºÐ¸":10428,"ĠÑĩÐ¸ÑģÐ»Ð¾":10429,"ĠÑĩÑĳÑĢÐ½ÑĭÑħ":10430,"ÐĹÐ½Ð°Ñİ":10431,"ÐĵÐ»Ð°Ð·Ð°Ð¼Ð¸":10432,"Ð¡Ð¼Ð¾ÑĤÑĢÐ¸ÑĤ":10433,"ĠÐĳÐ¾Ð¶ÑĮÐ¸Ð¼":10434,"ĠÑģÐ°Ð¿Ð¾Ð³":10435,"Ð²Ð¾Ð»ÑĮÑĤÐµ":10436,"Ð¼ÐµÑıÐ»Ð¸ÑģÑı":10437,"ÐĿÐ°ÐºÐ»Ð¾Ð½":10438,"ÐľÐ»Ð°Ð´Ð¾Ð¹":10439,"ĠÐ¸Ð·Ð²ÐµÑģÑĤÐ½Ð¾":10440,"ÐłÑĥÑģÑģÐºÐ¸Ð¹":10441,"Ð¡Ð»ÐµÐ·Ð°Ð¼Ð¸":10442,"ĠÐ½Ð°Ð³ÑĢÐ°Ð´Ð°":10443,"ĠÑģÑĦÐµÑĢÑĭ":10444,"ĠÐ¿Ð¸ÑīÐ¸":10445,"ĠÐºÑĥÐ¼Ð°":10446,"ÐĿÐµÐ±Ð¾ÑģÑĮ":10447,"ĠÐ³Ð°ÑĢÐ¼Ð¾Ð½ÑĮ":10448,"ÐĴÐºÑĢÑĥÐ³":10449,"ĠÑĨÐµÐ»ÑĮÑİ":10450,"ĠÐ·Ð°Ð±Ð²ÐµÐ½ÑĮÐµ":10451,"ĠÐ½Ð°ÑĩÐ¸Ð½Ð°ÐµÑĤ":10452,"ĠÑģÐ¾Ð·ÐµÑĢÑĨÐ°Ð»":10453,"ĠÐ½ÐµÐ»ÑİÐ´":10454,"ĠÑĢÑĥÐ¼ÑıÐ½ÐµÑĨ":10455,"ĠÐ¿ÑĢÐµÐ±ÑĭÐ²Ð°ÑĤÑĮ":10456,"ĠÐ»ÐµÑģÑĤÐ½Ð¸ÑĨÑĥ":10457,"ĠÑĩÐµÑĢÐµÐ´Ð¾Ð¹":10458,"ĠÑĥÑĩÐ°ÑģÑĤÑĮ":10459,"ĠÐ²ÑģÐºÐ¾ÑĩÐ¸Ð»":10460,"ĠÑĪÐµÐ²ÐµÐ»ÑĮ":10461,"ĠÐĴÐ¾Ð»Ð³Ðµ":10462,"ĠÑĥÐ³Ð¾Ð»Ð¾Ðº":10463,"ĠÑģÑĤÐ°Ð½Ð¾Ð²Ð¸ÑĤÑģÑı":10464,"ĠÐ¿ÑĢÐ¸Ð½ÐµÑģÐ»Ð°":10465,"ĠÐ´Ð¾Ð½ÐµÑģ":10466,"ĠÐ´Ð¾Ð½ÑĭÐ½Ðµ":10467,"ĠÐ´Ð¸ÐºÐ¸Ñħ":10468,"ĠÐ¿ÑĢÐ¾Ð¹Ð´Ñı":10469,"ĠÑģÑĤÐµÐ·Ð¸":10470,"ĠÐĴÐ¾Ð¶Ð´ÑĮ":10471,"ĠÐ¤ÐµÐ´Ð¾ÑĤ":10472,"ĠÐ²Ð»Ð°Ð¶Ð½ÑĭÐ¹":10473,"ĠÐ´ÑıÐ´Ñı":10474,"ĠÐ¼ÑĥÐ´ÑĢÐ¾":10475,"ĠÐ¼ÑĥÐ´ÑĢÐµÐ½Ð¾":10476,"ÐŁÑĢÐ¸ÐºÐ°Ð·":10477,"ĠÐ±ÐµÐ·Ð¼Ð¾Ð»Ð²Ð½ÑĭÐ¹":10478,"ĠÐ¾ÑĢÐ´ÐµÐ½":10479,"ĠÑĤÑİÑĢÑĮÐ¼Ðµ":10480,"ĠÐ¡ÐµÑĢÐ°ÑĦÐ¸Ð¼Ð¾Ð²":10481,"ĠÑģÑĩÐµÑģÑĤÑĮ":10482,"ĠÐ¸Ð³ÑĢÐ°ÐµÑĤ":10483,"ÐľÐµÐ´Ð²ÐµÐ´":10484,"ĠÐ¾Ð´Ð¾Ð»ÐµÑĤÑĮ":10485,"ĠÐ¿Ð¾Ð³ÑĢÑĥÐ¶ÐµÐ½":10486,"ĠÐ¿Ð¾ÑģÑĢÐµÐ´Ð¸":10487,"ÐĴÐ·Ð³Ð»ÑıÐ½Ð¸":10488,"ĠÐºÑĢÑĭÐ»ÑĮÑĨÐ°":10489,"ĠÐ²ÐµÑĢÑĤÐ¸ÑĤÑģÑı":10490,"Ð¡ÐµÐ´Ð¾Ð¹":10491,"ÐľÐµÐ»ÑĮÐº":10492,"ĠÐ¢ÑĢÐ¾Ð½Ð°":10493,"ĠÐ½ÐµÐ²ÐµÑģÑĤÐ°":10494,"ĠÐ¡Ð¿Ð°ÑģÐ¸ÑĤÐµÐ»ÑĮ":10495,"ĠÐ²Ð½ÑĥÑĤÑĢÐ¸":10496,"ÐĿÐ°ÑħÐ¾Ð´":10497,"ĠÐ½ÐµÐ¸ÑģÑĩÐµÑĤ":10498,"ÐŀÐºÑĢÑĥÐ¶":10499,"ĠÐ¶ÐµÐ¼ÑĩÑĥÐ¶":10500,"ĠÐ¾Ð±ÑıÐ·Ð°Ð½":10501,"ÐłÐ¾ÑģÐºÐ¾ÑĪ":10502,"ÑĥÑİÑīÐ¸Ð¼":10503,"Ð¡Ð¼ÐµÑİÑĤÑģÑı":10504,"ĠÐ¾Ð±ÑĢÐµÑĩÐµÐ½Ñĭ":10505,"Ð¡Ð²ÐµÐºÑĢÐ¾Ð²ÑĮ":10506,"ĠÐ¿ÑĢÐ¾Ð²Ð¾Ð·Ð³Ð»Ð°Ñģ":10507,"ĠÐ¿Ð¾Ð¼ÐµÑīÐ¸ÑĩÑĮÑı":10508,"ĠÑĢÐ°Ð·Ð±Ð¾Ð¹Ð½Ð¸ÐºÐ¸":10509,"ĠÐ²ÑĩÐµÑĢÐ°ÑĪ":10510,"Ð¢Ð¾ÑģÐºÑĥ":10511,"ÐĳÐµÐ³ÑĥÑĤ":10512,"ĠÐ³ÑĢÐ¸Ð±Ñĭ":10513,"ĠÑĢÐ¾ÑģÐºÐ¾ÑĪÑĮ":10514,"ĠÐ·Ð¼ÐµÐ¹":10515,"ÐµÐ¼Ð½Ð¾Ð³Ñĥ":10516,"ÐĴÑĭÑĪÐ»Ð¸":10517,"ÐļÐ°Ð¶Ð´ÑĭÐ¹":10518,"Ð£ÑĪÐµÐ»":10519,"Ð£ÑģÐ¿ÐµÑħ":10520,"ĠÐ³ÑĢÑıÐ½ÑĥÐ»Ð°":10521,"ĠÑĪÐ¸Ð½ÐµÐ»ÑĮ":10522,"ĠÐĶÐ°ÑĢÑĮÑı":10523,"ĠÐļÐ°ÑĢÐ»":10524,"ĠÐ²ÐµÑĤÑĢÐµÐ½Ð¾Ð¹":10525,"ĠÐ²ÐµÐ´ÑĮÐ¼Ð°":10526,"ÐĴÐ¾Ð·Ð²ÑĭÑĪ":10527,"ĠÐ²Ð·Ð´ÑĢÐ¾Ð³Ð½ÑĥÐ»Ð°":10528,"ÐĿÐ°ÑĩÐ°Ð»ÑĮÐ½Ð¸Ðº":10529,"Ð¨Ð¸ÑĢÐ¾ÐºÐ°Ñı":10530,"ĠÑģÐºÐ°ÑĩÑĥÑĤ":10531,"ĠÐ¼Ð°ÑģÑĤÐµÑĢ":10532,"ĠÐ¶ÐµÑĢÐµÐ±":10533,"ÐŁÑĢÐ¸ÑĤÐ¸Ñħ":10534,"ÐķÑĢÐ¼Ð¸Ð»":10535,"ĠÐŁÑĢÐ°Ð¾ÑĤÐµÑĨ":10536,"ĠÐ±ÑĢÐ¾Ð½ÐµÐ¹":10537,"ÐĺÐ·Ð²ÐµÑģÑĤÐ½Ð¾":10538,"ĠÐ·Ð°Ð²Ð»Ð°Ð´ÐµÑĤÑĮ":10539,"ĠÐ²ÑĭÑĢÐ²Ð°Ð»ÑģÑı":10540,"ĠÐ¿Ð°ÑģÐ¼ÑĥÑĢÐ½ÑĭÐ¹":10541,"ÐĴÑģÑĤÐ°Ð²Ð°Ð¹":10542,"ĠÑĥÐ½Ð¸ÑĩÑĤÐ¾Ð¶":10543,"ÐŁÑĢÐµÑģÐ»ÐµÐ´":10544,"ĠÐĿÐ¸ÑĩÐµÐ³Ð¾":10545,"ĠÐ¼ÑĭÑģÐ»ÑıÑħ":10546,"Ð¥ÑĢÑĥÑģÑĤ":10547,"ĠÐ·Ð°Ð±Ð»ÑĥÐ¶Ð´":10548,"ÐĿÐµÑģÐ¼ÐµÑĤÐ½ÑĭÑħ":10549,"ĠÐ³Ð°ÑģÐ½ÐµÑĤ":10550,"ÐĴÑĢÐ°Ð¶Ð´ÐµÐ±":10551,"ĠÐºÑĢÐ¾ÑħÐ¾ÑĤÐ½ÑĭÐ¹":10552,"ĠÐŁÑĥÑĪÐºÐ¸Ð½":10553,"Ð¡ÑĤÐ¸ÑħÐ¸":10554,"ĠÐľÐ¸ÑĤÑĢÐ¾Ð´Ð¾ÑĢ":10555,"ĠÐ½ÐµÐ¿Ð¾Ð´Ð²Ð¸Ð¶":10556,"ÐŁÐµÑĢÐµÐºÑĢÐµÑģÑĤÐ¸Ð»ÑģÑı":10557,"ĠÐĵÐµÐµÐ½Ð½ÑģÐºÐ¸Ñħ":10558,"ĠÑħÐ»ÑıÐ±Ð¸":10559,"ĠÐ²Ð¾ÑģÐºÐ»Ð¸ÑĨ":10560,"ĠÐ²Ð»ÐµÑĩÑĳÑĤ":10561,"ĠÐ¼Ð¾ÐºÑĢ":10562,"ĠÑĢÐµÑĤÐ¸Ð²ÑĭÐ¹":10563,"ĠÐ³Ð°Ð·ÐµÑĤ":10564,"ÐŁÐ°ÑģÑĤÑĥÑħ":10565,"Ð¢Ð¾ÑĢÐ¶ÐµÑģÑĤÐ²":10566,"ÐĳÐ°ÑİÑĪÐºÐ¸":10567,"ĠÐ²Ð´Ð²Ð¾ÑĳÐ¼":10568,"ĠÐºÐ°ÑĢÐ°ÑĥÐ»":10569,"ĠÐ´Ð²Ð¾Ð¸Ñħ":10570,"Ð£ÐºÑĢÐ°ÑĪ":10571,"ĠÑĪÑĤÑĥÐºÐ°":10572,"ĠÐŁÐ¾ÑĩÐµÐ¼Ñĥ":10573,"ĠÐļÐ°Ð²ÐºÐ°Ð·Ð°":10574,"ĠÐ·Ð°ÑģÐ¿Ð¾ÑĢÐ¸Ð»Ð¸":10575,"ĠÐ½ÐµÑĢÐ°Ð·Ð»ÑĥÑĩ":10576,"ĠÐºÐ¸ÑĢÐ¿Ð¸Ñĩ":10577,"ĠÐ³Ð½ÐµÐ·Ð´Ð°":10578,"ĠÐ¿ÑĢÐ°Ð´ÐµÐ´":10579,"ĠÑģÐºÑĢÐµÐ¶ÐµÑĤ":10580,"ĠÐĲÐ±Ð´Ð¸Ð¸Ð»":10581,"ĠÑģÐ°Ð¼Ð¾Ð±ÑĢÐ°Ð½Ð½Ð°Ñı":10582,"ĠÑħÑĢÐ¸ÑģÑĤÐ¸Ð°Ð½":10583,"ĠÑįÐ¿Ð¸Ð³ÑĢÐ°Ð¼":10584,"ĠÐĵÑĢÐ°Ð½Ð´Ð¸Ñģ":10585,"ÑĦÑĢÐ°Ð½ÑĨÑĥÐ·ÑģÐºÐ¸":10586,"ĠÐ½ÐµÐ²Ð¾Ð·Ð²ÑĢÐ°ÑĤ":10587,"ĠÑĢÑĥÑĩÑĮÑĳÐ²":10588,"?!":10589,"?)":10590,"be":10591,"or":10592,"re":10593,"Ð¬":10594,"Ð¾ÐµÐ´":10595,"Ð¾ÑīÐµ":10596,"ÐµÑĦ":10597,"ÑĤÐ¾Ñģ":10598,"ÑĤÐºÐ¾":10599,"ÑĤÑĢÐ°":10600,"ÑĤÐ¸ÑĪ":10601,"ÑĤÑıÐ½ÑĥÑĤ":10602,"ÑĢÐµÑĩ":10603,"ÑĢÐ¾Ð¿":10604,"ÑĢÐ°Ð»Ð°":10605,"Ð½ÐµÐ¶":10606,"Ð½ÑĮÑı":10607,"Ð½Ð¸ÑĤÐµ":10608,"Ð½Ð°Ð½ÑĮÐµÐ¼":10609,"Ð½ÐµÐ½ÑĮÐºÐ¾":10610,"Ð»ÐµÐ»":10611,"Ð»ÑģÑı":10612,"Ð»ÑĭÐ»":10613,"Ð»ÐµÑĤÑģÑı":10614,"Ð»ÑĳÑĤ":10615,"Ð»Ð¸Ð»Ð°ÑģÑĮ":10616,"Ð»ÑĭÐ»Ð°":10617,"Ð»ÐµÐ¶Ð¸ÑĤ":10618,"Ð»ÑĳÐ½Ð½ÑĭÐµ":10619,"ÑĥÐµÑĤÑģÑı":10620,"ÑĥÑıÐ½":10621,"ÑĥÐºÐ¾Ð¼":10622,"ÑĥÐºÐ°Ñħ":10623,"ÑĭÑģÑĤ":10624,"ÑĭÐºÐ¸":10625,"ÑĭÐ»Ð¸ÑģÑĮ":10626,"ÑĮÐ¸Ñħ":10627,"ÑıÐ»Ð¾":10628,"ÑıÑİÑģÑĮ":10629,"ĠÑģÐ·":10630,"ĠÑģÑĥÐ±":10631,"ĠÑģÐµÑĤÑĮ":10632,"ĠÑģÐ½Ð¸Ð·":10633,"ĠÑģÐ°Ð½ÐºÐ¸":10634,"ĠÑģÐ¾ÑĪÐ»Ð¸ÑģÑĮ":10635,"ĠÐ¿Ñĩ":10636,"ĠÐ¿ÑĥÐ»Ð¸":10637,"ÐºÐ¾ÑģÑĤÑĮ":10638,"ÐºÐ¾Ð±Ñĭ":10639,"ĠÐ²Ð¸Ð½Ñĭ":10640,"ĠÐ²Ð»Ð°Ñģ":10641,"ĠÐ²Ð¾Ð¶Ð¶":10642,"Ð²Ð°Ñı":10643,"Ð´Ð¾ÑĢ":10644,"Ð´Ð°Ð²":10645,"Ð´ÐµÐ½ÑĮ":10646,"ĠÐ½ÑĥÑĤ":10647,"ĠÐ½ÐµÐ·Ð´":10648,"ĠÐ½ÐµÐ»Ð¾Ð²ÐºÐ¾":10649,"Ð¼Ð¾Ðº":10650,"Ð¼ÐµÐ·Ð´":10651,"Ð¼Ð½Ð°Ð´ÑĨÐ°ÑĤÑĮ":10652,"ÑĪÐºÑĥ":10653,"ÑĪÐ¸Ð½Ð°":10654,"ÑĪÐµÐ»Ð¾Ð¼":10655,"ÐµÐ½ÑĭÑħ":10656,"ÐµÐ½Ð°Ð²Ð¸Ð´":10657,"ÑİÑĩ":10658,"ĠÑĤÐ°ÑĢ":10659,"ĠÑĤÐ¾ÑĪ":10660,"ĠÑĤÐµÐ½ÑĮÑİ":10661,"ĠÑĤÐ¾ÑĩÐºÑĥ":10662,"ĠÐ¾ÐºÐ¾Ð²":10663,"ĠÐ¾ÑģÐ»ÑĥÑĪ":10664,"Ð¾Ð¹ÑĤ":10665,"ÐµÑĤÑĭÐ¹":10666,"Ð°Ð»Ð»":10667,"Ð°Ð»ÑĥÐ¹":10668,"Ð¾Ð»Ð¸":10669,"Ð¾Ð»Ð¾Ð»":10670,"Ð¾Ð»Ð¾Ðº":10671,"Ð¾Ð»Ð½Ñı":10672,"Ð¾Ð»ÑĳÑĤ":10673,"Ð¾Ð»Ð´Ñĥ":10674,"Ð¾Ð»Ð¶Ð°Ð»":10675,"ĠÐ´Ð°Ð½":10676,"ĠÐ´Ð½Ð°":10677,"ĠÐ´ÐµÐ±":10678,"ĠÐ´ÐµÑı":10679,"ĠÐ´ÐµÑĤÑĮÐ¼Ð¸":10680,"ĠÐ¸Ð½Ð°Ñı":10681,"ĠÐ¸Ð½ÐµÐ¹":10682,"ĠÐ¸Ð´Ñĥ":10683,"Ð¾Ð²Ð¸Ð´":10684,"Ð¾Ð²Ð°Ð½ÑĮÑı":10685,"Ð¾Ð²Ð°Ð½Ð½ÑĭÐ¹":10686,"Ð¾Ð²ÑĭÐ¼Ð¸":10687,"Ð¾Ð²Ð¸ÑĨÐ°":10688,"ĠÐ±Ð°Ñģ":10689,"ĠÐ±ÑĥÑĪ":10690,"ĠÐ±Ð°Ð½Ðµ":10691,"ĠÐ±ÐµÐ»ÑĮÐµ":10692,"ĠÐ±Ð°Ð»ÑĮÐ·":10693,"ĠÐ±ÑĥÑĤÑĭÐ»":10694,"ĠÐ¼Ð°Ð´":10695,"ĠÐ¼Ð¾Ð´Ñĭ":10696,"ĠÐ¼Ð¾ÑĩÐ¸":10697,"ĠÐ¼Ð°Ð·ÑĥÑĢ":10698,"ÐµÑĢÑĳÐ³":10699,"ĠÐºÐ°Ð»":10700,"ĠÐºÐ¸Ð½":10701,"ĠÐºÐ¸Ð²":10702,"ĠÐºÑĥÑĤ":10703,"ĠÐºÑĥÐ±":10704,"ĠÐºÑĥÑģ":10705,"ĠÐºÑĥÐ²":10706,"ĠÐºÐ½ÑıÐ³Ð¸Ð½Ñı":10707,"Ð¾ÑĢÑĤ":10708,"Ð¾ÑĢÐ¼":10709,"Ð¾ÑĢÐµÐ¹":10710,"Ð¾ÑĢÑĤÑĭ":10711,"Ð¾ÑĢÐ¸Ð²ÑĪÐ¸":10712,"ÐµÐ»Ñĭ":10713,"ÐµÐ»Ð¾Ð¹":10714,"ÐµÐ»Ð°ÐµÑĤ":10715,"Ð¸ÑĤÐ²Ð¾ÑĢ":10716,"Ð¾Ð´Ñı":10717,"Ð¾Ð´ÐµÑı":10718,"Ð¾Ð¼ÐµÑĢ":10719,"Ð¸Ð»Ñı":10720,"Ð¸Ð»ÑĥÑĩ":10721,"ÐĿÐµÐ¶":10722,"ÐĿÐµÑĢÐµÐ´ÐºÐ¾":10723,"ÐĿÐ¸ÑģÐ¿":10724,"ĠÐ·Ð½Ð¾":10725,"ĠÐ·Ð¼ÐµÑı":10726,"ÐµÐ¼Ð½ÑĭÐµ":10727,"ĠÑĢÑı":10728,"ĠÑĢÐ°Ñı":10729,"ĠÑĢÐ²Ð°Ð½":10730,"ĠÑĢÑıÐ±":10731,"ĠÐ³Ð²Ð¾Ð·Ð´":10732,"ĠÐ³Ð¸Ð³Ð°Ð½ÑĤ":10733,"Ð°ÑĤÐµÐ¼":10734,"Ð°ÑĤÐ°ÑĢ":10735,"Ð°ÑĤÐ°Ñı":10736,"Ð°ÑĤÑĭÐ¼":10737,"Ð°ÑĤÐµÐ»Ð¸":10738,"Ð°ÑĤÐµÐ»ÐµÐ¹":10739,"ĠÐ¿ÑĢÐ¾ÑĩÐ½Ð¾":10740,"ĠÐ¿ÑĢÐ¾Ð·Ñı":10741,"ĠÐ¿ÑĢÐ¾Ð¶Ð¸ÑĤÑĮ":10742,"ĠÐ¿ÑĢÑıÑĩ":10743,"ĠÐ¿ÑĢÐµÐ»ÑĮÑī":10744,"ĠÐ¿ÑĢÐµÐ¼ÑĥÐ´ÑĢ":10745,"ÐŁÐ°Ñħ":10746,"ÐŁÑĭÑĪ":10747,"ÐŁÑıÑĤÑĮ":10748,"ÐŁÑĥÑĪÐºÐ¸":10749,"ÐŁÐµÑģÑĤÑĢ":10750,"ÐŁÑĥÐ»Ð¸":10751,"ÐĴÐµÑĤ":10752,"ÐĴÐ¾ÑĢ":10753,"ÐĴÐµÑĢÑĤ":10754,"ÐĴÑģÑĤÑĢ":10755,"ÐĴÐµÑī":10756,"ÐĴÐ¾ÑĢÐ¾Ð½":10757,"ÐĴÐ½ÐµÐ·Ð°Ð¿":10758,"ÐĴÐ¾ÑĪÐµÐ»":10759,"ÐĴÐ±Ð»Ð¸Ð·Ð¸":10760,"ÐĴÐ½Ð¸Ð·Ñĥ":10761,"Ð·Ð¾ÑĢ":10762,"Ð·Ð°Ðº":10763,"Ð·ÐµÐ²":10764,"Ð°ÐºÐ°Ð»":10765,"Ð°ÐºÐµÐ¹":10766,"Ð¾Ð³Ð´Ð°Ð¹":10767,"Ð¡Ð¾Ñİ":10768,"Ð¡Ð²Ð°Ð»":10769,"Ð¡Ð°ÑĪÑĥ":10770,"Ð¡Ð°ÑĪÐµÐ½ÑĮÐºÐ°":10771,"Ð±Ð»Ð¾Ð½":10772,"Ð¿Ð¾Ð¼":10773,"Ð¿ÐµÑĢÐ²":10774,"Ð¾ÑĤÐ¸Ð½":10775,"Ð¾ÑĤÑĢÑı":10776,"Ð³Ð»Ð°":10777,"ĠÐ»ÐµÐ»":10778,"ĠÐ»Ð°ÑĤ":10779,"ĠÐ»Ð¸Ð²":10780,"ĠÐ»ÐµÐ±":10781,"ĠÐ»ÐµÐ½ÑĮ":10782,"ĠÐ»ÐµÐ»Ð¸":10783,"ĠÐ»ÐµÑĩÑĮ":10784,"ĠÐ»Ð¸ÑħÐ¾Ð¹":10785,"ÐµÐ´Ñı":10786,"ÐµÐ´Ð¸Ð½Ðµ":10787,"Ð°Ð²Ñĭ":10788,"Ð°Ð²Ð½Ð°":10789,"Ð°Ð²Ð½Ðµ":10790,"Ð°Ð²Ð¸Ð»Ð¾":10791,"Ð°Ð½ÐµÐ¼":10792,"Ð°ÑĢÐ½Ð¾":10793,"Ð°ÑĢÑĥÐ¶":10794,"Ð°ÑĢÐ°Ñħ":10795,"ĠÐ½ÐµÑħ":10796,"ĠÐ½ÐµÑĥÑĤ":10797,"ĠÐ½ÐµÑĥÐ´Ð°":10798,"ĠÐ½ÐµÑģÐ»Ð¸":10799,"Ð½Ð¸Ñİ":10800,"Ð½Ð¸Ð½Ñĭ":10801,"Ð½Ð¸ÐµÐ¼":10802,"Ð½Ð¸ÐºÐ°Ñħ":10803,"ĠÑĩÐ°Ñħ":10804,"ĠÑĩÐ¸ÑīÐµ":10805,"Ð°Ð´Ð¸Ð¼":10806,"Ð°Ð´ÐµÐ±":10807,"Ð°Ð´Ð½Ð¾Ð¹":10808,"Ð°Ð´ÑĢÐ°ÑĤ":10809,"Ð°Ð´ÑĨÐ°ÑĤÐ¸":10810,"ÐµÑģÐ»":10811,"ÐµÑģÑĭ":10812,"ÐŀÑĢÑĥÐ´":10813,"Ð¸Ð½Ð¾Ðº":10814,"ÐļÐ»Ñİ":10815,"ÐļÐ»ÑĥÐ±":10816,"ĠÑģÑĤÐ°Ñı":10817,"ĠÑģÑĤÑĥÑĩÐ¸ÑĤ":10818,"ĠÐ½Ð°ÐµÐ·Ð´":10819,"ĠÐ½Ð°ÑĥÐºÐ¸":10820,"ĠÐ½Ð°ÑĥÑĩÐ¸Ð»":10821,"ĠÐ½Ð°Ð¸Ð»ÑĥÑĩ":10822,"Ð¢Ñĥ":10823,"Ð¢ÐµÑĢ":10824,"Ð¢Ð°Ð½":10825,"Ð¢ÐµÑģ":10826,"Ð¢ÑĥÐ¼":10827,"Ð¢ÑĥÐ»Ð°":10828,"ÑĥÐ´Ð¸Ð»Ð¸":10829,"Ð¸Ð²Ð°Ð»Ð°":10830,"Ð¸Ð²Ð¾Ðµ":10831,"Ð¸Ð²Ð°Ð»ÑģÑı":10832,"ĠÐ¶Ð°Ð±":10833,"ĠÐ¶Ð´Ñĥ":10834,"Ð½Ð°ÑģÑĤ":10835,"ÐµÐ²Ð¾Ð¼":10836,"ÐµÐ²ÑĭÑħ":10837,"ÐµÐ²ÑĪÐ¸Ñħ":10838,"ÐµÐ²ÑĪÐ¸Ðµ":10839,"ÐµÐ²Ð¾Ð»Ðµ":10840,"Ð¸Ð¼ÐµÐ½":10841,"Ð¸Ð¼Ð¾ÑģÑĤÑĮ":10842,"ÐµÑģÑĤÐ°":10843,"ÐµÑģÑĤÐ¾Ð¹":10844,"ÐµÑģÑĤÐ½ÑĭÐ¹":10845,"ÐĶÐ°Ð¼":10846,"ÐĶÐ¸ÑĤÑı":10847,"Ð»Ð¸Ð¶Ðµ":10848,"ĠÑĥÑĢÐ°Ð³":10849,"ĠÑĥÐ½ÐµÑģ":10850,"Ð¾Ð¶Ð¸Ñħ":10851,"Ð¾Ð¶Ð¸Ðµ":10852,"Ð¾ÑģÑĤÐ½ÑĭÐ¼":10853,"Ð¾ÑĩÐ¸Ð²":10854,"Ð¾ÑĩÐºÐ¾":10855,"Ð¾ÑĩÐ½ÑĭÐ¼":10856,"Ð¾ÑĩÐµÐ½Ð½ÑĭÐ¹":10857,"Ð¾ÑĩÐºÐ¾Ð¼":10858,"ÐµÐ³Ð»Ð°":10859,"ÐµÐ½ÑĮÐºÐ¸Ðµ":10860,"ĠÑıÐºÐ¾Ð±Ñĭ":10861,"ĠÑıÐ±Ð»Ð¾Ð½":10862,"ÑĥÐ³Ð°Ð´":10863,"ÑĥÐ³ÑĢÐ¸Ð²":10864,"ĠÑģÐ²Ð¾Ð´Ð¸ÑĤ":10865,"ĠÑģÐ²ÐµÑĢÐ³":10866,"ĠÐ¾ÑĤÐ·":10867,"ĠÐ¾ÑĤÐ¾ÑģÐ»":10868,"ĠÐ¾ÑĤÐ»ÐµÑĤÐµÐ»":10869,"ĠÐ±ÑĭÑĤÐ¸":10870,"ÐŁÑĢÑĭÐ³":10871,"ÐŁÑĢÐ¾Ð·Ð²":10872,"ÐŁÑĢÐ°Ð¼Ð°ÑĤÐµÑĢÑĮ":10873,"Ð»Ð°Ñħ":10874,"ĠÐºÑĢÐµÑī":10875,"ĠÐºÑĢÑıÐ¶":10876,"ĠÐºÑĢÐ°ÑĪÐµ":10877,"Ð§Ð¸Ð½":10878,"Ð§ÐµÑģÑĤ":10879,"Ð§Ð°ÑģÑĤ":10880,"Ð§ÑĮÑİ":10881,"Ð§ÐµÑĤÐ°":10882,"Ð§ÑĢÐµÐ·":10883,"ÑĥÑĪÐµÑĩÐºÑĥ":10884,"ĠÑģÐ»ÑĥÐ³Ð¸":10885,"ÐµÐºÐ»Ð¸":10886,"ÐµÐºÐ°Ñı":10887,"ÐµÐºÐ°ÐµÑĤ":10888,"Ð°ÑıÐ»Ðµ":10889,"ĠÑħÐ°Ð½Ð°":10890,"ĠÑħÐ¸ÑĤÑĢÐ¾":10891,"Ð»ÑıÐ½ÑĥÐ»":10892,"Ð»ÑıÑİÑīÐ¸Ð¹":10893,"ÐľÐ°ÑĢ":10894,"ÐľÐ°ÑĪ":10895,"ÐľÐµÑģÑģ":10896,"ÐĳÑĢÐ°ÑĤ":10897,"ÐĳÐµÑĢÐµÐ³":10898,"ÐµÐ¶Ð¸ÑīÐµ":10899,"Ð¸ÑĢÐ°Ð½":10900,"Ð¸ÑĢÐ°Ð¹":10901,"Ð¸ÑĢÐ°ÑıÑģÑĮ":10902,"ÐĹÐ°Ñı":10903,"ÐĹÐ¸Ð¼Ð°":10904,"Ð°Ð¶ÐµÑĪÑĮ":10905,"Ð¸Ð´ÑĨÐ°ÑĤÑĮ":10906,"Ð£Ñħ":10907,"Ð£ÑħÐ¾Ð´":10908,"Ð£Ð»Ð¾Ð²":10909,"Ð£ÑģÑĤÑĢÐ¾":10910,"ĠÐ²ÑģÐµÑĩÐ°ÑģÐ½Ð¾":10911,"ÐµÐ¿Ð°":10912,"ĠÐ¾Ð±ÑħÐ¾Ð´":10913,"Ð°Ð¹ÑĢÐ¾Ð½":10914,"Ð¾Ð¿Ð¸Ñģ":10915,"ÑģÑĤÐ²Ð¾ÑĢ":10916,"ÐĵÐ½ÐµÐ²":10917,"ÐĵÐ²Ð°ÑĢ":10918,"ÐµÐ»ÑĮÐµÐ¼":10919,"ÐµÐ»ÑĮÑİÑĪÐºÐ°":10920,"ĠÐ³ÑĢÐ¸Ð²":10921,"ĠÐ³ÑĢÑıÐ´":10922,"ĠÐ¿Ð¾Ð´ÐºÐ¾Ð²":10923,"ĠÐ¿Ð¾Ð´Ð°ÑĤÐ¸":10924,"ĠÐ¿Ð¾Ð´Ð»ÐµÑĨ":10925,"ÑĥÑĩÑĥ":10926,"ÑĥÑĩÐ½ÑĭÐ¹":10927,"ÑĥÑĩÐ°ÑģÑĤ":10928,"ĠÐ¿Ð¾ÑĥÑĩ":10929,"ĠÐ²ÑĭÑģÑĤÑĥÐ¿":10930,"ĠÐ²ÑĭÑĢÐ°Ð·":10931,"Ð´Ð°ÑģÑĤ":10932,"ĠÑĪÐ°Ð»":10933,"ĠÑĪÑĳÐ»":10934,"ĠÑĪÑĤÐ¾ÑĦ":10935,"ĠÐºÐ°ÐºÐ¾Ð¼":10936,"ĠÐºÐ°ÐºÐ¸Ñħ":10937,"ĠÐºÐ°ÐºÐ¾Ñİ":10938,"ĠÐºÐ°ÐºÑĥÑİ":10939,"ĠÐ¡Ð¸Ð½":10940,"ĠÐ¡ÐµÐ²ÐµÑĢ":10941,"ĠÐ¡Ð¸Ð±Ð¸ÑĢ":10942,"ĠÐ¸Ð·Ð½ÐµÐ¼":10943,"ĠÐ¸Ð·Ð²Ð¾Ð·":10944,"ĠÐ¸Ð·Ð²ÐµÐ´":10945,"ĠÐĿÐ°Ñģ":10946,"ĠÐĿÐµÐ³Ð¾":10947,"ĠÐĿÐµÐ¼Ñĥ":10948,"ĠÑģÐºÑĥÐºÐ°":10949,"ÑĥÐ¿Ð°Ð¹":10950,"Ð¾ÑİÑģÑĮ":10951,"ĠÑĢÐ°Ð·Ð´ÐµÑĤ":10952,"ĠÐ¿Ð¾Ð»Ð¿":10953,"ĠÐ¿Ð¾Ð»ÐµÐ·":10954,"ĠÐ¿Ð¾Ð»ÑĥÑĪ":10955,"ĠÐ¿Ð¾Ð»ÐºÑĥ":10956,"ĠÐ¿Ð¾Ð»Ð½ÑĭÐ¼":10957,"ĠÐ¿Ð¾Ð»Ð¾ÑģÐ°":10958,"Ð½ÑıÐ»Ð¸":10959,"Ð½ÑıÐºÐ°":10960,"ÐłÑĥÐ³":10961,"ÐłÑĥÑĩ":10962,"ÐłÑĥÑħ":10963,"ÐłÑĭÐ´":10964,"ÐłÐ¾ÑģÑģ":10965,"ÐłÑĥÐ¼Ñı":10966,"ÐłÐµÐºÐ°":10967,"ÐłÐµÐ¶ÐµÑĤ":10968,"Ð°Ð»Ð°Ñĩ":10969,"ÐļÐ°ÐºÐ¾Ð³Ð¾":10970,"ĠÑĤÑĢÐ¾":10971,"ĠÑĤÑĢÐµÑģ":10972,"ĠÐĴÑģÑı":10973,"ĠÐĴÐ»Ð°ÑģÑĮ":10974,"Ð¸Ð»Ð¸ÑģÑĤ":10975,"ÂłÂł":10976,"Ð¸ÑĩÐºÐ¸":10977,"Ð¸ÑĩÐ°Ð»Ð°":10978,"ĠÐ¢Ð¾":10979,"ĠÐ¢ÑĢÐ¾":10980,"ĠÐ¢Ð°Ð½Ñİ":10981,"Ð¸Ð·Ð½Ð°":10982,"Ð¸Ð·Ð½Ðµ":10983,"ĠÐ·Ð°ÑĩÐ¸Ð½":10984,"ÐĽÐµÐ¶":10985,"ÐĽÐµÐ¶Ð°Ð»":10986,"ÐŀÑĤÑĨÑĭ":10987,"ÐŀÑĤÐ½ÑİÐ´ÑĮ":10988,"ĠÐ³Ð¾ÑĢÐµÐ»":10989,"ĠÐ³Ð¾ÑĢÐ°Ñħ":10990,"ĠÐ³Ð¾ÑĢÑĪÐµ":10991,"ĠÐ³Ð¾ÑĢÐ½Ð¸ÑĨÐµ":10992,"ĠÑģÐ¼ÐµÐ½Ñĥ":10993,"Ð²Ð¾Ð¸Ð²":10994,"Ð²Ð¾Ð¸ÑĤÑĮ":10995,"Ð²Ð¾ÐµÐ¼Ñĥ":10996,"ĠÑģÐ¿ÐµÑģÑĮ":10997,"ĠÑįÐº":10998,"ĠÑįÐ»ÐµÐ³":10999,"ĠÑįÐºÐ¸Ð¿":11000,"ĠÐŁÐµÑĢ":11001,"ĠÐŁÐ¾Ð³":11002,"ĠÐŁÐ¾ÑĤ":11003,"ĠÐŁÐ°Ð½":11004,"ĠÐŁÑĢÐ°Ð²":11005,"ĠÐŁÑĢÐ¸":11006,"ĠÐŁÐµÑĢÐµÐ´":11007,"ĠÐŁÐµÑĢÐ²":11008,"ĠÑĨÐµÐ½":11009,"ĠÑĨÐµÐ½Ñĥ":11010,"ĠÑĨÐµÐ½Ð¾Ð¹":11011,"ĠÑĤÐ°ÐºÐ¾Ð¼":11012,"ĠÑĤÐ°ÐºÐ¾Ñİ":11013,"ĠÐ²Ð·Ð±":11014,"ĠÐ²Ð·ÑĢÑĭÐ²":11015,"ĠÐ²Ð·Ð°Ð¼ÐµÐ½":11016,"ĠÐ¿ÐµÑĢÑģ":11017,"ĠÐ¿ÐµÑĢÐµÑĢ":11018,"ĠÐ¿ÐµÑĢÐµÐ¹":11019,"ĠÐ¿Ð»Ð°Ð½":11020,"ĠÐ¿Ð»Ð°Ð²Ð½Ð¾":11021,"ĠÐ²Ð¾Ð·Ð³Ð»Ð°ÑĪ":11022,"Ð½ÐµÐ¹ÑĪÐ¸Ñħ":11023,"ÑĥÑĢÐ¾Ð¶Ð°Ð¹":11024,"ĠÐ¼Ð¾Ð»ÑĩÐ¸":11025,"ĠÐ¾Ð´ÐµÐ²":11026,"ĠÐ¾Ð´Ð¾Ð±ÑĢ":11027,"ĠÐ¾Ð´ÐµÑĤÐ°":11028,"ĠÐ°Ð²":11029,"ĠÐĳÐ¾ÑıÐ½":11030,"ĠÐĳÐ°Ð¹ÑĢÐ¾Ð½":11031,"ĠÐĲÑĦÐ°Ð½":11032,"ĠÑģÑĤÑĢÐ°Ð¶Ð¸":11033,"ÑĭÐ²Ð°Ñİ":11034,"ÑĭÐ²Ð°Ð»ÑģÑı":11035,"Ð¾ÑģÐ»ÑĥÑĪ":11036,"ĠÐ±Ð»ÐµÑī":11037,"ĠÐŀÐ»":11038,"ĠÐŀÐ²":11039,"ĠÐŀÑħ":11040,"ÑģÐ»ÐµÐ´":11041,"Ð¸ÑıÐ²":11042,"Ð¾ÑĪÐµÐ´":11043,"ÑĭÑĪÐºÐ¸":11044,"ĠÐ±ÑĢÐ°Ð½Ð½ÑĭÐ¹":11045,"ĠÐ±ÑĢÐ°ÑĤÑĮÐµÐ²":11046,"ĠÐ±ÑĢÐµÐ¼ÐµÐ½ÐµÐ¼":11047,"Ð¸ÑģÑĤÐ°":11048,"Ð¸ÑģÑĤÑĭ":11049,"Ð¸ÑģÑĤÑĭÐ¼":11050,"ĠÐĶÑĢÑĥÐ³":11051,"ĠÐĶÐ°Ð²Ð½Ð¾":11052,"ĠÐ»ÑİÐ±Ð¸Ð»Ð¸":11053,"ĠÐ»ÑİÐ±ÑĥÑİ":11054,"ĠÐ»ÑİÐ±Ð¸Ð¼Ð¾Ð¹":11055,"ĠÐ½Ð°Ð´Ðµ":11056,"ĠÐ½Ð°Ð´Ð¼ÐµÐ½":11057,"ĠÐ½Ð°Ð´Ð¾Ð»Ð³Ð¾":11058,"ĠÐĵÐ»ÑıÐ´":11059,"ĠÐĵÐ»ÐµÐ±":11060,"ĠÐĵÐµÑģÐ¿ÐµÑĢ":11061,"Ð¡ÑĤÐ¾Ð¹":11062,"Ð¡ÑĤÐµÐ¿":11063,"Ð¡ÑĤÐ°Ð»Ð°":11064,"Ð¡ÑĤÑĢÐµÐ»":11065,"ĠÐ¿Ð¾ÐºÐ°ÑĢ":11066,"ĠÐ¿Ð¾ÐºÑĥÐ¿":11067,"ĠÑģÐ²Ð¾Ð¸Ð¼Ð¸":11068,"ĠÐľÐ½Ð¾Ð³Ð¾":11069,"ĠÐľÐ°ÑĪÐ°":11070,"ÑĭÐ»ÑģÑı":11071,"ÐŁÐ¾Ð´Ð°Ð²":11072,"ÐŁÐ¾Ð´ÑĤÑıÐ½ÑĥÑĤ":11073,"ĠÐļÐ°ÑĤÑĮ":11074,"ĠÐļÐ°ÑıÐ»Ðµ":11075,"ĠÐ½Ð°ÑĪÐ»Ð°":11076,"ĠÐ½Ð°ÑĪÑĳÐ»":11077,"ÑĢÐ°Ð²Ñĥ":11078,"ÑĢÐ°Ð²Ð¸ÑĤÑĮÑģÑı":11079,"ĠÑģÑĤÐ°ÑĢÐ¾Ð¼Ñĥ":11080,"ĠÑģÑĤÐ°ÑĢÐ°Ð»ÑģÑı":11081,"ĠÐ¿Ð¾ÑĢÐ¾Ð¶":11082,"Ð¢Ð°ÐºÐ¾Ð²":11083,"ĠÐ½Ð°ÑģÐµÐº":11084,"ĠÐ²ÑĢÑĥÑĩÐ¸Ð»":11085,"ÑĥÑīÑĥ":11086,"ÑĥÑīÐµÐ³Ð¾":11087,"ĠÑĢÐ°ÑģÑĨÐ²ÐµÑĤ":11088,"ĠÐ±ÑĥÐ´Ð¸ÑĤ":11089,"ÑĭÑĤÐ°Ñı":11090,"ÐºÑĢÐ°Ñģ":11091,"ĠÐ´Ð¾Ð»Ñĭ":11092,"ĠÐ´Ð¾Ð»Ð¾Ð¹":11093,"ĠÐ´Ð¾Ð»Ð¸Ð½":11094,"ÑĦÐ¾ÑĢ":11095,"ĠÐ²Ð¸Ð´ÐµÐ»Ð¸":11096,"ĠÐ²Ð¸Ð´ÐµÐ½ÑĮÐµ":11097,"ĠÐ²Ð¸Ð´ÐµÐ»Ð°":11098,"ĠÐ¿ÑĢÐµÐ´Ð°Ð²":11099,"ĠÐ¿ÑĢÐµÐ´Ð°Ð½":11100,"ĠÐ¿ÑĢÐµÐ´ÑģÑĤÐ°Ð»":11101,"ĠÐ³Ð¾Ð»Ð¾Ð´Ñĥ":11102,"ĠÐ²ÐµÑĢÐ¾Ð¹":11103,"ĠÐ²ÐµÑĢÐ¸ÑĤ":11104,"ĠÐ²ÐµÑĢÐµÐ²":11105,"ĠÐ²ÐµÑĢÐ½ÑĭÑħ":11106,"ĠÐ²ÐµÑĢÐ½Ð°Ñı":11107,"ĠÐ²ÐµÑĢÐ½ÑĥÑĤÑĮÑģÑı":11108,"ĠÐĹÐ¼Ð¸":11109,"ĠÐĹÐ°ÑĤÐµÐ¼":11110,"Ð¸ÑĤÐµÐ»ÑĮÐ½ÑĥÑİ":11111,"ÐŁÐ¾ÐµÑĤ":11112,"ÐŁÐ¾Ñį":11113,"ÐŁÐ¾ÑĥÑĤÑĢÑĥ":11114,"Ð¥Ð°":11115,"Ð¥Ð¾Ð´Ð¸ÑĤ":11116,"Ð¥Ð»Ð¾Ð¿":11117,"ĠÑģÐ°Ð¼ÑĭÑħ":11118,"ĠÐ²ÑģÐµÑİ":11119,"Ð»Ð¸Ð²ÑĥÑİ":11120,"Ð»Ð¸Ð²Ð¾ÑģÑĤÑĮ":11121,"ÑıÐ´ÑĮ":11122,"ÑıÐ´ÐµÑĤ":11123,"ĠÐºÐ¾Ð½ÑĨÐ¾Ð¼":11124,"ĠÐºÐ¾Ð½ÑĨÐ¾Ð²":11125,"ĠÐ´ÑĢÑĥÐ³Ð¾Ð¼Ñĥ":11126,"ĠÑĢÐ¾Ð´Ð½ÑĭÐ¼":11127,"ĠÑĢÐ¾Ð´Ð¸ÑĤÐµÐ»ÑĮ":11128,"ĠÑĢÐ¾Ð´Ð¸ÑĤÐµÐ»Ñı":11129,"ĠÑĥÐ¼ÑĢÐµÑĤ":11130,"ĠÐ´ÑĥÑĪÐ¸ÑģÑĤÑĭÑħ":11131,"ĠÑģÐµÑĢÐ´ÐµÑĩÐ½Ð¾":11132,"ĠÑģÐµÑĢÐ´Ð¸ÑĤÑĭÐ¹":11133,"ĠÐ½ÐµÐ¼ÐµÐ´Ð»Ñı":11134,"ĠÐ¿Ð¾Ð¼Ð¸Ð»":11135,"ĠÐ¿Ð¾Ð¼Ð½Ð¸":11136,"ĠÐ¿Ð¾Ð¼ÑĩÐ°Ð»ÑģÑı":11137,"ĠÐ¿Ð¾Ð¼Ð½Ð¸ÑĪÑĮ":11138,"ĠÐ¾Ð¿ÑĥÑī":11139,"ĠÐ½Ð¾ÑĩÐ½Ð°Ñı":11140,"ĠÐ½Ð¾ÑĩÐ½Ð¾Ð¼":11141,"Ð¸ÑģÐ¸ÑĤ":11142,"ĠÐ·Ð²ÑĥÐºÐ°":11143,"ĠÐ²Ð¾ÐµÐ¼":11144,"ĠÐ¼Ð¾Ð³Ð¸Ð»Ð°":11145,"ĠÐ¼Ð¾Ð³Ð¸Ð»ÑĮ":11146,"ĠÐ·ÐµÐ¼Ð½ÑĭÑħ":11147,"ĠÑĥÑĤÑĢÑĥ":11148,"ĠÑĥÑĤÑĢÐ¾Ð±":11149,"ÐĸÐµÐ½":11150,"Ð»ÐµÐ½Ð½Ð¾Ð³Ð¾":11151,"ĠÐ¿Ð¾ÑĤÐµÑĪ":11152,"ĠÐ»ÑİÐ´ÑģÐºÐ¸Ð¼":11153,"ĠÐ»ÑİÐ´ÑģÐºÑĥÑİ":11154,"ĠÐ¿Ð¾Ð²Ð¸Ð´":11155,"ĠÐĺÐ²Ð°Ð½":11156,"ĠÐĺÑĤÐ°Ð»Ð¸":11157,"ÑıÑīÐµÐ¼Ñĥ":11158,"ĠÐ·Ð½Ð°Ð¼ÐµÐ½":11159,"ÐļÑĢÑĥÑĤ":11160,"ÑĢÐ°ÑĤÐ°":11161,"ÐŀÐ±Ð¸Ð´":11162,"ÐŀÐ±Ð»Ð¸Ñĩ":11163,"ÐŀÐ±ÑĢÐ¾Ðº":11164,"ÑĩÐ¸ÑĨÐ°":11165,"ĠÐ¼ÑĥÐ¶Ð¸ÐºÐ°":11166,"ĠÐ¼ÑĥÐ¶ÑĩÐ¸Ð½":11167,"Ð¡Ð»ÐµÐ¿":11168,"Ð¡Ð»ÑĭÑħÐ°Ð»":11169,"Ð¡Ð»ÑĭÑħÐ°Ð»Ð¸":11170,"ÑıÐ·Ð½":11171,"ĠÐ±Ð»Ð°Ð³Ð¾Ð¼":11172,"ĠÑĤÐµÐ¼Ð½Ð°":11173,"ĠÑĤÐµÐ¼Ð½ÑĭÑħ":11174,"ÑĬÑıÑģ":11175,"ĠÐ±ÐµÐ´Ð½ÑĥÑİ":11176,"ĠÐ±ÐµÐ´Ð½ÑıÐ¶":11177,"ĠÐ¶Ð¸Ð²Ð¾Ð³Ð¾":11178,"ĠÐ¶Ð¸Ð²ÑĭÐ¼":11179,"ĠÐ±ÐµÑģÐµÐ´Ñĥ":11180,"Ð½Ð¸Ð¼Ð°ÑĤÑĮ":11181,"ĠÐ¿Ð¾ÑģÐ»ÑĥÐ¶":11182,"ĠÐ¿Ð¾ÑģÐ»ÑĭÑĪ":11183,"ĠÑĨÐ°ÑĢÐµÐ¹":11184,"ĠÑĨÐ°ÑĢÐ¸ÑĨÑĥ":11185,"ĠÑģÐ¾Ð±ÑĭÑĤ":11186,"ĠÑģÐ¾Ð±Ð»ÑİÐ´":11187,"ĠÐ·Ð°Ð±Ð¾ÑĤÐ°":11188,"ĠÐ·Ð°Ð±ÑĭÐ²Ð°Ð»":11189,"ĠÑģÐ»Ð°Ð²Ð½ÑĭÑħ":11190,"ĠÐ±Ð¾Ð»ÑĮÑĪÐ¸Ðµ":11191,"ÐŀÐ´ÑĥÑĪÐµÐ²":11192,"ĠÐ§ÐµÐ»Ð¾Ð²ÐµÑĩ":11193,"ĠÐ²Ð¿ÐµÑĩÐ°ÑĤ":11194,"ÑĥÐ»ÑıÑĤÑĮ":11195,"ĠÐ·Ð»ÑĭÑħ":11196,"ĠÐ¼Ð¸Ð»Ð»Ð¸":11197,"ĠÑĥÐ´Ð°Ð»ÑĮ":11198,"ĠÐ½Ð°ÑĢÐ°Ð²Ð½Ðµ":11199,"ĠÐºÐ¾Ð»Ñĩ":11200,"ĠÐºÐ¾Ð»ÑĳÑģ":11201,"ĠÐºÑĢÐ°ÑģÐµ":11202,"ĠÐºÑĢÐ°ÑģÐ¾Ð¹":11203,"ĠÐºÑĢÐ°ÑģÐ¸Ð²":11204,"ĠÐ¿Ð¾Ð³ÑĢ":11205,"ĠÐ¿Ð¾Ð³Ð»Ð°Ð´":11206,"ÐŁÐ¾ÐºÐ¾":11207,"ĠÐ´Ð°ÑĳÑĤ":11208,"ĠÐ±Ð¾Ð³Ð°Ð¼":11209,"ĠÐ»ÐµÑģÐ¾Ð¼":11210,"ĠÐ»ÐµÑģÐ¾Ðº":11211,"ĠÐ»ÐµÑģÐ½ÑĭÑħ":11212,"ĠÐ¿ÐµÑģÐ½Ð¾Ð¿":11213,"ÐĿÐ°Ð´Ð¾Ð»Ð³Ð¾":11214,"ĠÐ¿Ð¾ÑģÐ¼ÐµÐ»":11215,"ĠÐ½ÐµÐ²ÐµÑĢ":11216,"ĠÐ½ÐµÐ²Ð¾Ð»Ðµ":11217,"ĠÐ´ÑĥÐ¼Ð¾Ñİ":11218,"ĠÐ½ÐµÐ´ÑĢÐ°":11219,"ĠÐ½ÐµÐ´Ð°Ð»ÐµÐº":11220,"ĠÐ½ÐµÐ´ÐµÐ»Ñİ":11221,"ĠÐ½ÐµÐ´Ð¾ÑĥÐ¼":11222,"Ð¡Ð¼Ð¾ÑĤÑĢÐ¸":11223,"ĠÐ·Ð°Ð¿ÑĢÐµÑī":11224,"ĠÐ·Ð°ÐºÐ°ÑĤÐ°":11225,"ĠÐ·Ð°Ð²Ð¾Ð´Ð¸ÑĤ":11226,"ĠÑĥÐ³Ð¾Ð´Ð½Ð¾":11227,"ĠÐ¿Ð¾Ð¿Ð¾Ð²":11228,"ĠÐ¿Ð¾Ð¿Ð¾Ð»Ð°Ð¼":11229,"ĠÐ´Ð¾ÑĢÐ¾Ð³Ð¾":11230,"ĠÐ¿ÑĢÐ¾ÑģÑĤÑĥÐ¿":11231,"ĠÐ¿ÑĢÐ¾ÑģÑĤÐ¾ÑĤÑĭ":11232,"ĠÐ¿ÑĢÐ¾ÑģÑĤÑĳÑĢ":11233,"ĠÐ»ÑĮÑİÑĤ":11234,"ĠÐ´ÐµÐ²Ð¸ÑĨ":11235,"ĠÐ´ÐµÐ²Ð¸ÑĨÐ°":11236,"ĠÑĢÐ°Ð´Ð°":11237,"ĠÐ²ÑĭÑģÑĪÐ¸Ð¹":11238,"ĠÐ²ÑĭÑģÐ¾ÑĤÑĥ":11239,"ĠÐ·Ð°Ð¼Ð¾ÑĢ":11240,"ĠÐ·Ð°Ð¼Ð°Ð½":11241,"ĠÐ·Ð°Ð¼Ð°Ñħ":11242,"ĠÑģÐ¾Ð²ÐµÑģÑĤÑĮ":11243,"ĠÐ¿ÑĥÑģÑĤÐ¾":11244,"ĠÐ¿ÑĥÑģÑĤÑĭÑħ":11245,"ĠÐ³Ð¾Ð²Ð¾ÑĢÐ¸":11246,"ĠÐ³Ð¾Ð²Ð¾ÑĢÐ¸Ð»Ð°":11247,"ĠÐ³Ð¾Ð²Ð¾ÑĢÐ¸ÑĪÑĮ":11248,"ÐµÑģÑĤÑĮÐµÐ¼":11249,"ĠÐ³Ð»Ð°Ð·Ñĥ":11250,"Ð²ÑĭÐº":11251,"ĠÑĥÐ¿Ð¾ÑĢ":11252,"ĠÑĥÐ¿Ð¾Ð´Ð¾Ð±":11253,"ĠÐ¿Ð¾ÑģÑĤÑĭÐ»":11254,"ĠÐ¿Ð¾ÑģÑĤÐ¾ÑıÐ½":11255,"ĠÐ¿Ð¾ÑģÑĤÐ¾ÑıÐ»":11256,"ĠÐºÐ¾ÑĢÐ¾Ð±":11257,"ĠÐºÐ¾ÑĢÐ¼Ð¸Ð»":11258,"ĠÐºÐ¾ÑĢÑĭÑĤÐ¾":11259,"ĠÐ½Ð°Ð¿Ð¾":11260,"ĠÐ½Ð°Ð¿ÐµÑĢÐµÐ´":11261,"ĠÐ½Ð°Ð¿Ð¾ÑģÐ»ÐµÐ´":11262,"ĠÐ¿ÑĢÐ¸Ð²Ð»ÐµÑĩÑĮ":11263,"ĠÐ»ÑĥÑĩÐ°Ñħ":11264,"ĠÑĩÐµÑĢÐ½ÑĭÑħ":11265,"ĠÑĩÐµÑĢÐ½ÐµÐµÑĤ":11266,"ĠÑħÐ¾Ð»Ð¾Ð´Ð°":11267,"ĠÐ²Ð¾ÑĤÑĩÐ¸Ð½Ñĭ":11268,"ĠÐ´Ð¾Ð±ÑĢÐ¾Ð¹":11269,"ĠÐ´Ð¾Ð±ÑĢÐ¾Ð¼":11270,"ĠÐ´Ð¾Ð±ÑĢÑĥÑİ":11271,"ĠÐ²Ð·Ð¾ÑĢÐ°":11272,"ĠÐĳÐ¾Ð¶Ð¸Ðµ":11273,"ĠÑģÐ¼ÐµÑĢÑĤÐ½ÑĭÐ¼":11274,"ĠÐ¼ÐµÑĩÐ°":11275,"ĠÐ¼ÐµÑĩÐµÐ¹":11276,"ĠÐ¿Ð¾Ð±Ð¾ÑĢ":11277,"Ð¸ÑīÑĥ":11278,"Ð¸ÑīÐµÐ¼":11279,"Ð¸Ð»ÑĮÐµÐ¼":11280,"ĠÑĤÑĢÑĥÐ´Ðµ":11281,"ĠÑĤÑĢÑĥÐ´Ð°Ð¼":11282,"ĠÑĤÑĢÑĥÐ´Ð½Ð¾Ð¹":11283,"ĠÑĤÑĢÑĥÐ´Ð°Ñħ":11284,"ĠÑĤÑĢÑĥÐ´Ð½ÑĭÐµ":11285,"ĠÑĢÐ°Ð±Ð¾Ñĩ":11286,"ĠÑģÑĤÑĢÐ°Ð½Ð½Ð¾Ðµ":11287,"ĠÑģÐ¾Ð½Ð½ÑĭÐ¹":11288,"ĠÑģÐ¾Ð½Ð½ÑĭÐµ":11289,"ĠÑģÑĤÐ¾ÑıÑĤÑĮ":11290,"ĠÑģÑĤÐ¾Ð¸ÑĪÑĮ":11291,"ĠÑģÑĤÐ¾ÑıÐ»Ð¸":11292,"ĠÑģÑĭÑī":11293,"ĠÐ¿Ð°ÑĢÑĥÐ±":11294,"ĠÐ¿Ð°ÑĢÐ½Ñı":11295,"ÑĥÐ¹ÑģÑı":11296,"ĠÐºÐ¾ÑĤÐ¾ÑĢÐ¾Ð¼Ñĥ":11297,"ĠÑĦÐ¸Ð½":11298,"ĠÑģÐºÐ¾ÑĢÑĩ":11299,"ĠÐ´ÐµÑĢÐµÐ²ÑĮÐµÐ²":11300,"ĠÐ²ÐµÐ´Ð¾Ð¼":11301,"ĠÐ²ÐµÐ´ÑĳÑĤ":11302,"ĠÑĤÐ¾Ð¼Ð¸Ð»":11303,"ĠÑĤÐ¸ÑħÐ°Ñı":11304,"ĠÑĤÐ¸ÑħÐ¾Ðµ":11305,"ÑĩÐµÑİ":11306,"ĠÑĥÐ±ÐµÐ´":11307,"ĠÑĥÐ±ÑĢÐ°Ð½":11308,"ĠÑĥÐ±ÐµÐ¶Ð´":11309,"ĠÑĥÐ±ÑĮÐµÑĤ":11310,"ĠÐ¶ÐµÐ»Ð°Ð½ÑĮÐµ":11311,"ĠÐ¶ÐµÐ»Ð°Ð½Ð½Ð°Ñı":11312,"ĠÐĵÐ¾ÑģÐ¿Ð¾Ð´Ð¾Ð¼":11313,"ĠÐ´Ð²ÑĥÐ¼Ñı":11314,"ĠÐ»ÐµÐ³Ð¾Ðº":11315,"ĠÐ½Ð¾Ð³Ñĥ":11316,"ĠÐ½Ð°ÑĩÐ½ÐµÑĤ":11317,"ĠÐ£Ð¿":11318,"ĠÐ³ÑĢÐ¾Ð·Ð½ÑĭÐµ":11319,"ĠÐ³ÑĢÐ¾Ð·Ð½Ð°Ñı":11320,"ĠÑĪÑĥÐ¼Ð½Ð¾Ð¹":11321,"ĠÑĪÑĥÐ¼Ð½ÑĭÐµ":11322,"ĠÑģÑĤÑĢÐ°ÑĪÐ½Ñĭ":11323,"ĠÑģÑĤÑĢÐ°ÑĪÐ¸ÑĤ":11324,"ĠÐ³Ð»ÑĥÐ±Ð¶Ðµ":11325,"ĠÐ³Ð»ÑĥÐ±Ð¾ÑĩÐ°Ð¹":11326,"ĠÐ¿Ð¾Ð½ÐµÐ¼Ð½Ð¾Ð³Ñĥ":11327,"ĠÐ¿Ð¾Ð½ÐµÐ²Ð¾Ð»Ðµ":11328,"ÐĽÑİÐ±Ð¸ÑĤ":11329,"ÐĽÑİÐ±Ð¸Ð»":11330,"ÐĽÑİÐ±Ð¸Ð¼":11331,"ĠÑĩÑĥÐ´Ð°Ðº":11332,"ĠÑĩÑĥÐ´Ð½ÑĭÐ¹":11333,"ĠÐ¥Ð°ÑĢ":11334,"ĠÐ¥Ð°Ð½Ð°":11335,"ÑĢÐµÐ¼ÐµÐ½Ð½ÑĭÐ¹":11336,"ĠÑīÐµÐ»":11337,"ĠÑīÐµÐ³":11338,"ĠÑīÐ¸Ð¿":11339,"ÑĢÐµÐ½Ð½ÑĭÑħ":11340,"ĠÐ´ÐµÐ»Ð°Ð»":11341,"ĠÐ´ÐµÐ»Ð¸Ð»":11342,"ĠÐ´ÐµÐ»Ð¸ÑĤÑĮ":11343,"ĠÐ±Ð¾ÑıÐ»ÑģÑı":11344,"ÐĴÐ·ÑıÐ»":11345,"ĠÑģÐµÐ¼Ð¸":11346,"ĠÑģÐµÐ¼ÑĮÐµÐ¹":11347,"ĠÐ¿Ð¾Ð·Ð½Ð°Ð²":11348,"ĠÐ¿Ð¾Ð·Ð½Ð°Ð½ÑĮÑı":11349,"ĠÐ¾ÑĩÐµÑĢÐµÐ´":11350,"ÐŁÐ¾Ð»Ð½Ð¾":11351,"Ð¦ÑĭÐ³":11352,"Ð¦Ð°ÑĢÑİ":11353,"ĠÑĨÐ²ÐµÑĤÐµ":11354,"ĠÑĨÐ²ÐµÑĤÐ°Ð¼Ð¸":11355,"ÑĢÑĭÐ»Ð¸ÑģÑĮ":11356,"ĠÐ²ÑģÑıÐºÐ¾Ð¼Ñĥ":11357,"ÐĴÐ¾Ð·Ð»Ðµ":11358,"ÐĴÐ¾Ð·Ð²ÑĭÑģ":11359,"ĠÐ´Ð²Ð¾ÑĢÐ¾Ð²ÑĭÐ¹":11360,"Ð°Ð±ÑĭÐ»Ð¸":11361,"ĠÑĥÑģÑĤÐ¾ÑıÑĤÑĮ":11362,"ĠÐ±Ð¾Ð¹ÐºÐ°Ñı":11363,"Ð¾Ð¼Ð½Ð¸ÑĤÐµ":11364,"ĠÐ²Ð°ÑĪÐµÐ¼Ñĥ":11365,"ĠÐ·Ð°ÑĤÐ¾":11366,"ĠÐ·Ð°ÑĤÐ²Ð¾ÑĢ":11367,"ÐĵÑĢÐµÑĪ":11368,"ÐĵÑĢÑĥÐ´ÑĮ":11369,"ĠÐ³Ð¾ÑĢÐ´Ð¾Ð¹":11370,"ĠÐ³Ð¾ÑĢÐ´ÑĭÐµ":11371,"ĠÐ³Ð¾ÑĢÐ´Ð¾ÑģÑĤÐ¸":11372,"ĠÐ´Ð¸Ð²Ð½Ð¾Ðµ":11373,"ĠÐ¼Ð°Ð»Ð¾Ð¼":11374,"ĠÐ¼Ð°Ð»ÑĭÑħ":11375,"ÐłÐ°ÑģÑģÑĤ":11376,"ÐłÐ°ÑģÑģÐº":11377,"ĠÐ´Ð¾Ð»Ð¶Ð½ÑĭÐ¹":11378,"ĠÐ½ÐµÐ±ÐµÑģÐ½ÑĭÐ¹":11379,"ĠÐ½ÐµÐ±ÐµÑģÐ°Ð¼Ð¸":11380,"ĠÐ¾ÑĢÐµÑħ":11381,"ĠÐµÐ´ÑĥÑĤ":11382,"ĠÐµÐ´Ð¸Ð½ÑģÑĤÐ²ÐµÐ½":11383,"ĠÐµÐ´Ð¸Ð½ÑģÑĤÐ²ÐµÐ½Ð½ÑĭÐ¹":11384,"ĠÑģÐ»ÐµÐ´Ñı":11385,"ĠÐ±ÐµÐ»Ð¾Ð¼":11386,"ĠÐ±ÐµÐ»Ð¾Ð³Ð¾":11387,"ĠÐ±ÐµÐ»ÑĭÐ¹":11388,"ĠÐ±ÐµÐ»ÑĭÐµ":11389,"ĠÐ¾ÑĤÐ²Ð°Ð³":11390,"ĠÐ¼Ð¾Ð»ÑĩÑĥ":11391,"ĠÐ¼Ð¾Ð»ÑĩÐ°Ð»Ð¸":11392,"ĠÐĲÐ½Ð³ÐµÐ»Ð°":11393,"Ð½ÑĥÑĤÑĢÐ¸":11394,"ĠÐ±Ð¾ÑĢÐ¾Ð´Ð¾Ð¹":11395,"ĠÐ·Ð°ÑĢÐ¾Ñģ":11396,"ĠÐ·Ð°ÑĢÐ°Ð·":11397,"ĠÐ·Ð°ÑĢÐµÑİ":11398,"ĠÐ·Ð°ÑĢÐ°Ð½Ðµ":11399,"ĠÐ¼ÐµÑģÑĤÑĥ":11400,"ĠÑģÑĤÐ¾Ð»Ð°":11401,"ĠÑģÑĤÐ¾ÑĢÐ¾Ð½Ð°":11402,"ĠÑģÑĤÐ¾ÑĢÐ¾Ð½Ð¾Ð¹":11403,"ÐľÐ¾Ð»Ð¾Ð´":11404,
[...]
